<pad>	0
<s>	0
</s>	0
<unk>	0
<jj>	0
<jd>	0
<gs>	0
<cc>	0
<kw>	0
▁t	-0
▁a	-1
▁th	-2
▁I	-3
ou	-4
in	-5
it	-6
▁w	-7
▁s	-8
re	-9
▁b	-10
on	-11
at	-12
▁the	-13
▁l	-14
▁d	-15
▁y	-16
he	-17
▁you	-18
▁m	-19
▁to	-20
ing	-21
nd	-22
▁it	-23
▁g	-24
▁c	-25
ve	-26
▁h	-27
is	-28
▁o	-29
le	-30
▁f	-31
an	-32
▁and	-33
ll	-34
ke	-35
▁p	-36
me	-37
er	-38
ow	-39
or	-40
as	-41
ot	-42
▁that	-43
▁be	-44
▁of	-45
ar	-46
▁so	-47
▁n	-48
us	-49
ut	-50
▁e	-51
ay	-52
▁li	-53
id	-54
▁go	-55
▁in	-56
en	-57
▁T	-58
ed	-59
▁ha	-60
▁do	-61
itt	-62
▁he	-63
es	-64
▁like	-65
ittle	-66
▁little	-67
hat	-68
et	-69
▁W	-70
▁on	-71
gh	-72
▁was	-73
out	-74
▁S	-75
▁It	-76
▁is	-77
ld	-78
▁we	-79
ri	-80
▁this	-81
▁don	-82
▁me	-83
▁Y	-84
al	-85
▁k	-86
ink	-87
▁re	-88
▁have	-89
nt	-90
ght	-91
▁but	-92
oo	-93
▁The	-94
▁my	-95
ch	-96
▁think	-97
if	-98
ce	-99
▁st	-100
se	-101
her	-102
om	-103
ry	-104
▁j	-105
ust	-106
▁You	-107
hen	-108
all	-109
th	-110
ant	-111
▁there	-112
▁for	-113
ith	-114
▁So	-115
▁with	-116
▁are	-117
ad	-118
▁an	-119
ly	-120
▁A	-121
ic	-122
▁at	-123
▁ab	-124
st	-125
▁bit	-126
▁kn	-127
▁H	-128
▁wh	-129
▁se	-130
▁just	-131
use	-132
▁know	-133
▁B	-134
▁if	-135
▁not	-136
▁did	-137
▁some	-138
▁u	-139
▁about	-140
ca	-141
od	-142
▁your	-143
ir	-144
▁its	-145
ter	-146
ime	-147
▁when	-148
ra	-149
▁going	-150
▁lot	-151
op	-152
ore	-153
cause	-154
▁sa	-155
▁what	-156
one	-157
im	-158
▁can	-159
thing	-160
ally	-161
▁get	-162
ake	-163
ould	-164
▁time	-165
▁now	-166
ent	-167
ome	-168
ion	-169
▁because	-170
▁want	-171
▁out	-172
▁But	-173
▁good	-174
▁D	-175
ong	-176
▁ri	-177
▁wor	-178
ac	-179
▁sh	-180
▁Im	-181
▁all	-182
ook	-183
▁What	-184
▁eve	-185
▁or	-186
▁as	-187
▁O	-188
▁up	-189
ur	-190
▁al	-191
un	-192
▁That	-193
▁If	-194
ard	-195
▁day	-196
▁eat	-197
▁been	-198
ive	-199
▁r	-200
▁say	-201
▁ne	-202
na	-203
ea	-204
▁dont	-205
▁He	-206
▁any	-207
▁right	-208
▁ch	-209
onna	-210
▁gonna	-211
▁Its	-212
▁too	-213
▁really	-214
▁M	-215
ct	-216
ill	-217
▁they	-218
el	-219
▁see	-220
▁N	-221
▁su	-222
ver	-223
king	-224
▁something	-225
▁one	-226
▁said	-227
▁There	-228
pp	-229
other	-230
▁pe	-231
ople	-232
ain	-233
▁him	-234
▁who	-235
ell	-236
▁look	-237
ge	-238
▁people	-239
▁fr	-240
▁pl	-241
▁ca	-242
▁com	-243
way	-244
ast	-245
ought	-246
ear	-247
ind	-248
ers	-249
▁got	-250
▁Oh	-251
art	-252
▁And	-253
▁mu	-254
▁thing	-255
▁fe	-256
il	-257
▁more	-258
os	-259
our	-260
▁much	-261
end	-262
▁she	-263
ig	-264
fe	-265
am	-266
ul	-267
▁ex	-268
ep	-269
▁C	-270
▁then	-271
▁were	-272
here	-273
ight	-274
uy	-275
ous	-276
▁here	-277
ate	-278
▁doing	-279
▁come	-280
▁take	-281
▁how	-282
▁tal	-283
ie	-284
▁why	-285
rou	-286
▁Wh	-287
ble	-288
▁went	-289
▁ag	-290
and	-291
ro	-292
ack	-293
▁hard	-294
▁co	-295
▁days	-296
▁from	-297
▁them	-298
very	-299
ool	-300
▁even	-301
ther	-302
red	-303
▁G	-304
▁man	-305
ation	-306
▁Is	-307
▁L	-308
▁sp	-309
ort	-310
▁us	-311
ked	-312
▁thought	-313
▁make	-314
▁When	-315
▁her	-316
▁year	-317
ess	-318
ide	-319
▁cl	-320
ang	-321
ist	-322
▁J	-323
oney	-324
▁very	-325
ried	-326
▁had	-327
est	-328
irst	-329
▁mo	-330
ouse	-331
▁other	-332
ater	-333
▁well	-334
ood	-335
day	-336
▁old	-337
▁these	-338
chool	-339
▁didn	-340
▁no	-341
▁again	-342
eah	-343
▁money	-344
▁would	-345
ather	-346
▁should	-347
riend	-348
qu	-349
▁than	-350
▁con	-351
ving	-352
ile	-353
▁E	-354
▁pre	-355
▁lo	-356
▁didnt	-357
▁school	-358
▁tw	-359
▁first	-360
▁house	-361
▁work	-362
▁br	-363
ick	-364
▁stu	-365
▁does	-366
ice	-367
▁only	-368
▁de	-369
▁live	-370
lf	-371
own	-372
▁pers	-373
▁Why	-374
▁How	-375
▁put	-376
▁every	-377
▁back	-378
ace	-379
▁feel	-380
▁af	-381
ree	-382
ck	-383
▁person	-384
mb	-385
▁v	-386
▁buy	-387
▁We	-388
▁Yeah	-389
▁No	-390
▁things	-391
▁his	-392
ng	-393
▁wr	-394
▁long	-395
ment	-396
▁fun	-397
round	-398
▁way	-399
▁kid	-400
▁mean	-401
▁let	-402
▁try	-403
ies	-404
▁over	-405
▁comp	-406
▁anything	-407
▁P	-408
▁int	-409
ure	-410
ting	-411
▁mar	-412
ine	-413
▁cant	-414
▁could	-415
▁friend	-416
▁give	-417
▁by	-418
ity	-419
▁tell	-420
▁Do	-421
▁kind	-422
▁My	-423
▁Th	-424
▁Don	-425
rent	-426
▁bet	-427
ince	-428
▁youre	-429
▁will	-430
ss	-431
▁play	-432
▁two	-433
▁down	-434
▁home	-435
▁around	-436
ap	-437
▁dif	-438
ty	-439
▁Then	-440
ning	-441
ose	-442
▁ke	-443
um	-444
▁won	-445
▁after	-446
ass	-447
▁le	-448
▁big	-449
atch	-450
ild	-451
▁ra	-452
▁K	-453
▁has	-454
▁gr	-455
ount	-456
ol	-457
ob	-458
▁car	-459
ade	-460
▁while	-461
▁mother	-462
rand	-463
get	-464
ase	-465
ame	-466
▁mom	-467
ab	-468
▁need	-469
▁off	-470
led	-471
so	-472
▁pro	-473
▁qu	-474
able	-475
▁told	-476
▁Now	-477
▁came	-478
▁our	-479
fore	-480
ach	-481
ways	-482
▁They	-483
▁exp	-484
▁care	-485
▁dr	-486
▁In	-487
▁bad	-488
ious	-489
▁better	-490
▁She	-491
▁always	-492
▁talking	-493
▁talk	-494
▁bl	-495
▁where	-496
oy	-497
▁Thats	-498
▁happ	-499
ag	-500
▁still	-501
age	-502
▁before	-503
ite	-504
ave	-505
▁years	-506
▁un	-507
▁many	-508
aw	-509
au	-510
▁Yes	-511
▁young	-512
ish	-513
ise	-514
▁di	-515
▁Ive	-516
▁diffe	-517
▁en	-518
▁Well	-519
▁three	-520
▁sm	-521
▁today	-522
▁saying	-523
ens	-524
▁also	-525
▁Let	-526
mber	-527
▁stud	-528
oom	-529
▁theres	-530
▁brother	-531
ually	-532
▁Did	-533
▁te	-534
▁fam	-535
ary	-536
ven	-537
kay	-538
self	-539
hes	-540
ister	-541
▁child	-542
▁keep	-543
▁thats	-544
▁away	-545
▁Ill	-546
▁wear	-547
igh	-548
▁sc	-549
▁kids	-550
dd	-551
▁wrong	-552
▁U	-553
xt	-554
▁el	-555
▁ear	-556
▁pr	-557
▁getting	-558
▁part	-559
ily	-560
ny	-561
▁This	-562
▁used	-563
▁place	-564
▁done	-565
row	-566
▁act	-567
▁since	-568
ma	-569
pt	-570
▁else	-571
gether	-572
▁F	-573
▁watch	-574
▁love	-575
▁together	-576
▁once	-577
hed	-578
▁call	-579
▁married	-580
▁sister	-581
▁trying	-582
ough	-583
ip	-584
▁im	-585
wn	-586
▁heard	-587
▁Be	-588
▁use	-589
▁different	-590
▁life	-591
ost	-592
▁food	-593
ts	-594
aking	-595
▁guy	-596
▁mon	-597
ak	-598
▁father	-599
▁saw	-600
▁later	-601
▁someone	-602
▁ph	-603
time	-604
▁che	-605
ance	-606
▁bre	-607
▁sle	-608
▁job	-609
ress	-610
▁reme	-611
iz	-612
▁Where	-613
▁okay	-614
▁looking	-615
ren	-616
▁ac	-617
▁dis	-618
hing	-619
▁bus	-620
▁pret	-621
▁cal	-622
▁son	-623
ange	-624
▁grand	-625
▁fl	-626
▁alone	-627
aught	-628
▁meet	-629
▁next	-630
▁coming	-631
▁friends	-632
ated	-633
▁month	-634
▁wanted	-635
urn	-636
▁water	-637
▁lea	-638
▁own	-639
ix	-640
▁made	-641
▁same	-642
ci	-643
▁Theres	-644
▁hand	-645
▁rec	-646
▁eating	-647
▁del	-648
▁sor	-649
ft	-650
▁mov	-651
▁last	-652
▁sw	-653
▁sorry	-654
▁doesn	-655
▁cut	-656
▁str	-657
fort	-658
▁thinking	-659
▁bought	-660
▁tr	-661
▁start	-662
▁remember	-663
▁gre	-664
▁col	-665
▁ar	-666
oin	-667
▁rest	-668
les	-669
▁seen	-670
▁cold	-671
▁1	-672
isten	-673
▁supp	-674
ue	-675
▁their	-676
ju	-677
▁sleep	-678
▁into	-679
mp	-680
▁never	-681
▁Because	-682
mor	-683
▁wal	-684
▁new	-685
▁daught	-686
▁dra	-687
▁gir	-688
law	-689
▁end	-690
▁drink	-691
▁bab	-692
▁real	-693
▁dad	-694
ady	-695
▁family	-696
be	-697
▁tra	-698
▁times	-699
te	-700
ff	-701
▁pretty	-702
ult	-703
side	-704
ont	-705
ock	-706
▁few	-707
▁high	-708
▁listen	-709
▁everything	-710
▁am	-711
▁imp	-712
▁ad	-713
▁app	-714
▁count	-715
ason	-716
▁rel	-717
▁ey	-718
vel	-719
▁hur	-720
▁pa	-721
ful	-722
osp	-723
▁each	-724
▁night	-725
nder	-726
▁past	-727
▁Se	-728
▁sure	-729
osed	-730
▁pay	-731
▁bo	-732
ms	-733
ier	-734
▁clot	-735
▁Are	-736
▁win	-737
▁room	-738
▁mid	-739
▁chang	-740
▁daughter	-741
▁without	-742
pe	-743
icious	-744
▁mor	-745
▁per	-746
▁called	-747
▁took	-748
▁game	-749
▁morning	-750
are	-751
▁leave	-752
▁happen	-753
▁late	-754
▁another	-755
▁such	-756
ere	-757
▁working	-758
old	-759
▁pic	-760
▁Even	-761
▁Just	-762
▁eas	-763
act	-764
oss	-765
dle	-766
ory	-767
▁R	-768
▁cont	-769
der	-770
▁asked	-771
▁Hey	-772
▁Kore	-773
▁clothes	-774
▁doesnt	-775
og	-776
▁delicious	-777
ond	-778
▁ask	-779
▁Ch	-780
▁left	-781
lp	-782
ound	-783
▁cle	-784
▁tast	-785
▁mat	-786
▁small	-787
ital	-788
▁under	-789
▁nice	-790
▁nothing	-791
▁middle	-792
ody	-793
▁study	-794
▁yes	-795
▁phone	-796
▁op	-797
ung	-798
mer	-799
▁sur	-800
▁lear	-801
▁those	-802
▁hear	-803
ating	-804
most	-805
▁Je	-806
ne	-807
ner	-808
▁rice	-809
fortable	-810
▁baby	-811
▁gave	-812
▁bu	-813
▁face	-814
▁sk	-815
ek	-816
oon	-817
▁help	-818
▁song	-819
▁side	-820
ket	-821
▁show	-822
▁hair	-823
▁girl	-824
▁almost	-825
und	-826
▁Uh	-827
▁most	-828
▁ro	-829
ospital	-830
onest	-831
dden	-832
▁sick	-833
oup	-834
▁turn	-835
ign	-836
▁supposed	-837
▁front	-838
ird	-839
▁hot	-840
▁anyway	-841
ence	-842
erest	-843
▁change	-844
ait	-845
▁hospital	-846
▁tri	-847
▁interest	-848
▁sec	-849
▁country	-850
alth	-851
where	-852
▁far	-853
▁run	-854
ans	-855
▁living	-856
▁movie	-857
▁sing	-858
sh	-859
▁looks	-860
▁book	-861
▁mind	-862
▁dog	-863
▁tea	-864
▁head	-865
▁world	-866
▁ate	-867
▁best	-868
up	-869
▁personal	-870
▁comes	-871
▁gu	-872
▁fo	-873
▁Mom	-874
▁couldnt	-875
▁pri	-876
ooked	-877
ull	-878
erc	-879
▁sudden	-880
orm	-881
▁Can	-882
ised	-883
▁being	-884
ream	-885
▁winter	-886
▁find	-887
ken	-888
▁stop	-889
▁sn	-890
oint	-891
▁acc	-892
▁expens	-893
▁health	-894
▁break	-895
▁learn	-896
acher	-897
▁Any	-898
▁less	-899
ions	-900
ors	-901
ath	-902
▁sit	-903
▁having	-904
▁compan	-905
▁cour	-906
▁dri	-907
▁exerc	-908
▁eyes	-909
ub	-910
ident	-911
lease	-912
▁changed	-913
ved	-914
▁matter	-915
▁met	-916
▁Since	-917
band	-918
▁teacher	-919
▁dec	-920
▁comple	-921
▁Who	-922
av	-923
▁expensive	-924
▁worried	-925
▁mus	-926
▁sl	-927
ired	-928
ntil	-929
▁older	-930
ank	-931
▁close	-932
▁must	-933
▁enough	-934
▁hour	-935
iss	-936
▁10	-937
▁body	-938
usband	-939
▁wait	-940
▁honest	-941
▁As	-942
▁case	-943
▁children	-944
▁colle	-945
▁hit	-946
▁ever	-947
ense	-948
▁quick	-949
▁husband	-950
▁strong	-951
ire	-952
▁res	-953
▁Anyway	-954
▁open	-955
▁proble	-956
ger	-957
▁Some	-958
▁Jeju	-959
▁able	-960
▁course	-961
gg	-962
ready	-963
▁sell	-964
ew	-965
▁ser	-966
terday	-967
ten	-968
▁already	-969
▁clean	-970
ture	-971
▁week	-972
▁bel	-973
▁At	-974
▁company	-975
▁cook	-976
▁boy	-977
oman	-978
ition	-979
gin	-980
ical	-981
▁parent	-982
▁picture	-983
▁read	-984
elt	-985
uc	-986
▁God	-987
▁says	-988
ert	-989
▁min	-990
▁until	-991
▁four	-992
▁myself	-993
pr	-994
▁sca	-995
▁cra	-996
ope	-997
cl	-998
▁fall	-999
▁ago	-1000
▁easy	-1001
▁yet	-1002
▁felt	-1003
rs	-1004
▁guys	-1005
come	-1006
▁bot	-1007
▁personality	-1008
▁import	-1009
ark	-1010
ular	-1011
land	-1012
▁stuff	-1013
▁great	-1014
▁swe	-1015
▁ele	-1016
▁bro	-1017
times	-1018
▁woman	-1019
▁att	-1020
▁watching	-1021
▁hands	-1022
▁trip	-1023
▁yesterday	-1024
▁Isnt	-1025
▁store	-1026
ife	-1027
ction	-1028
▁funny	-1029
my	-1030
▁stre	-1031
▁pass	-1032
lic	-1033
▁heart	-1034
▁sum	-1035
▁parents	-1036
▁gone	-1037
▁usually	-1038
▁class	-1039
▁actually	-1040
unch	-1041
▁five	-1042
▁taste	-1043
▁stay	-1044
▁important	-1045
iness	-1046
oc	-1047
▁tried	-1048
▁name	-1049
oul	-1050
oke	-1051
mother	-1052
▁pick	-1053
ower	-1054
▁sal	-1055
unt	-1056
ered	-1057
lier	-1058
more	-1059
▁pop	-1060
▁gif	-1061
▁St	-1062
▁meat	-1063
▁war	-1064
rough	-1065
undred	-1066
▁dep	-1067
▁quickly	-1068
ae	-1069
▁second	-1070
▁anymore	-1071
▁stand	-1072
▁walk	-1073
▁rain	-1074
▁worry	-1075
▁comfortable	-1076
▁hundred	-1077
▁isn	-1078
▁bir	-1079
▁earlier	-1080
▁char	-1081
▁haven	-1082
oes	-1083
▁reg	-1084
▁red	-1085
▁making	-1086
▁summer	-1087
ffe	-1088
▁Sh	-1089
▁birth	-1090
▁Youre	-1091
▁short	-1092
aybe	-1093
▁half	-1094
▁through	-1095
▁problem	-1096
▁med	-1097
▁looked	-1098
ountain	-1099
ings	-1100
fic	-1101
▁unc	-1102
▁Af	-1103
▁din	-1104
▁Seoul	-1105
zy	-1106
ding	-1107
▁tre	-1108
▁Have	-1109
▁Your	-1110
ched	-1111
▁die	-1112
morrow	-1113
▁memor	-1114
▁season	-1115
▁tomorrow	-1116
▁spe	-1117
▁"	-1118
▁fight	-1119
▁Dont	-1120
▁hurt	-1121
▁grandmother	-1122
▁spr	-1123
ieve	-1124
▁tired	-1125
aur	-1126
stand	-1127
orn	-1128
▁exercise	-1129
▁age	-1130
▁taking	-1131
ied	-1132
▁sad	-1133
▁ten	-1134
▁scared	-1135
ike	-1136
cial	-1137
▁weight	-1138
aurant	-1139
▁playing	-1140
▁grow	-1141
▁liked	-1142
▁wasnt	-1143
▁lets	-1144
iv	-1145
ok	-1146
ract	-1147
ect	-1148
▁restaurant	-1149
▁soon	-1150
▁Come	-1151
▁shop	-1152
▁dinner	-1153
▁cr	-1154
▁word	-1155
▁After	-1156
▁business	-1157
ash	-1158
▁goes	-1159
als	-1160
▁cool	-1161
▁id	-1162
▁happened	-1163
ize	-1164
▁hell	-1165
▁wearing	-1166
▁everyone	-1167
by	-1168
▁student	-1169
▁surpr	-1170
▁diffic	-1171
▁fin	-1172
▁gl	-1173
ich	-1174
▁ang	-1175
▁yourself	-1176
▁sim	-1177
ud	-1178
ple	-1179
ese	-1180
▁tou	-1181
▁minut	-1182
▁weird	-1183
omen	-1184
▁men	-1185
ible	-1186
▁six	-1187
▁understand	-1188
▁bring	-1189
VI	-1190
▁drama	-1191
ever	-1192
▁move	-1193
▁early	-1194
▁lived	-1195
▁busy	-1196
▁difficult	-1197
▁interested	-1198
▁happy	-1199
artment	-1200
▁diet	-1201
▁outside	-1202
▁CO	-1203
▁ann	-1204
app	-1205
VID	-1206
▁top	-1207
▁COVID	-1208
ience	-1209
ield	-1210
▁couldn	-1211
oor	-1212
▁add	-1213
▁Grand	-1214
▁Look	-1215
ail	-1216
ons	-1217
▁dream	-1218
▁often	-1219
▁somewhere	-1220
▁rid	-1221
▁complete	-1222
▁bas	-1223
we	-1224
▁light	-1225
▁test	-1226
▁raise	-1227
▁gift	-1228
less	-1229
▁plan	-1230
ited	-1231
,0	-1232
aut	-1233
▁cheap	-1234
▁pot	-1235
▁others	-1236
▁gen	-1237
cept	-1238
▁beaut	-1239
▁suddenly	-1240
▁exam	-1241
ee	-1242
▁cry	-1243
▁point	-1244
▁Jap	-1245
▁reason	-1246
▁story	-1247
▁angry	-1248
icken	-1249
▁believe	-1250
ward	-1251
▁mountain	-1252
cer	-1253
▁Yesh	-1254
air	-1255
▁Japan	-1256
▁Korea	-1257
▁started	-1258
▁Island	-1259
▁sweet	-1260
illion	-1261
▁travel	-1262
▁snow	-1263
▁stra	-1264
▁chicken	-1265
ia	-1266
▁spend	-1267
outh	-1268
▁parttime	-1269
▁field	-1270
clock	-1271
▁Go	-1272
uce	-1273
▁youll	-1274
▁price	-1275
set	-1276
its	-1277
▁aren	-1278
▁soup	-1279
▁des	-1280
llow	-1281
uation	-1282
▁wife	-1283
▁isnt	-1284
▁months	-1285
▁hold	-1286
ics	-1287
▁mil	-1288
▁All	-1289
ye	-1290
iet	-1291
▁become	-1292
▁college	-1293
▁worked	-1294
▁lose	-1295
yle	-1296
▁sme	-1297
▁surprised	-1298
joy	-1299
ressed	-1300
ping	-1301
▁fish	-1302
▁anyone	-1303
▁rather	-1304
mend	-1305
▁hum	-1306
▁lunch	-1307
ste	-1308
▁women	-1309
ax	-1310
▁fast	-1311
▁feeling	-1312
ret	-1313
▁free	-1314
▁might	-1315
iew	-1316
▁kept	-1317
▁follow	-1318
ces	-1319
ising	-1320
▁enjoy	-1321
iving	-1322
ific	-1323
uck	-1324
▁wind	-1325
▁wasn	-1326
▁rep	-1327
▁lost	-1328
▁ent	-1329
▁telling	-1330
▁cat	-1331
▁fore	-1332
▁crazy	-1333
father	-1334
▁asking	-1335
▁Dad	-1336
sw	-1337
▁sometimes	-1338
ork	-1339
▁set	-1340
▁likes	-1341
▁completely	-1342
med	-1343
ib	-1344
▁Every	-1345
▁trou	-1346
ommend	-1347
▁trouble	-1348
▁smell	-1349
▁ap	-1350
form	-1351
▁recommend	-1352
ler	-1353
ient	-1354
ric	-1355
▁Korean	-1356
ither	-1357
▁Lets	-1358
▁disapp	-1359
▁grad	-1360
▁Kim	-1361
▁knew	-1362
▁exper	-1363
▁ty	-1364
▁To	-1365
▁pain	-1366
▁movies	-1367
ars	-1368
▁On	-1369
▁music	-1370
zing	-1371
▁million	-1372
▁lau	-1373
▁deal	-1374
▁send	-1375
ord	-1376
▁pres	-1377
erv	-1378
uct	-1379
▁whe	-1380
ween	-1381
▁write	-1382
▁fat	-1383
▁coup	-1384
▁touch	-1385
▁though	-1386
itting	-1387
▁weather	-1388
ized	-1389
inlaw	-1390
chi	-1391
▁sound	-1392
▁grandfather	-1393
▁prep	-1394
▁blood	-1395
▁famous	-1396
▁makes	-1397
▁between	-1398
ates	-1399
▁annoy	-1400
▁emp	-1401
▁road	-1402
cess	-1403
▁style	-1404
▁aut	-1405
▁hours	-1406
▁hope	-1407
▁mas	-1408
▁air	-1409
▁beautif	-1410
▁These	-1411
▁inter	-1412
▁door	-1413
▁miss	-1414
▁land	-1415
▁hob	-1416
▁idea	-1417
▁sold	-1418
▁bag	-1419
ative	-1420
anger	-1421
▁guess	-1422
▁wonder	-1423
▁nu	-1424
▁throw	-1425
▁theyre	-1426
▁hate	-1427
ump	-1428
▁cons	-1429
▁younger	-1430
▁comm	-1431
▁fine	-1432
▁gets	-1433
▁aunt	-1434
▁ve	-1435
▁situation	-1436
ote	-1437
ousand	-1438
ship	-1439
▁pol	-1440
ught	-1441
▁rem	-1442
atur	-1443
▁leg	-1444
ently	-1445
▁warm	-1446
▁either	-1447
▁exc	-1448
▁thousand	-1449
▁Or	-1450
ighb	-1451
ual	-1452
▁cor	-1453
▁fact	-1454
▁cost	-1455
▁talked	-1456
cy	-1457
▁bar	-1458
ations	-1459
▁neighb	-1460
ial	-1461
▁line	-1462
▁running	-1463
▁popular	-1464
uring	-1465
▁-	-1466
▁true	-1467
▁beautiful	-1468
ities	-1469
▁conf	-1470
▁full	-1471
ced	-1472
▁Please	-1473
ins	-1474
oice	-1475
▁sub	-1476
▁upset	-1477
0,0	-1478
▁tend	-1479
▁Al	-1480
ale	-1481
▁prof	-1482
▁medic	-1483
hood	-1484
▁ride	-1485
▁spring	-1486
ering	-1487
avor	-1488
▁mess	-1489
ably	-1490
room	-1491
mas	-1492
▁train	-1493
▁songs	-1494
bb	-1495
▁beh	-1496
▁YouT	-1497
▁grade	-1498
▁games	-1499
▁giving	-1500
aces	-1501
▁minutes	-1502
ffee	-1503
▁TV	-1504
▁meeting	-1505
▁mouth	-1506
ctor	-1507
▁please	-1508
mentary	-1509
▁bur	-1510
▁neighbor	-1511
ying	-1512
arr	-1513
▁ama	-1514
▁caught	-1515
ian	-1516
▁Take	-1517
▁One	-1518
iting	-1519
▁order	-1520
▁coffee	-1521
▁inside	-1522
▁sea	-1523
▁Grandma	-1524
▁def	-1525
▁sun	-1526
▁Isn	-1527
ube	-1528
▁studying	-1529
▁healthy	-1530
▁wont	-1531
▁uh	-1532
ush	-1533
▁answ	-1534
▁ones	-1535
atched	-1536
uri	-1537
ball	-1538
▁straight	-1539
▁walking	-1540
ted	-1541
▁Pe	-1542
▁rece	-1543
ention	-1544
▁Whats	-1545
▁black	-1546
▁Get	-1547
▁lately	-1548
ming	-1549
▁hang	-1550
▁potat	-1551
ram	-1552
acter	-1553
▁both	-1554
spe	-1555
▁using	-1556
br	-1557
▁number	-1558
▁fix	-1559
olog	-1560
▁catch	-1561
▁amazing	-1562
▁color	-1563
▁fire	-1564
ole	-1565
▁ref	-1566
▁couple	-1567
min	-1568
ness	-1569
itary	-1570
cially	-1571
▁build	-1572
▁press	-1573
▁prop	-1574
▁wants	-1575
▁favor	-1576
▁feels	-1577
▁ass	-1578
▁begin	-1579
ys	-1580
▁People	-1581
▁brought	-1582
ling	-1583
▁honestly	-1584
riage	-1585
▁uncom	-1586
▁buying	-1587
▁Maybe	-1588
▁medicine	-1589
▁seems	-1590
ph	-1591
▁sense	-1592
▁sy	-1593
▁fell	-1594
▁emb	-1595
▁vac	-1596
▁dry	-1597
▁played	-1598
ared	-1599
eak	-1600
▁teach	-1601
ones	-1602
▁cert	-1603
▁yeah	-1604
▁bath	-1605
▁which	-1606
▁character	-1607
▁neighborhood	-1608
▁cute	-1609
▁Tell	-1610
▁wake	-1611
ossible	-1612
ments	-1613
▁adv	-1614
▁uncomfortable	-1615
bt	-1616
▁ind	-1617
ided	-1618
▁'	-1619
lish	-1620
▁military	-1621
▁kim	-1622
ines	-1623
▁during	-1624
ves	-1625
▁fit	-1626
rence	-1627
▁havent	-1628
▁YouTube	-1629
▁careful	-1630
inite	-1631
▁elementary	-1632
ped	-1633
▁army	-1634
▁market	-1635
▁dist	-1636
▁whether	-1637
friend	-1638
cle	-1639
rigin	-1640
▁lic	-1641
▁Of	-1642
▁bott	-1643
ona	-1644
ern	-1645
raid	-1646
▁div	-1647
ately	-1648
▁watched	-1649
ants	-1650
▁whole	-1651
je	-1652
cted	-1653
ug	-1654
ries	-1655
▁ins	-1656
▁doll	-1657
▁bow	-1658
▁worth	-1659
▁kimchi	-1660
▁behind	-1661
▁seeing	-1662
man	-1663
▁afraid	-1664
▁hurts	-1665
bs	-1666
▁drinking	-1667
▁Eng	-1668
vest	-1669
aper	-1670
▁human	-1671
specially	-1672
▁listening	-1673
▁Chin	-1674
▁quiet	-1675
▁found	-1676
▁pat	-1677
arrass	-1678
▁ball	-1679
▁date	-1680
▁embarrass	-1681
▁dire	-1682
ationship	-1683
ley	-1684
▁died	-1685
▁drive	-1686
▁pur	-1687
▁relationship	-1688
▁main	-1689
▁fre	-1690
▁dead	-1691
▁shopping	-1692
vers	-1693
▁prod	-1694
▁Thank	-1695
umn	-1696
▁gra	-1697
▁pub	-1698
▁eight	-1699
▁accident	-1700
came	-1701
▁inc	-1702
▁squ	-1703
▁books	-1704
▁team	-1705
▁floor	-1706
iled	-1707
▁cell	-1708
▁feet	-1709
▁slow	-1710
▁hung	-1711
▁tree	-1712
▁save	-1713
▁Not	-1714
▁street	-1715
▁oil	-1716
unk	-1717
▁sent	-1718
icy	-1719
▁art	-1720
▁Should	-1721
▁sol	-1722
eal	-1723
ilar	-1724
▁gener	-1725
▁hobby	-1726
▁shoes	-1727
▁became	-1728
▁beginning	-1729
▁Okay	-1730
▁temp	-1731
▁waiting	-1732
▁cur	-1733
▁office	-1734
▁shouldnt	-1735
ief	-1736
initely	-1737
▁experience	-1738
▁prog	-1739
▁dating	-1740
ults	-1741
▁scary	-1742
▁possible	-1743
▁quest	-1744
▁special	-1745
▁marriage	-1746
▁skin	-1747
ature	-1748
▁meal	-1749
▁stuck	-1750
▁white	-1751
▁words	-1752
▁First	-1753
lfriend	-1754
▁ret	-1755
▁Like	-1756
▁lives	-1757
▁boyfriend	-1758
▁may	-1759
▁similar	-1760
▁nood	-1761
▁broke	-1762
▁among	-1763
▁birthday	-1764
▁feed	-1765
▁annoying	-1766
ivers	-1767
▁ed	-1768
▁learned	-1769
▁recently	-1770
▁ce	-1771
▁girlfriend	-1772
▁type	-1773
▁mask	-1774
."	-1775
▁disc	-1776
▁maybe	-1777
itive	-1778
▁pract	-1779
▁example	-1780
▁places	-1781
▁For	-1782
▁Un	-1783
▁receive	-1784
▁longer	-1785
▁ext	-1786
▁stock	-1787
▁vill	-1788
▁forget	-1789
▁origin	-1790
▁cake	-1791
ility	-1792
▁prob	-1793
▁English	-1794
▁license	-1795
▁low	-1796
par	-1797
▁bread	-1798
▁invest	-1799
▁An	-1800
▁anim	-1801
▁comput	-1802
per	-1803
▁boil	-1804
▁wish	-1805
▁profess	-1806
▁sport	-1807
▁fig	-1808
▁anywhere	-1809
▁difference	-1810
▁pie	-1811
▁wed	-1812
▁sitting	-1813
urious	-1814
▁V	-1815
▁works	-1816
▁girls	-1817
▁department	-1818
▁turned	-1819
▁flow	-1820
▁ord	-1821
▁fa	-1822
▁egg	-1823
▁loc	-1824
▁nerv	-1825
▁nervous	-1826
▁opp	-1827
oot	-1828
▁news	-1829
▁forg	-1830
▁seven	-1831
ational	-1832
▁post	-1833
oh	-1834
▁eye	-1835
▁vis	-1836
ored	-1837
▁babies	-1838
▁wedding	-1839
▁definitely	-1840
▁noodles	-1841
res	-1842
▁Mr	-1843
▁paid	-1844
▁sleeping	-1845
▁wash	-1846
▁chur	-1847
▁takes	-1848
▁stom	-1849
▁check	-1850
▁law	-1851
▁streng	-1852
▁fil	-1853
▁itll	-1854
▁autumn	-1855
▁proper	-1856
▁probably	-1857
▁wouldn	-1858
▁Give	-1859
iron	-1860
▁fut	-1861
stead	-1862
▁self	-1863
▁ter	-1864
▁separ	-1865
▁stomach	-1866
▁Wow	-1867
▁shit	-1868
▁driving	-1869
▁Would	-1870
▁bor	-1871
▁vide	-1872
▁Fr	-1873
irt	-1874
let	-1875
▁pu	-1876
ased	-1877
ically	-1878
avy	-1879
ters	-1880
▁crying	-1881
▁wouldnt	-1882
enty	-1883
▁table	-1884
▁bigger	-1885
▁raised	-1886
▁danger	-1887
▁ready	-1888
irty	-1889
▁hist	-1890
▁strange	-1891
velop	-1892
▁third	-1893
▁happens	-1894
▁box	-1895
▁born	-1896
▁smart	-1897
▁curious	-1898
▁ran	-1899
▁sat	-1900
▁natur	-1901
▁pull	-1902
▁hungry	-1903
▁figure	-1904
▁future	-1905
▁expl	-1906
▁serv	-1907
▁potatoes	-1908
▁lie	-1909
ject	-1910
▁answer	-1911
ker	-1912
ats	-1913
▁laugh	-1914
road	-1915
ster	-1916
▁po	-1917
▁kill	-1918
▁Int	-1919
▁prom	-1920
▁carry	-1921
▁knows	-1922
▁dress	-1923
▁dramas	-1924
mbers	-1925
▁public	-1926
▁vacation	-1927
▁tastes	-1928
head	-1929
▁thre	-1930
cent	-1931
▁mot	-1932
▁eaten	-1933
▁church	-1934
▁paper	-1935
roup	-1936
▁mist	-1937
▁inst	-1938
▁Didnt	-1939
▁evening	-1940
ber	-1941
▁pos	-1942
▁Sometimes	-1943
ru	-1944
iter	-1945
▁draw	-1946
▁swim	-1947
▁Japanese	-1948
▁Put	-1949
▁cars	-1950
▁foreign	-1951
▁kil	-1952
ases	-1953
▁itself	-1954
▁cooking	-1955
▁certific	-1956
gu	-1957
usan	-1958
▁det	-1959
▁contro	-1960
ills	-1961
line	-1962
ior	-1963
▁eld	-1964
▁mix	-1965
▁broken	-1966
▁passed	-1967
fast	-1968
▁Cor	-1969
aster	-1970
▁purp	-1971
▁scen	-1972
▁students	-1973
▁breakfast	-1974
▁cart	-1975
▁product	-1976
oose	-1977
▁sign	-1978
▁group	-1979
▁complex	-1980
▁pictures	-1981
▁gain	-1982
▁clear	-1983
view	-1984
▁whats	-1985
▁bed	-1986
▁weak	-1987
▁twice	-1988
do	-1989
oons	-1990
▁Mother	-1991
▁step	-1992
▁makeup	-1993
▁card	-1994
▁Hes	-1995
▁Park	-1996
▁grown	-1997
ze	-1998
▁heavy	-1999
▁strength	-2000
▁rich	-2001
▁power	-2002
▁lead	-2003
▁favorite	-2004
▁boss	-2005
▁dangerous	-2006
▁mach	-2007
▁view	-2008
▁brothers	-2009
▁env	-2010
▁especially	-2011
ove	-2012
▁Re	-2013
▁bitch	-2014
▁develop	-2015
gan	-2016
ending	-2017
▁val	-2018
▁abroad	-2019
▁pack	-2020
lebr	-2021
ustr	-2022
▁along	-2023
▁Sam	-2024
▁star	-2025
▁calling	-2026
ides	-2027
▁empty	-2028
▁city	-2029
▁share	-2030
▁exact	-2031
ages	-2032
ished	-2033
ional	-2034
▁gradu	-2035
▁Intern	-2036
▁gy	-2037
▁worse	-2038
ator	-2039
▁purpose	-2040
▁surger	-2041
▁mistake	-2042
▁sisters	-2043
▁apartment	-2044
▁dogs	-2045
▁computer	-2046
▁nose	-2047
▁sens	-2048
▁pupp	-2049
▁interesting	-2050
▁beat	-2051
▁elect	-2052
▁least	-2053
▁celebr	-2054
onom	-2055
▁drunk	-2056
▁village	-2057
fl	-2058
▁cafe	-2059
▁Tw	-2060
▁speak	-2061
▁suit	-2062
▁sauce	-2063
oud	-2064
sel	-2065
▁legs	-2066
▁owner	-2067
▁whatever	-2068
che	-2069
▁pepp	-2070
▁dark	-2071
▁veget	-2072
vent	-2073
▁leaving	-2074
▁starting	-2075
▁aw	-2076
▁dollars	-2077
▁surgery	-2078
▁thank	-2079
▁Internet	-2080
fer	-2081
▁bathroom	-2082
pid	-2083
▁honey	-2084
▁arent	-2085
▁keeps	-2086
iqu	-2087
▁resp	-2088
fect	-2089
▁fly	-2090
▁serious	-2091
▁area	-2092
▁decided	-2093
ugg	-2094
ffect	-2095
mon	-2096
▁bri	-2097
▁doctor	-2098
▁embarrassed	-2099
▁rad	-2100
arch	-2101
▁cust	-2102
▁perform	-2103
▁marry	-2104
iversity	-2105
▁daughterlaw	-2106
▁sky	-2107
▁pork	-2108
▁twenty	-2109
▁mine	-2110
▁wondering	-2111
oment	-2112
▁mod	-2113
▁event	-2114
▁leaves	-2115
▁Busan	-2116
▁memories	-2117
▁loved	-2118
ism	-2119
▁stick	-2120
imb	-2121
▁quit	-2122
▁snack	-2123
▁excited	-2124
ues	-2125
▁moment	-2126
▁ru	-2127
pped	-2128
▁putting	-2129
▁ste	-2130
▁glass	-2131
▁trans	-2132
▁Does	-2133
▁attention	-2134
urance	-2135
▁writing	-2136
▁Lee	-2137
▁voice	-2138
▁par	-2139
▁ec	-2140
▁ma	-2141
▁bra	-2142
▁history	-2143
yeong	-2144
▁cond	-2145
cks	-2146
▁sports	-2147
▁thin	-2148
erg	-2149
▁em	-2150
▁aff	-2151
▁gri	-2152
▁wrote	-2153
enter	-2154
▁educ	-2155
ots	-2156
▁chance	-2157
▁hor	-2158
▁delive	-2159
▁With	-2160
▁contact	-2161
▁vegetable	-2162
▁soy	-2163
▁tight	-2164
▁simple	-2165
ined	-2166
▁base	-2167
▁flowers	-2168
ef	-2169
iday	-2170
▁piece	-2171
▁inv	-2172
eke	-2173
roud	-2174
▁lady	-2175
▁acade	-2176
▁party	-2177
▁proud	-2178
▁alive	-2179
▁ob	-2180
▁fru	-2181
▁Everyone	-2182
▁forgot	-2183
ety	-2184
▁waste	-2185
▁regret	-2186
▁youngest	-2187
▁suc	-2188
▁raising	-2189
▁stressed	-2190
▁mountains	-2191
▁bank	-2192
ned	-2193
rod	-2194
body	-2195
▁tax	-2196
▁puppy	-2197
▁Corona	-2198
▁control	-2199
▁amount	-2200
▁clos	-2201
▁harder	-2202
cri	-2203
▁bowl	-2204
▁exactly	-2205
ekend	-2206
▁easier	-2207
▁Also	-2208
▁glad	-2209
▁near	-2210
▁insurance	-2211
▁wall	-2212
▁instead	-2213
▁plant	-2214
▁club	-2215
▁weekend	-2216
▁building	-2217
▁wore	-2218
▁soft	-2219
▁moving	-2220
▁stupid	-2221
▁deep	-2222
▁himself	-2223
▁trust	-2224
used	-2225
▁groom	-2226
▁youve	-2227
▁fresh	-2228
▁stress	-2229
▁present	-2230
▁means	-2231
▁dishes	-2232
▁His	-2233
▁machine	-2234
▁Ame	-2235
▁uncle	-2236
▁question	-2237
▁report	-2238
rist	-2239
▁thick	-2240
▁comfort	-2241
▁seem	-2242
▁cre	-2243
▁Dae	-2244
▁emot	-2245
▁manag	-2246
▁needs	-2247
▁parts	-2248
▁picked	-2249
▁tall	-2250
▁ton	-2251
▁regular	-2252
hy	-2253
▁lying	-2254
ara	-2255
▁appear	-2256
▁paying	-2257
pect	-2258
▁support	-2259
▁hab	-2260
▁gym	-2261
▁video	-2262
em	-2263
▁nur	-2264
▁soc	-2265
len	-2266
ency	-2267
▁cover	-2268
▁While	-2269
▁moved	-2270
▁taken	-2271
▁econom	-2272
▁standing	-2273
▁growing	-2274
▁natural	-2275
▁var	-2276
▁effect	-2277
▁memory	-2278
▁treat	-2279
▁training	-2280
ps	-2281
▁president	-2282
arge	-2283
▁singing	-2284
▁Christ	-2285
▁oclock	-2286
▁stopped	-2287
▁prepare	-2288
▁fighting	-2289
▁teachers	-2290
pa	-2291
▁ice	-2292
▁cult	-2293
▁joke	-2294
▁apply	-2295
▁finish	-2296
▁secret	-2297
▁er	-2298
ories	-2299
▁grew	-2300
▁introd	-2301
aring	-2302
▁rent	-2303
ealous	-2304
▁acting	-2305
▁jealous	-2306
▁choose	-2307
▁divor	-2308
ode	-2309
angu	-2310
▁reading	-2311
▁cup	-2312
▁tour	-2313
▁common	-2314
▁dig	-2315
▁center	-2316
▁frustr	-2317
▁Act	-2318
▁prin	-2319
▁forth	-2320
▁selling	-2321
▁tur	-2322
▁green	-2323
▁har	-2324
▁calm	-2325
▁phys	-2326
▁choice	-2327
tern	-2328
▁luck	-2329
▁adult	-2330
chn	-2331
▁lower	-2332
▁active	-2333
▁spicy	-2334
▁conven	-2335
▁minute	-2336
ches	-2337
ording	-2338
▁pen	-2339
▁certificate	-2340
ees	-2341
▁av	-2342
den	-2343
ution	-2344
▁seat	-2345
▁slept	-2346
▁given	-2347
▁thinks	-2348
▁soccer	-2349
▁tot	-2350
▁holding	-2351
ili	-2352
ape	-2353
▁gar	-2354
▁eggs	-2355
▁disappoint	-2356
▁bell	-2357
▁town	-2358
▁brand	-2359
▁adults	-2360
▁syste	-2361
mosp	-2362
▁inform	-2363
▁jobs	-2364
▁atmosp	-2365
▁motherlaw	-2366
ique	-2367
▁foot	-2368
▁neck	-2369
▁thoughts	-2370
ute	-2371
idge	-2372
alk	-2373
ulous	-2374
▁norm	-2375
▁pig	-2376
▁burn	-2377
▁tic	-2378
▁cases	-2379
▁level	-2380
▁program	-2381
▁atmosphere	-2382
▁vegetables	-2383
▁Inst	-2384
▁drop	-2385
▁webt	-2386
▁quite	-2387
sy	-2388
▁ground	-2389
▁custome	-2390
▁z	-2391
▁single	-2392
port	-2393
ology	-2394
selves	-2395
▁Chinese	-2396
▁tonight	-2397
loy	-2398
▁ign	-2399
▁langu	-2400
io	-2401
▁Once	-2402
▁forward	-2403
▁dise	-2404
▁roll	-2405
▁stea	-2406
ude	-2407
▁blue	-2408
▁boat	-2409
work	-2410
▁service	-2411
▁pressure	-2412
▁los	-2413
▁organ	-2414
00	-2415
▁relig	-2416
▁techn	-2417
▁fif	-2418
▁content	-2419
ict	-2420
▁received	-2421
eth	-2422
iculous	-2423
▁pad	-2424
▁accept	-2425
▁mothers	-2426
▁spl	-2427
arrow	-2428
onestly	-2429
▁hurry	-2430
san	-2431
▁percent	-2432
▁system	-2433
▁Honestly	-2434
▁poor	-2435
ged	-2436
read	-2437
▁enjoyed	-2438
▁gold	-2439
▁pants	-2440
ocked	-2441
▁ordered	-2442
oun	-2443
ien	-2444
▁Br	-2445
pl	-2446
▁cow	-2447
▁yell	-2448
▁handsome	-2449
▁size	-2450
▁hotel	-2451
▁police	-2452
▁charge	-2453
▁properly	-2454
▁From	-2455
▁prot	-2456
▁ahead	-2457
▁practice	-2458
▁pow	-2459
vious	-2460
▁salt	-2461
▁allow	-2462
▁theater	-2463
▁perfect	-2464
▁Rather	-2465
▁contin	-2466
▁cooked	-2467
▁respons	-2468
▁expect	-2469
▁Actually	-2470
itten	-2471
▁relax	-2472
▁bother	-2473
▁raining	-2474
▁walked	-2475
▁foc	-2476
▁fan	-2477
▁greed	-2478
▁offic	-2479
itc	-2480
▁Ye	-2481
▁scre	-2482
▁Mar	-2483
▁express	-2484
▁learning	-2485
▁ev	-2486
▁large	-2487
▁compet	-2488
▁social	-2489
▁100	-2490
▁academy	-2491
gar	-2492
▁shoot	-2493
▁stone	-2494
▁priv	-2495
▁cream	-2496
▁education	-2497
▁disappointed	-2498
▁studied	-2499
mit	-2500
▁singer	-2501
awn	-2502
▁Was	-2503
▁station	-2504
▁changing	-2505
▁information	-2506
▁blow	-2507
▁Young	-2508
leep	-2509
▁est	-2510
▁hes	-2511
fu	-2512
apt	-2513
▁ring	-2514
kets	-2515
▁slight	-2516
▁temper	-2517
ists	-2518
uced	-2519
▁broad	-2520
▁pepper	-2521
▁language	-2522
▁woke	-2523
ashion	-2524
▁yours	-2525
▁hous	-2526
▁const	-2527
▁sensitive	-2528
rap	-2529
cious	-2530
▁board	-2531
▁explain	-2532
airs	-2533
▁members	-2534
▁manage	-2535
▁state	-2536
▁account	-2537
▁pretend	-2538
ogn	-2539
▁camp	-2540
▁Which	-2541
▁flower	-2542
▁opened	-2543
athe	-2544
ision	-2545
▁Here	-2546
ider	-2547
▁Han	-2548
▁Ims	-2549
▁wide	-2550
▁sons	-2551
▁basket	-2552
wang	-2553
▁dam	-2554
▁ide	-2555
▁sen	-2556
▁join	-2557
▁moms	-2558
▁Ha	-2559
cast	-2560
▁conne	-2561
▁narrow	-2562
▁against	-2563
▁plane	-2564
ha	-2565
ron	-2566
▁cried	-2567
ium	-2568
oid	-2569
▁Itas	-2570
▁riding	-2571
ton	-2572
▁normal	-2573
▁daughters	-2574
uk	-2575
▁visit	-2576
▁attract	-2577
▁environ	-2578
how	-2579
▁lone	-2580
▁China	-2581
▁rock	-2582
▁habit	-2583
▁faster	-2584
▁spent	-2585
▁recogn	-2586
▁dou	-2587
▁salty	-2588
amed	-2589
▁mis	-2590
ances	-2591
▁position	-2592
▁originally	-2593
uss	-2594
▁shot	-2595
mbered	-2596
▁compl	-2597
▁rough	-2598
▁design	-2599
▁patient	-2600
tle	-2601
▁mel	-2602
ears	-2603
▁bean	-2604
▁environment	-2605
▁Aren	-2606
▁dawn	-2607
▁disease	-2608
▁impro	-2609
▁collect	-2610
▁i	-2611
▁turns	-2612
▁bottom	-2613
▁Stop	-2614
▁qual	-2615
▁round	-2616
▁remembered	-2617
ux	-2618
▁Didn	-2619
▁climb	-2620
▁match	-2621
zen	-2622
▁activ	-2623
▁teeth	-2624
ilt	-2625
▁Hy	-2626
▁river	-2627
▁changes	-2628
▁swimming	-2629
▁arm	-2630
▁exercising	-2631
▁ridiculous	-2632
?"	-2633
ison	-2634
▁hol	-2635
▁dirty	-2636
▁roast	-2637
▁bare	-2638
itchen	-2639
▁snacks	-2640
ises	-2641
▁baseball	-2642
▁scene	-2643
ai	-2644
▁sir	-2645
▁boys	-2646
book	-2647
▁guest	-2648
▁holiday	-2649
com	-2650
▁oh	-2651
cles	-2652
eared	-2653
▁kitchen	-2654
ery	-2655
▁death	-2656
▁borrow	-2657
▁powder	-2658
▁shouldn	-2659
▁form	-2660
▁bunch	-2661
▁text	-2662
ointing	-2663
▁hid	-2664
▁phot	-2665
▁spread	-2666
bies	-2667
▁fing	-2668
▁milk	-2669
▁park	-2670
ury	-2671
▁abs	-2672
▁Dong	-2673
▁eldest	-2674
▁sever	-2675
▁hello	-2676
▁cheaper	-2677
▁corner	-2678
nam	-2679
cut	-2680
rel	-2681
▁Ex	-2682
▁Our	-2683
▁raw	-2684
▁incre	-2685
▁goal	-2686
▁Those	-2687
▁threw	-2688
ination	-2689
▁lonely	-2690
▁unique	-2691
ully	-2692
▁compared	-2693
bo	-2694
▁Good	-2695
▁ship	-2696
▁soci	-2697
ibility	-2698
▁Su	-2699
agram	-2700
▁beef	-2701
▁afford	-2702
▁Am	-2703
▁trees	-2704
▁record	-2705
cing	-2706
▁traveling	-2707
▁Che	-2708
▁Eat	-2709
▁known	-2710
▁paste	-2711
▁loud	-2712
▁employ	-2713
▁smells	-2714
oll	-2715
▁private	-2716
▁Two	-2717
▁gifts	-2718
▁asleep	-2719
astic	-2720
▁bright	-2721
bborn	-2722
▁fried	-2723
▁stubborn	-2724
gn	-2725
▁smal	-2726
▁costs	-2727
▁advance	-2728
▁interview	-2729
▁da	-2730
▁hig	-2731
▁except	-2732
▁smoke	-2733
▁letter	-2734
▁iP	-2735
▁Eur	-2736
ground	-2737
▁Sund	-2738
▁dest	-2739
▁cross	-2740
▁horse	-2741
▁window	-2742
coh	-2743
men	-2744
cohol	-2745
istic	-2746
▁Hong	-2747
▁spec	-2748
▁Honey	-2749
▁physical	-2750
▁Instagram	-2751
hew	-2752
oth	-2753
▁By	-2754
▁manager	-2755
sing	-2756
▁New	-2757
▁pray	-2758
▁Europe	-2759
▁hanging	-2760
▁several	-2761
isf	-2762
▁Looking	-2763
▁grandmothers	-2764
▁houses	-2765
▁Someone	-2766
▁pus	-2767
▁animals	-2768
▁hu	-2769
ashed	-2770
unity	-2771
▁alcohol	-2772
▁whenever	-2773
▁Bu	-2774
▁bat	-2775
▁ble	-2776
ffic	-2777
▁drug	-2778
▁dance	-2779
▁losing	-2780
▁basic	-2781
▁beach	-2782
rage	-2783
▁nine	-2784
▁gather	-2785
tic	-2786
▁Gang	-2787
▁Sunday	-2788
▁performance	-2789
▁hey	-2790
▁Before	-2791
▁separately	-2792
ging	-2793
▁hall	-2794
ertain	-2795
▁slowly	-2796
ices	-2797
▁appl	-2798
▁return	-2799
ured	-2800
▁arms	-2801
▁problems	-2802
▁yard	-2803
won	-2804
▁scr	-2805
▁avoid	-2806
▁university	-2807
▁disappointing	-2808
▁energ	-2809
▁remind	-2810
▁annoyed	-2811
▁society	-2812
▁la	-2813
ateful	-2814
▁Satur	-2815
▁according	-2816
aka	-2817
▁belly	-2818
ror	-2819
ails	-2820
▁mad	-2821
▁beer	-2822
▁concer	-2823
▁Saturday	-2824
▁original	-2825
▁cop	-2826
▁Make	-2827
▁slightly	-2828
aek	-2829
eds	-2830
▁shape	-2831
▁mood	-2832
▁player	-2833
oints	-2834
▁driver	-2835
▁lux	-2836
▁built	-2837
▁Theyre	-2838
▁salary	-2839
▁dev	-2840
▁fruit	-2841
▁motherinlaw	-2842
▁bottle	-2843
▁easily	-2844
▁stocks	-2845
▁eng	-2846
ified	-2847
▁Were	-2848
▁push	-2849
▁closed	-2850
▁conc	-2851
▁fill	-2852
▁Something	-2853
▁ment	-2854
▁electric	-2855
▁grateful	-2856
▁boiled	-2857
▁falling	-2858
ipe	-2859
▁fuc	-2860
▁professor	-2861
urry	-2862
▁Itin	-2863
▁eats	-2864
▁dying	-2865
▁points	-2866
▁equ	-2867
▁tim	-2868
▁complic	-2869
▁totally	-2870
▁condition	-2871
▁entertain	-2872
iod	-2873
▁pregn	-2874
▁smaller	-2875
▁turning	-2876
▁ur	-2877
idence	-2878
▁cabb	-2879
▁culture	-2880
▁relative	-2881
▁poc	-2882
antage	-2883
▁focus	-2884
▁garlic	-2885
▁online	-2886
▁brotherlaw	-2887
imi	-2888
▁tale	-2889
▁period	-2890
▁finished	-2891
aked	-2892
lled	-2893
ural	-2894
araoke	-2895
▁solve	-2896
orth	-2897
cheon	-2898
▁process	-2899
▁protect	-2900
▁cats	-2901
▁saving	-2902
▁jump	-2903
▁radish	-2904
▁feelings	-2905
mat	-2906
▁dust	-2907
▁ears	-2908
▁laund	-2909
▁decide	-2910
▁karaoke	-2911
▁standard	-2912
amp	-2913
▁complicated	-2914
▁blan	-2915
▁saved	-2916
▁sugar	-2917
▁trend	-2918
▁Christmas	-2919
oe	-2920
za	-2921
▁screen	-2922
▁themselves	-2923
eng	-2924
▁gas	-2925
ached	-2926
▁space	-2927
▁pan	-2928
▁pet	-2929
ieved	-2930
▁heat	-2931
ji	-2932
lings	-2933
▁imag	-2934
▁beans	-2935
▁local	-2936
▁vi	-2937
00,0	-2938
iced	-2939
▁closer	-2940
▁prefer	-2941
▁director	-2942
▁bored	-2943
▁stage	-2944
▁energy	-2945
▁various	-2946
▁prepared	-2947
▁countryside	-2948
▁restaurants	-2949
▁Ah	-2950
▁East	-2951
▁cancer	-2952
▁ug	-2953
▁Whe	-2954
▁motor	-2955
▁washing	-2956
▁written	-2957
▁cir	-2958
▁key	-2959
▁chair	-2960
▁drank	-2961
▁polit	-2962
▁fishing	-2963
ral	-2964
▁iron	-2965
▁success	-2966
▁Ne	-2967
ival	-2968
▁nut	-2969
ded	-2970
els	-2971
▁general	-2972
▁vol	-2973
▁mixed	-2974
▁barley	-2975
▁finally	-2976
▁laundry	-2977
▁national	-2978
▁confident	-2979
house	-2980
▁force	-2981
▁aftern	-2982
▁Man	-2983
▁safe	-2984
▁fought	-2985
▁tanger	-2986
▁appoint	-2987
▁broadcast	-2988
hone	-2989
▁Aunt	-2990
▁kick	-2991
▁ways	-2992
▁direct	-2993
▁jud	-2994
▁grill	-2995
▁somehow	-2996
▁afternoon	-2997
Oh	-2998
▁Me	-2999
olved	-3000
▁hole	-3001
▁grades	-3002
▁ple	-3003
▁straw	-3004
▁countries	-3005
▁wet	-3006
▁concert	-3007
iver	-3008
▁Mon	-3009
▁stir	-3010
▁hobbies	-3011
▁lucky	-3012
▁mater	-3013
▁picking	-3014
lo	-3015
▁Other	-3016
▁satisf	-3017
▁stories	-3018
pes	-3019
rica	-3020
▁liter	-3021
▁skills	-3022
▁amb	-3023
ption	-3024
▁fault	-3025
▁gives	-3026
▁personally	-3027
▁Ma	-3028
▁knees	-3029
▁customers	-3030
ives	-3031
rican	-3032
▁ugly	-3033
uth	-3034
like	-3035
▁actor	-3036
▁stret	-3037
▁boring	-3038
▁neg	-3039
▁daily	-3040
▁greedy	-3041
▁meaning	-3042
▁medical	-3043
▁novel	-3044
eed	-3045
▁Net	-3046
▁chew	-3047
▁Three	-3048
▁partic	-3049
for	-3050
fully	-3051
▁unif	-3052
▁meals	-3053
ipp	-3054
▁fac	-3055
▁memorable	-3056
▁maj	-3057
▁neat	-3058
▁meant	-3059
ache	-3060
▁yog	-3061
▁cash	-3062
▁potato	-3063
▁yellow	-3064
▁subject	-3065
▁rele	-3066
▁delivery	-3067
▁sash	-3068
itional	-3069
▁barely	-3070
▁pocket	-3071
itter	-3072
▁cand	-3073
▁knife	-3074
▁fashion	-3075
▁fur	-3076
▁cove	-3077
▁extent	-3078
▁oldest	-3079
▁becomes	-3080
▁pair	-3081
▁oppos	-3082
▁plate	-3083
▁shake	-3084
▁Yeshes	-3085
▁Mountain	-3086
▁listened	-3087
▁Sp	-3088
▁experien	-3089
▁ant	-3090
▁oper	-3091
▁suff	-3092
▁grass	-3093
▁cabbage	-3094
▁preparing	-3095
int	-3096
▁split	-3097
▁sweat	-3098
▁estate	-3099
▁affe	-3100
su	-3101
▁rom	-3102
light	-3103
▁pill	-3104
▁hated	-3105
▁weren	-3106
▁ticket	-3107
▁reality	-3108
amb	-3109
▁reduce	-3110
▁knowing	-3111
▁touched	-3112
▁laughing	-3113
▁convenience	-3114
▁caf	-3115
▁ended	-3116
▁generation	-3117
▁ing	-3118
▁score	-3119
▁talent	-3120
▁Lea	-3121
▁sashimi	-3122
▁questions	-3123
vern	-3124
▁Imas	-3125
▁gained	-3126
▁higher	-3127
▁taught	-3128
▁obvious	-3129
ls	-3130
▁fle	-3131
▁strugg	-3132
▁graduate	-3133
▁religion	-3134
▁goods	-3135
▁indust	-3136
▁pregnant	-3137
oms	-3138
▁sched	-3139
aged	-3140
asure	-3141
▁opin	-3142
▁stew	-3143
▁liver	-3144
▁showed	-3145
▁motorcy	-3146
aff	-3147
▁ep	-3148
aret	-3149
inary	-3150
▁schedu	-3151
▁impress	-3152
aps	-3153
▁Nam	-3154
▁chest	-3155
▁shows	-3156
redient	-3157
▁musical	-3158
▁staying	-3159
▁useless	-3160
vert	-3161
▁Sun	-3162
▁Think	-3163
▁covered	-3164
▁ingredient	-3165
▁daughterinlaw	-3166
▁coll	-3167
▁agree	-3168
▁cance	-3169
▁chief	-3170
go	-3171
oop	-3172
iors	-3173
▁United	-3174
▁luxury	-3175
▁professional	-3176
cho	-3177
vere	-3178
▁wood	-3179
▁appointment	-3180
fish	-3181
▁cig	-3182
▁cri	-3183
▁fles	-3184
▁blind	-3185
▁truth	-3186
bed	-3187
▁rit	-3188
▁hasn	-3189
▁comic	-3190
▁Whether	-3191
▁depending	-3192
host	-3193
tery	-3194
▁cap	-3195
▁unf	-3196
▁added	-3197
▁genre	-3198
▁Tod	-3199
▁pun	-3200
▁govern	-3201
uous	-3202
▁Pro	-3203
hered	-3204
▁cent	-3205
▁writer	-3206
▁Grandpa	-3207
▁cleaning	-3208
cip	-3209
▁Id	-3210
▁Min	-3211
oking	-3212
▁bull	-3213
▁Hurry	-3214
▁double	-3215
▁stronger	-3216
over	-3217
acking	-3218
▁glasses	-3219
▁mention	-3220
arm	-3221
atic	-3222
▁golf	-3223
▁pian	-3224
▁apolog	-3225
met	-3226
▁Bl	-3227
▁Kaka	-3228
▁cher	-3229
coming	-3230
▁rate	-3231
▁sand	-3232
▁sex	-3233
▁Budd	-3234
▁band	-3235
▁bite	-3236
▁sixty	-3237
▁comfortably	-3238
son	-3239
▁bone	-3240
▁role	-3241
▁seaw	-3242
▁super	-3243
▁involved	-3244
▁piz	-3245
▁Call	-3246
▁beauty	-3247
▁master	-3248
▁spending	-3249
▁mag	-3250
▁rob	-3251
▁rare	-3252
▁image	-3253
▁celebrities	-3254
rop	-3255
▁Ab	-3256
▁flo	-3257
▁hat	-3258
▁earn	-3259
▁pool	-3260
▁Today	-3261
▁certain	-3262
izing	-3263
▁Hall	-3264
▁bird	-3265
▁shame	-3266
▁stirf	-3267
▁following	-3268
▁kic	-3269
▁related	-3270
riger	-3271
▁Gwang	-3272
▁diale	-3273
▁ghost	-3274
▁cartoon	-3275
▁cigaret	-3276
▁plastic	-3277
▁basketball	-3278
asy	-3279
▁Really	-3280
▁convers	-3281
▁dialect	-3282
iot	-3283
▁non	-3284
▁pul	-3285
▁kinds	-3286
▁timid	-3287
▁opport	-3288
▁sevent	-3289
▁passing	-3290
▁refriger	-3291
▁dan	-3292
itions	-3293
▁Arent	-3294
▁players	-3295
olate	-3296
▁list	-3297
▁rese	-3298
▁shut	-3299
▁spot	-3300
▁noise	-3301
▁rainy	-3302
▁sacri	-3303
▁promise	-3304
▁soju	-3305
▁States	-3306
teok	-3307
▁Wait	-3308
▁West	-3309
▁held	-3310
▁perm	-3311
▁Netfl	-3312
▁fifty	-3313
▁necess	-3314
▁embarrassing	-3315
bean	-3316
▁awk	-3317
allen	-3318
▁shes	-3319
▁calls	-3320
sung	-3321
▁Last	-3322
▁bike	-3323
▁swear	-3324
▁blanket	-3325
▁Inje	-3326
▁American	-3327
▁introduce	-3328
acked	-3329
▁Talk	-3330
▁desk	-3331
▁weeks	-3332
▁sprout	-3333
▁supple	-3334
▁results	-3335
iment	-3336
▁decor	-3337
▁flesh	-3338
▁drinks	-3339
▁awkward	-3340
▁teaching	-3341
▁App	-3342
▁hide	-3343
▁math	-3344
▁seemed	-3345
ik	-3346
▁Na	-3347
▁rub	-3348
▁fest	-3349
▁pizza	-3350
▁Netflix	-3351
▁frustrated	-3352
▁ingredients	-3353
cu	-3354
▁rum	-3355
ocking	-3356
▁treated	-3357
ids	-3358
▁cab	-3359
▁ris	-3360
▁apart	-3361
▁Gyeong	-3362
▁search	-3363
▁distance	-3364
▁products	-3365
▁released	-3366
unic	-3367
▁Ithe	-3368
▁film	-3369
▁burden	-3370
▁dressed	-3371
▁complain	-3372
une	-3373
board	-3374
▁cous	-3375
▁fail	-3376
▁farm	-3377
▁intern	-3378
▁shy	-3379
▁scold	-3380
▁fucking	-3381
▁missing	-3382
cul	-3383
▁See	-3384
▁tit	-3385
▁Ke	-3386
▁ly	-3387
▁fits	-3388
▁piano	-3389
▁squee	-3390
▁concept	-3391
ems	-3392
▁obs	-3393
▁tie	-3394
▁unit	-3395
▁nature	-3396
▁temple	-3397
▁characters	-3398
rict	-3399
▁sang	-3400
▁handle	-3401
▁grandma	-3402
▁Especially	-3403
ondo	-3404
▁hearing	-3405
▁soybean	-3406
▁height	-3407
▁divorced	-3408
een	-3409
▁cos	-3410
▁tough	-3411
▁twist	-3412
▁muscles	-3413
oof	-3414
ups	-3415
▁iss	-3416
aptop	-3417
▁Hell	-3418
▁fold	-3419
▁foods	-3420
▁Tr	-3421
lect	-3422
rows	-3423
▁Kakao	-3424
▁princip	-3425
▁quality	-3426
0.	-3427
▁Te	-3428
ents	-3429
rics	-3430
ension	-3431
▁disch	-3432
▁helped	-3433
▁America	-3434
▁divorce	-3435
po	-3436
▁coat	-3437
▁spoon	-3438
▁laptop	-3439
▁shaking	-3440
▁appearance	-3441
▁government	-3442
ause	-3443
cture	-3444
▁flour	-3445
▁skirt	-3446
▁actors	-3447
▁seasons	-3448
bok	-3449
rimp	-3450
▁fra	-3451
▁ramen	-3452
▁animal	-3453
ho	-3454
iff	-3455
ayed	-3456
asing	-3457
rible	-3458
▁fema	-3459
▁talks	-3460
▁School	-3461
▁missed	-3462
▁washed	-3463
lt	-3464
ney	-3465
▁ju	-3466
cean	-3467
▁seme	-3468
▁likely	-3469
▁Ji	-3470
face	-3471
▁lights	-3472
▁separate	-3473
dy	-3474
aded	-3475
arden	-3476
▁onions	-3477
▁breaking	-3478
▁continue	-3479
jin	-3480
▁bene	-3481
▁entr	-3482
▁wave	-3483
iny	-3484
▁stab	-3485
▁fixed	-3486
▁cherry	-3487
wan	-3488
▁wa	-3489
iling	-3490
▁Will	-3491
eaking	-3492
▁accom	-3493
▁major	-3494
▁sounds	-3495
▁webtoon	-3496
▁direction	-3497
▁yoga	-3498
▁ideal	-3499
▁muscle	-3500
▁thirty	-3501
▁cartoons	-3502
▁electron	-3503
▁companies	-3504
▁graduated	-3505
▁refrigerator	-3506
jeon	-3507
▁crit	-3508
▁smile	-3509
▁reserv	-3510
erve	-3511
▁map	-3512
▁comb	-3513
▁gotten	-3514
▁iPhone	-3515
▁shrimp	-3516
▁werent	-3517
▁positive	-3518
▁semester	-3519
▁shoulder	-3520
▁webtoons	-3521
▁competition	-3522
▁Most	-3523
▁burst	-3524
▁notice	-3525
▁precious	-3526
five	-3527
ross	-3528
▁dried	-3529
▁stars	-3530
▁title	-3531
▁female	-3532
▁seaweed	-3533
▁followed	-3534
ceed	-3535
itch	-3536
rams	-3537
▁choc	-3538
▁bones	-3539
▁applied	-3540
▁Gu	-3541
▁hy	-3542
ague	-3543
▁psy	-3544
▁socks	-3545
▁parking	-3546
▁gun	-3547
hetic	-3548
wards	-3549
▁dish	-3550
▁Hello	-3551
▁decade	-3552
▁dreams	-3553
▁flying	-3554
▁Koreans	-3555
▁developed	-3556
kers	-3557
▁due	-3558
wondo	-3559
▁review	-3560
▁Ar	-3561
▁De	-3562
hold	-3563
▁shell	-3564
▁staff	-3565
▁series	-3566
▁depressed	-3567
antly	-3568
▁rains	-3569
▁corona	-3570
▁fields	-3571
▁economy	-3572
▁Air	-3573
asked	-3574
▁epis	-3575
▁requ	-3576
▁elder	-3577
cc	-3578
▁lay	-3579
▁appro	-3580
ization	-3581
▁discount	-3582
dong	-3583
▁lab	-3584
▁mos	-3585
▁Kang	-3586
▁scar	-3587
▁boiling	-3588
▁temperature	-3589
acy	-3590
ane	-3591
▁rat	-3592
▁King	-3593
▁chec	-3594
▁upside	-3595
▁touching	-3596
▁emotional	-3597
▁frustrating	-3598
▁Ge	-3599
▁cru	-3600
▁god	-3601
▁Next	-3602
▁site	-3603
▁ocean	-3604
▁becoming	-3605
ki	-3606
quit	-3607
term	-3608
itted	-3609
▁Song	-3610
▁relaxed	-3611
▁exciting	-3612
▁University	-3613
gest	-3614
aches	-3615
▁pump	-3616
▁cloud	-3617
▁speed	-3618
▁garden	-3619
▁happening	-3620
iers	-3621
▁oct	-3622
▁fort	-3623
▁lazy	-3624
▁note	-3625
▁opposite	-3626
▁Sit	-3627
▁rot	-3628
allow	-3629
▁drag	-3630
▁Listen	-3631
▁needed	-3632
▁singers	-3633
▁entrance	-3634
▁Buy	-3635
▁fro	-3636
▁ski	-3637
▁Answ	-3638
▁Shin	-3639
▁island	-3640
▁senior	-3641
▁severe	-3642
▁planning	-3643
laws	-3644
▁sil	-3645
uction	-3646
▁scream	-3647
▁mosquit	-3648
▁communic	-3649
▁mentioned	-3650
itam	-3651
opus	-3652
▁jac	-3653
▁arri	-3654
▁huge	-3655
▁unus	-3656
▁Il	-3657
▁pal	-3658
▁tofu	-3659
▁lyrics	-3660
lla	-3661
phew	-3662
▁umb	-3663
iliar	-3664
▁sales	-3665
▁terms	-3666
▁nephew	-3667
▁overse	-3668
▁classes	-3669
▁apologize	-3670
▁responsibility	-3671
▁Right	-3672
▁peoples	-3673
▁throwing	-3674
▁activities	-3675
▁cou	-3676
epend	-3677
▁king	-3678
ildren	-3679
▁respect	-3680
▁carefully	-3681
ses	-3682
▁ash	-3683
ining	-3684
▁flat	-3685
▁incl	-3686
ration	-3687
▁artic	-3688
▁camera	-3689
▁PC	-3690
ials	-3691
▁lad	-3692
▁dump	-3693
▁male	-3694
▁moon	-3695
▁Among	-3696
▁South	-3697
▁cutting	-3698
What	-3699
▁cot	-3700
▁bags	-3701
▁corn	-3702
▁spir	-3703
▁finan	-3704
▁idiot	-3705
▁forced	-3706
▁advantage	-3707
▁tangerines	-3708
hip	-3709
ghed	-3710
▁Ind	-3711
▁begg	-3712
▁dated	-3713
▁sonlaw	-3714
▁Itually	-3715
▁Samsung	-3716
▁airport	-3717
▁schedule	-3718
▁chocolate	-3719
▁SN	-3720
▁prov	-3721
▁sees	-3722
metics	-3723
▁tears	-3724
ruction	-3725
imul	-3726
▁pour	-3727
▁Leave	-3728
▁forty	-3729
▁octopus	-3730
▁recognize	-3731
▁shoulders	-3732
rib	-3733
▁bul	-3734
▁wra	-3735
▁mass	-3736
▁prote	-3737
▁grilled	-3738
▁opinion	-3739
gy	-3740
ivil	-3741
▁fuck	-3742
▁fund	-3743
▁Monday	-3744
▁kicked	-3745
▁painful	-3746
▁festival	-3747
▁motorcycle	-3748
▁conversation	-3749
adv	-3750
▁fee	-3751
▁bicy	-3752
▁burd	-3753
▁exch	-3754
▁fool	-3755
▁below	-3756
▁guard	-3757
▁pushed	-3758
▁shocked	-3759
▁painting	-3760
▁technology	-3761
ata	-3762
att	-3763
aker	-3764
▁tasted	-3765
▁camping	-3766
▁Everything	-3767
ades	-3768
▁SNS	-3769
▁gat	-3770
▁tow	-3771
▁kiss	-3772
▁mart	-3773
▁snake	-3774
▁trash	-3775
▁disadv	-3776
▁fruits	-3777
▁elderly	-3778
▁Dr	-3779
▁es	-3780
▁Son	-3781
▁sus	-3782
▁wrap	-3783
▁Later	-3784
▁items	-3785
▁damage	-3786
▁scratch	-3787
▁overseas	-3788
iece	-3789
▁pea	-3790
▁pee	-3791
▁cast	-3792
▁loan	-3793
▁Apple	-3794
▁nurse	-3795
▁pills	-3796
▁ignore	-3797
▁member	-3798
▁contain	-3799
▁satisfied	-3800
jang	-3801
under	-3802
▁carr	-3803
▁chop	-3804
▁ribs	-3805
▁umbre	-3806
▁cleaned	-3807
▁discuss	-3808
▁hundreds	-3809
▁loss	-3810
ission	-3811
▁North	-3812
▁beaten	-3813
▁stimul	-3814
▁nursing	-3815
▁cosmetics	-3816
oung	-3817
▁Ite	-3818
▁10,0	-3819
▁breath	-3820
▁remain	-3821
▁terrible	-3822
whe	-3823
just	-3824
▁sides	-3825
▁bill	-3826
▁eyeb	-3827
▁action	-3828
▁traffic	-3829
▁decision	-3830
▁hip	-3831
▁infl	-3832
▁sour	-3833
▁value	-3834
▁engine	-3835
▁videos	-3836
▁nowhere	-3837
▁gathered	-3838
▁entertainment	-3839
fice	-3840
▁decre	-3841
mes	-3842
nis	-3843
not	-3844
▁apple	-3845
▁types	-3846
▁waist	-3847
▁attend	-3848
▁biggest	-3849
▁current	-3850
▁management	-3851
▁imm	-3852
▁flight	-3853
▁attached	-3854
,.	-3855
zed	-3856
▁sin	-3857
andon	-3858
▁Keep	-3859
▁orange	-3860
▁sacrifice	-3861
▁Jung	-3862
▁fingers	-3863
▁reminds	-3864
▁grandson	-3865
▁everywhere	-3866
ks	-3867
ums	-3868
ened	-3869
▁Com	-3870
▁lif	-3871
▁Yang	-3872
▁idol	-3873
▁surv	-3874
▁bitter	-3875
▁colors	-3876
▁stable	-3877
una	-3878
ians	-3879
▁thief	-3880
▁Whatever	-3881
▁fatherlaw	-3882
ays	-3883
isy	-3884
gent	-3885
mony	-3886
▁Watch	-3887
▁ritual	-3888
▁dieting	-3889
mpt	-3890
▁rabb	-3891
▁romance	-3892
▁responsible	-3893
ex	-3894
iety	-3895
wear	-3896
▁adm	-3897
▁tip	-3898
▁nutr	-3899
▁corre	-3900
▁vitam	-3901
▁stretch	-3902
▁opportunity	-3903
co	-3904
ledge	-3905
▁menu	-3906
▁ambig	-3907
▁earth	-3908
▁across	-3909
▁breast	-3910
▁frozen	-3911
▁guests	-3912
▁leader	-3913
▁subway	-3914
▁divided	-3915
▁forgive	-3916
▁appeared	-3917
▁independ	-3918
▁transfer	-3919
tes	-3920
▁Ph	-3921
iture	-3922
▁career	-3923
▁stores	-3924
▁Wouldnt	-3925
▁aud	-3926
▁bal	-3927
▁era	-3928
arged	-3929
▁Only	-3930
▁crow	-3931
▁trot	-3932
▁cheese	-3933
▁burdens	-3934
▁farming	-3935
▁consider	-3936
▁flu	-3937
▁sib	-3938
▁furn	-3939
▁tail	-3940
▁wild	-3941
▁ability	-3942
▁helpful	-3943
▁schools	-3944
▁homework	-3945
▁programs	-3946
▁naturally	-3947
▁attractive	-3948
▁struggling	-3949
▁Us	-3950
▁mir	-3951
dered	-3952
▁bran	-3953
▁civil	-3954
▁faces	-3955
▁limit	-3956
▁Daejeon	-3957
▁hitting	-3958
▁laughed	-3959
▁showing	-3960
▁soldier	-3961
▁affection	-3962
▁reservation	-3963
hop	-3964
ddenly	-3965
▁mental	-3966
▁promot	-3967
▁shower	-3968
▁specific	-3969
zz	-3970
gue	-3971
hand	-3972
▁Baek	-3973
▁wine	-3974
action	-3975
▁abandon	-3976
▁ashamed	-3977
▁lecture	-3978
▁roughly	-3979
▁ambiguous	-3980
▁convenient	-3981
▁wel	-3982
▁Face	-3983
▁Viet	-3984
▁wand	-3985
▁weve	-3986
▁above	-3987
▁based	-3988
unately	-3989
▁excuse	-3990
▁pulled	-3991
▁ruined	-3992
▁spirit	-3993
▁factory	-3994
▁planted	-3995
▁reduced	-3996
▁holidays	-3997
▁recommended	-3998
ads	-3999
elve	-4000
▁Sir	-4001
▁cere	-4002
▁tied	-4003
▁upper	-4004
▁bringing	-4005
▁burdensome	-4006
▁Wel	-4007
▁jun	-4008
oring	-4009
▁sort	-4010
▁tells	-4011
▁detail	-4012
▁valley	-4013
▁unusual	-4014
▁property	-4015
▁seasoning	-4016
gr	-4017
▁Iss	-4018
▁Try	-4019
▁coo	-4020
arant	-4021
▁libr	-4022
▁trad	-4023
▁uniform	-4024
▁negative	-4025
▁celebrity	-4026
▁furniture	-4027
▁discharged	-4028
▁investment	-4029
▁particular	-4030
mar	-4031
iest	-4032
▁dre	-4033
▁thro	-4034
▁Instead	-4035
▁steamed	-4036
▁carrying	-4037
mers	-4038
▁fry	-4039
▁docu	-4040
▁seeds	-4041
▁drawing	-4042
▁increase	-4043
▁financial	-4044
nel	-4045
tain	-4046
yang	-4047
▁benef	-4048
▁squid	-4049
▁worst	-4050
▁Kimchi	-4051
▁dancing	-4052
▁sending	-4053
▁contract	-4054
▁construction	-4055
lace	-4056
orld	-4057
usion	-4058
▁gent	-4059
▁advert	-4060
▁failed	-4061
▁nearby	-4062
▁library	-4063
▁smoking	-4064
▁tourist	-4065
▁realized	-4066
▁relieved	-4067
▁cris	-4068
▁faith	-4069
▁killed	-4070
▁retire	-4071
▁starts	-4072
▁Usually	-4073
▁opening	-4074
▁quietly	-4075
▁economic	-4076
▁treatment	-4077
▁disappeared	-4078
to	-4079
kin	-4080
irts	-4081
▁lend	-4082
▁rooms	-4083
uggage	-4084
▁Buddh	-4085
▁viole	-4086
▁obsess	-4087
▁ordinary	-4088
back	-4089
▁ill	-4090
▁Youve	-4091
▁cheek	-4092
▁drugs	-4093
▁urgent	-4094
▁wallet	-4095
▁billion	-4096
▁luggage	-4097
the	-4098
▁ene	-4099
ilies	-4100
▁butt	-4101
▁critic	-4102
▁seniors	-4103
▁100,0	-4104
▁psych	-4105
▁stood	-4106
▁trave	-4107
▁poison	-4108
▁square	-4109
▁tennis	-4110
▁climbing	-4111
▁May	-4112
▁anx	-4113
▁mal	-4114
▁taxi	-4115
▁kilos	-4116
▁plans	-4117
▁phones	-4118
▁kidding	-4119
icks	-4120
▁deg	-4121
▁mush	-4122
▁tong	-4123
estern	-4124
▁fired	-4125
▁juice	-4126
▁digest	-4127
▁seventy	-4128
▁pathetic	-4129
▁thousands	-4130
bye	-4131
▁pink	-4132
▁tone	-4133
▁Daegu	-4134
▁bloss	-4135
▁newsp	-4136
▁adjust	-4137
▁Gwangju	-4138
▁umbrella	-4139
itude	-4140
▁Stay	-4141
▁grab	-4142
▁inn	-4143
▁lim	-4144
apers	-4145
▁path	-4146
▁Imont	-4147
▁pieces	-4148
▁welcome	-4149
▁emotions	-4150
▁families	-4151
▁collected	-4152
gged	-4153
▁mob	-4154
▁por	-4155
▁fant	-4156
▁worn	-4157
▁model	-4158
▁solved	-4159
▁bicycle	-4160
▁blocked	-4161
▁peppers	-4162
▁science	-4163
▁mushroom	-4164
▁US	-4165
▁ham	-4166
▁debt	-4167
▁poop	-4168
▁stat	-4169
▁sleepy	-4170
▁entered	-4171
▁message	-4172
▁supplements	-4173
ivid	-4174
reat	-4175
▁mac	-4176
▁vir	-4177
▁Jeon	-4178
▁eyel	-4179
▁alley	-4180
▁fever	-4181
▁guide	-4182
▁depend	-4183
▁throat	-4184
▁Ad	-4185
food	-4186
itis	-4187
reme	-4188
▁enc	-4189
▁applic	-4190
orms	-4191
▁ave	-4192
▁High	-4193
▁friendly	-4194
▁meantime	-4195
cil	-4196
lass	-4197
phones	-4198
▁plays	-4199
▁helping	-4200
▁willing	-4201
▁National	-4202
▁research	-4203
▁connected	-4204
▁Ear	-4205
▁lat	-4206
▁enemy	-4207
▁noisy	-4208
▁serve	-4209
▁burned	-4210
▁cousin	-4211
▁income	-4212
▁waited	-4213
▁Facebook	-4214
▁ban	-4215
ffort	-4216
tered	-4217
▁enter	-4218
▁steal	-4219
▁assist	-4220
▁tendency	-4221
▁knowledge	-4222
eral	-4223
ruct	-4224
▁alb	-4225
▁gentle	-4226
▁hiding	-4227
▁breathe	-4228
▁letters	-4229
▁expected	-4230
▁brotherinlaw	-4231
zer	-4232
▁fake	-4233
▁pity	-4234
▁thri	-4235
▁grind	-4236
▁truck	-4237
▁regard	-4238
▁sprouts	-4239
▁Day	-4240
▁fox	-4241
▁dads	-4242
▁ends	-4243
ergart	-4244
▁blame	-4245
▁finger	-4246
▁improve	-4247
▁relatives	-4248
▁Her	-4249
▁east	-4250
▁mall	-4251
resent	-4252
▁Bring	-4253
▁pride	-4254
▁range	-4255
▁pulling	-4256
aly	-4257
ctors	-4258
antages	-4259
▁endure	-4260
▁fathers	-4261
▁prevent	-4262
▁industry	-4263
▁electronic	-4264
uses	-4265
▁Cho	-4266
▁fed	-4267
▁Webt	-4268
▁risk	-4269
▁west	-4270
ipment	-4271
▁steam	-4272
▁eyebrows	-4273
secut	-4274
▁effort	-4275
▁fourth	-4276
▁further	-4277
▁customer	-4278
▁impressed	-4279
▁principal	-4280
▁introduced	-4281
rog	-4282
▁Pres	-4283
▁aunts	-4284
▁block	-4285
▁falls	-4286
▁stole	-4287
▁useful	-4288
▁scolded	-4289
rest	-4290
▁vacc	-4291
▁seats	-4292
▁imagine	-4293
▁tickets	-4294
ah	-4295
▁dorm	-4296
▁stead	-4297
▁tenth	-4298
▁rabbit	-4299
▁employee	-4300
▁disappear	-4301
arp	-4302
omb	-4303
uty	-4304
cake	-4305
ners	-4306
▁data	-4307
▁Women	-4308
▁recent	-4309
▁package	-4310
▁soldiers	-4311
▁kindergart	-4312
▁experienced	-4313
hor	-4314
leg	-4315
▁bake	-4316
▁pure	-4317
▁Until	-4318
▁bless	-4319
▁cruel	-4320
▁moder	-4321
▁cotton	-4322
▁steadily	-4323
▁equipment	-4324
mod	-4325
aven	-4326
▁Sea	-4327
▁frog	-4328
▁ideas	-4329
▁suits	-4330
▁rained	-4331
▁connect	-4332
▁project	-4333
▁movement	-4334
▁employees	-4335
irm	-4336
▁Big	-4337
bokki	-4338
▁radio	-4339
▁ending	-4340
▁tongue	-4341
key	-4342
ooth	-4343
sters	-4344
▁masks	-4345
▁heaven	-4346
▁inlaws	-4347
▁relief	-4348
▁silver	-4349
▁stayed	-4350
▁pension	-4351
▁exchange	-4352
▁siblings	-4353
year	-4354
▁gap	-4355
▁duck	-4356
▁bucks	-4357
berries	-4358
▁twelve	-4359
▁Nothing	-4360
▁forever	-4361
▁speaking	-4362
▁basically	-4363
▁Imam	-4364
▁upon	-4365
▁wipe	-4366
▁lines	-4367
▁taxes	-4368
ulation	-4369
▁desire	-4370
▁result	-4371
teokbokki	-4372
▁sisterlaw	-4373
▁Yoon	-4374
▁plat	-4375
▁brain	-4376
▁extra	-4377
▁snows	-4378
▁bridge	-4379
▁TO	-4380
▁net	-4381
pping	-4382
▁Hold	-4383
▁bride	-4384
▁average	-4385
▁episode	-4386
▁install	-4387
▁Suddenly	-4388
▁President	-4389
▁necessary	-4390
umb	-4391
▁Say	-4392
▁Friday	-4393
▁unfair	-4394
▁politics	-4395
▁progress	-4396
▁traveled	-4397
▁Yesterday	-4398
▁answering	-4399
▁Ifs	-4400
▁ach	-4401
▁Jang	-4402
▁brown	-4403
▁feast	-4404
▁named	-4405
▁ladies	-4406
▁stairs	-4407
▁protein	-4408
▁accommod	-4409
▁memorize	-4410
alle	-4411
▁vague	-4412
▁reluct	-4413
▁deliver	-4414
▁letting	-4415
▁function	-4416
▁Gr	-4417
illa	-4418
ived	-4419
▁About	-4420
▁photo	-4421
▁rubber	-4422
▁cigarette	-4423
IC	-4424
reci	-4425
gency	-4426
▁symp	-4427
▁admit	-4428
▁issue	-4429
▁keeping	-4430
▁swallow	-4431
▁computers	-4432
▁certificates	-4433
eon	-4434
urity	-4435
▁City	-4436
▁disg	-4437
▁kindergarten	-4438
▁cy	-4439
ager	-4440
chov	-4441
▁ess	-4442
▁dies	-4443
▁repe	-4444
▁aller	-4445
▁dozen	-4446
▁toile	-4447
ception	-4448
▁Jejudo	-4449
▁succeed	-4450
▁accidents	-4451
▁everybody	-4452
▁destination	-4453
using	-4454
▁fear	-4455
▁mill	-4456
▁wrink	-4457
▁prices	-4458
▁limited	-4459
▁mistakes	-4460
ohn	-4461
medi	-4462
▁mic	-4463
▁sew	-4464
▁fair	-4465
▁pine	-4466
▁reve	-4467
▁sale	-4468
▁chose	-4469
▁within	-4470
▁appreci	-4471
▁dropped	-4472
▁relationships	-4473
gic	-4474
mest	-4475
mple	-4476
▁cred	-4477
▁topic	-4478
▁trick	-4479
▁wheel	-4480
allenge	-4481
▁mirror	-4482
▁article	-4483
▁studies	-4484
▁incident	-4485
▁material	-4486
▁wondered	-4487
▁exercises	-4488
uh	-4489
aint	-4490
moon	-4491
oses	-4492
▁nin	-4493
▁More	-4494
▁heal	-4495
▁cause	-4496
▁extreme	-4497
▁conditions	-4498
py	-4499
ado	-4500
nty	-4501
akers	-4502
▁Jong	-4503
▁lied	-4504
▁mult	-4505
inated	-4506
mentia	-4507
▁balls	-4508
▁Sister	-4509
▁heartb	-4510
▁worker	-4511
▁doctors	-4512
▁drivers	-4513
▁padding	-4514
▁misunder	-4515
ja	-4516
nce	-4517
▁Lot	-4518
▁Par	-4519
▁rev	-4520
▁row	-4521
▁buys	-4522
▁emer	-4523
▁writ	-4524
▁instru	-4525
▁photos	-4526
▁decades	-4527
▁forgotten	-4528
gs	-4529
▁Dep	-4530
▁copy	-4531
▁knee	-4532
▁piss	-4533
minist	-4534
▁artific	-4535
▁wrapped	-4536
▁tteokbokki	-4537
ume	-4538
▁hi	-4539
four	-4540
phone	-4541
▁coun	-4542
▁dirt	-4543
▁teen	-4544
▁wire	-4545
▁humans	-4546
▁unfort	-4547
▁Vietnam	-4548
▁represent	-4549
oos	-4550
raph	-4551
erman	-4552
three	-4553
▁locked	-4554
▁allowed	-4555
▁setting	-4556
▁familiar	-4557
▁Gangwondo	-4558
ridge	-4559
▁tele	-4560
▁vict	-4561
▁gross	-4562
▁loves	-4563
ilities	-4564
▁rarely	-4565
▁seafood	-4566
▁confused	-4567
▁porridge	-4568
▁Christian	-4569
▁Op	-4570
▁dye	-4571
▁exe	-4572
▁sne	-4573
▁capt	-4574
▁reach	-4575
▁rules	-4576
▁spray	-4577
▁plenty	-4578
▁correct	-4579
▁planned	-4580
▁dementia	-4581
▁directly	-4582
cra	-4583
▁Cant	-4584
▁announ	-4585
▁assign	-4586
▁junior	-4587
▁punish	-4588
▁remove	-4589
▁Western	-4590
▁carried	-4591
▁streets	-4592
▁forehead	-4593
▁independent	-4594
yed	-4595
fess	-4596
▁TOE	-4597
ollen	-4598
▁acqu	-4599
▁lips	-4600
▁lots	-4601
▁Jeong	-4602
▁cafes	-4603
▁scent	-4604
▁Iveathe	-4605
▁enjoying	-4606
▁football	-4607
▁honeymoon	-4608
▁reluctant	-4609
▁Add	-4610
▁tor	-4611
imbap	-4612
neung	-4613
lected	-4614
▁sharp	-4615
▁anchov	-4616
▁activity	-4617
arry	-4618
name	-4619
yeon	-4620
▁Seog	-4621
▁argu	-4622
▁bear	-4623
▁item	-4624
▁lift	-4625
▁uplo	-4626
iction	-4627
▁prize	-4628
▁tests	-4629
▁calcul	-4630
▁comments	-4631
wo	-4632
cket	-4633
▁inf	-4634
orter	-4635
▁John	-4636
▁disp	-4637
▁roof	-4638
▁peace	-4639
▁volunt	-4640
▁contents	-4641
▁organize	-4642
▁suffering	-4643
ns	-4644
orns	-4645
▁dil	-4646
▁mer	-4647
▁ske	-4648
sides	-4649
unate	-4650
▁cakes	-4651
▁curse	-4652
▁Seeing	-4653
▁swollen	-4654
▁background	-4655
dom	-4656
ils	-4657
▁Cl	-4658
▁dem	-4659
stairs	-4660
▁names	-4661
▁total	-4662
▁prison	-4663
▁Profess	-4664
▁feeding	-4665
▁servant	-4666
▁ceremony	-4667
ucu	-4668
▁Tom	-4669
▁chat	-4670
▁keys	-4671
pected	-4672
▁TOEIC	-4673
▁sheep	-4674
▁forest	-4675
▁modern	-4676
▁values	-4677
▁approach	-4678
▁sweating	-4679
▁allowance	-4680
lle	-4681
eong	-4682
▁occ	-4683
▁inju	-4684
▁pigs	-4685
▁shoe	-4686
▁bloom	-4687
▁ident	-4688
▁perfu	-4689
ference	-4690
▁entire	-4691
▁events	-4692
▁profit	-4693
▁salted	-4694
▁burning	-4695
▁fantasy	-4696
▁evidence	-4697
gi	-4698
▁Pr	-4699
abet	-4700
▁tig	-4701
asant	-4702
▁Soju	-4703
▁gang	-4704
▁race	-4705
▁hasnt	-4706
▁niece	-4707
▁access	-4708
▁buried	-4709
▁eighty	-4710
▁filled	-4711
▁histor	-4712
▁posted	-4713
▁squeeze	-4714
▁graduation	-4715
▁stimulating	-4716
▁oy	-4717
rate	-4718
▁deb	-4719
igent	-4720
▁cucu	-4721
▁spin	-4722
▁domest	-4723
▁immedi	-4724
▁resort	-4725
▁couples	-4726
▁borrowed	-4727
▁canceled	-4728
▁improved	-4729
▁security	-4730
▁stirfried	-4731
▁Eun	-4732
▁Ime	-4733
▁Ita	-4734
▁Show	-4735
▁tear	-4736
▁Itont	-4737
▁Seogw	-4738
aughter	-4739
▁YouTub	-4740
▁advice	-4741
▁address	-4742
▁dumplings	-4743
▁emergency	-4744
▁artificial	-4745
▁playground	-4746
ky	-4747
rial	-4748
rove	-4749
▁basics	-4750
▁effective	-4751
▁ourselves	-4752
ges	-4753
▁Da	-4754
▁Pl	-4755
▁War	-4756
▁lid	-4757
icing	-4758
jeong	-4759
minal	-4760
issors	-4761
▁cheer	-4762
▁fridge	-4763
▁mobile	-4764
▁packed	-4765
▁individ	-4766
▁obsessed	-4767
▁seasoned	-4768
▁shooting	-4769
mi	-4770
ipo	-4771
▁11	-4772
ushi	-4773
ipped	-4774
▁meth	-4775
▁puts	-4776
▁typh	-4777
arters	-4778
▁depos	-4779
▁stream	-4780
▁sunlight	-4781
▁concerned	-4782
▁newspaper	-4783
▁receiving	-4784
▁Gal	-4785
▁poet	-4786
▁deter	-4787
▁fifth	-4788
▁nails	-4789
▁snowy	-4790
▁bottles	-4791
▁effects	-4792
▁investig	-4793
▁confidence	-4794
▁Ten	-4795
▁Yea	-4796
Cause	-4797
eding	-4798
▁Kong	-4799
▁poll	-4800
▁breat	-4801
▁concl	-4802
▁steps	-4803
▁kilome	-4804
▁pattern	-4805
▁Shouldnt	-4806
▁surprise	-4807
ams	-4808
ply	-4809
▁carb	-4810
▁lack	-4811
▁appet	-4812
▁beard	-4813
▁fence	-4814
▁tooth	-4815
▁unless	-4816
▁besides	-4817
▁grandch	-4818
▁hardest	-4819
▁weekends	-4820
▁permission	-4821
▁Ask	-4822
▁Hyun	-4823
▁Turn	-4824
▁picky	-4825
▁tasked	-4826
▁dealing	-4827
▁domestic	-4828
▁conscious	-4829
▁differently	-4830
▁accommodation	-4831
ada	-4832
rat	-4833
▁adop	-4834
▁fans	-4835
▁subs	-4836
▁World	-4837
▁pasta	-4838
▁jacket	-4839
▁snowed	-4840
▁thanks	-4841
▁Webtoon	-4842
▁checked	-4843
▁Seogwipo	-4844
▁mentally	-4845
▁household	-4846
▁practical	-4847
▁appreciate	-4848
nes	-4849
▁huh	-4850
▁nag	-4851
▁slim	-4852
▁Earth	-4853
▁brands	-4854
▁pancake	-4855
▁release	-4856
▁abandoned	-4857
▁seriously	-4858
cape	-4859
ening	-4860
▁blog	-4861
▁vain	-4862
▁Naver	-4863
▁salon	-4864
▁intest	-4865
▁distrib	-4866
▁pumpkin	-4867
▁selfish	-4868
▁stirfry	-4869
▁Pa	-4870
cher	-4871
▁cit	-4872
arily	-4873
cient	-4874
▁gate	-4875
▁waves	-4876
▁refres	-4877
▁Whenever	-4878
▁maintain	-4879
▁powerful	-4880
▁parttimer	-4881
▁application	-4882
▁Le	-4883
ller	-4884
▁Con	-4885
▁sty	-4886
▁Fort	-4887
▁Imly	-4888
▁pharm	-4889
▁slipp	-4890
▁mainly	-4891
▁suffer	-4892
▁concent	-4893
▁depends	-4894
▁volunte	-4895
▁literally	-4896
▁compliment	-4897
now	-4898
zzy	-4899
▁Bob	-4900
▁Itid	-4901
▁firm	-4902
▁butter	-4903
▁circle	-4904
▁stones	-4905
▁cookies	-4906
▁monthly	-4907
▁realistic	-4908
urs	-4909
▁Sm	-4910
iles	-4911
▁Seo	-4912
▁wip	-4913
▁code	-4914
▁uses	-4915
itation	-4916
▁wealth	-4917
▁anxious	-4918
▁details	-4919
▁savings	-4920
▁sometime	-4921
▁animation	-4922
▁electricity	-4923
mm	-4924
ero	-4925
▁asks	-4926
▁blew	-4927
▁chin	-4928
▁susp	-4929
verted	-4930
▁basis	-4931
▁drove	-4932
▁loose	-4933
▁onion	-4934
ionally	-4935
▁instruct	-4936
▁perspect	-4937
▁soninlaw	-4938
▁Professor	-4939
AT	-4940
▁hon	-4941
isure	-4942
seong	-4943
▁remo	-4944
▁sled	-4945
▁Jeoll	-4946
▁coast	-4947
▁thigh	-4948
▁Twenty	-4949
▁apples	-4950
▁groups	-4951
▁variety	-4952
▁workers	-4953
▁administ	-4954
▁floating	-4955
▁official	-4956
▁scissors	-4957
de	-4958
▁Men	-4959
▁ank	-4960
▁rise	-4961
▁tomat	-4962
▁Without	-4963
▁arrived	-4964
▁grandpa	-4965
▁officer	-4966
▁snowing	-4967
▁challenge	-4968
▁underwear	-4969
▁immediately	-4970
▁personalities	-4971
hee	-4972
this	-4973
wise	-4974
▁Cut	-4975
▁Jin	-4976
stood	-4977
iverse	-4978
▁March	-4979
▁paint	-4980
▁steak	-4981
▁sushi	-4982
▁author	-4983
▁diabet	-4984
▁padded	-4985
▁depress	-4986
▁Buddhism	-4987
▁fatherinlaw	-4988
▁unfortunate	-4989
wa	-4990
ari	-4991
▁Bo	-4992
town	-4993
agers	-4994
▁viol	-4995
▁credit	-4996
▁simply	-4997
▁pressed	-4998
▁overcome	-4999
▁screaming	-5000
▁impressive	-5001
▁development	-5002
iry	-5003
▁bun	-5004
▁rip	-5005
ankly	-5006
▁arts	-5007
▁dent	-5008
▁rude	-5009
▁baked	-5010
▁judge	-5011
▁therap	-5012
▁colored	-5013
▁leisure	-5014
▁Answering	-5015
▁happiness	-5016
▁regularly	-5017
▁perspective	-5018
▁CS	-5019
▁reb	-5020
▁spo	-5021
▁chef	-5022
▁wope	-5023
▁album	-5024
▁boxes	-5025
▁affair	-5026
▁Another	-5027
▁conflic	-5028
▁deserve	-5029
▁frankly	-5030
▁passion	-5031
▁previous	-5032
▁religious	-5033
▁kilometers	-5034
va	-5035
ech	-5036
ods	-5037
chol	-5038
oles	-5039
rain	-5040
▁Mrs	-5041
▁tar	-5042
anced	-5043
wheat	-5044
young	-5045
▁accum	-5046
▁labor	-5047
▁sells	-5048
▁German	-5049
▁destro	-5050
▁crowded	-5051
▁pushing	-5052
▁cultural	-5053
▁literature	-5054
chang	-5055
esame	-5056
▁dece	-5057
▁anger	-5058
▁tiger	-5059
▁capital	-5060
▁mosquito	-5061
▁breathing	-5062
▁recognized	-5063
ta	-5064
ading	-5065
kerel	-5066
▁CSAT	-5067
▁duty	-5068
▁evil	-5069
▁guit	-5070
▁pred	-5071
▁sore	-5072
▁vote	-5073
cience	-5074
vision	-5075
▁autom	-5076
▁behav	-5077
▁contr	-5078
▁dizzy	-5079
olution	-5080
▁served	-5081
▁devices	-5082
▁persons	-5083
ift	-5084
ina	-5085
▁pin	-5086
icker	-5087
▁influ	-5088
▁salad	-5089
▁trade	-5090
jection	-5091
▁academ	-5092
▁perfor	-5093
▁blowing	-5094
▁compare	-5095
▁herself	-5096
▁scenery	-5097
▁attracted	-5098
▁mushrooms	-5099
ets	-5100
lim	-5101
▁rol	-5102
store	-5103
▁page	-5104
▁peel	-5105
▁stri	-5106
ential	-5107
ession	-5108
ograph	-5109
▁badly	-5110
▁intell	-5111
▁smooth	-5112
▁threat	-5113
▁twisted	-5114
▁expenses	-5115
▁mackerel	-5116
▁eventually	-5117
▁Es	-5118
cest	-5119
▁mur	-5120
berry	-5121
▁hadn	-5122
istics	-5123
▁lover	-5124
▁usual	-5125
▁Things	-5126
▁cathed	-5127
▁courage	-5128
▁smiling	-5129
▁stressful	-5130
hyun	-5131
▁ath	-5132
aning	-5133
▁Sing	-5134
▁crab	-5135
▁Never	-5136
▁cards	-5137
▁shirt	-5138
▁rotten	-5139
ashioned	-5140
▁killing	-5141
▁diabetes	-5142
jam	-5143
tuce	-5144
▁bud	-5145
enses	-5146
▁assh	-5147
atches	-5148
▁Cheong	-5149
▁Origin	-5150
ulations	-5151
▁checkup	-5152
▁disgust	-5153
▁seconds	-5154
▁attending	-5155
▁pretending	-5156
▁grandchildren	-5157
▁Yu	-5158
mble	-5159
olic	-5160
▁Sec	-5161
▁hug	-5162
ropri	-5163
▁buck	-5164
▁heads	-5165
▁innoc	-5166
▁attack	-5167
▁dollar	-5168
▁rumors	-5169
▁sesame	-5170
▁typhoon	-5171
erson	-5172
▁Ifin	-5173
▁gray	-5174
▁nons	-5175
▁ours	-5176
▁vers	-5177
▁final	-5178
▁spare	-5179
▁bucket	-5180
▁colder	-5181
▁orders	-5182
▁accumul	-5183
▁dragged	-5184
▁relieve	-5185
▁criticized	-5186
▁successful	-5187
▁surprising	-5188
▁television	-5189
▁disadvantage	-5190
▁representative	-5191
axy	-5192
rom	-5193
▁et	-5194
aled	-5195
what	-5196
▁Hae	-5197
▁Won	-5198
▁joy	-5199
heast	-5200
iable	-5201
ushed	-5202
▁Back	-5203
▁tent	-5204
▁Yeong	-5205
▁reven	-5206
▁Father	-5207
▁ancest	-5208
▁carrot	-5209
▁confir	-5210
▁horror	-5211
▁object	-5212
▁policy	-5213
▁polite	-5214
▁measure	-5215
▁request	-5216
▁contacted	-5217
▁practicing	-5218
ox	-5219
bal	-5220
▁Ul	-5221
▁Yoo	-5222
▁mak	-5223
imate	-5224
▁craw	-5225
▁wise	-5226
▁overl	-5227
▁wound	-5228
▁toilet	-5229
▁deposit	-5230
▁addition	-5231
▁appetite	-5232
▁childish	-5233
▁vitamins	-5234
▁organized	-5235
▁transport	-5236
▁Originally	-5237
▁conditioner	-5238
▁cas	-5239
▁Open	-5240
▁chan	-5241
▁hill	-5242
▁port	-5243
▁vine	-5244
ustral	-5245
▁Great	-5246
▁grain	-5247
▁humid	-5248
▁ignor	-5249
▁minds	-5250
▁sympt	-5251
▁habits	-5252
▁lightly	-5253
0,	-5254
ana	-5255
▁il	-5256
rets	-5257
▁Wee	-5258
▁Hang	-5259
▁branch	-5260
▁owners	-5261
▁persim	-5262
▁scenes	-5263
▁starve	-5264
▁Austral	-5265
▁cleaner	-5266
fashioned	-5267
▁confirmed	-5268
▁communicate	-5269
six	-5270
iber	-5271
iler	-5272
▁Tai	-5273
▁pit	-5274
▁lawy	-5275
ongrat	-5276
▁frame	-5277
▁wears	-5278
▁rolling	-5279
▁clothing	-5280
▁election	-5281
▁headache	-5282
▁wherever	-5283
▁historical	-5284
▁impression	-5285
bi	-5286
ga	-5287
ips	-5288
woo	-5289
▁Ju	-5290
adow	-5291
angs	-5292
asan	-5293
ungs	-5294
▁Pick	-5295
▁Sout	-5296
▁hero	-5297
ilates	-5298
▁brush	-5299
▁candy	-5300
▁notes	-5301
▁breaks	-5302
▁deeply	-5303
▁novels	-5304
▁focused	-5305
▁hurting	-5306
▁lettuce	-5307
▁vaccine	-5308
▁answered	-5309
▁disaster	-5310
▁hometown	-5311
▁advertise	-5312
▁intention	-5313
▁cigarettes	-5314
▁meaningful	-5315
eto	-5316
▁ax	-5317
cuse	-5318
▁Bes	-5319
▁Tae	-5320
▁bru	-5321
ander	-5322
ucing	-5323
▁Comp	-5324
▁envy	-5325
▁flew	-5326
▁hunt	-5327
▁palm	-5328
▁rout	-5329
▁sile	-5330
▁Black	-5331
▁Seong	-5332
▁crime	-5333
▁sings	-5334
itution	-5335
secutor	-5336
▁fallen	-5337
▁housew	-5338
▁joined	-5339
▁noticed	-5340
▁appropri	-5341
▁catching	-5342
▁distract	-5343
▁buckwheat	-5344
▁gathering	-5345
▁wandering	-5346
▁expression	-5347
dae	-5348
uts	-5349
arse	-5350
made	-5351
yond	-5352
▁hop	-5353
▁sna	-5354
neath	-5355
night	-5356
odies	-5357
▁eval	-5358
▁nick	-5359
sticks	-5360
▁cares	-5361
▁cliff	-5362
▁creep	-5363
▁naked	-5364
ological	-5365
roverted	-5366
▁Brother	-5367
▁bowling	-5368
▁lighter	-5369
▁partner	-5370
▁thashed	-5371
▁cheating	-5372
▁assistant	-5373
▁traditional	-5374
yo	-5375
▁Cle	-5376
▁owe	-5377
▁rely	-5378
elling	-5379
perate	-5380
▁illeg	-5381
▁motto	-5382
▁shave	-5383
▁hearts	-5384
▁recipe	-5385
▁reward	-5386
▁leading	-5387
▁acquaint	-5388
▁behavior	-5389
▁promised	-5390
▁earphones	-5391
▁underneath	-5392
▁performances	-5393
az	-5394
oves	-5395
rees	-5396
▁Spr	-5397
▁tick	-5398
▁virt	-5399
▁media	-5400
▁sight	-5401
▁storm	-5402
▁Taiwan	-5403
▁struct	-5404
▁created	-5405
▁delayed	-5406
▁shocking	-5407
▁impossible	-5408
▁strawberries	-5409
▁IU	-5410
▁ir	-5411
ilty	-5412
soon	-5413
ended	-5414
gging	-5415
watch	-5416
▁Asia	-5417
▁belt	-5418
▁dare	-5419
▁elev	-5420
▁muse	-5421
▁sear	-5422
ective	-5423
lessly	-5424
▁award	-5425
▁moist	-5426
▁interp	-5427
▁jumped	-5428
▁pissed	-5429
▁taller	-5430
▁fortune	-5431
▁sickness	-5432
▁starving	-5433
▁uniforms	-5434
,"	-5435
ued	-5436
bage	-5437
quet	-5438
wood	-5439
▁Jun	-5440
▁Wed	-5441
athed	-5442
inger	-5443
▁drew	-5444
▁root	-5445
▁seed	-5446
▁Paris	-5447
▁Shall	-5448
▁cloth	-5449
▁court	-5450
▁lands	-5451
▁shout	-5452
idering	-5453
umption	-5454
▁comedy	-5455
▁execut	-5456
▁guilty	-5457
▁guitar	-5458
▁skinny	-5459
▁appears	-5460
▁freezer	-5461
▁winning	-5462
▁cathedral	-5463
▁grandfathers	-5464
dr	-5465
▁Sw	-5466
appy	-5467
▁shr	-5468
▁Five	-5469
▁Wear	-5470
▁flex	-5471
▁toes	-5472
▁Chung	-5473
▁crush	-5474
▁sixth	-5475
ultural	-5476
▁Excuse	-5477
▁button	-5478
▁pencil	-5479
▁virgin	-5480
▁Besides	-5481
▁guarant	-5482
▁leather	-5483
▁perfume	-5484
▁materials	-5485
ius	-5486
osu	-5487
rupt	-5488
teen	-5489
▁Jean	-5490
▁Miss	-5491
▁bend	-5492
▁clin	-5493
▁soap	-5494
▁ware	-5495
▁shock	-5496
▁Thanks	-5497
▁gloves	-5498
▁string	-5499
▁Welcome	-5500
▁collaps	-5501
▁husbands	-5502
▁particip	-5503
▁punished	-5504
▁secretly	-5505
▁sneakers	-5506
▁conscience	-5507
nic	-5508
athy	-5509
ites	-5510
▁Oly	-5511
▁Rec	-5512
▁cla	-5513
▁web	-5514
adium	-5515
lling	-5516
▁hamb	-5517
▁sink	-5518
thouse	-5519
▁Chief	-5520
▁fancy	-5521
▁cancel	-5522
▁resting	-5523
▁separated	-5524
▁conclusion	-5525
▁appropriate	-5526
sang	-5527
then	-5528
▁lip	-5529
itory	-5530
rench	-5531
▁Cath	-5532
nesday	-5533
▁Olymp	-5534
▁honor	-5535
▁schol	-5536
▁freeze	-5537
▁hiking	-5538
▁meters	-5539
▁myster	-5540
▁failure	-5541
▁sincere	-5542
▁nonsense	-5543
▁Wednesday	-5544
▁bookstore	-5545
▁standards	-5546
▁Ap	-5547
▁Mm	-5548
▁Ms	-5549
care	-5550
odes	-5551
▁Mok	-5552
▁saf	-5553
igner	-5554
iques	-5555
▁bent	-5556
ondition	-5557
▁envious	-5558
▁benefits	-5559
▁blossoms	-5560
▁platform	-5561
▁princess	-5562
▁returned	-5563
▁anchovies	-5564
▁lightning	-5565
▁nutritional	-5566
mun	-5567
▁OK	-5568
▁je	-5569
foot	-5570
itor	-5571
lets	-5572
rier	-5573
▁Gen	-5574
inter	-5575
▁Sang	-5576
▁coin	-5577
▁babys	-5578
▁began	-5579
▁harsh	-5580
▁offer	-5581
▁rumor	-5582
▁creepy	-5583
▁crisis	-5584
▁formal	-5585
▁gimbap	-5586
▁hambur	-5587
▁realize	-5588
▁district	-5589
▁somebody	-5590
▁delivered	-5591
▁misunderstand	-5592
hmm	-5593
ran	-5594
▁Sa	-5595
▁Wr	-5596
iding	-5597
itate	-5598
ively	-5599
right	-5600
▁Bong	-5601
▁conv	-5602
▁monk	-5603
▁nail	-5604
▁poss	-5605
▁tape	-5606
▁unex	-5607
▁Yeosu	-5608
▁teams	-5609
▁beyond	-5610
▁commer	-5611
▁survive	-5612
▁determin	-5613
▁somewhat	-5614
▁classical	-5615
▁refreshing	-5616
hin	-5617
iring	-5618
▁leaf	-5619
▁wage	-5620
▁hidden	-5621
▁sooner	-5622
▁damaged	-5623
▁Jeollado	-5624
▁roasting	-5625
▁increased	-5626
bble	-5627
▁Gir	-5628
▁toy	-5629
▁wow	-5630
▁pets	-5631
▁Galaxy	-5632
▁regist	-5633
▁tested	-5634
▁wooden	-5635
▁battery	-5636
▁clearly	-5637
▁funeral	-5638
▁numbers	-5639
▁innocent	-5640
▁childrens	-5641
▁regardless	-5642
▁na	-5643
ards	-5644
uted	-5645
▁etc	-5646
▁thor	-5647
▁White	-5648
▁subst	-5649
etoface	-5650
▁pillow	-5651
▁strang	-5652
▁surround	-5653
▁foreigners	-5654
▁retirement	-5655
▁smartphone	-5656
hib	-5657
osc	-5658
ras	-5659
▁Sl	-5660
▁bi	-5661
lers	-5662
ring	-5663
antic	-5664
▁edge	-5665
▁mark	-5666
▁runs	-5667
umping	-5668
▁birds	-5669
▁bowel	-5670
▁helps	-5671
▁incon	-5672
▁inner	-5673
▁greasy	-5674
▁studio	-5675
▁massage	-5676
▁affected	-5677
▁audience	-5678
▁searched	-5679
▁symptoms	-5680
▁tangerine	-5681
▁distracted	-5682
nal	-5683
▁ut	-5684
gend	-5685
osis	-5686
▁Jim	-5687
seven	-5688
▁cock	-5689
▁pear	-5690
▁poem	-5691
▁vice	-5692
uesday	-5693
▁diary	-5694
▁greet	-5695
▁solid	-5696
▁caused	-5697
▁device	-5698
▁genres	-5699
▁peeled	-5700
▁signed	-5701
▁sparse	-5702
▁speech	-5703
▁degrees	-5704
▁perilla	-5705
▁elevator	-5706
▁necklace	-5707
▁childhood	-5708
▁structure	-5709
▁unexpected	-5710
ti	-5711
ony	-5712
por	-5713
icide	-5714
rient	-5715
uding	-5716
▁Stud	-5717
▁bump	-5718
igence	-5719
▁Temple	-5720
▁brings	-5721
▁sprink	-5722
▁warmer	-5723
quarters	-5724
▁begging	-5725
▁wanting	-5726
▁annivers	-5727
▁decorate	-5728
▁Australia	-5729
▁practiced	-5730
▁intestines	-5731
sa	-5732
aced	-5733
gers	-5734
▁Dis	-5735
▁Six	-5736
▁rap	-5737
▁unp	-5738
etime	-5739
▁Ever	-5740
▁rush	-5741
minton	-5742
▁idols	-5743
▁messy	-5744
▁tower	-5745
▁poetry	-5746
▁shared	-5747
▁victim	-5748
▁counter	-5749
▁reviews	-5750
▁Itinally	-5751
▁patients	-5752
▁tourists	-5753
▁warehouse	-5754
agn	-5755
alf	-5756
▁Joe	-5757
▁log	-5758
amboo	-5759
eight	-5760
esome	-5761
myeon	-5762
▁leng	-5763
▁lock	-5764
▁rope	-5765
▁Mokpo	-5766
▁River	-5767
▁Youll	-5768
▁robot	-5769
▁scale	-5770
ciation	-5771
▁battle	-5772
▁dragon	-5773
▁Tuesday	-5774
▁carrots	-5775
▁digging	-5776
▁bleeding	-5777
▁Southeast	-5778
▁chopsticks	-5779
▁commercial	-5780
sc	-5781
ohy	-5782
uals	-5783
agues	-5784
atang	-5785
atory	-5786
haust	-5787
ilipp	-5788
▁York	-5789
▁iPad	-5790
▁absor	-5791
▁motiv	-5792
▁postp	-5793
▁bodies	-5794
▁clouds	-5795
▁plants	-5796
▁sweets	-5797
atically	-5798
▁Philipp	-5799
▁achieve	-5800
▁exhaust	-5801
▁attitude	-5802
▁reaction	-5803
▁resident	-5804
▁engineering	-5805
kn	-5806
gen	-5807
guk	-5808
ori	-5809
uls	-5810
▁Wil	-5811
▁tut	-5812
▁term	-5813
handed	-5814
▁chewy	-5815
▁cough	-5816
▁grabb	-5817
▁maple	-5818
▁recru	-5819
▁trips	-5820
▁twins	-5821
▁youth	-5822
▁contac	-5823
▁lawyer	-5824
▁region	-5825
▁garbage	-5826
▁packing	-5827
▁diligent	-5828
▁apartments	-5829
▁disgusting	-5830
▁techniques	-5831
het	-5832
ixt	-5833
ocks	-5834
▁Choi	-5835
▁fist	-5836
▁gins	-5837
▁charm	-5838
▁safety	-5839
▁strict	-5840
▁captain	-5841
▁consult	-5842
▁defense	-5843
▁someday	-5844
▁accepted	-5845
▁admitted	-5846
▁avoiding	-5847
▁chickens	-5848
▁location	-5849
▁recording	-5850
▁colleagues	-5851
▁strengthen	-5852
onditionally	-5853
▁headquarters	-5854
▁particularly	-5855
ownt	-5856
▁Dra	-5857
▁fer	-5858
▁pra	-5859
ators	-5860
▁betr	-5861
▁dess	-5862
▁repl	-5863
▁ripe	-5864
▁Bible	-5865
▁adapt	-5866
▁doubt	-5867
▁baking	-5868
▁signal	-5869
fficient	-5870
▁reasons	-5871
▁dreaming	-5872
▁pharmacy	-5873
▁violence	-5874
▁officials	-5875
▁spreading	-5876
▁friendship	-5877
uma	-5878
▁Jo	-5879
▁Ky	-5880
▁um	-5881
ilos	-5882
inal	-5883
jong	-5884
▁Mal	-5885
▁Per	-5886
class	-5887
orrow	-5888
useok	-5889
▁Bang	-5890
▁Both	-5891
▁quar	-5892
▁torn	-5893
▁blows	-5894
▁curly	-5895
▁inher	-5896
▁newly	-5897
▁shown	-5898
▁French	-5899
▁issues	-5900
▁stepped	-5901
▁vinegar	-5902
▁worries	-5903
▁Catholic	-5904
▁conflict	-5905
▁celebrate	-5906
▁container	-5907
▁graduating	-5908
▁hospitalized	-5909
▁transportation	-5910
da	-5911
xy	-5912
jun	-5913
olli	-5914
icted	-5915
range	-5916
▁Itll	-5917
▁Life	-5918
▁Shut	-5919
▁cows	-5920
▁plus	-5921
▁Shees	-5922
▁blunt	-5923
▁earned	-5924
▁expert	-5925
▁museum	-5926
▁repair	-5927
▁sticky	-5928
▁sunset	-5929
▁target	-5930
▁tempor	-5931
▁toward	-5932
▁closely	-5933
▁staring	-5934
▁therapy	-5935
▁trained	-5936
▁violent	-5937
▁allergic	-5938
▁chairman	-5939
▁talented	-5940
▁volunteer	-5941
▁Philippines	-5942
▁experiences	-5943
▁sisterinlaw	-5944
▁unconditionally	-5945
ba	-5946
val	-5947
▁Ag	-5948
rimin	-5949
▁circ	-5950
▁crap	-5951
▁fart	-5952
ffered	-5953
ilosop	-5954
mented	-5955
though	-5956
▁Still	-5957
▁chili	-5958
▁exist	-5959
▁roots	-5960
▁stiff	-5961
▁track	-5962
▁fights	-5963
▁diverse	-5964
▁jackets	-5965
▁serving	-5966
ification	-5967
▁suffered	-5968
▁sharehold	-5969
▁collecting	-5970
▁industrial	-5971
yes	-5972
alled	-5973
olute	-5974
▁Russ	-5975
▁harm	-5976
▁scri	-5977
▁grows	-5978
▁legal	-5979
▁rolls	-5980
▁bamboo	-5981
▁ginger	-5982
▁switch	-5983
▁gaining	-5984
▁mission	-5985
▁Iveathed	-5986
▁upstairs	-5987
▁wrinkles	-5988
▁individual	-5989
▁production	-5990
bl	-5991
00.	-5992
bing	-5993
▁Ima	-5994
▁Jes	-5995
▁thr	-5996
ality	-5997
▁Each	-5998
▁Star	-5999
▁none	-6000
geolli	-6001
▁downt	-6002
▁medium	-6003
▁shadow	-6004
▁England	-6005
▁anytime	-6006
▁asshole	-6007
▁stabbed	-6008
▁Children	-6009
▁believed	-6010
▁philosop	-6011
▁political	-6012
▁suspicious	-6013
▁Grandmother	-6014
▁anniversary	-6015
▁generations	-6016
ify	-6017
▁Bab	-6018
▁Car	-6019
▁Jae	-6020
▁gro	-6021
▁jew	-6022
known	-6023
mploy	-6024
▁Love	-6025
▁liqu	-6026
▁lump	-6027
▁pile	-6028
▁spit	-6029
▁tatt	-6030
▁displ	-6031
▁wheat	-6032
▁booked	-6033
▁picnic	-6034
▁ripped	-6035
▁beating	-6036
▁contest	-6037
▁illegal	-6038
▁oysters	-6039
▁romantic	-6040
▁perception	-6041
ril	-6042
▁AI	-6043
▁ge	-6044
illy	-6045
ires	-6046
▁Mac	-6047
▁Red	-6048
▁Gong	-6049
▁Trot	-6050
▁bars	-6051
▁fond	-6052
▁mold	-6053
▁suck	-6054
inking	-6055
ipping	-6056
▁Money	-6057
▁arrog	-6058
▁consu	-6059
▁theme	-6060
▁actual	-6061
▁rolled	-6062
▁theyll	-6063
▁thorns	-6064
cription	-6065
▁carbohy	-6066
▁eyelids	-6067
▁ginseng	-6068
▁scholar	-6069
▁stadium	-6070
▁ignorant	-6071
▁machines	-6072
▁recorded	-6073
▁discrimin	-6074
▁interpret	-6075
▁Ho	-6076
ibly	-6077
▁cod	-6078
▁gum	-6079
▁sav	-6080
illed	-6081
rents	-6082
▁bold	-6083
▁boun	-6084
▁jour	-6085
▁prem	-6086
keting	-6087
▁Lotte	-6088
▁Ulsan	-6089
▁bound	-6090
▁minim	-6091
▁prett	-6092
▁twent	-6093
▁whose	-6094
▁divide	-6095
▁errand	-6096
▁fucked	-6097
▁includ	-6098
▁length	-6099
▁sleeps	-6100
▁Chuseok	-6101
▁awesome	-6102
▁freezing	-6103
▁inconven	-6104
▁invested	-6105
▁nickname	-6106
▁reported	-6107
▁cucumbers	-6108
▁disadvantages	-6109
ops	-6110
vey	-6111
cked	-6112
erob	-6113
▁Guy	-6114
▁Sin	-6115
▁gel	-6116
estee	-6117
nable	-6118
▁Hwang	-6119
▁ankle	-6120
▁aware	-6121
▁hates	-6122
▁Little	-6123
▁create	-6124
▁filmed	-6125
▁multip	-6126
▁pastor	-6127
▁anybody	-6128
▁balance	-6129
▁bothers	-6130
▁channel	-6131
▁lacking	-6132
▁overall	-6133
▁Tomorrow	-6134
▁applying	-6135
▁generous	-6136
▁reminded	-6137
▁bothering	-6138
▁depression	-6139
▁international	-6140
car	-6141
▁pm	-6142
seok	-6143
ummer	-6144
▁Fore	-6145
▁Sung	-6146
▁Very	-6147
▁dull	-6148
ctions	-6149
▁diets	-6150
▁expand	-6151
▁passes	-6152
▁ballads	-6153
▁confess	-6154
▁sharing	-6155
▁vitamin	-6156
▁checking	-6157
▁pleasure	-6158
▁swearing	-6159
▁thorough	-6160
▁worrying	-6161
▁collapsed	-6162
▁Ok	-6163
atok	-6164
coal	-6165
▁Too	-6166
istry	-6167
ombie	-6168
orses	-6169
▁calf	-6170
▁chem	-6171
▁rose	-6172
▁slee	-6173
▁weap	-6174
ursday	-6175
ushing	-6176
▁boots	-6177
▁shiny	-6178
▁skill	-6179
▁Buddha	-6180
▁caring	-6181
▁classm	-6182
▁method	-6183
▁ninety	-6184
▁skirts	-6185
▁roasted	-6186
▁shorter	-6187
▁Hospital	-6188
▁Thursday	-6189
▁downtown	-6190
▁decreased	-6191
▁dormitory	-6192
▁including	-6193
▁investing	-6194
▁makgeolli	-6195
▁physically	-6196
▁En	-6197
ulty	-6198
▁Old	-6199
▁Tra	-6200
▁Yeon	-6201
▁soil	-6202
▁tens	-6203
lished	-6204
▁Grant	-6205
▁Uncle	-6206
▁cooks	-6207
▁dryer	-6208
▁encou	-6209
▁finds	-6210
▁prior	-6211
▁south	-6212
▁spoke	-6213
▁agency	-6214
▁dashed	-6215
▁grandk	-6216
▁nights	-6217
▁script	-6218
▁skiing	-6219
▁thighs	-6220
▁ancient	-6221
▁chasing	-6222
▁recover	-6223
▁Olympics	-6224
▁advantages	-6225
▁population	-6226
▁dy	-6227
ancy	-6228
iant	-6229
izes	-6230
keep	-6231
oked	-6232
▁Mus	-6233
adays	-6234
▁rule	-6235
▁stro	-6236
esteem	-6237
▁awake	-6238
▁blown	-6239
▁jeans	-6240
▁Jeonju	-6241
▁athlet	-6242
▁belong	-6243
▁scient	-6244
▁concern	-6245
▁encount	-6246
▁harvest	-6247
▁revenge	-6248
▁charcoal	-6249
▁solution	-6250
▁classroom	-6251
▁gradually	-6252
▁strangely	-6253
▁instructor	-6254
▁punishment	-6255
▁Fortunately	-6256
▁introverted	-6257
▁broadcasting	-6258
▁investigation	-6259
▁recommendation	-6260
bu	-6261
amm	-6262
reg	-6263
▁BT	-6264
▁Ta	-6265
hest	-6266
nast	-6267
uary	-6268
▁Ans	-6269
▁Rep	-6270
▁mul	-6271
grand	-6272
▁Find	-6273
▁Over	-6274
▁stic	-6275
▁till	-6276
▁claim	-6277
▁jewel	-6278
▁bitten	-6279
▁closet	-6280
▁mindset	-6281
▁licenses	-6282
▁lifetime	-6283
▁Christianity	-6284
sed	-6285
bang	-6286
haps	-6287
ially	-6288
▁Phew	-6289
▁Time	-6290
▁file	-6291
▁frequ	-6292
▁roads	-6293
leyball	-6294
▁Spring	-6295
▁cutlet	-6296
▁zombie	-6297
▁ceiling	-6298
▁grabbed	-6299
▁healing	-6300
▁watches	-6301
▁Otherwise	-6302
▁selfesteem	-6303
▁volleyball	-6304
iva	-6305
ucle	-6306
▁Col	-6307
▁vom	-6308
ament	-6309
randa	-6310
drates	-6311
▁aerob	-6312
▁areas	-6313
▁wakes	-6314
reaking	-6315
▁aspect	-6316
▁castle	-6317
▁demand	-6318
▁flavor	-6319
▁hiphop	-6320
▁rating	-6321
▁trendy	-6322
▁posture	-6323
▁veranda	-6324
▁Recently	-6325
▁colorful	-6326
▁collection	-6327
▁intelligence	-6328
asc	-6329
anta	-6330
erty	-6331
have	-6332
reed	-6333
▁Run	-6334
water	-6335
▁carp	-6336
▁load	-6337
▁oven	-6338
▁vest	-6339
▁Harry	-6340
▁Italy	-6341
▁Looks	-6342
▁refer	-6343
▁corpor	-6344
▁horses	-6345
▁settle	-6346
ervative	-6347
▁Gangnam	-6348
▁nagging	-6349
▁suicide	-6350
▁immunity	-6351
▁desperate	-6352
▁consumption	-6353
ido	-6354
▁Hi	-6355
lfare	-6356
▁Chun	-6357
▁melt	-6358
▁subt	-6359
▁accur	-6360
▁coach	-6361
▁crabs	-6362
▁genet	-6363
▁herbs	-6364
▁magic	-6365
▁tasty	-6366
▁windy	-6367
▁custom	-6368
▁degree	-6369
▁golden	-6370
▁grandd	-6371
▁cousins	-6372
▁replace	-6373
▁welfare	-6374
▁tomatoes	-6375
▁pretended	-6376
▁instrument	-6377
▁professors	-6378
▁necessarily	-6379
.,	-6380
fly	-6381
ura	-6382
urd	-6383
▁LG	-6384
▁ah	-6385
dies	-6386
otic	-6387
reen	-6388
▁Bar	-6389
ivity	-6390
▁bast	-6391
▁soul	-6392
▁stam	-6393
ensive	-6394
▁Throw	-6395
▁broth	-6396
▁bunge	-6397
▁naive	-6398
riental	-6399
▁Market	-6400
▁Wellat	-6401
▁clinic	-6402
▁hairst	-6403
▁lesson	-6404
▁dreamed	-6405
▁ignored	-6406
▁homeroom	-6407
▁register	-6408
▁treating	-6409
▁weakness	-6410
▁completed	-6411
▁connection	-6412
▁understanding	-6413
ev	-6414
alm	-6415
huh	-6416
lor	-6417
olk	-6418
ula	-6419
umi	-6420
alty	-6421
cken	-6422
lete	-6423
lies	-6424
▁Hye	-6425
▁Som	-6426
aging	-6427
xygen	-6428
▁Tere	-6429
▁tiss	-6430
▁zone	-6431
ooking	-6432
overed	-6433
▁Seung	-6434
▁react	-6435
▁shops	-6436
▁tries	-6437
▁noodle	-6438
▁theory	-6439
▁trauma	-6440
▁bracken	-6441
▁craving	-6442
▁happily	-6443
▁operate	-6444
▁removed	-6445
▁speaker	-6446
▁thasked	-6447
▁yelling	-6448
▁Marriage	-6449
▁branches	-6450
▁calories	-6451
▁Gyeongsang	-6452
▁determined	-6453
▁presentation	-6454
▁carbohydrates	-6455
jo	-6456
hic	-6457
pan	-6458
pir	-6459
each	-6460
▁dea	-6461
▁dug	-6462
▁poo	-6463
▁san	-6464
▁Brit	-6465
▁Imin	-6466
▁Yong	-6467
▁orch	-6468
really	-6469
ternal	-6470
▁Years	-6471
▁alike	-6472
▁bakery	-6473
▁budget	-6474
▁mostly	-6475
▁Germany	-6476
▁illness	-6477
▁respond	-6478
▁retired	-6479
▁Hallasan	-6480
▁criminal	-6481
▁decorated	-6482
▁difficulty	-6483
▁identified	-6484
▁relatively	-6485
▁.	-6486
jae	-6487
run	-6488
aming	-6489
▁cans	-6490
▁ping	-6491
▁skew	-6492
ailand	-6493
▁champ	-6494
▁goose	-6495
▁maker	-6496
▁sauna	-6497
▁trial	-6498
▁walls	-6499
▁Almost	-6500
▁Winter	-6501
▁absurd	-6502
▁bubble	-6503
▁cursed	-6504
▁freely	-6505
▁priest	-6506
▁reflect	-6507
▁Thailand	-6508
▁concerts	-6509
▁reliable	-6510
▁scratched	-6511
▁stretched	-6512
▁prosecutor	-6513
▁revolution	-6514
cel	-6515
ipt	-6516
mons	-6517
▁Ann	-6518
▁Fin	-6519
▁Pot	-6520
▁Ste	-6521
▁nor	-6522
▁tap	-6523
▁uns	-6524
place	-6525
▁Geum	-6526
▁choo	-6527
▁hits	-6528
▁host	-6529
▁inse	-6530
▁Girls	-6531
▁Start	-6532
▁alumn	-6533
▁goals	-6534
▁oppon	-6535
▁shook	-6536
▁vehic	-6537
ography	-6538
▁Except	-6539
▁bullet	-6540
▁killer	-6541
▁prince	-6542
▁injured	-6543
▁pickled	-6544
▁absolute	-6545
▁squeezed	-6546
▁wasteful	-6547
▁complexes	-6548
▁documents	-6549
▁injection	-6550
pang	-6551
sels	-6552
▁Pre	-6553
▁Work	-6554
▁sett	-6555
▁tiny	-6556
▁tuna	-6557
▁Itins	-6558
▁chain	-6559
▁shall	-6560
ability	-6561
▁oxygen	-6562
▁source	-6563
▁blossom	-6564
▁surface	-6565
▁controvers	-6566
▁mosquitoes	-6567
▁complaining	-6568
▁expectations	-6569
ongratulations	-6570
wr	-6571
xic	-6572
alse	-6573
chan	-6574
▁une	-6575
▁wis	-6576
could	-6577
▁orph	-6578
▁scam	-6579
▁soph	-6580
▁zero	-6581
▁India	-6582
▁cheat	-6583
▁clock	-6584
▁delic	-6585
▁fairy	-6586
▁punch	-6587
▁unfam	-6588
raction	-6589
▁boiler	-6590
▁comics	-6591
▁spices	-6592
▁stands	-6593
▁sticks	-6594
▁womens	-6595
lassfish	-6596
▁crushed	-6597
▁intense	-6598
▁puberty	-6599
▁receipt	-6600
▁smelled	-6601
▁species	-6602
▁advanced	-6603
▁keyboard	-6604
▁notebook	-6605
▁pancakes	-6606
▁stopping	-6607
▁uploaded	-6608
▁developing	-6609
▁situations	-6610
▁cutlassfish	-6611
eel	-6612
mel	-6613
two	-6614
eter	-6615
▁Dan	-6616
▁dot	-6617
▁unh	-6618
▁voc	-6619
inate	-6620
▁Home	-6621
▁Live	-6622
▁cane	-6623
▁youd	-6624
alleng	-6625
▁Jesus	-6626
▁noble	-6627
▁sword	-6628
▁chives	-6629
▁downlo	-6630
▁motion	-6631
▁excuses	-6632
▁Thinking	-6633
▁flexible	-6634
▁Everybody	-6635
▁elsewhere	-6636
▁unfamiliar	-6637
ami	-6638
ogi	-6639
opy	-6640
▁Mi	-6641
Well	-6642
jung	-6643
reum	-6644
▁Boy	-6645
▁Bye	-6646
▁Jan	-6647
▁Pri	-6648
▁pou	-6649
▁wid	-6650
shirt	-6651
▁Taek	-6652
tering	-6653
velope	-6654
▁clams	-6655
▁flood	-6656
▁funds	-6657
yearold	-6658
▁Marvel	-6659
▁Others	-6660
▁farmer	-6661
▁impact	-6662
▁savory	-6663
▁comment	-6664
▁explode	-6665
▁located	-6666
▁managed	-6667
▁pouring	-6668
▁suspect	-6669
▁envelope	-6670
▁interior	-6671
▁minister	-6672
▁subjects	-6673
▁twenties	-6674
▁guarantee	-6675
▁hairstyle	-6676
▁marketing	-6677
▁penthouse	-6678
▁heartbreaking	-6679
eam	-6680
▁Co	-6681
▁ds	-6682
▁ho	-6683
▁ja	-6684
reak	-6685
▁BTS	-6686
▁Mid	-6687
▁Sup	-6688
heart	-6689
▁pros	-6690
uclear	-6691
▁House	-6692
▁adopt	-6693
▁freak	-6694
▁pound	-6695
▁shift	-6696
▁chased	-6697
▁explod	-6698
▁murder	-6699
▁reveal	-6700
▁thught	-6701
▁timing	-6702
▁highway	-6703
▁Compared	-6704
▁Gyeongju	-6705
▁ordering	-6706
▁sentence	-6707
▁essential	-6708
▁sophistic	-6709
▁Ga	-6710
▁Ja	-6711
ober	-6712
▁AirP	-6713
▁bond	-6714
▁sake	-6715
▁Whose	-6716
▁coron	-6717
▁rocks	-6718
▁walks	-6719
▁Thirty	-6720
▁artist	-6721
▁discip	-6722
▁mature	-6723
▁needle	-6724
▁thrown	-6725
▁daycare	-6726
▁regrets	-6727
▁version	-6728
▁millions	-6729
▁opinions	-6730
▁parttimers	-6731
▁understood	-6732
▁considering	-6733
▁instruments	-6734
la	-6735
hye	-6736
agon	-6737
cade	-6738
free	-6739
ingu	-6740
rant	-6741
whel	-6742
▁Haw	-6743
▁Hot	-6744
▁Soo	-6745
▁mop	-6746
gment	-6747
isher	-6748
order	-6749
roken	-6750
▁Four	-6751
cheong	-6752
▁agent	-6753
▁brief	-6754
▁colon	-6755
▁exhib	-6756
▁fries	-6757
▁gotta	-6758
▁sunny	-6759
▁towel	-6760
▁wiped	-6761
unities	-6762
▁orphan	-6763
▁shares	-6764
▁Pilates	-6765
▁interfe	-6766
▁YouTuber	-6767
▁covering	-6768
▁episodes	-6769
▁freshman	-6770
▁stealing	-6771
▁teenager	-6772
▁community	-6773
▁influence	-6774
▁realizing	-6775
▁Department	-6776
▁motorcycles	-6777
▁transferred	-6778
▁organization	-6779
▁granddaughter	-6780
oir	-6781
rus	-6782
str	-6783
▁II	-6784
inks	-6785
ware	-6786
▁Shes	-6787
▁bark	-6788
▁buff	-6789
▁glob	-6790
▁hugg	-6791
▁outs	-6792
▁rode	-6793
▁sung	-6794
▁Water	-6795
▁asset	-6796
▁joint	-6797
▁remar	-6798
▁spect	-6799
▁wrist	-6800
▁decent	-6801
▁dispos	-6802
▁frying	-6803
▁hoping	-6804
▁latest	-6805
▁papers	-6806
▁silent	-6807
▁Teacher	-6808
▁actions	-6809
▁benefit	-6810
▁emotion	-6811
▁masterp	-6812
▁payment	-6813
▁remains	-6814
▁Answered	-6815
▁challeng	-6816
▁overwhel	-6817
▁backwards	-6818
▁psychology	-6819
▁installment	-6820
iti	-6821
ols	-6822
overs	-6823
table	-6824
▁acid	-6825
▁hook	-6826
▁lake	-6827
▁loos	-6828
▁magn	-6829
▁meas	-6830
▁nost	-6831
▁trim	-6832
acious	-6833
ieving	-6834
▁erase	-6835
▁north	-6836
▁paras	-6837
▁wings	-6838
agement	-6839
▁France	-6840
▁closing	-6841
▁exposed	-6842
▁finding	-6843
▁jewelry	-6844
▁writers	-6845
▁slippery	-6846
▁neighbors	-6847
▁broadcasts	-6848
▁combination	-6849
▁sophisticated	-6850
▁characteristics	-6851
boy	-6852
ige	-6853
▁Gun	-6854
▁Oct	-6855
▁Swe	-6856
▁beg	-6857
▁cro	-6858
▁led	-6859
▁ult	-6860
aries	-6861
ierce	-6862
irrel	-6863
▁defe	-6864
▁fert	-6865
▁junk	-6866
▁mini	-6867
▁Cheon	-6868
▁argue	-6869
▁bland	-6870
▁roses	-6871
▁ghosts	-6872
▁rising	-6873
▁thirst	-6874
▁thread	-6875
▁dessert	-6876
▁unhappy	-6877
▁visited	-6878
▁entering	-6879
▁prettier	-6880
▁selected	-6881
ifications	-6882
has	-6883
wed	-6884
onse	-6885
▁Cup	-6886
▁Dam	-6887
▁Gar	-6888
▁opt	-6889
rings	-6890
▁Capt	-6891
▁Chan	-6892
▁Mart	-6893
▁Walk	-6894
▁bury	-6895
▁drum	-6896
▁fate	-6897
▁pest	-6898
iously	-6899
▁dynam	-6900
▁liber	-6901
▁shade	-6902
▁steel	-6903
sidered	-6904
▁Doesnt	-6905
▁Person	-6906
▁hardly	-6907
▁hourly	-6908
▁strike	-6909
▁Captain	-6910
▁earrings	-6911
▁ignoring	-6912
▁seasonal	-6913
▁explained	-6914
▁housework	-6915
▁paperwork	-6916
▁regretted	-6917
▁facilities	-6918
▁meticulous	-6919
▁considerate	-6920
▁heartbroken	-6921
▁difficulties	-6922
ST	-6923
con	-6924
jud	-6925
▁Hw	-6926
▁wo	-6927
semb	-6928
▁nap	-6929
ching	-6930
ender	-6931
▁Haha	-6932
▁fasc	-6933
▁lean	-6934
▁skip	-6935
▁Guang	-6936
▁anest	-6937
▁bangs	-6938
▁drown	-6939
▁knock	-6940
▁ranch	-6941
aration	-6942
▁Adults	-6943
▁Socept	-6944
▁Wouldn	-6945
▁distin	-6946
▁drawer	-6947
▁genius	-6948
▁legend	-6949
▁shorts	-6950
▁central	-6951
▁jumping	-6952
▁praying	-6953
▁quarter	-6954
▁blessing	-6955
▁oriental	-6956
▁spacious	-6957
▁badminton	-6958
▁additional	-6959
▁scholarship	-6960
▁opportunities	-6961
0-	-6962
pot	-6963
▁El	-6964
▁Ham	-6965
▁Sur	-6966
▁wll	-6967
ailed	-6968
ulate	-6969
▁Itot	-6970
▁asso	-6971
▁pant	-6972
▁Clean	-6973
▁Spain	-6974
▁angel	-6975
▁chart	-6976
▁loses	-6977
▁recip	-6978
▁slope	-6979
▁During	-6980
▁accent	-6981
▁beggar	-6982
▁biting	-6983
▁circum	-6984
▁crispy	-6985
▁dramat	-6986
▁invite	-6987
▁melted	-6988
▁prejud	-6989
▁rented	-6990
▁saliva	-6991
▁slower	-6992
▁spoons	-6993
▁vision	-6994
▁Itantly	-6995
▁Itinted	-6996
▁absence	-6997
▁invited	-6998
▁opposed	-6999
▁sympath	-7000
▁texture	-7001
▁articles	-7002
▁everyday	-7003
▁revealed	-7004
▁watermel	-7005
▁committed	-7006
▁continues	-7007
▁exhausted	-7008
▁perfectly	-7009
▁temporary	-7010
▁beautifully	-7011
cts	-7012
born	-7013
izer	-7014
temp	-7015
word	-7016
▁Hit	-7017
▁San	-7018
▁blo	-7019
▁cha	-7020
▁wot	-7021
ggest	-7022
verse	-7023
▁Year	-7024
▁soda	-7025
▁bills	-7026
▁fraud	-7027
▁mouse	-7028
▁ratio	-7029
▁spark	-7030
▁swing	-7031
▁affect	-7032
▁arrive	-7033
▁deeper	-7034
▁joking	-7035
▁kidney	-7036
▁neatly	-7037
▁tissue	-7038
▁turtle	-7039
▁empathy	-7040
▁endured	-7041
▁lottery	-7042
▁diseases	-7043
▁repeated	-7044
▁strongly	-7045
▁wireless	-7046
▁wonderful	-7047
▁reasonable	-7048
▁constitution	-7049
Yes	-7050
ora	-7051
uet	-7052
upp	-7053
usi	-7054
▁Ser	-7055
▁tag	-7056
itute	-7057
stick	-7058
▁gosh	-7059
▁ruin	-7060
▁Heung	-7061
▁avail	-7062
▁citiz	-7063
▁dough	-7064
▁drone	-7065
▁toast	-7066
▁weigh	-7067
▁Disney	-7068
▁annual	-7069
▁immers	-7070
▁propos	-7071
▁apology	-7072
▁deliber	-7073
▁dentist	-7074
▁pointed	-7075
▁suggest	-7076
▁accurate	-7077
▁focusing	-7078
▁Taekwondo	-7079
▁teenagers	-7080
▁comforting	-7081
▁supplement	-7082
▁entertainers	-7083
eo	-7084
ka	-7085
ald	-7086
ban	-7087
zes	-7088
▁MC	-7089
▁Tok	-7090
▁han	-7091
▁lar	-7092
aters	-7093
erves	-7094
▁dung	-7095
▁laid	-7096
▁Chang	-7097
▁Write	-7098
▁drops	-7099
▁moves	-7100
▁piled	-7101
▁stamp	-7102
▁sting	-7103
▁agreed	-7104
▁candle	-7105
▁circul	-7106
▁harmon	-7107
▁pyeong	-7108
▁salmon	-7109
▁shells	-7110
▁Iveried	-7111
▁blessed	-7112
▁breasts	-7113
▁climbed	-7114
▁crossed	-7115
▁filling	-7116
▁filming	-7117
▁nuclear	-7118
▁section	-7119
▁tightly	-7120
▁contrary	-7121
▁document	-7122
▁meetings	-7123
▁musicals	-7124
▁reducing	-7125
▁supplies	-7126
▁hospitals	-7127
▁housewife	-7128
▁operation	-7129
▁promotion	-7130
▁secretary	-7131
▁popularity	-7132
▁concentrate	-7133
▁deliciously	-7134
▁underground	-7135
ov	-7136
oph	-7137
hyth	-7138
iful	-7139
live	-7140
ores	-7141
ubby	-7142
▁Sal	-7143
▁Sim	-7144
▁loy	-7145
▁sed	-7146
▁ves	-7147
▁wit	-7148
urred	-7149
▁Iman	-7150
▁hood	-7151
▁rank	-7152
▁shab	-7153
▁soak	-7154
▁Seven	-7155
▁backs	-7156
▁cared	-7157
▁doors	-7158
▁lease	-7159
▁sandw	-7160
▁Tereby	-7161
▁Wellen	-7162
▁attach	-7163
▁grocer	-7164
▁herbal	-7165
▁nobody	-7166
▁poured	-7167
▁remote	-7168
▁server	-7169
▁October	-7170
▁bloated	-7171
▁highest	-7172
jangmyeon	-7173
▁addicted	-7174
▁judgment	-7175
▁lectures	-7176
▁normally	-7177
▁squirrel	-7178
▁struggle	-7179
▁available	-7180
▁specialty	-7181
dra	-7182
rup	-7183
olds	-7184
▁Lim	-7185
▁Tot	-7186
▁phe	-7187
oseon	-7188
▁Nike	-7189
▁Ween	-7190
▁fare	-7191
▁lies	-7192
▁Asian	-7193
▁Hawai	-7194
▁false	-7195
▁menop	-7196
▁opens	-7197
▁adding	-7198
▁beings	-7199
▁cloudy	-7200
▁folded	-7201
▁grapes	-7202
▁joints	-7203
▁nation	-7204
▁overdo	-7205
▁refund	-7206
▁uncles	-7207
▁unlike	-7208
▁bastard	-7209
▁capable	-7210
▁display	-7211
▁follows	-7212
▁housing	-7213
▁parties	-7214
▁settled	-7215
▁promoted	-7216
▁thriller	-7217
▁Depending	-7218
▁YouTubers	-7219
▁destroyed	-7220
▁considered	-7221
▁contacting	-7222
▁stretching	-7223
▁examination	-7224
▁Ed	-7225
irus	-7226
oices	-7227
▁Mong	-7228
▁bugs	-7229
▁lact	-7230
▁saus	-7231
▁tack	-7232
▁tube	-7233
urning	-7234
▁bowls	-7235
▁equal	-7236
▁fishy	-7237
▁humor	-7238
▁outer	-7239
▁rings	-7240
▁stain	-7241
▁sweep	-7242
▁altern	-7243
▁alumni	-7244
▁counse	-7245
▁global	-7246
▁nurses	-7247
▁palace	-7248
▁rental	-7249
▁safely	-7250
▁hamster	-7251
▁peaches	-7252
▁refrain	-7253
▁springs	-7254
▁weekday	-7255
▁burdened	-7256
▁response	-7257
▁sacrific	-7258
▁ancestors	-7259
▁buildings	-7260
▁accounting	-7261
▁registered	-7262
▁electronics	-7263
▁fortunately	-7264
bow	-7265
yeo	-7266
▁ID	-7267
chun	-7268
door	-7269
▁Ant	-7270
▁Aug	-7271
▁Res	-7272
going	-7273
▁anal	-7274
▁laws	-7275
▁phen	-7276
cerity	-7277
erable	-7278
itious	-7279
member	-7280
▁Shece	-7281
▁bache	-7282
▁cries	-7283
▁graph	-7284
▁rural	-7285
▁spill	-7286
▁wider	-7287
▁supply	-7288
▁widely	-7289
▁affairs	-7290
▁balloon	-7291
▁announce	-7292
▁expressed	-7293
▁landscape	-7294
▁memorized	-7295
▁sincerity	-7296
▁supported	-7297
▁experiment	-7298
▁advertising	-7299
▁girlfriends	-7300
▁administration	-7301
You	-7302
fac	-7303
▁Av	-7304
down	-7305
kins	-7306
race	-7307
▁Bad	-7308
▁bib	-7309
anged	-7310
ppong	-7311
▁Save	-7312
▁Week	-7313
▁acne	-7314
▁reck	-7315
▁reun	-7316
atient	-7317
▁aside	-7318
▁backp	-7319
▁careg	-7320
▁clubs	-7321
▁flies	-7322
▁melts	-7323
▁peach	-7324
▁route	-7325
▁tools	-7326
▁Middle	-7327
▁escape	-7328
▁rights	-7329
▁autonom	-7330
▁causing	-7331
▁climate	-7332
▁crooked	-7333
▁unknown	-7334
▁windows	-7335
▁deceived	-7336
▁province	-7337
▁quitting	-7338
▁stranger	-7339
▁suitable	-7340
▁luxurious	-7341
▁nutrition	-7342
▁forgetting	-7343
▁affectionate	-7344
▁conservative	-7345
▁acquaintances	-7346
urt	-7347
osen	-7348
▁Emp	-7349
▁Ess	-7350
▁der	-7351
▁lit	-7352
▁mud	-7353
alone	-7354
ublic	-7355
▁Tong	-7356
▁arch	-7357
▁cush	-7358
▁mans	-7359
▁pole	-7360
▁scat	-7361
▁sham	-7362
▁surf	-7363
assion	-7364
▁Drink	-7365
▁Hongs	-7366
▁Tokyo	-7367
▁Auntie	-7368
▁prayed	-7369
▁stolen	-7370
▁stuffy	-7371
ffective	-7372
▁grocery	-7373
▁mystery	-7374
▁paddies	-7375
▁solving	-7376
▁spinach	-7377
▁Remember	-7378
▁arrogant	-7379
▁choosing	-7380
▁dragging	-7381
▁malatang	-7382
▁nowadays	-7383
▁priority	-7384
▁thankful	-7385
▁treasure	-7386
▁bathhouse	-7387
▁religions	-7388
▁counseling	-7389
▁persimmons	-7390
▁supporting	-7391
▁recommendations	-7392
ama	-7393
cue	-7394
soo	-7395
shit	-7396
ures	-7397
▁den	-7398
▁dip	-7399
▁fog	-7400
cking	-7401
elled	-7402
quake	-7403
sized	-7404
▁Weve	-7405
▁fuss	-7406
▁horm	-7407
▁jail	-7408
▁knit	-7409
▁pron	-7410
▁synt	-7411
▁tips	-7412
isions	-7413
oppang	-7414
▁Stand	-7415
▁Wasnt	-7416
▁plums	-7417
▁stops	-7418
▁virus	-7419
ongress	-7420
▁Canada	-7421
▁chosen	-7422
▁drones	-7423
▁prayer	-7424
▁proced	-7425
▁refuse	-7426
▁soaked	-7427
▁strate	-7428
▁listens	-7429
▁orchard	-7430
▁pollack	-7431
▁profits	-7432
▁quarant	-7433
▁counting	-7434
▁sprinkle	-7435
▁administr	-7436
▁confusing	-7437
▁interfere	-7438
▁menopause	-7439
▁boyfriends	-7440
▁complaints	-7441
▁philosophy	-7442
▁preparation	-7443
box	-7444
hab	-7445
▁Dy	-7446
▁Si	-7447
Mart	-7448
aped	-7449
bong	-7450
ndom	-7451
oted	-7452
roid	-7453
▁Ele	-7454
▁bon	-7455
▁van	-7456
apped	-7457
cript	-7458
▁Wash	-7459
▁mens	-7460
▁mild	-7461
▁valu	-7462
avirus	-7463
rients	-7464
▁brake	-7465
▁broom	-7466
▁elses	-7467
▁galle	-7468
▁risen	-7469
athetic	-7470
mployed	-7471
usement	-7472
▁chubby	-7473
▁floors	-7474
▁random	-7475
▁sewing	-7476
▁status	-7477
inations	-7478
▁Guangju	-7479
▁centime	-7480
▁comprom	-7481
▁genetic	-7482
▁instant	-7483
▁monster	-7484
▁thirsty	-7485
▁external	-7486
▁internal	-7487
▁screamed	-7488
▁stocking	-7489
▁nutrients	-7490
▁overnight	-7491
▁automatically	-7492
af	-7493
ept	-7494
uum	-7495
▁Sc	-7496
▁Wi	-7497
opsy	-7498
wook	-7499
▁Chi	-7500
▁jam	-7501
omans	-7502
▁Hill	-7503
▁Ital	-7504
▁oily	-7505
▁plot	-7506
▁upgr	-7507
sembly	-7508
▁Insta	-7509
▁alarm	-7510
▁cramp	-7511
▁drawn	-7512
▁eater	-7513
▁estab	-7514
▁freed	-7515
▁grams	-7516
▁penny	-7517
▁rides	-7518
forward	-7519
looking	-7520
theless	-7521
▁August	-7522
▁Potter	-7523
▁mixing	-7524
▁purple	-7525
▁virtue	-7526
▁AirPods	-7527
▁Somehow	-7528
▁figured	-7529
▁records	-7530
▁shining	-7531
▁bullshit	-7532
▁combined	-7533
▁distingu	-7534
▁included	-7535
▁spoonful	-7536
facetoface	-7537
ricultural	-7538
▁amusement	-7539
▁detective	-7540
▁remarried	-7541
▁strangers	-7542
▁importance	-7543
▁coronavirus	-7544
▁surprisingly	-7545
▁environmental	-7546
▁straightforward	-7547
col	-7548
ris	-7549
▁Fl	-7550
lend	-7551
▁Bas	-7552
▁Hee	-7553
▁Pay	-7554
▁Sat	-7555
▁pup	-7556
acity	-7557
aghet	-7558
heard	-7559
▁jjam	-7560
▁lung	-7561
▁mail	-7562
▁slop	-7563
▁unre	-7564
arming	-7565
▁Eight	-7566
▁Santa	-7567
▁antic	-7568
▁cable	-7569
▁loans	-7570
▁quant	-7571
▁scoop	-7572
▁slice	-7573
▁League	-7574
▁candid	-7575
▁former	-7576
▁manner	-7577
▁mechan	-7578
▁microw	-7579
▁planet	-7580
▁resign	-7581
▁transl	-7582
▁Perhaps	-7583
▁cheated	-7584
▁council	-7585
▁freedom	-7586
▁regions	-7587
▁trusted	-7588
▁blocking	-7589
▁managing	-7590
▁finishing	-7591
▁strengths	-7592
▁hamburgers	-7593
▁possibility	-7594
▁distribution	-7595
▁communication	-7596
fty	-7597
▁Fo	-7598
cian	-7599
mary	-7600
ongh	-7601
pper	-7602
ungh	-7603
▁Hum	-7604
▁sem	-7605
power	-7606
▁Alva	-7607
▁Prel	-7608
▁adap	-7609
▁bald	-7610
▁boom	-7611
▁lane	-7612
▁neut	-7613
▁worm	-7614
▁crowd	-7615
▁cycle	-7616
▁rhyth	-7617
▁solic	-7618
▁stack	-7619
▁vocal	-7620
▁Africa	-7621
▁cannot	-7622
▁forces	-7623
▁spoken	-7624
▁candles	-7625
▁detailed	-7626
▁forecast	-7627
▁supermar	-7628
▁efficient	-7629
▁healthier	-7630
▁solicited	-7631
▁technique	-7632
▁absolutely	-7633
▁constantly	-7634
▁disappears	-7635
▁evaluation	-7636
▁exhibition	-7637
▁moderately	-7638
▁deliberately	-7639
▁nonfacetoface	-7640
yu	-7641
don	-7642
ino	-7643
uel	-7644
▁Em	-7645
▁Os	-7646
cies	-7647
suit	-7648
ties	-7649
▁Har	-7650
▁arb	-7651
▁sof	-7652
adong	-7653
agger	-7654
proof	-7655
▁Chil	-7656
▁July	-7657
▁cups	-7658
▁cuts	-7659
▁enth	-7660
▁lamb	-7661
▁nuts	-7662
▁slip	-7663
estyle	-7664
lasses	-7665
▁Their	-7666
▁coste	-7667
▁couch	-7668
▁mayor	-7669
▁print	-7670
aghetti	-7671
ologist	-7672
▁Russia	-7673
▁Second	-7674
▁compar	-7675
▁raises	-7676
▁static	-7677
▁vacuum	-7678
▁violin	-7679
▁abalone	-7680
▁anxiety	-7681
▁manners	-7682
▁touches	-7683
▁warming	-7684
▁attended	-7685
▁division	-7686
▁grilling	-7687
▁opponent	-7688
▁swelling	-7689
▁valuable	-7690
▁Gangneung	-7691
▁qualified	-7692
▁villagers	-7693
▁competitive	-7694
▁Gyeongsangdo	-7695
▁costeffective	-7696
Why	-7697
hwa	-7698
off	-7699
oma	-7700
uns	-7701
▁MB	-7702
▁Mc	-7703
case	-7704
gien	-7705
▁Nae	-7706
▁bug	-7707
▁upd	-7708
ashes	-7709
▁Army	-7710
▁Ifly	-7711
▁Many	-7712
▁Moon	-7713
▁cure	-7714
▁gamb	-7715
▁infe	-7716
icides	-7717
▁Force	-7718
▁analy	-7719
▁shamp	-7720
▁thont	-7721
istence	-7722
▁Joseon	-7723
▁Marine	-7724
▁amazed	-7725
▁fertil	-7726
▁lotion	-7727
▁robbed	-7728
▁spouse	-7729
▁enthusi	-7730
▁leaders	-7731
▁nephews	-7732
▁univers	-7733
▁witness	-7734
▁Watching	-7735
▁basement	-7736
▁bothered	-7737
▁cheering	-7738
▁exploded	-7739
▁firewood	-7740
▁memorial	-7741
▁multiple	-7742
▁passport	-7743
▁Saturdays	-7744
▁complaint	-7745
▁microwave	-7746
▁assignment	-7747
▁classmates	-7748
▁earthquake	-7749
▁foundation	-7750
▁performing	-7751
bae	-7752
erk	-7753
oro	-7754
rit	-7755
gang	-7756
ints	-7757
oned	-7758
uces	-7759
umed	-7760
▁Acc	-7761
▁Pol	-7762
▁bou	-7763
brush	-7764
field	-7765
geant	-7766
nasty	-7767
raged	-7768
▁Seok	-7769
▁fees	-7770
▁goss	-7771
▁sexy	-7772
▁tank	-7773
cution	-7774
orking	-7775
▁April	-7776
▁Aside	-7777
▁beast	-7778
▁diagn	-7779
▁entry	-7780
▁evalu	-7781
related	-7782
▁Hawaii	-7783
▁arrest	-7784
▁bloody	-7785
▁childs	-7786
▁emphas	-7787
▁explan	-7788
▁harass	-7789
▁improv	-7790
▁sexual	-7791
▁speaks	-7792
▁British	-7793
▁Wearing	-7794
▁cheaply	-7795
▁errands	-7796
▁feature	-7797
▁shallow	-7798
▁sleeves	-7799
▁teaches	-7800
▁contains	-7801
▁moderate	-7802
▁shipping	-7803
▁terminal	-7804
▁agreement	-7805
▁birthdays	-7806
▁continued	-7807
▁miserable	-7808
▁compassion	-7809
▁engagement	-7810
▁medication	-7811
▁bungeoppang	-7812
▁Congratulations	-7813
mo	-7814
aser	-7815
bone	-7816
cend	-7817
oors	-7818
▁Gri	-7819
▁Squ	-7820
abled	-7821
amily	-7822
story	-7823
▁Mary	-7824
▁flag	-7825
▁rhin	-7826
▁tang	-7827
▁toys	-7828
▁Steve	-7829
▁cells	-7830
▁chick	-7831
▁skate	-7832
▁sorts	-7833
▁units	-7834
▁Either	-7835
▁Follow	-7836
▁cheeks	-7837
▁compos	-7838
▁desert	-7839
▁robots	-7840
▁styles	-7841
▁wander	-7842
onscious	-7843
▁Sundays	-7844
▁arguing	-7845
▁consist	-7846
▁flowing	-7847
▁harmony	-7848
▁heating	-7849
▁offline	-7850
▁overlap	-7851
▁seventh	-7852
▁towards	-7853
▁wasting	-7854
▁Buddhist	-7855
▁academic	-7856
▁imagined	-7857
▁pumpkins	-7858
▁visiting	-7859
▁discharge	-7860
▁grandkids	-7861
▁jjamppong	-7862
▁persimmon	-7863
▁succeeded	-7864
▁Personally	-7865
▁positively	-7866
▁consciousness	-7867
▁qualifications	-7868
gon	-7869
mos	-7870
wol	-7871
▁Cy	-7872
▁Mu	-7873
elly	-7874
fall	-7875
ista	-7876
oyal	-7877
▁Pal	-7878
▁tas	-7879
ooled	-7880
umble	-7881
▁Dece	-7882
▁Hand	-7883
▁Real	-7884
▁chap	-7885
▁meds	-7886
alking	-7887
ficial	-7888
▁Dream	-7889
▁acted	-7890
▁femin	-7891
▁marks	-7892
▁midst	-7893
▁tacky	-7894
▁thumb	-7895
tenance	-7896
▁ballad	-7897
▁belief	-7898
▁citrus	-7899
▁gently	-7900
▁lovely	-7901
▁oneone	-7902
▁resour	-7903
▁halfway	-7904
▁neutral	-7905
▁politic	-7906
▁webfoot	-7907
▁bachelor	-7908
▁capacity	-7909
▁cucumber	-7910
▁gangster	-7911
▁pleasant	-7912
▁sparsely	-7913
▁sticking	-7914
▁exercised	-7915
▁impatient	-7916
▁malicious	-7917
▁autonomous	-7918
▁downstairs	-7919
▁increasing	-7920
▁smartphones	-7921
aws	-7922
hem	-7923
chae	-7924
tail	-7925
ucks	-7926
▁agg	-7927
▁dar	-7928
arian	-7929
atisf	-7930
crabs	-7931
hyang	-7932
imens	-7933
woong	-7934
▁Cons	-7935
▁Gold	-7936
▁Joon	-7937
▁Long	-7938
▁dyed	-7939
▁mand	-7940
▁rash	-7941
▁	-7942
e	-7943
t	-7944
o	-7945
a	-7946
i	-7947
n	-7948
s	-7949
h	-7950
r	-7951
l	-7952
d	-7953
u	-7954
y	-7955
m	-7956
g	-7957
w	-7958
I	-7959
c	-7960
f	-7961
.	-7962
b	-7963
k	-7964
'	-7965
p	-7966
v	-7967
,	-7968
?	-7969
T	-7970
W	-7971
S	-7972
Y	-7973
j	-7974
A	-7975
H	-7976
B	-7977
x	-7978
D	-7979
O	-7980
M	-7981
N	-7982
C	-7983
0	-7984
G	-7985
L	-7986
z	-7987
J	-7988
E	-7989
q	-7990
-	-7991
P	-7992
K	-7993
1	-7994
U	-7995
F	-7996
V	-7997
R	-7998
"	-7999
