<pad>	0
<s>	0
</s>	0
<unk>	0
<jj>	0
<jd>	0
<gs>	0
<cc>	0
<kw>	0
<std>	0
.	-3.34434
?	-4.31442
▁쫌	-4.42462
▁	-4.45843
이	-4.6194
▁그	-4.63258
▁거	-4.67911
가	-4.9447
도	-4.98285
▁안	-4.99915
는	-5.06053
을	-5.07483
▁이	-5.2936
▁막	-5.31231
를	-5.40746
▁그런	-5.41745
▁이제	-5.42267
에	-5.44738
▁내가	-5.51009
▁뭐	-5.52545
지	-5.53913
은	-5.54797
▁한	-5.58161
▁또	-5.58667
고	-5.631
▁다	-5.72121
~	-5.7462
▁나	-5.74624
▁이케	-5.75498
▁아	-5.75995
두	-5.76974
▁많이	-5.77974
▁게	-5.79486
게	-5.80581
▁좀	-5.80806
▁그냥	-5.85632
▁근데	-5.86066
▁우리	-5.87964
나	-5.8987
▁어	-5.91089
▁잘	-5.92503
구	-5.95583
▁진짜	-5.999
다	-6.02531
▁때	-6.03107
▁내	-6.03508
만	-6.03536
▁수	-6.05208
▁더	-6.07871
서	-6.09109
▁그래	-6.12805
▁인제	-6.13321
▁나는	-6.16029
▁이런	-6.16103
로	-6.2019
야	-6.24688
▁못	-6.24993
▁너무	-6.2588
의	-6.26192
▁그서	-6.29019
▁약간	-6.29522
느	-6.29558
▁해	-6.29995
라	-6.302
꼬	-6.353
▁아니	-6.36813
▁저	-6.42374
▁일	-6.42594
한	-6.4284
▁할	-6.45969
기	-6.47514
요	-6.47858
▁같은	-6.47924
▁것	-6.4833
▁가	-6.48403
▁그거	-6.49207
▁근디	-6.49215
에서	-6.49918
▁난	-6.52479
▁하는	-6.53129
사	-6.53274
▁있는	-6.56333
▁왜	-6.56614
▁사	-6.63347
▁지금	-6.64893
네	-6.66408
어	-6.69039
▁너	-6.7482
▁긍께	-6.75278
▁것도	-6.75696
▁그게	-6.77309
▁긍까	-6.77341
▁영	-6.79482
들	-6.80096
랑	-6.80427
▁말	-6.80969
▁니	-6.82708
인	-6.82918
▁이르케	-6.83295
▁그때	-6.83836
▁같애	-6.84901
으로	-6.86835
예	-6.88419
▁거야	-6.88629
여	-6.90369
▁하고	-6.90388
하고	-6.90579
▁건	-6.90875
▁이게	-6.92255
할	-6.92473
▁있어	-6.93503
▁지	-6.94417
거	-6.9453
▁오	-6.95716
▁나도	-6.98408
▁긍게	-6.98891
면	-6.99042
▁니가	-6.99908
▁같이	-7.00958
대이	-7.01238
▁걸	-7.01358
▁딱	-7.01513
▁하	-7.01772
▁되게	-7.0195
▁야	-7.02238
▁살	-7.02683
주	-7.02739
께	-7.03278
▁좋은	-7.04061
시	-7.04138
▁두	-7.05164
▁번	-7.06849
▁해서	-7.06997
▁제가	-7.08232
잖아	-7.08326
▁가주구	-7.08744
해	-7.09368
마	-7.10421
▁이거	-7.13497
유	-7.13765
대	-7.14079
▁겅	-7.14609
리	-7.15281
디	-7.16999
아	-7.17022
▁참	-7.17175
자	-7.18607
▁뭔가	-7.18722
하는	-7.19275
▁줄	-7.19639
니	-7.19757
제	-7.21012
▁인자	-7.21279
▁께	-7.2426
▁주	-7.24294
데	-7.24437
는데	-7.24536
들이	-7.24652
하라우	-7.24808
긴	-7.24923
▁다른	-7.25194
▁사람	-7.27139
난	-7.27736
라고	-7.28236
▁한번	-7.28349
▁해야	-7.28639
▁예	-7.2936
▁엄마	-7.29806
▁그럼	-7.30401
▁게난	-7.31705
▁시	-7.32071
진	-7.32487
는디	-7.32534
▁봐	-7.33992
▁개	-7.34076
▁돼	-7.3428
▁몇	-7.34369
▁쪼끔	-7.34852
▁가서	-7.35276
▁무신	-7.3544
▁원	-7.35493
▁엄청	-7.35673
▁계속	-7.35969
▁돈	-7.37025
▁하구	-7.37994
▁가꼬	-7.3821
▁보	-7.38869
▁하나	-7.3937
▁따른	-7.39472
▁증말	-7.40281
▁기	-7.40967
이나	-7.41491
와	-7.42141
니께	-7.42989
▁집	-7.43275
잉	-7.43551
하게	-7.4467
▁될	-7.44731
▁생각	-7.46682
▁지굼	-7.46892
냐	-7.47133
던	-7.47494
▁나가	-7.47766
▁어떤	-7.47854
▁차	-7.48513
▁세	-7.48769
▁거기	-7.49707
▁어디	-7.51235
▁겨	-7.51619
▁응	-7.51623
▁큰	-7.52009
▁갈	-7.5214
▁자	-7.52248
수	-7.52277
▁되는	-7.52811
▁그른	-7.53213
▁마	-7.53477
일	-7.53514
▁얘기	-7.53528
▁전	-7.53885
▁그릏게	-7.54181
까지	-7.54864
루	-7.55124
해서	-7.55275
▁마이	-7.55489
▁제	-7.55834
▁대	-7.56097
치	-7.56422
과	-7.56585
▁요즘	-7.57297
▁간	-7.57329
노	-7.57593
▁먹고	-7.57782
▁인	-7.5815
▁날	-7.58437
▁데	-7.58968
▁어뜨케	-7.59014
▁네	-7.59202
단	-7.59311
▁아이	-7.59319
거든	-7.59379
면은	-7.5951
▁그걸	-7.59838
▁비	-7.60396
▁그렇고	-7.60474
민	-7.61025
하	-7.61406
니까	-7.61452
▁경	-7.61811
한테	-7.61837
지를	-7.61925
▁좋아	-7.62179
▁년	-7.63204
▁되	-7.63482
▁저기	-7.63848
▁없어	-7.64462
장	-7.64712
믄	-7.64818
다고	-7.64873
▁집에	-7.64928
래	-7.65236
▁생각을	-7.65616
댄	-7.66664
▁와	-7.66685
▁지가	-7.66894
▁보고	-7.67353
하구	-7.6785
▁일이	-7.68247
▁고	-7.68359
▁맨날	-7.68623
▁때는	-7.69167
▁완전	-7.6924
▁하꼬	-7.69384
▁보면	-7.69426
신디	-7.69522
▁볼	-7.69701
▁다시	-7.69749
▁하라우	-7.69832
▁근꼬	-7.70022
▁너머	-7.70173
▁무	-7.70173
부	-7.70868
요잉	-7.70872
▁제일	-7.70913
▁정말	-7.71267
질	-7.71838
스	-7.71929
신	-7.71961
져	-7.72792
▁있고	-7.72803
▁여	-7.73024
▁혹시	-7.74012
▁강	-7.74285
▁본	-7.7438
▁닮아	-7.75382
이랑	-7.75452
러레	-7.75467
▁저는	-7.75851
▁음	-7.75897
▁혀	-7.76429
인데	-7.76738
▁하면	-7.76779
▁허	-7.76876
▁물	-7.77013
▁삼	-7.7709
▁없는	-7.77354
▁알	-7.77517
▁부	-7.7807
다가	-7.78555
▁하지	-7.78734
▁있사	-7.7878
▁있을	-7.79829
▁걍	-7.80288
▁구	-7.80399
▁들	-7.80402
라구	-7.80777
▁사실	-7.81216
▁정도	-7.81757
▁꼭	-7.8176
▁시간	-7.81798
▁대이	-7.82431
당	-7.82553
▁언니	-7.82592
▁들어	-7.82851
▁분	-7.83161
▁거를	-7.83169
▁무슨	-7.83518
까	-7.83627
▁모	-7.84172
오	-7.84701
텨	-7.8486
▁싶은	-7.8497
▁먹어	-7.85669
기도	-7.85889
실	-7.86005
▁말을	-7.86372
▁근까	-7.86399
▁갖고	-7.86461
머	-7.86674
▁어떵	-7.86826
▁밥	-7.88011
▁땜에	-7.88651
▁자기	-7.89053
러	-7.8935
가지고	-7.89665
▁그러고	-7.89857
우	-7.89943
▁나느	-7.89946
▁사램	-7.91346
▁먹는	-7.91835
▁산	-7.919
▁사램이	-7.92249
▁달	-7.92424
▁거는	-7.92556
▁가주꼬	-7.92581
▁아주	-7.92841
▁된	-7.93106
▁뭘	-7.93446
거나	-7.93802
들은	-7.94018
▁정	-7.94019
▁않	-7.9407
▁겐	-7.95333
▁맞아	-7.95558
▁거의	-7.95599
▁양	-7.9592
▁온	-7.95981
구나	-7.96184
비	-7.96228
하꼬	-7.96519
▁있느	-7.96934
▁원래	-7.97101
미	-7.9732
*	-7.97355
▁개가주	-7.97975
라는	-7.98118
▁하느	-7.98329
▁애	-7.98792
죠	-7.98809
▁애들	-7.98931
▁가는	-7.99093
▁행	-7.9911
부터	-7.99146
▁불	-7.99376
이야	-7.99653
▁그리구	-8.00054
▁별로	-8.00058
▁배	-8.00109
▁머	-8.00186
간	-8.00683
▁장	-8.00851
려	-8.00895
▁있네	-8.01414
▁열	-8.01612
▁그까	-8.01763
▁타	-8.01795
▁한디	-8.01828
소	-8.0186
▁우	-8.01875
보	-8.01916
▁노	-8.02062
▁먹을	-8.02318
▁친구	-8.02403
▁일단	-8.03104
물	-8.03231
인가	-8.03262
▁항상	-8.03452
▁그건	-8.03961
▁알아	-8.0436
▁명	-8.04542
▁겁나	-8.04777
▁남	-8.04809
보다	-8.04853
▁오놀	-8.04918
으	-8.05067
▁여기	-8.05158
▁그러	-8.05412
든	-8.05817
▁되께	-8.06097
▁거지	-8.06439
▁눈	-8.06533
혀	-8.06706
적인	-8.07029
▁말이	-8.07067
▁아이가	-8.0714
▁아가	-8.07322
▁영화	-8.07719
▁그래가꼬	-8.07769
하지	-8.07849
그	-8.08081
▁어태	-8.08126
드	-8.08421
▁많은	-8.08472
▁있다	-8.08545
▁전에	-8.08649
▁것이	-8.08674
이까	-8.0868
매	-8.08761
▁소	-8.09119
상	-8.09155
주게	-8.092
언	-8.09353
▁이래	-8.09572
정	-8.09821
▁일을	-8.10344
▁상	-8.10594
개	-8.10597
▁있	-8.10717
▁바	-8.11389
▁신	-8.11623
▁있는디	-8.11837
영	-8.12342
▁팔	-8.12918
▁얼매나	-8.13027
랜	-8.13109
▁적	-8.13284
▁조	-8.13418
▁올	-8.13645
문	-8.1372
란	-8.14141
연	-8.14369
▁유	-8.14695
▁먹	-8.14713
원	-8.14827
▁새	-8.14918
▁해도	-8.15009
▁서	-8.1519
▁반	-8.15338
내	-8.15443
▁거여	-8.15823
▁생각이	-8.1587
히	-8.15898
▁있나	-8.15941
▁되는디	-8.16203
▁갔다	-8.16285
▁따	-8.16839
▁얘기를	-8.1693
▁수도	-8.16957
▁어머이	-8.17176
트	-8.17438
▁오늘	-8.17769
▁누가	-8.17984
레	-8.1801
인디	-8.18452
▁했는디	-8.18473
▁혼자	-8.18701
드라고	-8.18899
▁그께	-8.19081
▁저느	-8.19324
차	-8.20384
▁본께	-8.20627
▁이그	-8.20949
세	-8.2095
▁그럴	-8.21079
▁우리가잉	-8.21094
성	-8.21211
▁학교	-8.21355
▁핸	-8.21567
선	-8.21737
▁쓰	-8.21794
▁당신	-8.22152
데레	-8.22171
▁술	-8.22178
안	-8.22412
▁수가	-8.23014
▁보는	-8.23281
▁없	-8.2412
▁보니께	-8.2414
행	-8.24613
▁있지	-8.2469
▁몰라	-8.24865
지만	-8.24866
▁딸	-8.24886
▁그또	-8.2508
▁싶어	-8.25145
▁좋아하는	-8.2534
▁돈을	-8.25579
드라	-8.25659
때	-8.2599
▁했어	-8.26032
▁나두	-8.26042
▁말고	-8.26089
▁여개	-8.26363
▁십	-8.26462
▁겡	-8.26552
▁방	-8.27465
▁싸람들이	-8.2758
무	-8.27695
재	-8.27932
다구	-8.28149
▁니느	-8.28154
▁치	-8.2833
▁뭔	-8.2849
동	-8.2868
▁백	-8.2885
▁옷	-8.29077
▁아이고게	-8.29143
▁같아	-8.29186
지는	-8.2923
▁써	-8.29236
▁아직	-8.29327
▁남자	-8.29419
▁너는	-8.2944
▁나오	-8.29455
▁입	-8.29684
▁빨리	-8.2971
었어	-8.29753
▁쪼금	-8.29834
▁어느	-8.29913
락	-8.30053
▁어데	-8.30102
▁매	-8.30188
▁만	-8.30197
르	-8.30396
▁좋	-8.30966
▁오래	-8.31127
라꼬	-8.31335
▁보믄은	-8.31616
적	-8.31708
▁미	-8.3199
▁가고	-8.32203
멍	-8.32319
▁싸	-8.32323
▁사는	-8.32483
▁심	-8.32623
▁이젠	-8.32637
▁와서	-8.32663
들을	-8.32723
건	-8.32947
산	-8.32981
▁있구	-8.33043
▁이딴	-8.33136
에는	-8.33182
래이	-8.33278
▁나서	-8.33313
더라	-8.33568
▁피	-8.33735
분	-8.33922
▁보이꼬	-8.34108
▁어서	-8.34273
▁아까	-8.34291
▁조금	-8.34377
▁여행	-8.34504
부난	-8.34829
▁하곡	-8.34876
▁저도	-8.3493
▁요	-8.35166
▁성	-8.35355
▁머리	-8.35416
▁이께	-8.35592
▁껴	-8.35738
▁중	-8.35749
▁그러꼬	-8.35997
전	-8.36232
▁공	-8.36335
▁기억이	-8.36405
화	-8.36418
▁들어가	-8.36425
양	-8.36685
▁가지	-8.36792
▁운동	-8.36973
▁돈이	-8.37135
▁이서	-8.37282
세요	-8.37302
▁사람이	-8.37303
을루	-8.37596
▁요새	-8.37635
적으로	-8.37731
▁약	-8.37834
▁여러	-8.3791
▁손	-8.37951
날	-8.38124
▁우린	-8.3841
▁되고	-8.38808
▁되나	-8.38815
▁했	-8.39049
▁옛날	-8.39246
했어	-8.39661
▁아빠	-8.40107
▁스	-8.40252
▁했던	-8.40491
▁왜냐믄	-8.41025
▁하내기	-8.41146
▁거라	-8.41389
▁아냐	-8.41485
▁처음	-8.41537
면서	-8.41704
▁집이	-8.418
▁만나	-8.41814
▁힘들	-8.41923
▁파	-8.41942
▁많	-8.41984
려고	-8.42007
▁그래가주구	-8.42096
하다	-8.42176
가지구	-8.42298
불	-8.42308
▁즌화	-8.42335
기가	-8.42464
▁기양	-8.42718
▁오빠	-8.42808
▁않아	-8.42828
▁코로나	-8.42954
▁나이	-8.42989
▁발	-8.43207
▁아니믄	-8.43248
기는	-8.4334
▁문	-8.43733
▁여자	-8.44109
▁것두	-8.44141
▁살아	-8.44221
모	-8.44246
▁되지	-8.44438
▁얼마	-8.44446
처럼	-8.44449
방	-8.44773
엔	-8.44779
하곡	-8.44921
▁맞	-8.44998
걸	-8.45132
린	-8.4521
▁자주	-8.45245
하면	-8.45736
▁동	-8.46591
▁언	-8.46619
▁한데	-8.47055
줄	-8.47265
▁선	-8.47416
▁둘	-8.47506
▁어멍이	-8.47884
▁회사	-8.48042
▁이렇게	-8.48248
음	-8.48291
집	-8.4836
운	-8.48635
▁디	-8.48637
▁소리	-8.48764
▁많아	-8.48921
▁단	-8.49473
▁진	-8.49491
▁나랑	-8.49513
울	-8.49747
▁벌	-8.50033
▁그라고	-8.50262
봐	-8.50362
▁사진	-8.50368
카	-8.50439
▁엄마가	-8.50698
▁받아	-8.50791
▁알바	-8.51005
▁걸로	-8.51048
▁그래두	-8.51087
가주구	-8.512
더라고	-8.51539
▁거예요	-8.51673
▁아이라	-8.51789
▁아예	-8.5184
▁대한	-8.52128
▁애기	-8.52228
드라구	-8.5234
식	-8.5234
이라	-8.52579
▁아닌	-8.53129
▁있꼬	-8.53244
▁때도	-8.53301
▁빼	-8.53312
▁드라마	-8.53314
▁너가	-8.53338
▁동안	-8.5344
▁아는	-8.53589
▁고것도	-8.53702
▁대해서	-8.54011
▁근	-8.54218
▁자꾸	-8.54417
해야	-8.54481
▁게임	-8.54714
▁괜찮	-8.54717
▁건데	-8.54745
▁왕	-8.54911
▁이건	-8.55103
▁같	-8.55114
었	-8.55314
▁제주도	-8.55463
▁왔	-8.55534
▁거난	-8.55536
▁됐	-8.55758
갖고	-8.55833
▁있는데	-8.55919
▁중에	-8.56047
▁적이	-8.56155
▁노래	-8.56191
▁암튼	-8.56201
저	-8.56235
▁거서	-8.56264
▁보내	-8.5631
조	-8.56328
▁같은디	-8.56384
▁나와	-8.56593
메	-8.56604
▁글고	-8.56642
헌티	-8.56913
▁말이여	-8.57051
▁보이	-8.57198
▁그믄	-8.57246
▁경한디	-8.57258
▁문제	-8.57836
겨	-8.57883
▁공부	-8.57967
▁카는데	-8.57968
▁뭐가	-8.58029
▁넌	-8.5844
▁돌	-8.58474
▁딴	-8.58601
▁먼저	-8.58719
▁연	-8.58809
▁울	-8.59184
민시	-8.59233
▁전화	-8.59357
▁실	-8.59545
▁해신디	-8.59945
으문	-8.60165
바	-8.60407
▁싶	-8.60447
▁부난	-8.60489
디야	-8.60541
가지꼬	-8.60546
댜	-8.60622
▁카	-8.60829
▁알고	-8.61059
▁별	-8.61325
타	-8.61404
▁보통	-8.6174
다는	-8.61908
▁금	-8.61973
▁둘이	-8.62146
했	-8.62208
▁작은	-8.62256
거야	-8.62268
▁그래구	-8.62303
케	-8.62314
▁같애예	-8.62509
갈	-8.62582
▁가장	-8.62717
살	-8.62724
말	-8.6291
꺼	-8.62942
▁지대로	-8.62979
▁글	-8.63111
▁없고	-8.63138
▁박	-8.63205
▁맛	-8.63348
▁재	-8.63522
▁운제	-8.63579
▁줘	-8.63591
▁무사	-8.6371
▁아무	-8.63755
▁언제	-8.63793
▁아들	-8.64127
▁결혼	-8.64192
▁잘도	-8.64209
야지	-8.64357
▁바로	-8.64374
수다	-8.64433
▁고거를	-8.647
▁때매	-8.64873
▁맛있	-8.65033
▁있대이	-8.65338
▁밖에	-8.65534
▁이십	-8.6557
▁싱각을	-8.65644
▁기래두	-8.66057
▁담	-8.6606
▁땜이	-8.6619
▁이번	-8.6635
감	-8.66403
▁먹구	-8.66433
그넹	-8.66683
▁눈이	-8.67067
된	-8.67068
▁애가	-8.6721
▁물론	-8.67473
▁맛이	-8.6751
▁같여	-8.67525
▁길	-8.67798
▁거느	-8.6785
▁누구	-8.67898
▁짜	-8.68022
▁좋을	-8.68085
▁감	-8.68468
▁보꼬	-8.68574
▁씨	-8.6863
▁혼재	-8.68679
하느	-8.68735
▁그라구	-8.68873
▁해여	-8.69291
▁몸	-8.69592
시로	-8.6961
▁극정	-8.69634
▁모르	-8.69746
▁있으믄	-8.6975
▁갔	-8.69765
▁호	-8.69849
▁없이	-8.69889
▁허멍	-8.69954
▁편	-8.69954
허	-8.70002
라도	-8.70077
거라	-8.70191
▁집이서	-8.70376
군	-8.70452
▁점	-8.705
더니	-8.70574
▁덜	-8.7065
달	-8.70712
▁맞는	-8.70838
핸	-8.70991
가꼬	-8.71027
▁아마	-8.71043
▁나온	-8.71045
▁꺼	-8.71164
릴	-8.71172
덴	-8.71214
피	-8.71226
더	-8.71358
▁까	-8.71398
금	-8.71475
▁통	-8.71478
▁하민	-8.71504
▁김	-8.71622
▁으	-8.71711
▁당	-8.71827
▁속	-8.72234
▁꼬	-8.72262
▁가면	-8.7241
▁하다	-8.72621
▁사랑	-8.72704
씩	-8.72799
▁아부지가	-8.73011
▁싫어	-8.73101
▁선물	-8.73251
▁화	-8.73299
▁시간이	-8.73402
맨	-8.73614
▁외	-8.7371
▁준	-8.73755
▁쓸	-8.73849
▁비싸	-8.73876
▁그는	-8.73993
어서	-8.74092
새	-8.74233
▁난중에	-8.744
▁한다	-8.74475
▁갖구	-8.74709
▁먹었	-8.7502
했던	-8.75034
▁모든	-8.75395
▁초	-8.75469
길	-8.75796
▁아바이	-8.75889
▁그랬	-8.76068
강	-8.76173
▁없다	-8.76201
▁이상	-8.76221
▁음식	-8.76377
▁주는	-8.76396
▁논다	-8.76414
▁때미에	-8.76447
였	-8.76488
까장	-8.7652
▁봤	-8.76537
▁서로	-8.7669
▁어제	-8.76693
▁서울	-8.76697
▁몸이	-8.76698
체	-8.76936
▁하게	-8.7697
젠	-8.77077
▁어머이가	-8.77438
▁보난	-8.77661
▁나오는	-8.77756
▁뭐라	-8.77885
▁등	-8.77967
라두	-8.7806
왕	-8.78388
▁에	-8.78431
름	-8.7868
하기	-8.78749
▁육	-8.78762
▁가게	-8.78763
▁겨론	-8.78784
▁담에	-8.78826
▁천	-8.78878
▁함	-8.78915
박	-8.79111
▁아유	-8.79121
것	-8.79315
▁놀	-8.79329
▁있었는디	-8.7937
▁어릴	-8.79374
그네	-8.79433
티	-8.79483
▁하루	-8.79771
▁나왔	-8.80277
용	-8.80314
▁사람들이	-8.80408
▁인대이	-8.80457
근	-8.80545
끼	-8.80582
▁생	-8.81067
▁느낌이	-8.81128
있	-8.81177
▁싸람이	-8.81218
▁않고	-8.81402
네요	-8.81471
명	-8.81477
▁기억	-8.81525
▁하난	-8.81899
▁싫	-8.81916
크	-8.81927
▁주고	-8.8208
▁잔	-8.8211
▁있었	-8.82295
▁과	-8.82549
반	-8.82882
▁칠	-8.82929
▁질	-8.83142
이라고	-8.83348
▁된다	-8.83467
민서	-8.83527
이여	-8.83541
으면	-8.83561
기를	-8.83677
▁뭐야	-8.83688
▁해주	-8.83723
잖아요	-8.83905
▁기분	-8.83949
▁때가	-8.83962
▁사고	-8.84028
파	-8.84062
▁지끔은	-8.84322
발	-8.84513
▁나를	-8.84615
▁그런디	-8.84643
▁오는	-8.84664
▁말씸	-8.84867
먼	-8.84963
곡	-8.84965
에게	-8.85109
▁필요	-8.8517
▁따라	-8.85195
▁학년	-8.85256
▁빨라당	-8.85643
겠다	-8.85791
▁골	-8.85849
▁확	-8.85868
중	-8.85977
▁겉은데	-8.85978
인지	-8.86017
▁삼십	-8.86409
▁후	-8.86493
▁그니께	-8.86708
키	-8.86768
▁아이고	-8.86807
▁가야	-8.86829
애	-8.8694
▁캤는데	-8.86987
었는디	-8.87217
▁옆에	-8.87333
▁얼굴	-8.87405
▁살짝	-8.8765
▁데꼬	-8.87748
▁형	-8.87869
▁있잖아	-8.87997
▁다음	-8.88034
▁아프	-8.88046
▁보머	-8.88229
이라는	-8.88283
마씸	-8.88464
통	-8.8849
▁좋다	-8.88618
▁커	-8.88652
▁식으로	-8.89075
▁위	-8.89147
▁것을	-8.89265
▁찾아	-8.89315
거든예	-8.89396
에도	-8.89416
▁똥	-8.89531
▁그도	-8.89622
님	-8.89719
▁내인데	-8.89828
▁식	-8.90014
▁땐	-8.90069
▁느낌	-8.90115
▁힘든	-8.90179
▁들었	-8.90318
▁글면	-8.90793
▁건강	-8.90879
▁성격이	-8.90954
▁솔찬히	-8.90962
▁크	-8.91066
▁살이	-8.91074
▁걔가	-8.91178
▁운동을	-8.91282
▁절	-8.91291
▁우타	-8.91423
▁앞에	-8.91487
직	-8.91704
▁겅해도	-8.91873
▁암만해도	-8.9188
▁생활	-8.9199
되	-8.92215
쳐	-8.9233
▁보먼은	-8.9243
▁있었어	-8.92597
▁아니여	-8.92651
심	-8.92743
▁책	-8.92788
▁어멍	-8.92858
▁죽	-8.92866
▁아들이	-8.92965
터	-8.92982
계	-8.93322
▁있으문	-8.93362
▁않은	-8.93444
▁코	-8.93564
생	-8.93659
▁이러	-8.93706
▁챙겨	-8.9372
부러	-8.93824
밖에	-8.93847
년	-8.93881
지가	-8.93994
▁카민시	-8.94049
▁놔	-8.94058
▁하믄서	-8.94066
▁친	-8.94163
▁하는디	-8.94199
▁그치	-8.94206
▁잠	-8.94233
▁샹각이	-8.9424
국	-8.94285
▁키	-8.94539
해요	-8.94592
▁타고	-8.94597
▁누그	-8.94693
▁앞	-8.94702
▁메	-8.94772
▁저희	-8.94815
렁	-8.94841
▁사람덜	-8.94845
▁상구	-8.94853
작	-8.94915
▁다들	-8.9507
▁일본	-8.95083
▁잡아	-8.95148
▁재밌	-8.95225
▁봤을	-8.95428
▁생각도	-8.9551
▁다니	-8.9559
▁학실히	-8.95626
▁고기	-8.95834
▁조석	-8.96021
▁일찍	-8.96027
겠지	-8.96088
▁하기	-8.96106
른	-8.96154
위	-8.96317
▁하드라고	-8.96414
이다	-8.96465
대로	-8.966
마씨	-8.96626
▁때느	-8.96638
경	-8.96645
▁돌아	-8.96854
▁여개서	-8.97064
▁갑자기	-8.97106
▁그렇	-8.97165
본	-8.9718
▁내일	-8.97236
씨	-8.9746
▁시험	-8.97504
는거	-8.97534
▁헌티	-8.97618
▁하머	-8.97691
▁다이어트	-8.97705
▁이미	-8.97734
지마	-8.97735
▁연락	-8.97738
▁같고	-8.97751
▁뭐냐	-8.9783
▁한국	-8.97833
▁너네	-8.97849
▁그머	-8.9787
▁좋아하	-8.97916
▁되느	-8.98004
▁저거	-8.98284
공	-8.9858
관	-8.98763
줘	-8.98795
라면	-8.98911
▁않나	-8.98926
▁먼	-8.99034
에다가	-8.99081
자녀	-8.99178
▁쪽	-8.99213
▁자석	-8.99267
▁끼	-8.99289
었던	-8.99316
엉	-8.99395
▁속이	-8.99457
▁넘	-8.99615
마다	-8.9963
▁되면	-8.99787
▁완	-8.99793
코	-8.99891
▁잘못	-8.99966
▁추	-8.99972
글	-9.00019
▁쓰는	-9.00068
준	-9.00144
▁어쩔	-9.00196
▁편이	-9.00227
▁예자	-9.00281
보다는	-9.00301
배	-9.00303
▁곧	-9.00485
▁만들	-9.0051
▁깨	-9.00601
▁그려	-9.009
▁병	-9.01057
하께	-9.01061
▁짝	-9.01099
▁마음	-9.0119
▁있아요	-9.01297
▁번씩	-9.01326
프	-9.01733
▁걔	-9.02016
▁채	-9.02095
▁냉중에	-9.02231
▁왜서	-9.0226
▁놓고	-9.02305
▁뒤	-9.02416
태	-9.02556
▁가족	-9.02702
판	-9.02882
다꼬	-9.02959
▁하시	-9.02971
학	-9.0329
▁말이야	-9.03402
▁돼서	-9.03411
간디	-9.03417
▁있어가	-9.03433
▁걱정	-9.03453
▁잠깐	-9.03497
켜	-9.03737
령	-9.03839
▁올라가	-9.03844
약	-9.03928
회	-9.03939
▁그것	-9.03956
당께	-9.03979
▁안되	-9.03984
드만	-9.03985
▁어렸을	-9.04051
▁겨울	-9.04143
▁마카	-9.04218
▁얘	-9.04274
적이	-9.04338
역	-9.04372
▁하난이	-9.04401
려구	-9.04471
▁얼	-9.04524
▁다섯	-9.04548
▁순	-9.04612
▁할머이	-9.04632
▁건디	-9.0465
▁어떠	-9.04769
▁아이머	-9.04866
▁풀	-9.04874
▁망	-9.04876
▁베	-9.04912
▁아덜	-9.04952
▁복	-9.04996
▁하당께	-9.05141
니깐	-9.05172
예요	-9.05253
▁없는디	-9.05316
호	-9.05363
▁달라	-9.05477
꾸	-9.05493
습니다	-9.05504
▁그껴	-9.05653
었는데	-9.05685
▁동네	-9.05802
▁하는데유	-9.05848
▁배우	-9.05891
▁같구	-9.05934
셔	-9.0598
석	-9.06114
▁사람들	-9.06219
▁사램은	-9.0623
▁먹꼬	-9.06252
온	-9.06349
칠	-9.06441
▁버	-9.06469
▁아이씨	-9.06559
▁회	-9.06742
▁직접	-9.06971
▁젊은	-9.07051
▁옷을	-9.07087
▁누우	-9.07129
거든요	-9.0722
▁같꼬	-9.07341
▁웃	-9.07346
▁맨	-9.07406
▁자꼬	-9.07467
▁귀	-9.07556
까정	-9.07557
▁그양	-9.07613
▁아따	-9.07718
▁들고	-9.07876
버	-9.081
▁정신	-9.08145
▁부분이	-9.08181
병	-9.08186
▁되구	-9.08266
라서	-9.08341
쓰	-9.08439
였어	-9.08522
▁운전	-9.08548
▁보여	-9.08695
색	-9.08753
▁아니야	-9.08899
▁쳐	-9.08937
▁헌	-9.09099
는지	-9.09113
▁않는	-9.09135
▁받	-9.09155
▁목	-9.09194
▁어뜬	-9.09233
▁좋지	-9.09529
▁짐	-9.09596
▁성격	-9.09798
▁애기들이	-9.09836
같이	-9.09846
▁그러니까	-9.09977
던데	-9.10228
▁앉아	-9.10369
성이	-9.10412
▁특히	-9.10477
이가	-9.10662
▁찌	-9.10705
▁재미	-9.10995
▁되꼬	-9.11007
▁놀러	-9.11046
▁봐야	-9.11099
▁하멍	-9.11131
▁시켜	-9.11186
▁않았	-9.11432
포	-9.11438
겠어	-9.11472
▁어마이	-9.11481
절	-9.11502
잖여	-9.11502
▁신경	-9.11733
▁고등학교	-9.11772
급	-9.11782
▁니한테	-9.1187
▁가끔	-9.119
▁얘가	-9.12021
▁쉬	-9.12081
▁요리	-9.12208
▁낼	-9.12231
▁요새는	-9.12377
▁알았	-9.12415
▁프로	-9.12485
▁비싼	-9.12642
허고	-9.12648
▁그땐	-9.12874
▁포	-9.12897
▁봔	-9.12989
▁있긴	-9.13007
▁혼	-9.13144
▁했지	-9.13202
입	-9.13382
▁관심이	-9.13384
초	-9.13689
▁크게	-9.13753
▁생긴	-9.13877
▁불러	-9.13906
▁데가	-9.13909
▁우리거	-9.14159
▁사람이서	-9.14278
▁쎄	-9.14376
▁했었	-9.14387
▁보기	-9.14443
천	-9.14457
▁스타일	-9.1456
앙	-9.14594
▁니네	-9.14722
형	-9.14782
▁생기	-9.14857
▁드	-9.1496
▁기냥	-9.14967
▁않을	-9.14999
▁누	-9.15005
▁소리기	-9.15062
▁입고	-9.15078
▁밥을	-9.15137
입니다	-9.15352
▁해두	-9.15391
지두	-9.15424
▁말앙	-9.15456
▁해요	-9.1555
했다	-9.15793
▁인데	-9.15908
겠	-9.15943
▁들어오	-9.15957
▁구만	-9.16004
▁커피	-9.16024
▁저게	-9.16054
▁있자녀	-9.16129
막	-9.16208
졌	-9.16241
속	-9.16382
거리	-9.16388
▁밤	-9.16514
▁일은	-9.1659
으이까	-9.1665
헌	-9.16837
번	-9.16994
교	-9.17031
▁없을	-9.17034
▁하긴	-9.17253
▁쪼	-9.17267
따	-9.17391
▁시작	-9.17425
▁했다	-9.17544
▁솔찌기	-9.17545
짝	-9.17613
▁생각해	-9.17614
▁힘	-9.1776
▁굳이	-9.17776
▁우리나라	-9.17953
▁철	-9.17977
▁붙	-9.18106
장이	-9.18115
▁바람	-9.18233
▁싶다	-9.18297
▁에이	-9.18336
이라두	-9.18392
▁떠	-9.18535
워	-9.18556
으루	-9.187
▁보민	-9.18773
▁갖다	-9.18853
▁다닐	-9.18887
▁절대	-9.18902
▁것들	-9.18919
이에요	-9.19101
▁준비	-9.19187
담	-9.19333
▁지는	-9.19463
▁예나	-9.19672
▁잡	-9.19776
▁늘	-9.1996
▁아문	-9.19969
▁아침	-9.19981
▁꽃	-9.20068
먹	-9.20262
▁나쁜	-9.20337
▁법	-9.20428
▁헐	-9.20459
▁음싸	-9.20463
▁해가지고	-9.20506
▁노력	-9.206
신게	-9.20605
라느	-9.20627
▁생각은	-9.20656
▁받고	-9.20671
▁해보	-9.20674
▁이름	-9.20787
창	-9.20891
신가	-9.20942
걸랑	-9.20995
▁느	-9.21033
크라	-9.21124
▁여름	-9.21149
▁넣어	-9.2128
▁마옴	-9.21305
한다	-9.21516
▁아부지	-9.21527
▁욕	-9.21569
▁그날	-9.21631
▁사램들이	-9.21656
▁국	-9.21673
▁왔다	-9.21764
▁가자	-9.21818
▁오십	-9.21954
▁연애	-9.22054
▁만약에	-9.22095
주고	-9.22102
▁이신디	-9.22134
▁마라	-9.22159
▁허난	-9.22223
▁토	-9.2223
▁쌤이	-9.22367
▁먹은	-9.22426
▁차를	-9.22569
▁가이	-9.22649
▁캐	-9.22715
▁말한	-9.22844
덜	-9.22912
▁따로	-9.23102
팔	-9.23158
▁자체가	-9.23412
▁했을	-9.23449
▁헤	-9.23708
▁없었	-9.23713
▁니는	-9.23753
었다	-9.23814
▁얘길	-9.23888
▁댜	-9.23958
▁몰르는	-9.24016
싸	-9.2418
수가	-9.24223
▁아픈	-9.24255
▁그른데	-9.24265
▁괜히	-9.24357
▁미국	-9.24469
았	-9.2449
▁월	-9.24519
▁체	-9.24675
▁닮은디	-9.24783
▁예를	-9.25032
▁같다	-9.25065
이라도	-9.25109
▁것은	-9.25112
▁스타일이	-9.25137
▁다녀	-9.25175
이란	-9.25206
▁친구가	-9.25217
▁분이	-9.25232
▁관심	-9.25273
▁음악	-9.25338
렸	-9.25497
▁독	-9.25539
으네	-9.2556
▁나올	-9.25606
▁그기	-9.25779
▁허고	-9.25852
▁하영	-9.25915
▁짓	-9.25943
▁찾	-9.26175
▁있노	-9.26295
▁그디서	-9.26313
▁꾸	-9.26348
▁지내	-9.26362
놓고	-9.26445
냐고	-9.26469
보고	-9.26476
▁이걸	-9.26511
▁정리	-9.2654
▁있으믄은	-9.26626
즈	-9.26847
▁키우	-9.26888
▁말구	-9.269
▁시상에	-9.2705
▁힘들어	-9.27068
▁그꼬	-9.27179
▁듣고	-9.27486
▁하믄	-9.27511
▁죽어	-9.27518
▁우리가이	-9.2755
테	-9.2762
▁빵	-9.27742
쯤	-9.27765
▁퍼	-9.27786
▁먹으믄	-9.27912
▁같긴	-9.2799
▁처음엔	-9.28032
▁워데	-9.28064
▁그리	-9.28092
임	-9.28101
증	-9.28101
▁자격증	-9.2812
▁말야	-9.28121
쿠	-9.28239
잰	-9.28255
▁요번에	-9.2826
▁받았	-9.28294
▁갱장히	-9.28352
▁지그믄	-9.28352
들도	-9.28381
▁사램들	-9.28511
▁다르	-9.28524
▁아깨	-9.28598
이라구	-9.28724
▁가구	-9.28857
적을루	-9.28873
련	-9.28926
▁생각혀	-9.28932
▁밀	-9.28985
종	-9.29059
남	-9.29073
▁동상	-9.29111
▁보믄	-9.29143
▁점점	-9.29187
브	-9.29254
▁받는	-9.29261
▁공부를	-9.29268
셨	-9.29279
▁갔는디	-9.29289
▁아버니	-9.29378
▁아님	-9.29638
▁받을	-9.29682
▁가지고	-9.29691
▁걸어	-9.29893
▁중학교	-9.30001
망	-9.30129
며	-9.30183
▁쓰고	-9.30187
밥	-9.30193
▁만들어	-9.30202
더라구	-9.30217
▁암	-9.30269
▁댕기는	-9.30433
▁첫	-9.30718
▁좋아하느	-9.30765
▁왔어	-9.30795
▁어트게	-9.3083
▁아닌디	-9.30994
▁얼매	-9.31107
지도	-9.31121
▁보다	-9.31239
▁되는데	-9.31245
▁그랬는디	-9.3136
▁솔치	-9.31388
토	-9.31475
▁상황이	-9.31504
▁그디	-9.31559
닥	-9.31572
▁앞에서	-9.31637
▁투	-9.31646
▁뭐여	-9.3172
백	-9.31752
까증	-9.31773
▁움씨	-9.31779
▁하며는	-9.31784
▁대학	-9.31906
▁아싸리	-9.31983
에서는	-9.32005
▁시간을	-9.32035
▁지나	-9.32078
돼	-9.32179
▁버스	-9.32234
▁카페	-9.32255
▁하자	-9.32267
점	-9.32297
으믄	-9.32316
▁보러	-9.32491
써	-9.32493
업	-9.32858
▁대로	-9.329
▁워낙	-9.32939
▁텐데	-9.32966
▁났	-9.33086
▁말은	-9.3318
▁하니께네	-9.33289
▁것만	-9.33316
력	-9.33434
▁갑자키	-9.33473
▁학원	-9.3348
▁그르케	-9.33489
▁내리	-9.33536
▁찍	-9.33563
▁켔는데	-9.3358
이네	-9.3388
▁작	-9.33953
▁그라꼬	-9.34016
▁종	-9.34049
▁직장	-9.34064
▁할망	-9.3407
볼	-9.34093
▁금방	-9.34167
▁해니께	-9.34175
▁랑	-9.34298
▁알지	-9.34348
▁고런	-9.3437
▁저냑	-9.344
▁글지	-9.3448
▁늦게	-9.34573
클	-9.34591
▁용	-9.34592
▁안돼	-9.34671
그냉	-9.3468
▁개월	-9.3468
▁친구들	-9.34765
▁우리가	-9.3477
▁군	-9.34878
▁인저	-9.34901
▁보믄서	-9.34924
▁많았	-9.35036
멘치	-9.35145
설	-9.35153
▁봄	-9.35192
▁접	-9.35284
▁쪼꼼	-9.35299
▁시키	-9.35388
▁딱히	-9.35391
이고	-9.35419
▁관리	-9.35463
▁찍어	-9.35518
▁샀	-9.35554
▁아우	-9.35555
잖아예	-9.35555
하믄	-9.35611
▁고민	-9.35629
▁영화를	-9.35751
▁핸드폰	-9.35786
▁싶은디	-9.35802
▁티	-9.3583
▁뭐지	-9.35883
▁봤어	-9.35917
▁아빠가	-9.35964
부떠	-9.36049
으니께	-9.36049
▁처	-9.36248
등	-9.36271
▁빠져	-9.36364
끄	-9.36419
▁중이	-9.36419
▁부모	-9.3645
▁재기	-9.3648
래요	-9.36492
▁말도	-9.36608
추	-9.36639
▁급	-9.36861
▁중에서	-9.36916
▁청	-9.36957
▁놓	-9.3709
▁수업	-9.37405
▁하네	-9.37434
▁놈	-9.37434
출	-9.37498
▁그라	-9.37511
▁살고	-9.3762
봤	-9.37621
▁태	-9.37643
▁이럴	-9.3766
▁아파	-9.37668
▁변	-9.37678
▁않애	-9.37712
▁닮	-9.37791
▁끝나	-9.37797
▁같어	-9.37806
▁나이가	-9.3803
▁같애서	-9.38079
안티	-9.38122
▁살았	-9.38149
▁스트레스	-9.38163
▁탈	-9.38229
▁하간디	-9.3825
▁보이까	-9.38432
▁일어나	-9.38432
▁관	-9.38445
▁으제	-9.38454
블	-9.38458
▁학	-9.38567
▁있으	-9.38666
잖아유	-9.38698
품	-9.38704
▁비가	-9.38709
▁테이까	-9.38713
▁듣는	-9.38749
▁때부터	-9.38766
류	-9.38779
리는	-9.3878
▁차가	-9.38816
갔	-9.38859
▁드렁청하게	-9.38871
낭	-9.38888
▁돼요	-9.38905
▁동생	-9.38926
▁뒤에	-9.38975
▁생겼	-9.38987
▁고상	-9.39113
▁노래를	-9.39222
더라고예	-9.39222
▁밤에	-9.39285
▁햄	-9.39347
▁안에	-9.39403
▁허면서	-9.39438
▁같애요잉	-9.39466
▁만든	-9.39481
▁하믄은	-9.39493
▁김치	-9.39613
▁맞어	-9.39656
▁시에	-9.39715
▁난리	-9.3973
▁맘에	-9.39759
▁가져	-9.39823
▁당장	-9.39832
복	-9.39931
▁갔어	-9.39981
▁몰랐	-9.40236
▁없구	-9.4031
▁드는	-9.40475
▁식으루	-9.40485
▁어린	-9.40536
▁갔을	-9.40746
▁땅	-9.40772
▁최고	-9.40803
▁군대	-9.40809
▁겁나게	-9.40833
▁마옴이	-9.40844
▁취미	-9.40871
▁수두	-9.409
▁같애유	-9.40926
▁내려	-9.4094
슬	-9.40967
친	-9.41119
▁사람들은	-9.41149
▁언니가	-9.41155
▁없지	-9.41228
▁맘	-9.41233
▁아니믄은	-9.41284
▁부택	-9.41293
▁오날	-9.41325
서는	-9.41366
다니	-9.41391
▁걸리	-9.41419
▁무섭	-9.41436
지고	-9.41515
▁대학교	-9.41597
주는	-9.41599
▁생각하	-9.41641
났	-9.41656
▁저녁	-9.41675
겐	-9.41684
▁봤던	-9.41706
▁됐어	-9.41758
▁불나게	-9.4176
▁장난	-9.41797
▁탁	-9.41801
▁줬	-9.41828
▁사램을	-9.41861
▁쩌번에	-9.41905
▁보느	-9.42096
든지	-9.42178
▁것들을	-9.42181
▁싹	-9.42213
되는	-9.42269
▁좋았	-9.42281
▁해가주구	-9.42317
▁너도	-9.4232
▁판	-9.4241
▁해라	-9.42501
▁이쁘	-9.42559
▁오고	-9.42739
▁당시이	-9.42763
▁사십	-9.42824
리가	-9.42831
▁몰	-9.42887
▁아꼬	-9.42908
▁병원	-9.43013
▁아녀	-9.43138
▁빠지	-9.43185
합	-9.43268
▁잔모	-9.43378
▁맘이	-9.43383
▁먹지	-9.43456
▁겅행	-9.4364
▁아이돌	-9.43715
▁나라	-9.43739
▁설	-9.43768
▁일단은	-9.43787
시는	-9.43806
▁척	-9.43843
▁외국	-9.43874
▁꼴	-9.43908
▁언닌	-9.43984
▁움석	-9.44108
▁중국	-9.44285
▁간다	-9.4443
▁고생	-9.44437
▁델꼬	-9.44506
▁딸이	-9.44564
▁꽤	-9.44712
손	-9.44755
자가	-9.44912
올	-9.44969
채	-9.44988
▁중요한	-9.45015
▁명이	-9.45062
▁날씨	-9.45092
기로	-9.45191
탕	-9.45332
보대이	-9.45473
덕	-9.45523
투	-9.45654
▁올리	-9.45671
▁되어	-9.45678
▁주로	-9.45715
▁자리	-9.45882
▁그르	-9.459
▁아덜이	-9.45956
▁어렵	-9.4611
▁쉽게	-9.46189
▁논	-9.46212
▁고람	-9.46294
▁끊	-9.46359
▁위에	-9.46382
▁저래	-9.46447
될	-9.46465
▁돌아가	-9.46542
▁좋고	-9.46557
▁쓴	-9.46559
▁싶지	-9.4657
▁뿌	-9.46579
목	-9.4658
길래	-9.46614
▁빠	-9.46741
▁기억에	-9.46875
삼	-9.46879
▁말해	-9.4702
▁널	-9.47111
▁주세요	-9.47125
▁아니라잉	-9.47166
▁만화	-9.47168
▁하지마	-9.47237
▁거에	-9.47402
▁댕기	-9.47447
▁누나	-9.47648
청	-9.47665
▁집을	-9.47766
십	-9.47772
▁친구들이	-9.47796
▁사회	-9.48254
▁자신	-9.48348
편	-9.48355
▁내한테	-9.48367
▁신겡	-9.48432
▁뛰어	-9.48432
림	-9.48475
▁지네	-9.4851
▁벌써	-9.48511
▁느끼	-9.48533
▁있언	-9.48534
있는	-9.48708
▁물어보	-9.48811
잖아요잉	-9.48979
▁이것	-9.49055
▁인사	-9.49189
봉	-9.4927
함	-9.49287
▁올려	-9.49387
▁인터넷	-9.49426
▁놨	-9.49501
▁총	-9.49608
했는데	-9.49639
▁몬	-9.49644
▁집서	-9.49658
▁사주	-9.49715
같은	-9.49716
랑가	-9.4994
▁데서	-9.49979
▁대신	-9.50014
▁나갈	-9.50133
▁밑에	-9.50139
▁핵교	-9.50144
▁최	-9.50278
▁빈	-9.50284
▁아들은	-9.50286
까지는	-9.50302
▁미리	-9.50426
▁코로나이	-9.50455
▁없나	-9.50472
▁수술	-9.50611
▁가기	-9.50766
▁남편	-9.50772
▁쌤	-9.50778
▁사람네	-9.50796
▁난테	-9.5094
▁칼	-9.50976
▁얘기하	-9.50999
▁봤는디	-9.51196
으면은	-9.5125
▁게신	-9.51297
냐구	-9.51456
맨치로	-9.51484
▁이랬	-9.51567
떡	-9.51624
▁하이튼	-9.51653
▁약속	-9.51758
하는데	-9.51801
▁마리	-9.51817
▁가느	-9.51855
▁각	-9.5186
▁선물을	-9.51866
▁키로	-9.51978
겄어	-9.52072
▁시가이	-9.52105
▁깜짝	-9.52172
으머	-9.52202
▁놈이	-9.52219
▁오면	-9.52262
▁요작이	-9.52297
▁니도	-9.52305
▁악	-9.52482
▁요샌	-9.52557
▁가꾸	-9.52682
▁하르바이	-9.52686
▁영어	-9.52781
도록	-9.52793
▁보자	-9.52839
슈	-9.52849
▁키워	-9.53176
▁가민	-9.53302
▁우쨌든	-9.53338
▁그짝	-9.53383
▁어짜피	-9.53469
겄다	-9.53541
▁날이	-9.53572
▁할로	-9.53573
▁같대이	-9.53579
▁평	-9.5358
▁건지	-9.53664
▁얼만취	-9.53734
쇼	-9.53763
▁아방이	-9.5383
▁굴	-9.53862
▁오놀은	-9.53877
▁주구	-9.53904
▁싫은	-9.5392
게요	-9.53979
▁뜨	-9.53999
육	-9.54097
부통	-9.54101
술	-9.54152
▁먼전	-9.54167
데이	-9.54232
순	-9.54241
▁사람은	-9.5426
▁벵원	-9.54264
▁엄	-9.54282
▁받은	-9.54373
▁훨씬	-9.54391
하면은	-9.54421
▁읽	-9.54484
▁생각으롤	-9.54522
▁저런	-9.54528
▁적은	-9.54546
▁책을	-9.54555
▁바꼈	-9.54563
▁졸업	-9.54619
▁여섯	-9.54784
▁있냐	-9.54798
▁같아요	-9.54813
▁갖꼬	-9.54847
▁힘이	-9.54861
▁죽을	-9.54867
▁후회	-9.5487
켄	-9.55069
▁여행을	-9.55165
▁떼	-9.55269
▁왜냐민	-9.5532
▁이모	-9.55328
해도	-9.55372
▁카면은	-9.55451
▁봐도	-9.5547
▁아파트	-9.55499
▁오히려	-9.55587
▁일후지	-9.55587
었거든	-9.5564
▁이야기	-9.55679
▁순간	-9.55685
군요	-9.55711
▁어머	-9.55771
갖꼬	-9.55779
▁축구	-9.55794
으니까	-9.55808
▁싶은데	-9.55882
▁같기도	-9.55903
▁좋은디	-9.5598
▁결혼을	-9.56011
▁쇼핑	-9.56022
▁난중이	-9.56064
▁만난	-9.56096
▁했간디	-9.56105
후	-9.56159
▁막상	-9.56236
▁먹느	-9.56353
▁옛날신디	-9.56405
▁많고	-9.56425
▁있었어서	-9.56449
▁바다	-9.56479
▁쌀	-9.56528
▁경우느	-9.56556
꽈	-9.56557
▁하드라구	-9.56588
▁배워	-9.56628
▁어데서	-9.56685
▁잉	-9.56738
▁아방	-9.56859
▁티비	-9.56882
▁말하는	-9.56921
▁인간	-9.56937
▁짝은	-9.57078
▁술을	-9.57167
▁봐요	-9.57208
▁늦	-9.57244
▁우리는이	-9.57318
▁뻔	-9.57432
끼리	-9.57459
에다	-9.57462
▁꿈	-9.575
드라꼬	-9.5753
▁매일	-9.57551
▁해가주고	-9.57779
▁상구두	-9.57793
▁얼만	-9.5782
▁패	-9.5783
▁멀리	-9.5786
▁바러	-9.57884
▁네가	-9.57992
▁묻	-9.58116
▁일반	-9.58195
놨	-9.58241
▁있던	-9.58259
▁그랬드냐	-9.58308
한데	-9.58374
짜	-9.58385
▁좋게	-9.58482
이면	-9.58486
▁하도	-9.58505
▁곳	-9.58618
▁모아	-9.58627
▁인생	-9.58774
▁안해	-9.5879
▁끄	-9.59058
▁홍	-9.5908
▁부르	-9.5914
처	-9.59218
▁부산	-9.59291
▁묵	-9.59349
▁지나가	-9.59456
▁나으	-9.5957
▁뛰	-9.59578
▁집안	-9.5961
되어	-9.59691
▁지를	-9.59692
▁낭	-9.597
▁먹기	-9.59784
에서도	-9.59836
▁마시	-9.59892
▁호끔	-9.59955
▁경험	-9.59963
애란	-9.60066
▁배가	-9.60125
버리	-9.60135
▁낫	-9.60191
▁없사	-9.6024
죽	-9.60324
▁해가꼬	-9.60384
▁예쁜	-9.60385
▁똑같은	-9.60417
찌	-9.60447
▁상태	-9.60484
▁뭣	-9.60506
▁바꿔	-9.60525
격	-9.60558
▁넣	-9.60701
▁부모님	-9.60755
▁할라고	-9.60767
하민	-9.60793
▁가을	-9.60855
론	-9.60874
리를	-9.60879
려면	-9.60947
▁떨어지	-9.60985
▁곳이	-9.61148
▁있잖여	-9.61293
만은	-9.61326
▁아문리	-9.61346
▁없느	-9.6136
▁추천	-9.61368
▁발싸	-9.61398
▁동물	-9.61423
▁썼	-9.6146
▁삐	-9.61564
▁힘들었	-9.61625
▁콩	-9.61628
▁대해서이	-9.61683
건디	-9.61789
▁아무래두	-9.61804
▁보니	-9.6186
알	-9.61944
▁예자가	-9.62199
까요	-9.62199
▁지굼은	-9.62282
골	-9.62429
▁멀	-9.62457
▁물이	-9.62592
냥	-9.62613
▁받으	-9.62645
▁꿈이	-9.62646
▁보이까네	-9.62683
또	-9.62685
▁싸람들	-9.6271
▁이혼	-9.62788
▁젤	-9.62927
보다느	-9.62972
▁바껴	-9.62986
▁그기서	-9.63008
견	-9.63013
▁남아	-9.63059
▁이무	-9.63208
▁물어	-9.63338
▁만날	-9.63471
▁침	-9.63494
▁듣	-9.63495
▁상가	-9.63501
▁좋으	-9.63648
▁고라	-9.63654
량	-9.63713
시민	-9.6381
▁그깐	-9.63887
▁방송	-9.63927
▁해가주꼬	-9.6394
하면서	-9.63967
▁맞지	-9.63975
▁알바를	-9.64036
왔	-9.64267
▁의사	-9.64335
놔	-9.64353
▁아나	-9.64432
▁가정	-9.64482
▁아니구	-9.64493
▁느그	-9.64712
▁잘해	-9.64757
▁탄	-9.64842
쟁이	-9.64943
▁시작하	-9.64946
▁교회	-9.64969
갖구	-9.65025
▁그닷하게	-9.65124
이지	-9.65133
▁냄새	-9.65154
감이	-9.65206
▁그담에	-9.65219
▁민	-9.65226
▁하민서	-9.65296
▁니들	-9.65351
▁새끼	-9.65426
거든유	-9.65428
▁엣날에는	-9.6545
▁한참	-9.65483
▁봉	-9.65492
▁육지	-9.65711
▁가수	-9.65714
각	-9.65728
▁둘째	-9.65733
허게	-9.65756
▁어쩌	-9.6581
현	-9.65886
▁청소	-9.65907
암	-9.65914
▁다녔	-9.65945
▁생각하믄	-9.65952
쪽	-9.65961
▁사람을	-9.66163
▁앞으로	-9.66357
▁즈네	-9.66444
▁있게	-9.66466
거든요잉	-9.66512
▁옷이	-9.66562
▁도움이	-9.66737
▁출	-9.66794
곤	-9.66859
▁뒷	-9.66889
▁상간	-9.66922
▁유튜브	-9.67055
▁가난	-9.67064
▁송	-9.67075
▁이쁜	-9.67078
▁교	-9.67082
▁식당	-9.67102
▁있기	-9.67147
▁오라바이	-9.67175
▁댕기고	-9.67198
▁도대처	-9.67206
▁바러레	-9.67291
▁직	-9.67296
져서	-9.67341
기두	-9.67354
▁대부분	-9.67364
▁나름	-9.67372
▁댕겨	-9.67499
▁돌려	-9.67506
▁높	-9.67508
▁말꼬	-9.67536
▁않구	-9.67548
소리	-9.67617
▁해봐	-9.67679
고잉	-9.67762
▁걷	-9.67766
▁말라	-9.67802
▁전이	-9.67805
던디	-9.67959
▁엣날에	-9.67997
▁예쁘	-9.68002
▁시간에	-9.68009
▁틀	-9.68041
▁거죠	-9.68045
▁육십	-9.68053
▁가방	-9.68069
▁잘하	-9.68109
▁뭐래이	-9.68161
▁글구	-9.68181
▁계시	-9.68207
▁아래	-9.68371
젼	-9.68405
▁시상	-9.68433
별	-9.68475
▁그그두	-9.68484
▁연기	-9.68526
▁경우	-9.68542
▁기대	-9.68596
▁눈에	-9.68639
리고	-9.68668
염	-9.68699
▁테	-9.68748
▁공연	-9.68796
▁뭔지	-9.68833
▁사서	-9.68878
▁못하	-9.68886
▁입어	-9.68999
▁브러갓고	-9.69026
졌어	-9.69094
▁해줘	-9.69117
▁보구	-9.69159
▁쭉	-9.69177
▁설명	-9.69231
▁죄	-9.6924
▁사용	-9.69314
▁바꾸	-9.69337
▁넘어가	-9.69431
▁그추룩	-9.69436
불고	-9.69463
뎅이	-9.69464
벌	-9.69544
▁풀어	-9.69599
▁집은	-9.69696
▁허는	-9.69756
▁하이까	-9.6976
▁활동	-9.69784
▁갑재기	-9.69794
▁나신더레	-9.69794
구요	-9.69804
다리	-9.69807
▁결국	-9.6983
▁몸에	-9.69858
▁차이	-9.69908
수록	-9.6991
▁입을	-9.69932
▁솔찌	-9.69956
먼은	-9.69967
▁솔	-9.70097
▁실수	-9.70121
멘	-9.70138
돌	-9.7015
▁끝	-9.70188
잔	-9.7021
▁앞으루	-9.70279
▁카드	-9.7028
료	-9.70301
런	-9.70412
▁재밌게	-9.7042
외	-9.70514
▁모르겠	-9.70516
▁지역	-9.70526
▁허는거	-9.70551
수과	-9.70635
▁아쭈	-9.70665
굴	-9.70728
▁터	-9.70792
▁손님	-9.70802
나서	-9.7081
▁브랜드	-9.7088
믄은	-9.70894
▁걸러레	-9.71015
사가	-9.71162
거지	-9.71176
▁번째	-9.71182
▁걔는	-9.71203
갑	-9.71224
▁어때	-9.71253
마는	-9.71267
▁황	-9.71272
▁유명한	-9.71276
▁버리	-9.71363
력이	-9.71397
하네	-9.71426
▁올해	-9.71441
▁고고느	-9.7151
▁다리	-9.71531
▁고치	-9.71585
▁사람들은잉	-9.71585
▁떨	-9.71618
▁팔아	-9.71651
하시	-9.71653
▁빠빠빨리	-9.71662
▁만한	-9.71692
▁마옴에	-9.71698
▁않으까	-9.71707
▁여즘에	-9.71819
▁생일	-9.71915
▁번도	-9.71915
▁색	-9.71967
▁제주	-9.72075
구만	-9.72093
▁리	-9.7217
▁시장	-9.72176
▁하드라	-9.72201
립	-9.72223
플	-9.72242
잡	-9.72279
콰	-9.72292
▁겐디	-9.72298
▁겨울이	-9.72316
해가지고	-9.72321
▁벌어	-9.72612
▁정두	-9.72734
빠	-9.72773
▁그렁이	-9.72788
▁밭	-9.72792
▁생겨	-9.72811
▁멋있	-9.72812
▁출근	-9.72855
▁웹툰	-9.72901
와서	-9.72929
▁바쁘	-9.72931
여서	-9.72995
▁긴	-9.73069
▁망이	-9.73069
▁봐서	-9.73228
▁사업	-9.73238
▁있어야	-9.73239
가주고	-9.73248
▁하대이	-9.73271
▁기다리	-9.73285
▁못해	-9.73316
▁머시기	-9.73342
▁것이여	-9.73368
베	-9.73383
숙	-9.73384
▁좋겠	-9.734
▁있은께	-9.73407
▁씻	-9.7346
▁주문	-9.73474
▁배달	-9.73498
▁숨	-9.73516
▁폭	-9.73527
▁가믄	-9.73572
▁화가	-9.73748
대요	-9.73759
승	-9.73784
겠네	-9.7383
▁있어유	-9.7394
▁싼	-9.74016
었지	-9.7404
▁계절	-9.74049
▁물을	-9.74051
▁가먼은	-9.74054
▁일곱	-9.74093
너	-9.74119
▁놀래	-9.74131
▁역	-9.74147
▁나무	-9.7421
▁하셨	-9.74355
▁교육	-9.74429
▁앉	-9.74498
▁여유	-9.745
▁표	-9.74503
겠습니다	-9.74505
▁가진	-9.74609
▁아휴	-9.74615
만한	-9.74661
빵	-9.74663
기만	-9.747
▁쪽이	-9.74804
▁주시오야	-9.74854
▁같아유	-9.74874
▁옆에서	-9.74906
▁먹언	-9.75004
원이	-9.75126
▁분위기	-9.75156
▁경우에는	-9.7519
▁워느	-9.75191
▁햄신디	-9.75245
▁색깔	-9.75293
▁혼대이	-9.75348
권	-9.75373
▁바뀌	-9.75414
완	-9.75453
▁개구	-9.75523
이라서	-9.75601
▁아이다	-9.75603
▁많지	-9.75607
▁어찌	-9.75625
▁반대	-9.75626
▁치킨	-9.75645
겄지	-9.75715
▁결정	-9.75768
링	-9.75786
▁아인데	-9.75893
▁업	-9.75903
▁동상이	-9.75954
▁저두	-9.76073
▁올라	-9.76094
▁그러믄	-9.76109
▁겨울에	-9.76123
▁주식	-9.7617
▁월급	-9.76179
▁걸려	-9.76212
▁어니	-9.76217
▁여보	-9.76282
▁경우가	-9.76285
▁어부	-9.76294
▁곡	-9.76366
▁싸우	-9.76373
▁해부난	-9.76385
▁높은	-9.7642
▁같지	-9.76476
시고	-9.7652
▁제발	-9.76623
▁맞춰	-9.76706
▁가젱이	-9.76773
스트	-9.76874
▁스포츠	-9.76876
녀	-9.76921
▁장사	-9.76968
▁선수	-9.76999
▁됐는디	-9.77039
▁결	-9.77059
▁기분이	-9.77091
▁최근에	-9.77111
▁별러레	-9.77123
▁계획	-9.77126
▁말아	-9.77154
들한테	-9.77169
▁그지	-9.77199
만큼	-9.77364
▁된대이	-9.77373
▁말두	-9.77386
▁든	-9.77399
▁도와주	-9.7743
▁부러	-9.77457
헤	-9.77459
▁거래	-9.7747
▁집이는	-9.77513
▁남는	-9.77518
이랜	-9.77563
쿠다	-9.77617
▁키가	-9.77637
▁해봤	-9.77693
놓	-9.77727
정이	-9.77776
▁있으이까	-9.77788
▁점슴	-9.7789
▁기름	-9.77985
들어	-9.77999
▁자연	-9.78008
▁역시	-9.78077
▁나만	-9.78165
▁세계	-9.78222
▁디게	-9.78297
▁그거이	-9.78349
였던	-9.78391
▁편하	-9.7842
한다고	-9.78595
▁쪽에	-9.78617
▁아짐	-9.7871
▁함께	-9.78728
▁끊어	-9.78775
▁에전에	-9.78881
▁아니라예	-9.78921
▁들구	-9.78945
▁투자	-9.7895
▁보험	-9.79028
줬	-9.79053
째	-9.79078
법	-9.79089
▁먹으문	-9.79113
잖어	-9.79134
듯이	-9.79163
럽	-9.79271
▁애기들	-9.79272
▁닭	-9.79276
▁스스로	-9.79333
▁있습니까	-9.7936
▁아이구	-9.79377
▁머리가	-9.79382
덜토	-9.79521
입니까	-9.79523
▁운	-9.79625
▁아니다	-9.79647
록	-9.7965
▁달에	-9.79686
평	-9.79694
▁인재	-9.79748
▁아이꼬	-9.79788
▁거따가	-9.79848
▁고거는	-9.79897
▁내용	-9.79921
▁야이	-9.79933
▁뜻	-9.80055
그든	-9.80103
▁건가	-9.80124
▁팀	-9.80185
▁남의	-9.80255
▁경우도	-9.80273
하러	-9.80284
드래이	-9.80332
▁갑	-9.80401
▁모르겠는디	-9.80428
더라꼬	-9.80553
쪄	-9.8058
▁알려	-9.80593
▁생각보다	-9.80606
▁놓은	-9.80635
▁권	-9.80679
▁일케	-9.80713
독	-9.80773
▁있어예	-9.80809
▁광	-9.80849
▁해외	-9.80986
습	-9.80987
▁모습	-9.80992
▁그래가지구	-9.81063
▁행복	-9.81065
▁말씀	-9.8113
▁애덜이	-9.81132
▁현	-9.81148
하다가	-9.81156
자네	-9.81271
▁입구	-9.81408
▁점심	-9.81431
▁있습니다	-9.81452
▁기본	-9.8147
해두	-9.81489
▁너랑	-9.81489
▁않으	-9.81497
▁자네	-9.81537
▁있드라구	-9.81576
▁몰르고	-9.81656
▁찐	-9.81713
▁거게	-9.81759
▁메칠	-9.81764
▁현실	-9.81783
▁가믄은	-9.81821
둥	-9.81827
▁이릏게	-9.81857
악	-9.81919
▁전부	-9.81947
▁쉽지	-9.81954
▁임	-9.81989
▁추억	-9.81999
룩	-9.82009
▁호텔	-9.82077
▁식사	-9.82087
▁역사	-9.82124
▁택시	-9.82216
션	-9.82238
▁말하믄	-9.8226
▁애를	-9.82288
▁데는	-9.82294
▁신발	-9.82297
▁워	-9.82313
▁넣고	-9.82368
▁상대	-9.82415
▁행동	-9.82427
▁자고	-9.8247
▁말할	-9.82531
▁사건	-9.82563
▁똑같	-9.82567
▁창	-9.82648
▁여심히	-9.82784
느냐	-9.82785
▁초등학교	-9.82832
▁갸	-9.82842
광	-9.82883
▁줘야	-9.82912
▁이유가	-9.82959
▁떡	-9.82969
▁컴퓨터	-9.82992
▁인정	-9.83073
▁착	-9.83082
▁영상	-9.83108
▁나한티	-9.83176
▁모임	-9.83204
퍼	-9.83266
힌	-9.83293
▁해다가	-9.83377
▁쇠	-9.83479
졍	-9.83502
▁했네	-9.8352
▁빨	-9.83538
▁길이	-9.83564
▁끓여	-9.83568
께서	-9.83572
▁빌	-9.83648
▁오지	-9.8368
에요	-9.83707
▁유행	-9.83725
▁부분	-9.83739
하니	-9.83752
▁털	-9.8386
▁첨에	-9.83862
▁드리	-9.83902
시믄	-9.84115
▁있다이가	-9.84125
▁좋아하는디	-9.84228
▁편한	-9.84252
시간	-9.84255
▁우리집	-9.84257
서요	-9.84287
▁갖	-9.84288
▁시집	-9.8433
▁걱정이	-9.84341
▁즈	-9.84367
▁일루	-9.84428
▁아주머이	-9.8456
▁여덟	-9.8456
▁시골	-9.84592
▁날씨가	-9.84639
▁쩌기	-9.84657
▁주꼬	-9.8477
생이	-9.84776
더만	-9.84776
▁요런	-9.84887
▁며칠	-9.84914
▁이거를	-9.85103
셨어요	-9.85129
▁뽑	-9.85159
▁코로나가	-9.85161
▁그기에	-9.85222
▁주변	-9.85224
▁하잖아	-9.85248
▁피부	-9.85316
▁친구들이랑	-9.85395
▁주변에	-9.85436
▁째	-9.855
▁가도	-9.85508
쥬	-9.85513
▁있었다	-9.85554
▁불편하	-9.85652
▁아르바이트	-9.85725
▁어려운	-9.85732
▁모른	-9.85746
했을	-9.85866
▁요것도	-9.85917
▁점이	-9.85989
▁고양이	-9.86029
▁웃기	-9.86033
▁맨들어	-9.86042
▁쥐	-9.86049
▁위해서	-9.86058
▁해결	-9.86098
머리	-9.86145
▁맛있어	-9.86172
받	-9.86223
▁큰일	-9.86228
▁이뻐	-9.8629
▁깔	-9.86299
▁차이가	-9.86307
▁하과	-9.86345
▁월마나	-9.8636
줘야	-9.86389
▁새로운	-9.86401
▁하내기두	-9.86421
▁말했	-9.86427
▁노력을	-9.86471
▁종교	-9.86472
▁하냐	-9.86512
▁무시	-9.86536
장을	-9.86594
▁생각나	-9.86606
▁졸	-9.86648
돈	-9.86671
겠지만	-9.86777
▁사나	-9.86807
드리	-9.86826
▁넘어	-9.86845
낸	-9.86889
▁친한	-9.86896
▁상황	-9.86898
살이	-9.86916
▁인나	-9.86979
▁갱	-9.87014
▁되지를	-9.87055
▁봄시롱	-9.87092
▁여름에	-9.87124
▁된께	-9.87157
▁시방	-9.87209
▁층	-9.87214
▁너두	-9.8722
▁방법	-9.87286
▁미안	-9.87289
주세요	-9.87304
▁귀찮	-9.87311
▁하튼	-9.87345
없이	-9.87378
▁갈아	-9.8747
▁있었든	-9.87557
까진	-9.87607
▁여름이	-9.87642
더라구유	-9.87661
▁모여	-9.87692
햐	-9.87692
커	-9.87729
▁합	-9.87744
딱	-9.87749
▁되잖아	-9.87796
▁편인디	-9.87807
▁알게	-9.87894
▁내용이	-9.87936
▁갔는데	-9.88006
▁중요하	-9.88023
습니까	-9.88031
▁아시	-9.88033
▁슬	-9.88048
헐	-9.88152
하세요	-9.88179
▁나눠	-9.88221
▁인자는	-9.88267
▁같은데	-9.88371
▁무서워	-9.88382
▁겉애유	-9.88391
▁물건	-9.88467
▁먹자	-9.88486
▁고대로	-9.88509
▁들어보	-9.88573
한디	-9.88602
축	-9.88615
▁보게	-9.88641
▁계산	-9.88646
▁근무	-9.88665
▁이름이	-9.88759
웠	-9.88766
▁할까	-9.88771
득	-9.88774
됐	-9.88803
▁맛인	-9.88854
겠다고	-9.88916
우다	-9.8892
▁있으이꼬	-9.88947
▁떨어져	-9.88982
▁내려가	-9.89063
스럽	-9.89085
▁야구	-9.89128
▁맥	-9.89233
하긴	-9.89246
▁개인	-9.89275
▁주시	-9.89294
▁신랑	-9.89317
▁눈치	-9.89383
▁어째	-9.89428
▁맹	-9.89429
▁연습	-9.8946
▁쩌	-9.89477
되고	-9.8961
▁소직히	-9.8969
▁남펜	-9.89719
▁오라버이가	-9.89765
▁가마이	-9.89786
▁글면은	-9.89787
▁성님	-9.89807
으민	-9.89825
다면	-9.89834
▁수영	-9.89904
▁소개	-9.89952
물이	-9.90059
▁문제가	-9.90215
므	-9.90235
▁끝내	-9.90238
마씀	-9.90239
▁우떤	-9.90259
▁드라마를	-9.90317
▁아니라	-9.90364
▁약을	-9.9037
▁편인	-9.90373
▁많다	-9.90374
▁만났	-9.90429
▁고르	-9.90431
▁지난	-9.90489
랄	-9.90503
▁낮	-9.90533
▁들꼬	-9.90575
▁이기	-9.90581
▁우리도게	-9.90585
둘	-9.90632
능	-9.9065
▁필	-9.90675
▁어타	-9.90676
▁짜리	-9.9068
▁클	-9.9091
▁했잖아	-9.90948
▁글쎄	-9.91019
▁평상	-9.9103
▁못한	-9.91061
▁자식	-9.91074
▁벵원에	-9.91097
는데요	-9.91231
▁생활을	-9.91235
렌	-9.91284
값	-9.91391
▁칠십	-9.91402
▁겉	-9.91428
▁보지	-9.91432
▁나갔	-9.91493
북	-9.91514
에느	-9.91547
▁개를	-9.91553
을까	-9.91584
비가	-9.91587
향	-9.91644
지느	-9.91706
▁사람도	-9.91723
▁찾아보	-9.91774
▁간나	-9.91784
▁입는	-9.91788
▁새로	-9.91804
▁가시는데	-9.91867
▁가보	-9.91891
▁영화가	-9.91909
▁이천	-9.91974
범	-9.91982
▁알구	-9.92022
▁했나	-9.92061
있어	-9.92147
▁아부님	-9.92169
▁팬	-9.92211
▁해본	-9.92234
▁이유	-9.92319
▁모르겐	-9.92387
▁라는	-9.92429
▁좋아해	-9.92445
▁붙어	-9.92584
▁우선	-9.92602
▁하당	-9.92604
롱	-9.92625
▁경제	-9.92646
▁맴이	-9.92651
더라구예	-9.92654
▁쪼매이	-9.92782
▁가요	-9.92791
▁훈련	-9.9291
▁녹	-9.92939
▁반찬	-9.92961
▁빌려	-9.93103
▁좋겠어	-9.93126
▁없네	-9.93225
▁나의	-9.93257
인이	-9.93291
▁없었어	-9.93339
▁오번에	-9.93373
▁틀리	-9.93396
▁해줄	-9.93411
햄	-9.93457
했사	-9.93457
▁하시는	-9.93471
▁있으니께	-9.93485
▁면	-9.93517
▁억	-9.93544
▁한잔	-9.93612
니다	-9.9364
▁농	-9.93663
랴	-9.93726
▁들어와	-9.93726
▁홀	-9.93747
시면	-9.93843
▁가격이	-9.93844
▁허지만	-9.93851
▁떠나	-9.93889
▁계	-9.93915
▁처레미	-9.93919
▁비행기	-9.9392
▁먹으	-9.94004
짓	-9.94009
▁아부지는	-9.94047
▁없꼬	-9.94066
▁짜증	-9.94101
▁수는	-9.9414
▁몰래	-9.94142
▁이시난	-9.94143
▁들으	-9.94159
야겠다	-9.94168
▁몸을	-9.9421
▁추워	-9.94235
늘	-9.94316
▁화장	-9.94326
▁말하	-9.94396
▁때메	-9.94477
▁그랬드니	-9.94518
결	-9.94536
▁싶고	-9.94538
▁경한거	-9.94554
▁우덜은	-9.94561
▁뒤로	-9.94616
▁그랬어	-9.94621
▁트	-9.94654
껴	-9.94661
▁알아가주고	-9.94745
▁했으믄	-9.94805
▁좋아했	-9.94861
▁풍	-9.94902
▁아이래이	-9.9493
▁만약이	-9.94951
잘	-9.94956
▁자석이	-9.94986
▁나면	-9.95
▁때마다	-9.95004
었잖아	-9.95006
▁과일	-9.95044
보단	-9.9528
▁만원	-9.9534
들의	-9.95361
겄	-9.95391
짐	-9.95401
▁사람은이	-9.95441
▁들어간	-9.95502
▁거나	-9.9555
▁감정	-9.95591
▁상상	-9.95605
▁그리면은	-9.9561
▁않았어	-9.95661
▁세상	-9.95691
▁거랑	-9.95715
▁됐다	-9.95725
▁알안	-9.95744
▁음매	-9.95777
치고	-9.95823
▁히	-9.95856
▁친구랑	-9.95894
▁성겍이	-9.95899
▁컸	-9.95954
▁취	-9.9606
▁옆	-9.96074
열	-9.9614
얼	-9.96163
▁년이	-9.96201
하나	-9.9623
층	-9.9625
▁속에	-9.96253
▁기사	-9.96259
시냐	-9.96305
▁상관	-9.96327
▁자동차	-9.96344
▁아쉽	-9.96371
▁슨상님	-9.96413
▁쓰지	-9.96481
▁싶었	-9.96501
▁지도	-9.96529
▁만족	-9.96529
▁않게	-9.96543
밲이	-9.96595
▁알어	-9.96657
답	-9.96679
▁다행이	-9.96731
하잖아	-9.96737
▁경험이	-9.96837
▁친정	-9.97007
▁하지만은	-9.97057
▁게론	-9.97124
이라꼬	-9.97145
▁셋	-9.97231
▁허다가	-9.97267
▁성공	-9.97291
▁쪼끔씩	-9.97331
억	-9.97356
▁그근	-9.97379
듯	-9.97409
▁돈도	-9.97441
족	-9.97569
▁문젠	-9.97587
▁들은	-9.97626
▁행으네	-9.97693
끈	-9.97734
▁땀	-9.97786
누	-9.9781
▁음식이	-9.97842
▁싶을	-9.97861
▁건물	-9.9804
▁형님	-9.98044
사람	-9.98046
▁말여	-9.98056
▁잡고	-9.9812
겠사	-9.9812
▁썩	-9.98125
▁그라면은	-9.98128
환	-9.9813
▁고때는	-9.98168
▁본인	-9.98255
책	-9.98291
부런	-9.98304
▁담아	-9.98351
▁하던	-9.98455
▁그쪽	-9.98462
▁있어요	-9.98479
▁한다꼬	-9.98493
▁기계	-9.98508
▁확인	-9.98513
▁겅해	-9.98522
▁도로	-9.98532
하여	-9.98548
철	-9.98565
▁게믄	-9.9863
어야	-9.98641
▁선배	-9.98675
▁지방	-9.98677
▁그만	-9.98724
▁팔십	-9.98746
▁눈을	-9.98803
▁아이들	-9.98843
▁문화	-9.98926
▁재미있	-9.98953
▁갔던	-9.98983
▁자는	-9.99001
려꼬	-9.99029
▁스무	-9.99076
▁놓구	-9.99102
땐	-9.99105
▁시직	-9.99144
▁아줌마	-9.99155
▁라면	-9.99162
▁돌아댕기	-9.99163
쩍	-9.99248
침	-9.99249
밤	-9.99255
▁방에	-9.99292
가주꼬	-9.99297
치는	-9.99301
▁않을까	-9.99319
▁익	-9.99345
▁대충	-9.99399
▁일주일	-9.99436
▁안주	-9.99464
데요	-9.99467
▁일로	-9.99477
▁이라	-9.9954
▁거리	-9.99566
▁엔날에	-9.99571
▁있다는	-9.99585
겠나	-9.99594
으니	-9.996
▁강아지	-9.99633
▁종류	-9.99687
▁잊어	-9.99693
▁갔대이	-9.99693
▁맞다	-9.99696
▁파는	-9.99755
▁틀어	-9.99763
▁대구	-9.99854
▁신랑이	-9.99944
▁좋은데	-9.99981
▁미깡	-9.99997
스러운	-10.0002
▁평생	-10.0002
▁발전	-10.0003
▁뭐랜	-10.0007
▁좋긴	-10.0016
브러	-10.0019
▁말로	-10.0024
▁달부	-10.0025
▁허면은	-10.0025
▁짓을	-10.0025
▁시상이	-10.0026
▁인스타	-10.0042
▁들을	-10.0043
▁상체	-10.0051
▁해가	-10.0059
▁좋아요	-10.0062
▁하러	-10.0065
▁작년	-10.0075
하자	-10.0076
▁알꼬	-10.0076
팅	-10.0078
▁쪽으로	-10.008
▁유투브	-10.0082
▁양념	-10.0085
▁증	-10.0086
▁한닥	-10.0095
▁사이	-10.0097
대는	-10.0108
▁알아보	-10.0109
중에	-10.011
▁사장님	-10.0127
봐야	-10.0133
▁춥	-10.0136
▁봐신디	-10.0139
▁직업	-10.014
▁골아	-10.014
▁돈은	-10.0142
엄	-10.0149
탈	-10.0159
▁궁	-10.0163
▁하라	-10.0165
▁취업	-10.0168
▁당근	-10.0172
▁거는이	-10.0177
더라도	-10.0183
▁전혀	-10.0183
▁있다구	-10.0183
▁웃긴	-10.0185
▁그때랑	-10.0186
▁구경	-10.0187
▁맥주	-10.0191
▁마세요	-10.0195
▁간에	-10.0196
▁고만	-10.0202
▁사다	-10.0204
놈	-10.0206
▁벨로	-10.0207
▁검사	-10.0207
▁통화	-10.0209
▁맛집	-10.0213
▁프로그램	-10.0214
▁가머	-10.022
▁좋겠다	-10.022
▁항	-10.0221
▁사람은여	-10.0226
▁워드메	-10.0229
깐	-10.0231
▁않겠나	-10.0234
▁바루	-10.0245
▁아매	-10.0246
이었어	-10.0249
▁인상	-10.0249
▁새벽	-10.0253
밀	-10.0254
▁있나요	-10.0255
지게	-10.0256
▁달려	-10.0257
표	-10.0264
▁불르	-10.0264
▁손이	-10.0267
▁실은	-10.0268
▁식구	-10.0268
▁사램두	-10.0274
▁그림	-10.0275
▁그른거	-10.0278
짜리	-10.0278
▁푸	-10.028
▁사귀	-10.0286
▁열어	-10.0286
는게	-10.029
▁봐봐	-10.0294
▁억수로	-10.0299
맞	-10.0301
▁마트	-10.0303
▁그케	-10.0304
▁했사	-10.0307
▁롤	-10.0311
▁아직에	-10.0313
▁성님이	-10.0319
▁있거든	-10.0322
▁쫄	-10.0332
하셨	-10.0344
▁챙기	-10.0346
▁마찬가지	-10.036
▁사람네는	-10.036
▁거유	-10.0367
▁하세요	-10.0367
니까는	-10.0369
사를	-10.0375
▁신기하	-10.0378
▁두고	-10.0381
▁손을	-10.0383
드라구유	-10.0385
▁게메	-10.0386
한거	-10.0387
▁보냈	-10.0389
▁느꼈	-10.039
▁의미	-10.039
▁쏘	-10.0395
▁타구	-10.04
하니께	-10.0401
▁맻	-10.0405
▁같아라	-10.0406
▁원하는	-10.0407
▁뽑아	-10.0407
때는	-10.0416
▁멋	-10.0419
였는데	-10.042
▁허믄	-10.0435
▁나가는	-10.0438
▁교수님	-10.0438
▁부리	-10.0444
▁꿀	-10.0444
▁직끔도	-10.0446
▁머스마	-10.0449
▁쌍	-10.0451
▁거잖아	-10.0451
셔서	-10.0455
▁생각하노	-10.0456
▁싶으믄	-10.046
릿	-10.0463
▁가는디	-10.0465
졌다	-10.0469
해주	-10.0471
▁일도	-10.0474
▁못할	-10.0475
▁이사	-10.0478
▁고마	-10.0479
▁나는디	-10.0488
▁글코	-10.0495
▁하니	-10.0505
▁쉬운	-10.0509
▁그잖으면	-10.0512
하신	-10.0516
▁산책	-10.0519
르고	-10.0526
▁놀아	-10.0528
▁목표	-10.0532
▁않아요	-10.0534
▁움직이	-10.0535
▁되었	-10.0538
▁들어갔	-10.0539
▁상관없	-10.0541
▁냉	-10.0545
▁있드라고	-10.0552
▁가격	-10.0555
▁않어	-10.0556
▁필요한	-10.0557
▁똘	-10.0564
송	-10.0566
▁곱	-10.0569
▁주면	-10.0569
▁누게	-10.0576
▁경찰	-10.0576
▁거래이	-10.0576
▁있겠	-10.0576
례	-10.0579
▁허리	-10.0588
▁가가꼬	-10.059
더라구요잉	-10.0595
▁콤플렉스	-10.0595
▁될지	-10.0598
▁갔었	-10.0598
▁글런데	-10.06
▁데도	-10.0602
▁좋다구	-10.0606
▁남았	-10.0606
▁긍꼬	-10.0607
들이랑	-10.0615
자마자	-10.0618
드냐	-10.062
▁품	-10.0623
▁괜찮아	-10.0628
▁서방	-10.0628
항	-10.0632
▁사람들을	-10.0633
탄	-10.0635
▁궁금하	-10.0635
합니다	-10.0636
▁가가주구	-10.0642
▁개가	-10.0647
▁퇴근	-10.0652
한텐	-10.0653
▁있댄	-10.0655
▁이따	-10.0656
▁이해	-10.0664
▁선생님	-10.0667
▁봤는데	-10.0672
귀	-10.0672
시리	-10.0673
▁따라가	-10.0675
럭	-10.0676
처름	-10.0676
▁지원	-10.0679
▁경행	-10.0682
▁한두	-10.0684
▁꿈을	-10.0692
▁갔다가	-10.0693
▁담배	-10.0694
▁어떻	-10.0698
▁보는디	-10.0698
▁아홉	-10.0699
▁드시	-10.07
월	-10.0702
▁쪼매	-10.0708
▁즈그	-10.0708
▁마스크	-10.0713
깨	-10.0714
둔	-10.0718
▁되니께	-10.0746
▁작년에	-10.0746
▁먹으먼은	-10.0757
님이	-10.0758
▁유럽	-10.076
▁웬	-10.0762
랬	-10.0767
분이	-10.0776
▁예뻐	-10.0781
▁쌔빠지게	-10.0784
▁느이	-10.0784
▁걔네	-10.0787
▁땡기	-10.0788
▁추운	-10.0792
▁요즘이	-10.0792
주만은	-10.0795
▁이틀	-10.0807
▁휘	-10.0823
▁하지를	-10.0826
▁맞추	-10.0829
였다	-10.0832
뜨	-10.0835
▁야채	-10.0841
▁그면	-10.0844
▁싫다	-10.0847
▁위로	-10.085
▁찔	-10.085
▁기야	-10.0853
▁외려	-10.086
▁키웠	-10.0865
틀	-10.0882
▁할마이	-10.0887
시켜	-10.089
▁읽어	-10.089
▁겁	-10.0892
튼	-10.0893
▁거지를	-10.0897
▁삶	-10.0902
수게	-10.0906
▁놀고	-10.0908
▁되겠	-10.0909
▁번호	-10.091
꾼	-10.0912
▁듣기	-10.0913
▁겟들이	-10.0915
▁분들이	-10.0919
▁좋아혀	-10.093
▁찬	-10.0933
▁스물	-10.0936
▁할려구	-10.0937
▁맞았	-10.094
▁버려	-10.0946
▁드릴	-10.0946
희	-10.0956
▁좋구	-10.0956
▁알앙	-10.0958
▁찾아가	-10.0958
패	-10.096
▁장르	-10.0962
▁할라	-10.0963
▁으이구	-10.0963
▁그니	-10.0969
▁사느	-10.0969
럴	-10.0973
▁그저	-10.0973
▁잡다	-10.0978
▁포기	-10.0981
▁들었어	-10.0986
지만은	-10.0986
허는	-10.0986
▁탔	-10.0989
▁싶어가꼬	-10.0995
▁집에가	-10.0998
▁충격	-10.1
렸어	-10.1
▁벗	-10.1002
▁들어가꼬	-10.1007
▁똑	-10.101
면서도	-10.1015
▁분들	-10.1016
▁만약	-10.1017
필	-10.1018
▁냈	-10.1019
▁이러이	-10.1021
▁이시민	-10.1023
쳤	-10.1025
▁엉차	-10.1033
▁신고	-10.1034
▁대답	-10.1036
찰	-10.105
▁허드라구	-10.1051
▁무조근	-10.1053
▁칭구가	-10.1053
▁움어서	-10.1054
▁그거를이	-10.107
▁그그	-10.1074
▁조심	-10.1076
▁얼릉	-10.1077
▁올라오	-10.1083
▁언냐	-10.1083
▁가사	-10.1097
▁많은디	-10.1098
▁콘서트	-10.11
▁형이	-10.1106
▁짤	-10.1109
▁얼구리	-10.1111
까봐	-10.1112
▁되기	-10.1116
▁만큼	-10.1117
디다	-10.112
▁메누리	-10.1122
▁남자친구	-10.1129
▁이불	-10.113
▁왔는디	-10.1131
레기	-10.1133
▁벨	-10.1137
▁마시구	-10.1139
▁배웠	-10.1144
당게	-10.1147
▁남은	-10.1148
밭	-10.1149
버린	-10.1151
▁암만	-10.1153
▁중한	-10.1154
▁재미가	-10.1154
척	-10.1159
▁그르다	-10.116
에두	-10.1162
▁그랜지	-10.1164
▁섬	-10.1165
▁다이어트를	-10.117
▁돌리	-10.1171
▁닮은	-10.1173
▁얘기했	-10.1177
▁대화	-10.1178
▁관계	-10.1178
▁어리	-10.1181
▁없잖아	-10.1182
▁먹게	-10.1184
▁환경	-10.119
▁되머	-10.1192
▁재테크	-10.1193
던지	-10.1202
▁써야	-10.121
▁정치	-10.1219
▁치료	-10.1221
▁요즘에	-10.1223
▁나고	-10.1226
이냐	-10.1226
▁되니께네	-10.123
▁이백	-10.1237
▁데이트	-10.1245
▁무리	-10.1246
더라고요잉	-10.1248
▁가봤	-10.1249
▁끝났	-10.125
▁아니에요	-10.1254
▁타는	-10.1256
▁연예인	-10.1269
▁어딜	-10.127
하거나	-10.1272
▁내년	-10.1275
▁꾸워	-10.1277
였는디	-10.1279
▁모르겠어	-10.128
▁같으	-10.1284
▁휴대폰	-10.1288
▁있더라고	-10.129
▁아니먼은	-10.1291
▁얼른	-10.1292
▁노래가	-10.1296
▁저번	-10.13
▁저녁에	-10.1302
▁기회	-10.1306
것도	-10.1309
▁나간	-10.1311
▁생각했	-10.1312
▁남편이	-10.1314
▁나으가	-10.1316
▁작가	-10.1319
▁표현	-10.132
랑은	-10.1324
없	-10.1328
▁특	-10.133
▁후에	-10.1338
▁경우는	-10.1339
▁마실	-10.134
▁그나마	-10.1341
끔	-10.1343
▁붙여	-10.1344
▁사진을	-10.1349
▁값	-10.1357
▁따러	-10.136
▁가이네	-10.1361
▁동아리	-10.1361
하시는	-10.1361
들끼리	-10.1361
▁계란	-10.1363
▁숙	-10.1364
시다	-10.1366
▁소금	-10.137
▁필요가	-10.1378
▁테레비	-10.1383
▁편의점	-10.1383
▁석	-10.1387
▁봐라	-10.1393
해여	-10.1394
▁쟤	-10.1394
▁대차	-10.1397
▁차려	-10.1407
▁되네	-10.1407
▁카톡	-10.1407
거여	-10.1416
▁글제	-10.1417
잖	-10.1417
전에	-10.1418
응께	-10.1418
▁마고	-10.1418
▁있는지	-10.1419
▁매장	-10.1428
▁부담	-10.1429
▁담이	-10.143
▁허여	-10.1435
신지	-10.1444
든가	-10.1449
한테는	-10.1449
▁계신	-10.145
▁꺼내	-10.1451
자는	-10.1452
▁얘는	-10.1453
했지	-10.1455
변	-10.1458
▁아인가	-10.1461
버려	-10.1465
▁해그넹	-10.1466
▁필요하	-10.1467
▁폐	-10.1467
▁비교	-10.1469
▁들어갈	-10.1474
먹고	-10.1475
▁편이여	-10.1478
슨	-10.1479
▁겔혼	-10.1479
▁허벌나게	-10.1479
▁부동산	-10.1479
린다	-10.148
다니까	-10.1481
▁나가가꼬	-10.1482
진다	-10.1485
▁동세	-10.1495
▁아니었	-10.1502
구리	-10.1502
▁백화점	-10.1504
치가	-10.1505
▁하겠	-10.1507
▁몰르게	-10.1509
▁거래요	-10.1509
▁뉴스	-10.1511
람	-10.1511
▁향	-10.1511
▁있단	-10.1518
▁것들이	-10.1525
▁눈물	-10.1527
▁있지를	-10.1529
▁그믄서	-10.153
▁사야	-10.1533
버렸	-10.1533
쉬	-10.1536
▁선물이	-10.1538
▁뿔	-10.1541
이든	-10.1543
▁금사	-10.1545
이영	-10.1546
겠냐	-10.1548
▁시즌	-10.1557
▁예약	-10.1559
▁먹는디	-10.1561
었간디	-10.1564
이잖아	-10.1568
▁싶대이	-10.157
▁오늘에는	-10.1572
▁십오	-10.1573
▁묵어야	-10.1574
▁아이고쪄	-10.1579
건데	-10.1579
▁빡세게	-10.1589
▁한대이	-10.1589
▁가지를	-10.159
▁처음에	-10.1592
▁시대	-10.1595
허여	-10.1595
▁마셔	-10.1596
▁막내	-10.1596
▁이녁	-10.1596
집이	-10.1598
▁날은	-10.1601
▁분멩히	-10.1601
▁열심히	-10.1601
더라고유	-10.1603
▁아구구	-10.1607
▁넓	-10.1609
▁날라	-10.1609
▁덕	-10.1611
▁치고	-10.1614
▁알겠	-10.1614
▁닌	-10.1627
▁마지막	-10.1631
둬	-10.1633
▁명품	-10.1633
깔	-10.1634
▁부모님이	-10.1636
▁끝난	-10.1639
▁있잖아예	-10.1645
▁무시거	-10.1645
▁글다	-10.1646
잖애	-10.1646
▁께임을	-10.1646
어가지고	-10.165
힐	-10.165
▁크리스마스	-10.165
▁사람들또	-10.1652
▁김장	-10.1653
▁현재	-10.1654
자고	-10.1661
▁되난	-10.1662
▁젖	-10.1663
▁요거는	-10.1663
▁화장실	-10.1665
▁결과	-10.1671
▁얘기해	-10.1674
▁있지만	-10.1676
▁은행	-10.1678
▁돌아오	-10.168
▁바지	-10.1684
▁재밌어	-10.1691
▁가시	-10.1693
▁왜냐먼은	-10.1693
보난	-10.1695
▁그의	-10.1697
▁오백	-10.1699
혔	-10.1709
▁알았는데	-10.1711
▁환	-10.1717
▁이해가	-10.1722
▁엉이	-10.1725
▁이상하케	-10.1726
▁겅행그넹	-10.1728
▁레	-10.1729
▁길을	-10.1732
▁얼굴이	-10.1733
▁시작했	-10.1734
▁관련	-10.1734
▁많구	-10.174
▁요거를	-10.175
▁역부러	-10.1751
▁먹었어	-10.1752
▁아매두	-10.1761
▁등산	-10.1763
▁사람도이	-10.1764
▁거우	-10.1768
장님	-10.1771
▁최근에이	-10.1772
▁산다	-10.1774
려서	-10.1776
▁그때도	-10.1779
▁어려워	-10.178
▁몰르	-10.1781
▁저러	-10.1784
▁노는	-10.1785
▁모다	-10.1787
▁승	-10.1797
▁드가	-10.1797
▁질문	-10.1798
▁좋았던	-10.18
지유	-10.1801
▁요즘엔	-10.1803
▁사램들은	-10.1804
▁정보	-10.1812
▁물어봐	-10.1813
▁한나	-10.1814
▁주십시오	-10.1819
▁일에	-10.1822
▁방법이	-10.1826
▁물에	-10.1827
▁목소리	-10.183
▁거고	-10.183
▁어신디	-10.1837
▁휴가	-10.1837
▁그래요	-10.184
라믄	-10.1842
▁생각하는	-10.1849
▁자랑	-10.1853
▁농구	-10.1854
▁아닌가	-10.1856
▁있제	-10.1857
▁쩍	-10.1859
▁이거이	-10.186
▁거예에	-10.186
▁머리를	-10.186
▁미친	-10.1864
지지	-10.1866
▁재기가	-10.1871
▁떡볶이	-10.1874
▁면접	-10.1875
▁살다	-10.1875
▁엣날이	-10.1881
▁쪼금씩	-10.1885
장에	-10.1892
▁연구	-10.1898
▁끝나믄	-10.1901
▁니랑	-10.1906
▁키울	-10.1906
▁용돈	-10.1909
▁지름	-10.1915
▁누군가	-10.192
시죠	-10.1922
▁자전거	-10.1925
▁정도로잉	-10.1925
▁빚	-10.1926
▁연극	-10.1926
▁이라민시	-10.1927
▁골라	-10.1931
▁사개	-10.1931
▁경우에느	-10.1932
▁임신	-10.1933
▁모르겄어	-10.1937
▁삼성	-10.1938
▁알려주	-10.1938
▁연결	-10.1941
▁주제	-10.1943
▁감동	-10.1947
▁외모	-10.1948
▁믿어	-10.195
▁노오느	-10.195
▁터지	-10.1952
▁사꼬	-10.1953
▁그카는	-10.1955
주구	-10.1955
▁선택	-10.1957
▁고쳐	-10.1959
▁기별	-10.196
▁커서	-10.196
▁허영	-10.1962
▁가슴	-10.1962
지않	-10.1965
▁들어갖고	-10.197
벅	-10.1975
▁미안하	-10.1978
▁아뇨	-10.198
▁잠을	-10.1981
▁지금은이	-10.1988
▁예전	-10.199
▁짤라	-10.1991
▁한댄	-10.1994
노난	-10.1994
만의	-10.1997
▁샘토막이	-10.2001
▁쨋든	-10.2001
▁즐기	-10.2001
▁나가믄	-10.2005
▁아버이	-10.2006
나게	-10.2006
넨	-10.2009
움	-10.201
▁괴기	-10.2013
▁번은	-10.2023
▁이른	-10.2026
▁맞느	-10.2026
▁아쉬운	-10.2026
하는거	-10.2029
▁경허난	-10.2037
해라	-10.2038
▁많은데	-10.204
▁짐치	-10.204
▁심한	-10.2041
▁해야지	-10.2044
▁유지	-10.2044
▁들어왔	-10.2046
▁안에서	-10.2049
▁기회가	-10.2052
▁호꼼	-10.2053
하냐	-10.2054
대가	-10.2057
▁스토리	-10.2058
▁오빠가이	-10.2061
▁경해	-10.2063
▁엉	-10.2064
똥	-10.2066
▁하께	-10.2067
▁배울	-10.207
▁촌	-10.2072
▁도시	-10.2073
▁어띃게	-10.2077
▁모르겄는디	-10.208
▁여자친구	-10.2084
라구요	-10.2093
▁될까	-10.2095
▁나왕	-10.21
▁고맙	-10.2102
▁그래가	-10.2103
▁감기	-10.2107
해신디	-10.2114
▁가이가	-10.2116
놓구	-10.212
기에	-10.2121
▁그분	-10.2125
수를	-10.2129
▁처리	-10.2133
▁학상	-10.2137
겠죠	-10.2142
▁입꼬	-10.2143
▁근강	-10.215
▁말이라	-10.2152
▁된닥	-10.2164
▁사기	-10.2168
▁먹었는디	-10.2168
▁없으문	-10.217
▁똑같이	-10.2171
▁케	-10.2177
▁옛날엔게	-10.2181
▁가라	-10.2183
▁자신이	-10.2185
▁망금	-10.2186
▁씩	-10.2187
▁있으세요	-10.2188
▁싶기도	-10.2188
▁쉽	-10.2193
▁국내	-10.2194
▁만들었	-10.2195
▁모를	-10.2196
▁구워	-10.2196
적데레	-10.2196
상이	-10.2205
븐	-10.2206
▁쓰구	-10.2207
▁했냐	-10.2211
겠대이	-10.2215
▁소설	-10.2228
▁된다구	-10.2229
▁요즘으는	-10.2233
▁충	-10.224
▁가족이	-10.224
▁따지	-10.2246
묵	-10.2248
▁걸렸	-10.225
▁우유	-10.2254
▁손에	-10.2254
▁불고	-10.2258
▁어짜든	-10.2259
▁했었는디	-10.2261
미가	-10.2261
▁관리를	-10.2263
테이까	-10.2265
▁낙	-10.2265
드래	-10.2267
▁즌화를	-10.227
▁지굼까지	-10.2271
▁닫	-10.2275
먹어	-10.2276
▁쯤	-10.2277
▁생각사	-10.2279
데기	-10.2281
나요	-10.2282
▁합격	-10.2286
▁갈라	-10.229
▁실망	-10.2295
껀	-10.2296
▁없으이까	-10.2298
한티	-10.2304
▁그래니까네	-10.2305
▁얘들은	-10.2306
자너	-10.2308
▁적응	-10.2315
▁책임	-10.2319
▁할매	-10.232
▁참말로	-10.2338
▁타꼬	-10.2339
▁있어가주구	-10.2341
▁놀라	-10.2343
▁궁금해	-10.2344
참	-10.2345
▁깜	-10.2356
하시로	-10.2363
낼	-10.2364
▁한창	-10.2364
▁멫	-10.2368
▁아이고마	-10.237
▁구십	-10.2373
것다	-10.2377
▁진행	-10.2381
가서	-10.2382
▁상간에	-10.2386
▁바당	-10.2391
혼	-10.2392
▁병원에	-10.2395
▁농사	-10.2397
한테도	-10.2398
▁고때느	-10.2398
▁말했던	-10.2399
▁다신	-10.2401
부니까	-10.2402
▁나오믄	-10.2404
▁적어	-10.2406
▁남들	-10.2411
▁쭐이	-10.2412
▁거다	-10.2412
킹	-10.2416
▁귀엽	-10.2417
기느	-10.243
▁이신	-10.2438
▁소리를	-10.2444
▁이기느	-10.2444
▁어매는	-10.2445
▁들리	-10.2445
▁기가	-10.2446
▁집중	-10.245
하는디	-10.2452
시겠어요	-10.2453
▁했었어	-10.2458
▁우리도	-10.246
▁기술	-10.2461
▁애기가	-10.2464
▁전체	-10.2464
▁기억나	-10.247
▁아이폰	-10.2473
▁전문	-10.2475
▁기다려	-10.2476
▁느껴지	-10.248
▁노래도	-10.2496
▁아칙에	-10.2497
나무	-10.2506
▁경허	-10.251
나봐	-10.2511
▁추억이	-10.2512
▁사실은	-10.2513
▁문지	-10.2513
풀	-10.2518
▁얘긴	-10.2521
▁세워	-10.2521
▁사과	-10.2524
▁이만	-10.2524
▁느낀	-10.2524
▁되겄다	-10.2526
▁몰르겠는데	-10.2526
▁브	-10.253
았어	-10.2534
▁모습을	-10.2536
▁학생	-10.2537
▁할아부지	-10.2539
▁바빠	-10.2541
▁된댄	-10.2545
▁아이대이	-10.2547
▁듣구	-10.2548
▁당시	-10.2548
텐데	-10.2549
▁만내	-10.255
▁심하	-10.255
▁대통령	-10.2551
▁쩡도로	-10.2551
▁착한	-10.2554
▁유명하	-10.2557
▁북	-10.2559
▁하늘	-10.2563
찬	-10.2569
습니대이	-10.2569
▁부대	-10.2575
▁작업	-10.258
▁주말	-10.258
▁머이	-10.2587
▁소문	-10.2589
▁나쁘지	-10.259
▁생각하나	-10.2595
▁쇼	-10.2596
▁빼고	-10.2597
▁밑	-10.2603
▁일하는	-10.2605
▁허락	-10.2607
▁배운	-10.2608
▁재밌께	-10.261
착	-10.2611
가리	-10.2614
하머	-10.2616
▁살림	-10.2621
▁어우	-10.2622
시난	-10.2626
뿌	-10.263
▁위하라우	-10.2633
▁원이	-10.2641
▁일부로	-10.2645
▁곤	-10.2647
▁말이가	-10.2648
었사	-10.265
▁좋아하나	-10.2651
▁국물	-10.2651
▁행사	-10.2653
▁효	-10.2655
▁많꼬	-10.2658
▁구렇구	-10.2659
▁보리	-10.2673
▁어데가	-10.2677
▁뽀	-10.2683
▁완저이	-10.2686
▁하르방	-10.269
▁뭐꼬	-10.2694
▁요중간은	-10.2696
▁곳들이	-10.27
▁한거	-10.2702
페	-10.2703
▁도와	-10.2704
께요	-10.2704
▁마을	-10.2705
▁죽는	-10.2705
중이	-10.2708
냐면	-10.2714
▁긍까는	-10.2716
▁그르구	-10.272
▁탕	-10.2724
논	-10.2729
▁단계	-10.2732
▁평소에	-10.2733
▁친구가유	-10.2736
▁내고	-10.2738
성을	-10.2739
▁봤나	-10.2743
▁그랬던	-10.2749
▁써서	-10.2751
▁츰	-10.2763
▁이은애	-10.2769
▁거루다	-10.2772
▁국가	-10.2775
▁승격	-10.2782
듬	-10.2789
▁밖에서	-10.279
되지	-10.2795
대러레	-10.2796
▁고민이	-10.2796
▁쫓아	-10.28
▁하자녀	-10.2802
▁비밀	-10.2802
▁관심을	-10.2805
▁에스엔에스	-10.2806
▁종이	-10.2807
물을	-10.2808
▁공불	-10.2811
▁덥	-10.2812
▁해줬	-10.2815
▁해준	-10.2817
▁거에요	-10.282
-	-10.282
▁넷플릭스	-10.2823
▁나타나	-10.2825
▁갬	-10.2825
▁아깝	-10.2833
▁주느	-10.2833
▁댕겼	-10.2835
▁어울리	-10.2836
▁선생	-10.2838
▁고모	-10.284
▁욕심	-10.2844
솔	-10.2849
▁얻어	-10.2851
▁가져가	-10.2853
▁출발	-10.2857
▁싶구	-10.2861
▁했댄	-10.2868
▁헤어지	-10.2872
▁춤	-10.2874
인거	-10.2876
▁신청	-10.2879
▁전기	-10.2881
▁노래방	-10.2882
▁죽은	-10.2887
긋	-10.2891
▁우에	-10.2894
▁되민	-10.2895
▁대하라우	-10.2906
규	-10.2906
▁마누래	-10.2907
치를	-10.2909
▁삘이	-10.2911
하민시	-10.2911
▁찾는	-10.292
▁마옴을	-10.2922
▁마치	-10.2927
믄서	-10.2931
엠	-10.2932
▁싫어하	-10.2936
▁으런	-10.2939
▁장소	-10.2939
▁디야	-10.2944
▁보낸	-10.2944
▁온다	-10.2951
렴	-10.2957
▁잠이	-10.2958
▁자유	-10.2959
▁지키	-10.2959
▁놀랬	-10.2961
들두	-10.2962
▁노트북	-10.2963
어유	-10.2964
▁때려	-10.2969
▁발라	-10.2969
▁신경을	-10.2969
이니까	-10.2969
▁폴	-10.2974
▁음식을	-10.2983
▁최대한	-10.2985
▁쓰꼬	-10.2989
▁빨래	-10.299
▁마수웅	-10.2991
▁생각나는	-10.2993
▁사구	-10.2997
▁없대이	-10.2998
▁말하라우	-10.2999
▁쌩	-10.3002
시키	-10.3003
배기	-10.3011
심이	-10.3013
황	-10.3013
렸다	-10.3016
주면	-10.3019
▁휴	-10.3023
▁보여주	-10.3023
▁보시	-10.3024
사는	-10.3024
▁모이	-10.3038
▁쓰느	-10.3038
▁불르는	-10.3041
▁없언	-10.3043
▁할라꼬	-10.3045
▁있는가	-10.3045
▁공무원	-10.3048
▁땡	-10.305
▁않다	-10.3052
▁들노	-10.3055
▁회의	-10.3057
▁얘기가	-10.306
▁오시	-10.3063
▁빠진	-10.3065
▁만에	-10.3066
▁먹엉	-10.3067
십니까	-10.3068
▁읊어	-10.3075
▁스트레스를	-10.3076
▁거냐	-10.308
▁짠	-10.308
▁광주	-10.3081
▁부부	-10.3083
▁계약	-10.3085
▁하실	-10.3092
▁겁니다	-10.3093
▁사장	-10.3094
신데	-10.3096
▁그기다	-10.3098
▁카다가	-10.3099
▁그때가	-10.31
▁가졍	-10.3101
보면	-10.3105
▁재료	-10.3107
▁했는데	-10.3112
▁안전	-10.3115
▁굽	-10.3115
▁허민	-10.3119
▁같드라고	-10.312
겠구나	-10.3126
▁축	-10.313
▁사람두	-10.313
▁쌔	-10.3135
▁상품	-10.3136
▁십만	-10.3136
해부난	-10.3139
보이	-10.314
▁기달	-10.3145
드레	-10.3146
▁요중간	-10.3146
▁어깨	-10.3153
▁하는데	-10.3156
▁가족들	-10.3156
▁않으문	-10.3157
▁늫구	-10.3161
▁비슷한	-10.3164
지구	-10.3165
▁말랜	-10.3174
▁높아	-10.3174
했다고	-10.3175
▁캐릭터	-10.3176
▁생각할	-10.3176
▁극	-10.318
▁강원도	-10.319
▁주말에	-10.3191
▁시기	-10.3203
▁있어고	-10.3207
▁내려오	-10.3209
▁바램이	-10.3211
룸	-10.3212
씬	-10.3217
▁끝이	-10.3218
▁꾸준히	-10.3218
▁노인	-10.322
겼	-10.3221
▁걸린	-10.3224
▁맞을	-10.3227
▁느껴	-10.3233
▁맞제	-10.3237
하니까	-10.3238
셨어	-10.3238
▁식구들	-10.3241
▁긴장	-10.3243
▁헬스	-10.3244
▁맹길어	-10.3247
▁오새느	-10.3247
▁패션	-10.3248
▁가끔씩	-10.3253
▁오눌	-10.3254
▁골프	-10.3255
▁펜	-10.3261
▁어른들	-10.3262
자를	-10.3263
▁여성	-10.3264
▁봤다	-10.3273
▁어디강	-10.3273
▁모두	-10.3274
질이	-10.3276
눈	-10.3277
▁기부이	-10.3277
궁	-10.3278
▁떨어졌	-10.3279
▁광고	-10.3279
▁쉬는	-10.3283
랭이	-10.3283
▁아닐	-10.3288
▁벤	-10.3291
대루	-10.3291
▁이쁘게	-10.3292
▁능력	-10.3293
부렀	-10.3293
▁고거	-10.3293
▁난다	-10.3295
▁물어봤	-10.3296
▁삔또가	-10.3305
▁요재는	-10.3305
스럽게	-10.3306
▁주지	-10.3306
▁처음에이	-10.3308
▁입원	-10.3309
▁오라	-10.331
▁비해서	-10.3311
▁간식	-10.3314
▁세대	-10.3317
허난	-10.332
▁쌓	-10.3322
▁위험	-10.3323
▁나완	-10.3333
▁싶노	-10.3334
▁무조껀	-10.3334
코롬	-10.3335
▁경기	-10.334
▁뼈	-10.3341
▁중간	-10.3341
▁첨	-10.3342
▁얼구리이	-10.3343
▁신기	-10.3353
▁어머님	-10.3356
▁낫지	-10.3357
▁동니	-10.336
아가	-10.336
▁하든	-10.336
▁낸	-10.3366
맨큼	-10.3366
▁해주구	-10.3367
▁답	-10.3371
극	-10.3372
▁감사	-10.3373
▁방학	-10.3373
▁인기	-10.3379
▁튀	-10.3388
▁나아	-10.3394
▁제사	-10.3394
▁위에서	-10.3399
되면	-10.34
니까네	-10.34
▁요가	-10.3401
택	-10.3402
▁허는디	-10.3406
▁축제	-10.3406
▁가시나	-10.3407
▁할거	-10.3408
▁자라	-10.3409
▁활	-10.341
▁오천	-10.341
수다게	-10.341
했는디	-10.3412
는지를	-10.3414
젓	-10.3421
삭	-10.3425
▁옷도	-10.3426
▁낮에	-10.3429
▁수능	-10.3429
▁곳에	-10.3435
▁일두	-10.3438
덩	-10.344
▁영화관	-10.3442
▁군데	-10.3443
▁짧은	-10.3451
▁끕으로	-10.3451
▁살려	-10.3453
짱	-10.3456
▁도망	-10.3459
▁알아요	-10.3464
▁됐지	-10.3464
▁띠	-10.3471
▁넘게	-10.3478
▁오메	-10.3478
▁뮤지컬	-10.3481
▁준다	-10.3483
▁맘대로	-10.3484
라게	-10.3484
▁재산	-10.3486
보꼬	-10.3486
▁쪼매이만	-10.3488
▁되드라고	-10.349
하민서	-10.3492
▁그난	-10.3492
충	-10.3494
▁자체	-10.3495
▁서름	-10.3496
더래이	-10.3499
어요잉	-10.3499
어예	-10.3499
봔	-10.3502
▁소리가	-10.3503
대를	-10.3504
▁데려	-10.3505
▁대체	-10.3506
▁안행	-10.3521
▁들려	-10.3526
▁근다고	-10.3527
▁보일	-10.3528
▁달르	-10.3529
▁케이	-10.3534
▁내는	-10.3539
▁오랜만에	-10.354
로는	-10.3541
▁좋아혀서	-10.3542
▁아무탄	-10.3542
응게	-10.3548
▁조절	-10.355
▁몰란	-10.355
▁자세	-10.3551
▁날짜	-10.3551
▁겅허	-10.3553
럼	-10.3557
보는	-10.3566
▁조영이	-10.357
▁할마시	-10.3574
▁시댁	-10.3575
▁아니냐	-10.3576
▁내년에	-10.3577
일이	-10.3585
명이	-10.3585
▁나보다	-10.3586
▁의지	-10.3586
▁징	-10.3587
▁응차	-10.3587
▁운동도	-10.3593
냉	-10.3595
▁어른	-10.3596
▁안타깝	-10.36
▁보문은	-10.36
▁카느	-10.36
▁입에	-10.3608
▁길어	-10.3609
▁닮았	-10.361
▁집어	-10.3624
▁열두	-10.3625
웡	-10.3628
▁차말로	-10.363
▁닌아가	-10.363
▁실패	-10.3632
▁부탁	-10.3633
▁있을까요	-10.3633
▁플	-10.3636
▁좋닥	-10.3637
▁뭐든	-10.3641
덜이	-10.3642
으면서	-10.3645
▁받구	-10.3645
▁그랑께	-10.3647
▁이용	-10.365
▁오랜	-10.3656
▁학교를	-10.3656
▁어딨	-10.3658
▁무릎	-10.366
▁화장품	-10.3661
▁포장	-10.3662
▁알았어	-10.3664
▁안되는	-10.3665
던가	-10.367
▁적도	-10.3675
▁내금새	-10.3679
레이	-10.368
▁싸게	-10.3681
띠	-10.3687
▁년에	-10.3688
마시	-10.3694
▁하던디	-10.37
▁재밌었느	-10.3708
▁많을	-10.3723
▁이상한	-10.3726
▁자격증을	-10.3727
꽃	-10.3728
화가	-10.3729
푸	-10.373
▁붙이	-10.3731
▁운전을	-10.3736
라머	-10.3742
▁재밌었	-10.3742
▁쪄	-10.3742
▁혔어	-10.3749
▁비스무리한	-10.375
▁서비스	-10.375
▁괜찮은디	-10.375
▁애미	-10.3754
치기	-10.3758
▁하셔	-10.3763
식이	-10.3763
▁보다가	-10.3777
▁왠지	-10.3781
▁뭔데	-10.3782
▁취직	-10.3784
▁닦	-10.3785
▁직원	-10.3786
▁크께	-10.3789
▁입장	-10.379
▁지켜	-10.3793
▁이후로	-10.3798
▁앤	-10.3805
츠	-10.3806
▁해예	-10.3808
▁국민학교	-10.3811
라니까	-10.3812
▁가네	-10.3816
▁것보다	-10.3819
▁하더라	-10.3821
못	-10.3822
▁침대	-10.3824
▁우째	-10.3828
▁모자	-10.383
▁갔지	-10.383
하이까	-10.3832
▁중요	-10.3833
▁오만	-10.3838
▁인물	-10.3842
접	-10.3844
이니께	-10.3851
▁저랑	-10.3853
하기가	-10.3853
▁했고	-10.3863
▁검	-10.3871
껏	-10.3872
▁맞고	-10.3877
▁흥	-10.3877
▁흐	-10.3885
▁방금	-10.3887
로운	-10.3891
▁환자	-10.3894
▁멍	-10.3897
▁준비를	-10.39
▁만니서	-10.3903
▁여그	-10.3905
▁풀리	-10.3906
▁이새	-10.3907
▁찾을	-10.3909
▁기차	-10.3912
▁산에	-10.3912
▁분위기가	-10.3915
▁났어	-10.3916
▁뚫	-10.3919
▁서이가	-10.3922
▁이디서	-10.3924
▁하마	-10.3926
▁게임이	-10.3927
▁허지	-10.393
신고	-10.393
▁사랑하는	-10.3931
대기	-10.3933
▁윤	-10.3934
▁이따가	-10.3942
▁쎈	-10.3943
꿈	-10.3944
▁운동이	-10.3949
▁데우	-10.3949
겠습니까	-10.3954
▁결혼식	-10.3955
▁어신	-10.3957
▁개발	-10.3962
가고	-10.3965
▁캠핑	-10.3965
▁되드라구	-10.3966
▁니두	-10.3967
▁만나믄	-10.3968
다느	-10.3978
▁손님이	-10.3981
▁식단	-10.3988
▁만드	-10.3988
돼서	-10.3994
▁얘기하는	-10.3996
▁메뉴	-10.3996
▁누워	-10.3997
▁분명히	-10.3998
▁같드라구	-10.4
▁아가씨	-10.4001
▁드렸	-10.4003
▁알제	-10.4005
▁감독	-10.4007
▁부분에	-10.401
▁해요잉	-10.4012
▁단풍	-10.4012
▁새루	-10.4015
▁첨이	-10.4016
▁불렀	-10.4018
드려	-10.4018
▁지어	-10.4019
▁죽었	-10.4026
▁무조건	-10.4027
▁어트케	-10.4027
▁않애서	-10.4028
▁호나도	-10.4028
▁그녀는	-10.4028
▁바꿀	-10.4029
▁코스	-10.4032
이예요	-10.4035
▁배추	-10.4037
▁화를	-10.4041
▁생선	-10.4044
▁보멍	-10.4045
▁이리	-10.4052
▁안있나	-10.4059
▁이새는	-10.4062
▁어떡하	-10.4078
▁있음	-10.4079
▁성격을	-10.4079
▁매운	-10.4079
▁이상하	-10.4081
▁으런들	-10.4088
▁사투리	-10.409
▁삼춘	-10.4094
▁시간도	-10.4097
었을	-10.4102
▁어쩌던	-10.4102
▁존	-10.4106
▁해유	-10.4108
▁위한	-10.4108
▁버린	-10.411
▁해보고	-10.411
▁디자인	-10.4119
▁하날	-10.4122
▁관련된	-10.4123
딸	-10.4128
▁가심이	-10.4132
▁방향	-10.4135
▁작품	-10.4139
▁그면서	-10.4142
할까	-10.4142
▁가치	-10.4142
자리	-10.4145
▁아직이	-10.4146
라우	-10.4146
▁싸움	-10.415
▁사램한테	-10.4151
▁낯	-10.4152
▁낚시	-10.4153
▁택배	-10.4154
▁겨론을	-10.4155
▁둔	-10.4155
▁숙소	-10.4157
▁볼라고	-10.4164
▁길게	-10.4167
▁그러드라구	-10.4169
▁봄이	-10.417
마대이	-10.417
▁빡	-10.4173
▁하는거	-10.4173
▁피자	-10.4174
▁나온다	-10.418
▁각자	-10.4183
▁희한한	-10.4184
▁설탕	-10.4187
지기	-10.4187
▁거그는	-10.419
팀	-10.4195
▁이자	-10.4196
▁대표	-10.4196
▁해먹	-10.4197
몬	-10.4197
념	-10.4199
건지	-10.4201
▁그딘	-10.4203
▁수워서	-10.4203
▁끌어	-10.4204
▁앞이	-10.4208
▁뿐이	-10.4213
▁토익	-10.4217
이긴	-10.4217
▁염색	-10.4218
▁우딴	-10.4218
▁잡을	-10.4221
았다	-10.4222
▁것맨치로	-10.4222
▁모다는	-10.4223
▁추천해	-10.423
▁늘어	-10.4232
▁습	-10.4232
▁책이	-10.4239
라부난	-10.4242
하기도	-10.4242
▁아부지한테	-10.4243
▁아방은	-10.4245
▁뇌	-10.4245
▁신문	-10.4247
봤자	-10.4249
▁헝이	-10.4249
▁취소	-10.4253
▁여튼	-10.4254
▁잡았	-10.4255
▁켜	-10.4256
▁와신디	-10.4257
▁데를	-10.4259
든데	-10.4268
어요	-10.427
▁치매	-10.4275
▁감자	-10.428
▁비타민	-10.428
오는	-10.4281
▁일년	-10.4287
▁이름을	-10.4287
▁것멘치	-10.4293
▁슬마	-10.4295
▁문을	-10.43
▁부럽	-10.43
하난	-10.4303
▁시작을	-10.4306
▁해그네	-10.4307
▁수학	-10.4308
▁이때	-10.431
▁바뀐	-10.4312
▁사겼	-10.4313
▁되믄은	-10.4317
▁비슷하	-10.4319
▁오느	-10.4319
▁쬐	-10.432
▁에스	-10.4323
▁오믄은	-10.4328
▁가나	-10.4332
▁고민을	-10.4335
었나	-10.434
냈	-10.4341
▁왔사	-10.4342
▁첫째	-10.4346
래두	-10.4346
지면	-10.4347
▁없응께	-10.4348
▁해볼	-10.435
었네	-10.4352
▁위주로	-10.4353
▁원짜리	-10.4354
▁헌다구	-10.4354
스러워	-10.4356
▁현금	-10.4364
▁힘드	-10.4365
▁괴	-10.4373
▁없으	-10.4377
▁있으신가요	-10.4377
었고	-10.4378
▁원씩	-10.438
▁키우는	-10.438
겄냐	-10.4381
겠다는	-10.4384
▁좋아하는데	-10.4386
▁느끼는	-10.4389
▁없노	-10.439
▁요번이	-10.4391
캔	-10.4392
▁납	-10.4393
건가	-10.4395
▁걸릴	-10.4395
▁바쁜	-10.4401
▁즉	-10.4406
▁못했	-10.4408
,	-10.4409
▁당시에	-10.4409
▁나왔는디	-10.441
▁온라인	-10.4411
렀	-10.4413
▁어시난	-10.4415
▁밀어	-10.4416
▁밤이	-10.4418
▁어머이두	-10.442
식으로	-10.4422
슴	-10.4424
▁글드라고	-10.4426
▁데령	-10.443
▁생각허고	-10.443
▁아느	-10.4431
▁사장님이	-10.4431
▁간호사	-10.4432
▁몽	-10.4432
▁들드라구	-10.4434
▁다닌	-10.4439
눔	-10.444
▁무지	-10.4441
▁그나모	-10.4443
달라고	-10.4444
▁여거는	-10.4445
▁어려	-10.4447
▁학고	-10.4448
▁궁금한	-10.4451
▁엄니는	-10.4452
▁챙겨주	-10.4452
▁시켰	-10.4453
▁해난	-10.4455
▁내내	-10.4464
▁어머이랑	-10.4468
▁지끔두	-10.4469
▁그릇	-10.4473
같	-10.4479
▁최근	-10.448
▁얘기도	-10.4484
겠어요	-10.4484
▁가는데	-10.4491
더라구요	-10.4493
▁전공	-10.4497
간에	-10.4498
▁터져	-10.4503
량이	-10.4504
▁있니	-10.4505
▁서귀포	-10.4506
▁코트	-10.4508
▁가껌	-10.4508
▁에전이	-10.4508
▁저한데	-10.4513
▁단어	-10.4514
킨	-10.4516
거덩	-10.452
▁서른	-10.452
아서	-10.4521
샤	-10.4524
상을	-10.4524
▁페	-10.4527
▁있으야	-10.4537
▁밝	-10.4538
▁그때부텀	-10.4539
▁괜찮았	-10.4539
▁것들은	-10.4541
▁그쵸	-10.4544
▁우리느	-10.4547
▁때꺼정	-10.4547
▁끌	-10.455
▁세금	-10.4552
▁하젠	-10.4554
▁허드라고	-10.4557
▁손지	-10.4557
▁사오	-10.4559
▁했거든	-10.456
▁과학	-10.4564
▁피곤하	-10.4568
하실	-10.4569
▁내랑	-10.4571
▁빠졌	-10.4574
▁언니야	-10.4578
▁면이	-10.4578
▁사우	-10.4579
▁벨루	-10.458
▁턱	-10.4581
자구	-10.4583
▁답답하	-10.4583
▁글긴	-10.4583
집에	-10.4584
▁싶긴	-10.4584
▁달리	-10.4585
▁애비	-10.4596
▁드라마가	-10.4596
▁십이	-10.4599
▁이애기	-10.4599
▁기지	-10.4602
▁패딩	-10.4606
▁있죠	-10.4607
▁들언	-10.4611
▁아니꽈	-10.4614
▁여적지	-10.4616
▁희	-10.4617
▁짝으로	-10.4617
▁없으믄	-10.4619
에선	-10.4622
▁소화	-10.4625
▁건너	-10.4626
▁주인공	-10.463
▁거지뿌래이	-10.4638
잖소	-10.4639
▁빙	-10.464
▁격	-10.4641
▁-	-10.4642
▁좋꼬	-10.4653
▁이러구	-10.4655
▁그랬다	-10.4656
▁소스	-10.466
▁죽이	-10.4661
▁생각해보	-10.4672
▁곰방	-10.4674
▁요즘은	-10.4674
▁보낼	-10.4679
▁호박	-10.4681
▁된장	-10.4683
서방	-10.4685
▁않꼬	-10.4687
아리	-10.469
▁끓이	-10.4694
▁애는	-10.4695
▁생길	-10.4695
▁라고	-10.4697
▁진짜루	-10.4697
▁갠	-10.4698
▁재미없	-10.4703
▁믿고	-10.4705
▁카메라	-10.4705
▁뿌리	-10.4708
끄데	-10.4708
되었어	-10.4711
취	-10.4713
▁크고	-10.4714
▁그렇지	-10.4716
넹	-10.4716
▁자야	-10.4717
▁따러레	-10.4718
▁고장	-10.4724
좌	-10.4725
▁없어지	-10.4726
▁지갑	-10.4726
▁맞은	-10.4729
▁놀았	-10.4729
▁박스	-10.4731
▁아이씨가	-10.4731
▁기준	-10.4732
▁검색	-10.4734
▁학기	-10.4737
▁썰	-10.4738
▁꺼예요잉	-10.4738
▁밖이	-10.4741
▁감성	-10.4745
▁간장	-10.4746
▁사람으	-10.4747
▁가봐	-10.4756
▁보라	-10.476
▁하거든	-10.4761
▁냐	-10.4762
▁정상	-10.4764
댔	-10.4766
▁낳고	-10.4772
▁여앵을	-10.4772
▁맹그는	-10.4772
▁고냉이	-10.4772
▁당연히	-10.4773
▁왔을	-10.4776
▁즐겨	-10.4782
랭	-10.4783
▁기간	-10.4786
▁딱딱	-10.4788
▁못하라우	-10.4789
▁승격이	-10.479
댕기	-10.4792
▁뚜	-10.4793
점이	-10.4801
랐	-10.4805
▁가을이	-10.4805
▁것멩게로	-10.4806
▁캐샀는데	-10.4806
▁살아야	-10.4806
▁심지어	-10.4806
▁고등과	-10.4807
드는	-10.4809
▁이실	-10.481
곳	-10.481
▁봤간디	-10.4812
▁됐을	-10.4816
▁모다고	-10.4821
▁웃겨	-10.4821
▁틀려	-10.483
▁좋겄어	-10.4839
금을	-10.4839
▁운제까지	-10.4839
칙	-10.4839
닝	-10.4839
▁가가	-10.484
▁나와블고	-10.4841
▁알았아	-10.4841
▁땄	-10.4842
풍	-10.4846
▁주차	-10.4847
▁하신	-10.4849
▁흑	-10.485
▁시내	-10.4853
▁선상님	-10.4855
려는	-10.4858
▁끈	-10.4859
▁움	-10.486
드마	-10.4861
▁연예인들	-10.4867
▁넣구	-10.4873
틴	-10.4873
▁되겠다	-10.4874
▁도라고	-10.4877
▁사촌	-10.4883
▁돼야	-10.4883
벼	-10.489
▁헬스장	-10.489
▁짚	-10.4891
▁추가	-10.4893
▁쳤	-10.4893
▁에레	-10.4894
▁공항	-10.4897
미를	-10.4898
▁있어신디	-10.4899
▁이시	-10.4899
▁불편한	-10.4901
▁거긴	-10.4903
▁다양한	-10.4908
▁체크	-10.4913
▁안된	-10.4914
▁애라	-10.4914
▁좋겄다	-10.4914
▁삼천	-10.4914
▁답답	-10.4915
▁해영	-10.4922
▁소리기가	-10.4924
끌	-10.493
▁쓰레기	-10.4939
▁아프다	-10.4939
칭	-10.494
▁태어나	-10.4942
정도	-10.4944
▁요즘에느	-10.4945
▁성적	-10.4945
▁공장	-10.4947
▁봤지	-10.4952
▁쑥	-10.4961
즌	-10.4962
▁때리	-10.4962
▁연애를	-10.4965
간다	-10.4966
▁치우	-10.4967
▁년을	-10.4973
▁슨생님	-10.4976
▁햇빛	-10.4976
▁뿐	-10.4981
▁밥도	-10.4991
▁삭	-10.4993
겁	-10.4994
였나	-10.4998
▁된다는	-10.5003
▁할머니	-10.5005
▁아뭇	-10.5006
▁근처	-10.5007
▁에려운	-10.501
▁빨간	-10.5011
▁좋아하꼬	-10.5013
▁탑	-10.5014
▁형제	-10.5017
▁영향을	-10.5018
▁맛있는	-10.5018
▁치즈	-10.5019
▁뭐라꺼	-10.502
▁있잖아유	-10.5025
에스	-10.5026
▁시간은	-10.5029
빈	-10.5034
좀	-10.5034
▁여는	-10.5035
봐요	-10.5035
▁당황	-10.5039
▁속도	-10.5041
▁찰	-10.5041
▁재민	-10.5042
지에	-10.5044
▁여그서	-10.5044
▁불안	-10.5047
▁돌아다니	-10.5049
▁두구	-10.5049
▁쎄빠지게	-10.505
▁정돈	-10.5051
▁부분은	-10.5051
▁흔들	-10.5052
▁뺀	-10.5054
▁영화는	-10.5054
▁뭐냐믄	-10.5056
▁후재	-10.5058
▁데로	-10.506
▁입었	-10.5062
▁얘네	-10.5065
▁냉장고	-10.5066
▁가리	-10.5068
▁싶사	-10.5072
▁우해서	-10.5074
지요	-10.5076
▁부족	-10.5076
▁그랴	-10.5078
▁존나	-10.5079
▁늙어	-10.5079
▁녀석	-10.5079
▁않는다	-10.5079
▁상다이	-10.5082
▁벽	-10.5082
이었던	-10.5083
▁잇날에	-10.5083
▁하더라고	-10.5085
▁끼고	-10.5085
▁듣꼬	-10.5086
▁그카	-10.5087
▁기능	-10.509
보자	-10.5092
▁임마	-10.5096
▁미쳐	-10.51
▁물건을	-10.5107
▁괴기를	-10.5108
▁사람의	-10.5113
▁이해를	-10.512
▁달아	-10.5121
사님	-10.5122
으로는	-10.5128
▁고자	-10.5131
▁들이	-10.5136
▁가만	-10.5138
▁친구들은	-10.5142
▁삼겹살	-10.5149
▁하디마	-10.5149
▁쏙	-10.515
▁독립	-10.5151
▁까먹	-10.5151
▁분야	-10.5154
▁붕	-10.5155
▁오리	-10.5156
했었	-10.5159
▁근육	-10.516
▁기록	-10.5161
감을	-10.517
거니	-10.5175
▁싸람들도	-10.5176
▁쭐	-10.5176
▁우산	-10.5181
▁살기	-10.5184
▁신나	-10.5186
▁짱	-10.5187
▁쉬고	-10.5189
▁그러는디	-10.5192
▁어재	-10.5194
▁생각하느	-10.5194
해야지	-10.5194
▁살을	-10.5194
비를	-10.5197
▁판단	-10.5199
▁어멍은	-10.52
▁자격증이	-10.52
▁되긴	-10.5205
나신디	-10.5206
▁오민	-10.5206
▁들어강	-10.5207
으먼	-10.5209
벨	-10.521
▁친구는	-10.5213
▁좋아지	-10.5214
▁짝이로	-10.522
▁주인	-10.5221
라이	-10.5222
하멍	-10.5224
▁가까이	-10.5227
▁놓꼬	-10.5228
▁승질	-10.5232
▁앉아있	-10.5233
▁여자가	-10.5239
싱	-10.5243
훈	-10.5245
▁드러	-10.5247
▁잠시	-10.525
▁부분도	-10.525
▁아버님	-10.5254
▁고구마	-10.5254
▁소비	-10.5255
▁대화를	-10.5256
▁모습이	-10.5256
사주	-10.5258
▁댁	-10.5261
▁올제	-10.5264
▁할인	-10.5269
▁말씸을	-10.5269
▁봐두	-10.5271
▁집으루	-10.5277
▁있었나	-10.528
▁상대방	-10.5284
▁이카	-10.5284
떼기	-10.5285
▁거시	-10.5286
▁펴	-10.5287
▁헛	-10.5294
▁위치	-10.5295
▁줄게	-10.5299
▁제품	-10.53
▁족	-10.53
▁시누	-10.5301
▁인자느	-10.5301
▁댕기꼬	-10.5304
▁음악을	-10.5308
▁소식	-10.5312
▁해주는	-10.5313
춘	-10.5317
▁하루에	-10.532
▁잡는	-10.5322
뭇	-10.5328
▁조사	-10.5329
▁허여내	-10.5329
▁과정	-10.5331
해가	-10.5334
스를	-10.5335
바리	-10.5336
▁삼백	-10.534
스가	-10.5342
▁들어가가주구	-10.5342
▁화면	-10.5343
▁거이가	-10.5345
▁일만	-10.5347
▁너의	-10.5347
어가지구	-10.5349
▁성이	-10.5349
▁같아예	-10.535
▁빗	-10.5351
▁가이는	-10.5352
내기	-10.5357
볼까	-10.5359
▁들여	-10.536
▁칭찬	-10.536
▁와이프	-10.5361
▁과거	-10.5361
▁마니	-10.5364
▁이근	-10.5365
예예	-10.5365
▁있구나	-10.5367
▁근처에	-10.5368
▁짝아	-10.5376
어져	-10.5377
▁크기	-10.5377
말이	-10.5379
캐	-10.5384
▁맞나	-10.5386
▁멘	-10.5388
몰	-10.5388
▁참고	-10.5393
▁그러냐	-10.5393
▁오르	-10.5397
▁활동을	-10.5398
놓은	-10.5399
▁침에는	-10.5403
뜩	-10.5403
▁펜하게	-10.5403
라든가	-10.5404
▁몰아	-10.5404
▁했다구	-10.5406
하던	-10.5412
▁그라믄	-10.5413
▁오빠야	-10.5414
▁센	-10.5414
▁싸웠	-10.5415
땅	-10.542
▁거게서	-10.542
▁힘들다	-10.5423
센	-10.5424
▁대전	-10.5424
▁개안은	-10.5425
▁있었는	-10.5426
▁이건거	-10.5431
▁할망이	-10.5433
▁듯	-10.5437
▁끝날	-10.5437
▁보인다	-10.5439
▁간다구	-10.5439
▁오후	-10.5441
로서	-10.5442
▁먹으라	-10.5443
찍	-10.5444
▁욕을	-10.5452
한다는	-10.5453
▁치마	-10.5454
▁피아노	-10.5459
빌	-10.5462
▁간지	-10.5466
▁갸가	-10.547
▁살아가	-10.547
▁합니다	-10.5473
였지	-10.5477
▁스키	-10.5478
▁근지	-10.5478
▁마당	-10.5482
▁않냐	-10.5488
▁새우	-10.5488
▁않았나	-10.5489
큼	-10.5494
▁하죠	-10.5494
효	-10.5498
▁낳아	-10.5504
▁찢어	-10.5504
▁자석아	-10.5504
▁뺐	-10.5508
▁요구	-10.5508
▁곰	-10.5508
▁발견	-10.5509
▁함부러	-10.5512
▁생각허는	-10.5513
▁오셨	-10.5518
▁까지	-10.5521
▁썰어	-10.5529
▁했언	-10.553
▁대루	-10.5533
▁들드라고	-10.5534
▁통장	-10.5539
▁믿는	-10.554
▁여개까지	-10.5541
▁존재	-10.5543
▁애플	-10.5548
▁같습니다	-10.5549
▁되냐	-10.5549
▁서류	-10.555
▁자구	-10.5553
▁공사	-10.5556
▁발표	-10.5559
이꼬	-10.556
읍	-10.5562
추룩	-10.5566
겠노	-10.5569
▁그간	-10.5569
▁장점	-10.557
▁쥉일	-10.5576
별로	-10.5584
▁모시	-10.5588
▁차에	-10.5589
없는	-10.5589
▁쳐다보	-10.5593
▁그면은	-10.5595
▁생각하꼬	-10.5597
▁뜯어	-10.5598
▁체력	-10.5604
▁나왔어	-10.5606
▁할지	-10.5607
아니	-10.561
▁생카구	-10.5613
▁따라서	-10.5617
▁구겡	-10.5618
율	-10.5622
▁겨를이	-10.5622
▁나쁘	-10.5623
색이	-10.5624
▁싶꼬	-10.5625
▁요것도이	-10.5628
▁걷는	-10.5631
왔어	-10.5634
▁지끔	-10.5636
▁게임을	-10.5637
▁누우가	-10.5637
▁꿔	-10.564
▁올라갔	-10.5641
▁괘안	-10.5649
▁시느매	-10.565
드니	-10.5653
▁말금	-10.5653
그러	-10.5667
▁머라고	-10.5668
▁장면	-10.5669
▁빛	-10.5677
빙	-10.5681
▁이성	-10.5681
▁실지로	-10.5687
▁녹음	-10.569
▁위해가	-10.5691
▁오라방	-10.5691
해가지꼬	-10.5692
▁햐	-10.5692
야지를	-10.5693
▁뵈	-10.5695
▁백만	-10.5697
▁모르겠다	-10.5698
▁학교에서이	-10.5699
▁보호	-10.57
했거든	-10.5704
▁음석	-10.5704
▁한나도	-10.5705
▁그르는	-10.5708
▁분명	-10.5714
▁시킬	-10.5714
▁던	-10.5715
▁있을까	-10.5719
▁공기	-10.5722
큐	-10.5723
▁좋아허구	-10.5723
▁마무리	-10.5726
▁흰	-10.5728
트를	-10.5729
▁대단한	-10.573
▁생각에	-10.5731
▁느낌을	-10.5733
▁지냈	-10.5735
▁상담	-10.5735
▁예능	-10.5737
▁할래	-10.5737
▁액	-10.5739
▁털어	-10.5748
▁불어	-10.5751
▁입장에서	-10.5752
싹	-10.5754
▁가당	-10.5756
털	-10.5758
▁이렇	-10.576
▁금액	-10.5762
▁갓	-10.5765
▁법이	-10.5766
▁같애요	-10.5768
▁프	-10.5769
▁고거에	-10.5779
▁먹어봤	-10.5784
쌀	-10.5789
▁괜잖	-10.5793
▁맛있다	-10.5794
▁그분이	-10.5794
▁비는	-10.5797
▁뒤게	-10.5797
▁못행	-10.5804
▁교통	-10.581
▁일주일에	-10.5811
▁요리를	-10.5812
는구나	-10.5818
▁장개	-10.5821
바이	-10.5825
붙	-10.583
▁댕	-10.5831
▁떨어	-10.5831
▁염	-10.5833
압	-10.5834
불믄	-10.5842
▁꽁	-10.5842
댕이	-10.5848
▁파티	-10.5848
다던가	-10.5849
▁아이지만	-10.585
▁도움	-10.5854
드라구요잉	-10.5854
▁시계	-10.5858
했나	-10.5858
정을	-10.5861
▁쇼핑을	-10.5863
▁버렸	-10.5864
▁채워	-10.5865
▁가질	-10.5869
▁중간에	-10.587
▁짧게	-10.5872
▁경해도	-10.5874
▁좋아하고잉	-10.5878
▁옛날게	-10.5879
▁하나님	-10.588
▁극정이	-10.588
▁날에	-10.5881
개를	-10.5882
▁친하	-10.5882
▁둥	-10.5892
▁그러시	-10.59
▁기래이	-10.5901
▁있어서	-10.5906
▁놈들	-10.5908
▁심해	-10.5909
▁넘었	-10.5909
▁기달리고	-10.5911
▁조캐	-10.5913
▁싫어하는	-10.5914
▁쪽은	-10.5915
▁애미한테	-10.5916
▁무튼	-10.5917
▁국시	-10.5922
▁둬	-10.5934
▁반복	-10.5934
리면	-10.5934
나네	-10.5937
▁맛있게	-10.5937
▁서울서	-10.5937
▁할루	-10.5938
펜	-10.5943
▁봐주	-10.5946
▁들면	-10.5947
▁공유	-10.5947
혈	-10.5947
▁지하철	-10.5948
▁아닐까	-10.5949
▁샀어	-10.595
▁무지건	-10.5951
▁사무실	-10.5951
▁거낭	-10.5954
▁그러먼은	-10.5956
▁본다	-10.5963
▁것처럼	-10.5966
▁겅허난	-10.5967
▁배려	-10.5969
▁부자	-10.5969
▁그러우	-10.5973
▁미래	-10.5974
개가	-10.5974
함이	-10.5977
▁형은	-10.5977
▁그디가	-10.5978
춰	-10.5983
▁이벤트	-10.5985
▁흘리	-10.599
▁준비하	-10.5993
▁밭에	-10.5999
관이	-10.6
는거야	-10.6001
▁먹거리	-10.6004
▁손해	-10.6005
▁기라고	-10.6008
▁좋겠대이	-10.6011
딩	-10.6014
▁모양이	-10.6022
▁아즉도	-10.6024
▁되었어	-10.6024
▁남대이	-10.6025
▁옆이	-10.603
▁모르크라	-10.603
▁식으로이	-10.6034
▁뭐지를	-10.6034
▁그만두	-10.6035
주꼬	-10.6035
▁쌈	-10.604
▁멕이	-10.6043
▁아기	-10.6043
▁협	-10.6049
▁남느	-10.6055
▁공감	-10.6056
▁경헌	-10.6059
▁나오는디	-10.6061
▁까닭은	-10.6062
▁슬프	-10.6064
주의	-10.6069
▁여대이	-10.6074
▁하나하나	-10.6074
▁워데서	-10.6075
▁비슷	-10.6084
▁주위	-10.609
▁저짝	-10.6091
해져	-10.6091
▁이디	-10.6094
측	-10.6094
▁재수	-10.6097
냐구요	-10.6098
▁옮겨	-10.61
▁네이버	-10.61
다거나	-10.6101
하대이	-10.6102
▁들었는데	-10.6103
▁누거	-10.6103
▁자슥	-10.6103
▁도시락	-10.6104
▁놔두	-10.6109
▁판매	-10.611
▁거라구	-10.611
▁하두	-10.6114
▁명절	-10.6114
▁치로	-10.6118
▁십일	-10.6122
▁가텨	-10.6123
▁치는	-10.6128
▁신기한	-10.6135
▁엔	-10.6136
▁폰	-10.6138
▁반려동물	-10.6138
혔어	-10.6141
▁솔짝	-10.6141
▁된다고	-10.6143
▁시작해	-10.6143
이구	-10.6143
다매	-10.6147
▁마늘	-10.6149
식을	-10.6149
▁예즌에	-10.6152
그래	-10.6153
▁착하	-10.6155
▁찍고	-10.6155
▁나오구	-10.6156
▁읎어	-10.6158
셨사	-10.6159
▁하먼은	-10.6161
▁싶었는디	-10.6162
▁거네	-10.6166
▁축하	-10.6168
▁있대	-10.6171
릅	-10.6172
▁씹	-10.6173
▁어푸	-10.6173
▁된단	-10.6174
궈	-10.6175
▁무작빼기로	-10.6177
▁새꼬락지	-10.6177
▁이럼서	-10.6177
▁그란디	-10.6178
▁상관이	-10.6178
▁게민	-10.6179
▁면허	-10.6181
▁한단	-10.6181
르는	-10.6182
▁싶어갖꼬	-10.6185
▁어릿	-10.6187
▁뜻이	-10.6187
▁오기	-10.6188
▁대리	-10.619
야되	-10.6195
▁왜냐면	-10.6197
▁와야	-10.6198
석이	-10.6205
▁때미네	-10.6206
▁매력	-10.6207
▁일상	-10.6209
라든지	-10.6212
▁완데	-10.6213
▁꼐속	-10.6216
▁주식을	-10.6218
▁활용	-10.6218
▁걸어가	-10.6218
▁맥이	-10.6224
▁입이	-10.6228
▁성장	-10.6234
▁주변에서	-10.6235
▁제주도에	-10.6236
▁지금까정	-10.6238
쪽에	-10.6241
▁안된다	-10.6242
▁수입	-10.6243
▁때나	-10.6244
▁회장님	-10.6246
▁했으문	-10.6246
▁이카는	-10.6247
▁어떨	-10.6251
셨다	-10.6252
▁볼까	-10.6254
다시피	-10.6254
▁믿을	-10.6255
▁모양	-10.6255
▁이느마	-10.626
▁입은	-10.6263
▁엣날에느	-10.6263
▁관광	-10.6267
▁들으믄	-10.6268
▁하먼	-10.6269
벵	-10.6279
▁인기가	-10.6282
▁겅하	-10.6284
▁그른지를	-10.6288
해졌	-10.6293
▁심들고	-10.6294
▁해대다	-10.6295
▁그디도	-10.6298
▁싶다는	-10.6301
수도	-10.6301
▁사러	-10.6302
▁얘기한	-10.6304
▁영양	-10.6306
▁들어오는	-10.6316
셔야	-10.6319
방에	-10.632
▁편이라서	-10.6322
▁헐라고	-10.6323
▁강의	-10.6324
젱이	-10.6325
▁게따가	-10.6326
▁입으	-10.633
▁괜춘	-10.6333
▁오토바이	-10.6333
▁저르케	-10.6333
▁기숙사	-10.6333
▁느낄	-10.6334
▁바라	-10.6334
널	-10.6336
▁개인적으로	-10.6338
▁간이	-10.6338
▁있어두	-10.6338
셨는데	-10.6343
므는	-10.6343
▁절디야	-10.6343
▁쉬어	-10.6347
까지만	-10.6348
기에는	-10.6348
▁가보고	-10.6352
봐라	-10.6354
▁인나서	-10.6357
▁헌디	-10.6358
이니	-10.636
▁시절	-10.636
눌	-10.6367
한다구	-10.6367
▁부재	-10.6372
▁에펜사나	-10.6372
▁거튼	-10.6375
줜	-10.6377
웃	-10.6378
▁생겼어	-10.638
드나	-10.6383
▁거이까	-10.6386
▁소리기를	-10.6387
▁어머니	-10.6388
▁때두	-10.6388
▁부분을	-10.6392
쪽으로	-10.6394
드릴	-10.6396
된다	-10.6397
▁얘들도	-10.6403
▁너느	-10.6404
▁말아요	-10.6404
▁오구	-10.6405
▁주사	-10.6406
옥	-10.6407
▁저냑에	-10.6408
▁먹어보	-10.6411
맛	-10.6413
▁키는	-10.6415
거리는	-10.6415
껄	-10.6417
디가	-10.6418
하라	-10.6422
▁울어	-10.6424
랑께	-10.6427
▁늦었	-10.6427
▁아적	-10.643
▁하이	-10.6439
▁개코	-10.6446
▁변하	-10.6446
스터	-10.6447
▁전쟁	-10.6447
리에	-10.6448
▁너서	-10.6449
▁가심	-10.645
▁무자게	-10.6452
▁날쌔	-10.6452
▁맘대루	-10.6453
▁알기	-10.6455
▁수준	-10.6457
고예	-10.6461
▁자취	-10.6465
▁상처	-10.6466
▁자격	-10.6466
▁치워	-10.6471
▁깎아	-10.6471
▁인형	-10.6473
▁문자	-10.6474
▁친해지	-10.6475
▁말만	-10.6479
▁때부터게	-10.6479
이트	-10.6487
▁공부하	-10.6488
▁그러지	-10.6491
▁은근	-10.6491
▁눈썹	-10.6492
맥	-10.6492
▁피부가	-10.6492
해지는	-10.6494
▁부분에서	-10.6494
▁아모	-10.6498
▁상가두	-10.6501
▁가다	-10.6501
▁괜찮한	-10.6504
▁있으신	-10.6504
겄네	-10.6506
▁버릴	-10.6507
▁틀린	-10.6507
▁있었느	-10.6508
▁편하게	-10.6509
▁사라	-10.651
▁제대	-10.6512
▁본인이	-10.6516
하고는	-10.6517
▁가여	-10.6521
▁컵	-10.6522
▁귀신	-10.6529
▁하잖여	-10.6533
▁아침에	-10.6533
▁댕기구	-10.6536
빡	-10.6537
▁아침이	-10.6538
▁인생이	-10.6538
▁걸충	-10.6544
▁놓는	-10.6545
드라고유	-10.6549
▁발르	-10.6549
▁눌	-10.655
▁구두	-10.6552
▁게따	-10.6553
▁하여	-10.6555
▁난중에는	-10.6558
▁부분들이	-10.6559
▁숙제	-10.656
▁맴	-10.6562
한대이	-10.6567
라면은	-10.6568
▁그렁께	-10.6572
▁남동생	-10.6573
▁갈비	-10.6574
통이	-10.6575
한께	-10.6577
▁얘기할	-10.6579
▁고통	-10.6581
▁만약에이	-10.6581
▁좋네	-10.6583
▁겅해부난	-10.6589
▁갈라고	-10.6592
▁예상	-10.6592
▁있언데	-10.6595
▁채고	-10.6595
뿐이	-10.6596
▁취향	-10.6599
▁이신거	-10.66
▁묶	-10.6602
▁걔도	-10.6603
▁같아가	-10.6603
▁일할	-10.6606
▁신랭	-10.661
▁야이가	-10.661
전이	-10.661
랍	-10.661
▁벚꽃	-10.6612
▁하이탄지	-10.6612
워서	-10.6613
▁먼처	-10.6616
▁담임	-10.6619
쳤어	-10.6623
▁깐	-10.6624
▁이르	-10.6627
▁나갔다	-10.6628
▁마음이	-10.663
니까요	-10.6634
할려고	-10.6634
했잖아	-10.6635
▁이껴	-10.6636
었단	-10.664
▁정부	-10.6646
▁힐링	-10.6652
▁암무리	-10.6653
▁아들도	-10.6659
▁혹예	-10.6661
▁항께	-10.6662
▁아부지랑	-10.6664
▁닮다	-10.6667
▁하이간	-10.6667
력을	-10.667
▁주의	-10.6671
▁효과가	-10.6671
▁기업	-10.6673
싶	-10.6677
▁빠르	-10.6678
▁댕기면	-10.6681
▁엄만	-10.6686
▁대단	-10.6686
▁오해	-10.669
▁쓰리	-10.6693
▁얘기하믄	-10.6693
▁도새기	-10.6693
▁좋드라구	-10.6694
▁장기	-10.6696
▁아직도	-10.6697
옷	-10.6698
▁회장	-10.6699
▁때미	-10.6701
십시오	-10.6701
▁아퍼	-10.6702
▁탓	-10.6705
▁시킨	-10.6709
인데요	-10.6715
▁올르	-10.6715
▁붓	-10.6716
▁저를	-10.6716
▁흙	-10.6717
▁필요헌	-10.6719
▁심심	-10.6722
▁생가	-10.6723
▁깎	-10.6723
방이	-10.6724
▁차는	-10.6724
▁직원들	-10.6726
테이	-10.673
▁해놨	-10.6731
탁	-10.6732
빨	-10.6732
▁받지	-10.6734
▁용서	-10.6737
▁살지	-10.6738
▁개와	-10.6738
것두	-10.6739
▁업무	-10.674
▁할멍이	-10.6741
▁시청	-10.6743
▁먹어도	-10.6744
▁만나기	-10.6744
▁계단	-10.6745
▁실력	-10.6745
▁나와서	-10.6746
▁뭐니	-10.6748
▁의식	-10.675
▁만나는	-10.6751
▁각시	-10.6751
▁쪼까	-10.6752
▁마냥	-10.6752
먹는	-10.6752
▁참아	-10.6756
▁밥은	-10.6756
▁언재	-10.6757
장에서	-10.6758
▁갚	-10.6762
▁투자를	-10.6762
▁했대이	-10.6765
▁가본	-10.6766
▁껄	-10.677
▁대회	-10.6772
▁감사하	-10.6775
▁오전	-10.6777
으난	-10.6779
▁카더라꼬	-10.6779
어도	-10.6782
▁사고가	-10.6786
▁공포	-10.6786
▁과목	-10.6788
▁종류가	-10.6792
▁이루	-10.6795
▁단점	-10.6796
▁애매하	-10.6802
▁베트남	-10.6816
▁원랜	-10.6816
▁핫	-10.6818
형이	-10.6819
▁올랐	-10.682
▁애인	-10.6821
선이	-10.6823
▁겁니까	-10.6825
▁교수	-10.6825
▁말하기	-10.6826
▁없었던	-10.6829
▁될까요	-10.6833
▁해보꼬	-10.6836
리스	-10.6837
▁섭	-10.6841
▁여행이	-10.6846
▁이쪽	-10.6852
으세요	-10.6853
▁바래	-10.6853
▁오래됐	-10.6855
▁성질	-10.6857
▁묵어도	-10.6857
겠는데	-10.6858
▁라인	-10.6859
▁충분히	-10.6859
▁오픈	-10.6864
칼	-10.6868
몽	-10.6868
놓꼬	-10.6869
▁나와갖고	-10.6873
▁뭐를	-10.6876
▁견	-10.6878
▁두개	-10.6879
▁그륵	-10.688
▁나빠	-10.6885
래도	-10.6885
가민	-10.6887
▁그랬는데	-10.6887
▁바퀴	-10.689
▁까시	-10.6893
▁완전이	-10.6893
릉	-10.6893
▁등치	-10.6897
▁급한	-10.6898
▁된디	-10.6899
▁쐬주	-10.6899
▁체험	-10.69
▁받꼬	-10.6902
▁대해서는	-10.6903
▁눌러	-10.6903
▁쭈	-10.6906
▁말이지	-10.6907
었어예	-10.6911
로만	-10.6913
▁될거	-10.6914
질을	-10.6916
▁어시	-10.6919
▁되자녀	-10.6925
▁드느	-10.6928
▁싶으	-10.6936
▁돌아가셨	-10.6937
▁이래가꼬	-10.6939
▁좋아한다	-10.694
▁시리즈	-10.694
▁재밌어붕	-10.6941
자들	-10.6941
▁비양기	-10.6941
▁그니깐	-10.6941
▁있으먼은	-10.6943
겠니	-10.6949
▁유치원	-10.695
엘	-10.695
▁병이	-10.6951
▁모냥	-10.6951
▁되먼은	-10.6954
▁기여	-10.6955
받아	-10.6955
▁사둔	-10.6965
▁친구들도	-10.6967
▁한나가	-10.6967
▁낭그	-10.6972
▁거랜	-10.6976
▁지굼두	-10.6976
▁현장	-10.6977
▁고집	-10.6977
▁통해서	-10.6979
▁드가서	-10.6981
▁그더처	-10.6982
▁처먹으러	-10.6982
▁각중에	-10.6984
▁되겄	-10.6986
롭	-10.6986
▁바당에	-10.6989
▁미술	-10.699
▁밤새	-10.699
동안	-10.6991
▁퇴	-10.6992
▁아를	-10.6996
거예요	-10.6996
▁창문	-10.6998
밖이	-10.6998
▁없애	-10.6999
▁김밥	-10.6999
▁성당	-10.7
▁생각보대이	-10.7002
병원	-10.7007
익	-10.7007
▁절대루	-10.7008
▁열한	-10.7009
▁밲이	-10.7009
▁변화	-10.7011
▁편은	-10.7017
▁아덜은	-10.7018
▁유리	-10.7021
▁못하겠	-10.7021
▁조카	-10.7021
▁맛좋은	-10.7024
▁이것저것	-10.7024
▁트로트	-10.7024
▁달구라지	-10.7025
▁마주막	-10.7025
▁그렁게	-10.7026
보믄	-10.7026
▁놀랐	-10.7026
▁츰부터	-10.703
댁	-10.7031
그내	-10.7031
준다	-10.7033
▁델	-10.7034
▁정도루	-10.7035
폭	-10.7037
▁감저	-10.7039
동이	-10.7042
▁안내	-10.7044
▁아니나	-10.7045
▁종일	-10.7046
리지	-10.7049
▁좋아하시	-10.7051
▁생기는	-10.7052
▁여름에는	-10.7056
▁비용	-10.7063
▁전화를	-10.7064
느라	-10.7065
▁공원	-10.7066
▁슬픈	-10.7067
▁조심하	-10.7068
▁국민	-10.7068
▁좋아가주구	-10.7068
▁재밌는	-10.7069
▁저그	-10.707
▁덤	-10.7071
화를	-10.7071
▁장깐	-10.7073
▁희망	-10.7074
뒀	-10.7078
▁맛은	-10.708
불민	-10.7082
▁했단	-10.7083
▁도착	-10.7083
▁해야제	-10.7083
▁여개가	-10.7084
▁골이	-10.7085
▁짜르	-10.7086
▁너를	-10.7095
▁우염	-10.7095
▁학생들	-10.7096
▁했구	-10.7096
▁고집패기	-10.7109
였거든	-10.7109
▁맘을	-10.7109
▁액션	-10.711
▁한나씩	-10.7112
▁말하느	-10.7121
▁쬐끔	-10.7122
끝	-10.7123
▁옥	-10.7124
▁됐던	-10.7124
겠지마	-10.7127
▁그다음	-10.7133
▁계획을	-10.7144
▁더워	-10.7146
▁배우는	-10.7146
▁차리	-10.7149
▁들어온	-10.715
▁어땠	-10.7153
▁라이	-10.7153
▁날쎄	-10.7154
인지를	-10.7156
▁초반	-10.7156
▁좋대이	-10.7156
▁그렇쿠	-10.7157
▁여수	-10.7157
▁학교에서	-10.7158
▁좋댄	-10.716
▁모으	-10.7161
▁거진	-10.7161
▁점수	-10.7161
▁그런가이	-10.7163
▁옷은	-10.7164
▁스타	-10.7165
▁사람들한테	-10.7166
▁서서	-10.717
▁먼가	-10.7171
▁맞게	-10.7172
▁있어가주꼬	-10.7173
▁하드만	-10.7174
▁같혀서	-10.7175
▁자이	-10.7178
▁쬐끔만	-10.718
▁감정이	-10.7181
하다고	-10.7182
▁담보	-10.7186
들에게	-10.7188
장은	-10.7189
▁할라믄	-10.7191
▁보네	-10.7191
▁정성	-10.7191
▁핸드폰을	-10.7192
이래이	-10.7193
▁원피스	-10.7194
▁디께	-10.7195
▁커플	-10.7198
학과	-10.7198
▁멀어	-10.7199
▁지들	-10.7201
▁베리	-10.7203
꽝	-10.7209
▁단체	-10.7209
뚜	-10.721
▁가르	-10.721
마심	-10.7213
▁만일에	-10.7213
▁그러드라고	-10.7213
▁찍는	-10.7214
▁방이	-10.7219
▁들어봤	-10.7222
란다	-10.7222
▁잇날	-10.7231
핑	-10.7233
▁예의	-10.7235
▁양이	-10.7237
▁요로케	-10.7237
▁끌고	-10.7241
▁군디야	-10.7245
▁나은	-10.7246
▁하나만	-10.7246
▁대학생	-10.725
▁혼재서	-10.7253
▁여긴	-10.7253
▁사이즈	-10.7254
▁손님들	-10.7255
▁경쟁	-10.7257
줘서	-10.7259
▁것인디	-10.726
▁멕	-10.7264
▁주민	-10.7265
▁뭉	-10.7267
▁인저는	-10.7273
망이	-10.7276
▁맞으	-10.7276
사램	-10.7276
내는	-10.7277
▁따르	-10.7278
▁아이덜이	-10.728
▁별루	-10.7281
▁시키는	-10.7283
▁일어났	-10.7283
▁아이야	-10.7284
▁울고	-10.7284
▁기억은	-10.7285
▁지났	-10.7287
▁심리	-10.7289
▁이러케	-10.7291
▁미치	-10.7295
▁가실	-10.7295
▁요거	-10.7296
▁벗어	-10.7299
▁찾고	-10.7302
허니	-10.7305
▁보긴	-10.7305
▁맞수다	-10.7306
▁상태에서	-10.7306
▁생활이	-10.7306
▁그렇다	-10.7309
▁친구도	-10.7312
▁탐	-10.7314
▁돼지	-10.7315
▁십년	-10.7318
▁조건	-10.7321
▁주위에	-10.7323
▁뒈져두오라이	-10.7323
▁범죄	-10.7324
▁해외여행	-10.7324
▁알아서이	-10.7327
▁개씩	-10.7328
▁있거나	-10.7329
▁선생질	-10.733
▁좋았어	-10.7331
▁달라지	-10.7335
▁화장을	-10.7335
▁그중에서	-10.7337
▁속에서	-10.7338
▁못하구	-10.7339
▁이추룩	-10.7342
리다	-10.7343
▁잔치	-10.7343
▁추석	-10.7345
▁영국	-10.7349
▁성은	-10.7351
▁좋안	-10.7357
▁같으믄	-10.7358
▁가려	-10.736
▁목소리가	-10.736
▁갖다가	-10.7364
▁져	-10.7364
봤어	-10.7367
▁쩐에는	-10.7367
▁괘아는	-10.7367
▁전라도	-10.7368
▁것보다는	-10.7371
▁삼촌	-10.7371
▁살어	-10.7374
▁포함	-10.7378
▁드세요	-10.7379
생활	-10.7384
보세요	-10.7386
▁많아가지구	-10.7388
뿐만	-10.7393
▁전예	-10.7398
▁오는디	-10.7401
▁배우구	-10.7401
▁편지	-10.7402
▁이동	-10.7402
▁여행지	-10.7406
나고	-10.7408
▁그자	-10.7409
균	-10.741
▁단백질	-10.7411
▁메이크업	-10.7411
▁손주	-10.7411
▁반다시	-10.7411
▁생가가는	-10.7411
▁집도	-10.7412
▁농담	-10.7413
▁지냑	-10.7414
분들	-10.7416
▁중독	-10.7417
▁보이는	-10.7418
▁촌말	-10.7419
▁맵	-10.7419
법이	-10.7421
▁좋아할	-10.7422
학교	-10.7425
▁아리	-10.7427
프로	-10.7429
쳐서	-10.7434
▁오늘은	-10.7434
▁나누	-10.7436
차가	-10.744
▁틈	-10.7443
▁어머이한테	-10.7445
▁받아가	-10.7447
▁근께	-10.7447
▁댕기느	-10.7447
▁마지막에	-10.7448
부는	-10.7449
▁남펜이	-10.7451
▁선상님이	-10.7452
▁흘	-10.7452
▁살인	-10.7453
▁있주게	-10.7453
▁방법을	-10.7454
▁젊었을	-10.7454
▁같혀	-10.746
다구요	-10.7461
▁왜냐믄은	-10.7461
는거라	-10.7461
▁맛을	-10.7461
▁이카니께	-10.7462
▁뒤에서	-10.7463
▁의심	-10.7463
▁그라는	-10.7464
▁생각하는데	-10.7464
이대이	-10.7465
▁뱀	-10.7471
▁대단하	-10.7472
▁식게	-10.7472
내고	-10.7474
▁꾸미	-10.7476
증이	-10.7477
시니	-10.7478
▁강한	-10.7478
번에	-10.7485
▁묘	-10.7493
▁체육	-10.7497
여야	-10.7498
▁따뤄갖구	-10.7499
▁쓰면	-10.7499
▁안먹	-10.75
▁째마다	-10.7502
▁번에	-10.7502
▁나와가지고	-10.7503
▁이해하	-10.7503
▁초반에	-10.7505
▁그르타	-10.7505
▁그놈을	-10.7507
해줘	-10.7513
면이	-10.7513
▁보여지는	-10.7514
▁오믄	-10.7514
▁내금새가	-10.7515
▁뿌려	-10.7515
뚝	-10.7517
▁케이스	-10.7519
▁가졌	-10.7519
▁감재	-10.7519
탱이	-10.752
▁발라드	-10.7522
▁되는거	-10.7528
▁보내는	-10.7528
▁댕길	-10.7535
라니	-10.7537
▁성제	-10.7538
▁저릏게	-10.7543
▁스마트폰	-10.7543
▁무엇	-10.7544
▁어마느	-10.7545
▁계절이	-10.7545
▁삶을	-10.7546
▁맹글고	-10.7558
으로서	-10.757
▁솔직	-10.7572
▁내가서	-10.7572
▁살면	-10.7573
이라느	-10.7574
쯤에	-10.7574
▁무대	-10.7577
▁편해	-10.7581
▁건강을	-10.7581
▁되더라고	-10.7583
▁생명	-10.7586
▁뭘라까	-10.7587
▁목숨	-10.7588
▁요서	-10.7589
▁같기	-10.7594
▁겨울에는	-10.7596
▁대중	-10.7596
▁주인공이	-10.76
쓸	-10.7602
▁아니제	-10.7604
▁나는데	-10.7604
▁어뜩	-10.7607
▁나네	-10.7614
▁소원	-10.7619
▁봤었	-10.7621
놀이	-10.7623
▁츰에	-10.7629
▁페이스북	-10.7632
옌	-10.7632
▁적금	-10.7633
▁쉴	-10.7633
▁것들도	-10.7633
▁앵간히	-10.7634
▁엠	-10.7634
▁최근이	-10.7634
▁못해는	-10.7635
▁엘	-10.7636
▁나름대로	-10.7636
▁궁금	-10.7636
▁강릉	-10.7637
▁계세요	-10.7637
▁사램의	-10.7648
▁사가꼬	-10.7654
▁키운	-10.7656
▁사나들	-10.7657
▁읎어서	-10.7659
▁일정	-10.7661
▁따치	-10.7664
▁사무	-10.7665
▁애들이랑	-10.7666
▁놩	-10.7669
▁경주	-10.767
▁모든지	-10.767
▁흥미	-10.767
▁이라머	-10.7672
▁그랬었	-10.7673
▁보기에	-10.7674
▁바보	-10.7676
▁낳았	-10.7677
▁로맨스	-10.7677
▁핑계	-10.7677
▁드려	-10.7678
▁있잖아요잉	-10.7678
▁확실히	-10.7679
▁앉았	-10.768
▁헹	-10.7681
▁때만	-10.7684
▁찾았	-10.7689
▁값이	-10.769
해갖고	-10.769
농	-10.7692
▁끝나고	-10.77
▁해야되	-10.7701
▁남아있	-10.7705
▁마셨	-10.7705
▁맴을	-10.7716
▁지끔도	-10.7716
▁아무도	-10.7718
▁둘이가	-10.7719
▁어따	-10.7721
▁깊은	-10.7722
▁되므은	-10.7722
▁경향이	-10.7725
이지만	-10.7726
▁유학	-10.7726
▁의견	-10.7727
▁피해	-10.7728
대가리	-10.7731
▁갈수록	-10.7738
▁특별	-10.7738
보라	-10.7743
퇴	-10.7743
푼	-10.7744
▁결국은	-10.7746
따구	-10.7746
▁땡겨	-10.7747
부터는	-10.7752
▁전역	-10.7752
▁그러기	-10.7754
▁바닥	-10.7755
▁팍	-10.7756
▁싶었는데	-10.7758
▁말아는	-10.776
으라고	-10.7761
겄제	-10.7764
▁사겨	-10.7767
졈	-10.7767
▁생각허구	-10.7767
▁애기를	-10.7767
▁연락을	-10.7768
▁컴	-10.7769
났어	-10.777
▁반재	-10.777
▁올래	-10.7771
▁목포	-10.7773
다라는	-10.7775
▁행복하	-10.7775
▁그라민시	-10.7776
이라던가	-10.7777
▁이래가	-10.7778
▁영양제	-10.7787
▁안경	-10.779
▁홍보	-10.7791
▁매달	-10.7793
▁부른	-10.7793
▁있잖아요	-10.7795
▁왔나	-10.7798
▁삼만	-10.7798
▁나신디	-10.7799
부가	-10.7801
▁그랬지	-10.7808
▁군대를	-10.781
컬	-10.7812
▁엄써서	-10.7812
▁그른게	-10.7814
▁딸래미	-10.7814
▁일이야	-10.7815
▁야가	-10.7817
▁된다믄	-10.7817
▁넘기	-10.7818
▁보대이	-10.782
▁돌아가시	-10.7824
하더라	-10.7826
▁어데로	-10.7828
폐	-10.7835
▁푼	-10.7835
▁친구를	-10.7838
▁고급	-10.7839
▁때문이	-10.784
▁블	-10.784
▁갸는	-10.784
아이	-10.7841
▁언나	-10.7842
▁직업이	-10.7842
▁단발	-10.7844
▁이서야	-10.7847
▁어는	-10.7849
▁생각만	-10.7849
▁사시	-10.785
▁극정하지	-10.7852
▁와가꼬	-10.7853
▁던져	-10.7854
▁무신거	-10.7857
▁애니메이션	-10.7858
▁신질루	-10.7858
▁노오꼬	-10.7858
▁맞대이	-10.786
▁없으니께	-10.7864
▁들긴	-10.7865
▁태워	-10.7868
▁묵꼬	-10.787
수광	-10.7871
▁오꼬	-10.7873
판이	-10.7875
▁요기	-10.7876
▁회식	-10.7876
▁결론	-10.7885
▁중고	-10.7888
더라고요	-10.7889
▁제한테	-10.7894
려구요	-10.7896
▁거게다	-10.7899
▁된거	-10.7904
▁무뿌머	-10.7904
▁말려	-10.7905
▁낮은	-10.7906
▁되믄	-10.7907
김치	-10.7908
▁했노	-10.7913
▁이제사	-10.7916
▁높이	-10.7916
년이	-10.7918
▁안됐	-10.7921
▁같았	-10.7927
▁찍은	-10.793
▁놓으	-10.793
▁특별한	-10.7932
하지를	-10.7938
▁소주	-10.7939
▁허니까	-10.7943
▁극장	-10.7943
▁보는데	-10.7945
▁길에	-10.7946
▁맨큼	-10.7947
▁시어멍	-10.7947
▁성인	-10.7949
▁먹다	-10.7949
▁바라보	-10.795
▁아플	-10.795
▁죄송해요	-10.7951
▁미쳤	-10.7953
▁계곡	-10.7954
시구	-10.7954
까리	-10.7955
▁대출	-10.7955
▁떨어질	-10.7956
▁뜯	-10.7958
▁이러게	-10.796
▁수영장	-10.7962
▁쪘	-10.7966
▁멋진	-10.7967
▁나나	-10.7973
▁부모가	-10.7974
▁자체를	-10.7974
▁제주도사	-10.7975
▁실제	-10.7975
▁사랑을	-10.7977
▁과자	-10.7977
점을	-10.7979
▁하맨	-10.798
것어	-10.7983
▁거즘	-10.7983
▁있다믄	-10.7985
▁오죽	-10.7989
▁생기믄	-10.7989
▁생각두	-10.7991
▁너무너무	-10.7996
▁카만히	-10.7998
▁팔았	-10.7999
▁마흔	-10.7999
시가	-10.8
▁공연을	-10.8007
▁알아야	-10.8007
▁허연	-10.801
▁증말루	-10.8015
객	-10.8015
▁사용하	-10.8019
▁톡	-10.8022
▁달래	-10.8022
허멍	-10.8028
▁챙피	-10.8028
▁예나가	-10.8033
▁허곡	-10.8036
▁놀란	-10.8039
콤	-10.8042
▁늦어	-10.8043
▁트럭	-10.8044
▁형부	-10.8046
▁가지가	-10.8051
촌	-10.8051
들만	-10.8051
지다	-10.8057
▁기억을	-10.8059
▁쉽께	-10.8059
▁싶으문	-10.8063
▁없드라고	-10.8066
▁말씸이	-10.8069
▁아니래요	-10.807
▁먹어사	-10.807
▁도제	-10.8071
▁왔었	-10.8073
▁랩	-10.8075
▁시원하	-10.8076
▁운동화	-10.8077
▁않는디	-10.8078
▁파마	-10.8078
▁알았는디	-10.8078
▁있었거든	-10.808
▁봔데	-10.8081
▁어울리는	-10.8084
▁갈래	-10.8084
었거든예	-10.8086
▁조선	-10.8088
라나	-10.8089
▁유튜버	-10.809
▁아무껏도	-10.809
▁자연스럽게	-10.8091
▁모델	-10.8091
▁괜잖은	-10.8092
▁빠른	-10.8095
▁올라갈	-10.8095
▁혹	-10.81
▁햇	-10.8102
▁안정	-10.8104
▁공간	-10.8105
▁몰라요	-10.8107
깡	-10.8109
▁보세요	-10.8111
▁밥이	-10.8112
▁똑띠	-10.8113
액	-10.8114
▁아이유	-10.8115
▁차도	-10.8115
뻔	-10.8116
▁그룹	-10.8117
뭐	-10.8117
부리	-10.8118
▁끓	-10.8121
험	-10.8123
▁저것	-10.8124
▁크다	-10.8124
마이	-10.8126
큰	-10.8132
겡이	-10.8133
▁돈만	-10.8134
▁도망가	-10.8136
▁마숩	-10.8137
▁암시롱도	-10.8137
▁촬영	-10.8137
▁바닷가	-10.8137
▁쏠	-10.8137
▁한마디	-10.8138
▁줬어	-10.8145
갑다	-10.8147
발이	-10.8147
야죠	-10.815
시오	-10.8153
▁뻐	-10.8153
▁불교	-10.8154
실이	-10.8154
▁발달	-10.8155
▁경험을	-10.8157
삐	-10.8158
▁세상이	-10.8162
▁남을	-10.8163
▁알았다	-10.8163
▁압	-10.8165
▁미워	-10.8165
▁습관	-10.8171
▁군대에서	-10.8172
▁책상	-10.8174
가난	-10.8177
▁입맛이	-10.8181
▁든다	-10.8181
▁사램이야	-10.8181
▁대해	-10.8181
▁부를	-10.8182
▁습관이	-10.8183
▁인스타그램	-10.8184
하려고	-10.8184
인게	-10.8184
▁아빠는	-10.8185
냐면은	-10.8186
▁어려울	-10.8187
▁상황에서	-10.8187
▁외국인	-10.8189
▁안하	-10.8194
▁나머지	-10.8194
굽	-10.8196
▁고향	-10.8197
자로	-10.8197
▁쪽에서	-10.8199
▁그전에	-10.82
▁남이	-10.8209
▁영어를	-10.8209
녁	-10.8211
▁헤어졌	-10.8214
▁많잖아	-10.8215
▁가능한	-10.8216
▁봄에	-10.8219
▁주실	-10.8219
▁여서	-10.8222
▁면에서	-10.8225
▁도서관	-10.8231
▁남자를	-10.8231
▁혈압	-10.8231
▁시어머이	-10.8234
▁애들한테	-10.8235
▁눈물이	-10.8237
▁명은	-10.824
▁미용실	-10.8241
▁우짼	-10.8242
▁약한	-10.8243
▁중앙	-10.8244
▁이왕	-10.8246
엄마	-10.8246
▁없습니다	-10.8246
▁사정	-10.8247
▁이러믄서	-10.8248
▁짬	-10.8248
▁추천을	-10.825
간이	-10.8256
▁회복	-10.8256
▁들러	-10.826
▁말았	-10.826
▁빤	-10.8262
▁세우	-10.8265
▁유명	-10.8267
▁많드라고	-10.8268
▁시급	-10.8268
▁됀	-10.8268
▁그니까는	-10.827
▁깔아	-10.8274
▁깨끗	-10.8275
▁교장	-10.8276
시지	-10.8276
▁밑이	-10.8277
▁컴플렉스	-10.8279
▁요상한	-10.8279
▁죽겠	-10.828
▁엄식을	-10.828
▁명이서	-10.828
▁할아버지	-10.8288
▁번만	-10.829
▁근게	-10.8291
▁겸	-10.8293
할거	-10.8294
▁나라에서	-10.8295
▁됐나	-10.83
썩	-10.8302
갔어	-10.8303
▁먹으래	-10.8304
▁애끼	-10.8305
산이	-10.8308
▁많으	-10.8308
찜	-10.8308
▁없어졌	-10.8309
▁다리가	-10.8311
바닥	-10.8312
▁가을에	-10.8314
▁때마대이	-10.8316
▁달구	-10.8317
▁엄니	-10.8318
룬	-10.8319
▁아재	-10.832
▁약이	-10.8321
▁인해서	-10.8322
▁살구	-10.8322
▁스타일을	-10.8326
▁기독교	-10.8327
▁무서운	-10.8328
▁피가	-10.8329
▁티비에서	-10.8329
▁받앙	-10.833
▁쏟아	-10.833
▁혼나	-10.833
▁않은디	-10.833
▁과제	-10.8332
수꽈	-10.8334
▁만두	-10.8335
▁지들이	-10.8335
▁소리기야	-10.8337
▁기간이	-10.8337
받고	-10.8337
▁헌다는	-10.8339
▁강생이	-10.8339
▁추울	-10.8339
▁사람한테	-10.834
▁그리무	-10.834
▁주방	-10.834
▁쓰이	-10.834
▁엄마두	-10.8343
라던가	-10.8343
▁된다라꼬	-10.8345
▁강이네	-10.8349
▁있다요잉	-10.835
▁겁이	-10.8351
▁성격은	-10.8355
▁앙	-10.8358
▁도움을	-10.8359
▁해헌티	-10.836
▁방문	-10.836
바람	-10.836
쟁	-10.8364
엽	-10.8373
함을	-10.8375
▁기리타고	-10.8375
달라	-10.8375
▁영업	-10.8377
쩌	-10.8378
▁택	-10.8378
▁똑같애	-10.8379
▁사라지	-10.8379
▁기다렸	-10.8381
▁달이	-10.8385
▁반응	-10.8387
▁팀장님	-10.8392
▁너희	-10.8399
▁차분	-10.8401
▁맛있느	-10.8404
블고	-10.8405
잎	-10.8406
응	-10.8407
▁짜증나	-10.841
▁동기	-10.8414
▁했으	-10.8415
▁때부통	-10.8415
▁대그빡을	-10.8423
▁일어날	-10.8423
▁납득	-10.8424
▁소래기	-10.8426
▁올해는	-10.8426
▁이시믄	-10.8427
▁알아봐	-10.8427
▁잔소리	-10.8428
▁얼구리에	-10.8437
▁고추	-10.8438
▁어성	-10.8438
▁확실	-10.844
▁오신	-10.844
▁있드만	-10.8441
▁숲	-10.8444
▁질래	-10.8444
▁오후에	-10.8445
▁나이에	-10.8448
일까	-10.8448
르구	-10.8449
▁양파	-10.8449
▁평소	-10.8449
▁양말	-10.845
징	-10.8451
▁할라면은	-10.8454
한게	-10.8454
그라	-10.8458
▁천만	-10.8461
▁있었구	-10.8461
▁아주망	-10.8463
▁한다는	-10.8464
▁하니께	-10.8464
▁뜬	-10.8465
▁효과	-10.8467
▁죽겄	-10.8468
▁있지만은	-10.8468
▁그랬나	-10.847
▁그렇게	-10.8471
▁갤럭시	-10.8472
▁진뗑이	-10.8472
▁댓글	-10.8472
▁이어폰	-10.8472
▁허당	-10.8472
▁만화책	-10.8473
▁가마	-10.8475
▁쌓여	-10.8475
▁그리다	-10.8475
▁어딨어	-10.8475
▁생각하는디	-10.8476
▁좋아했던	-10.8477
▁많아지	-10.8481
▁탁구	-10.8484
▁색깔이	-10.8487
▁연습을	-10.8488
▁말대로	-10.849
걸로	-10.8493
▁이라고	-10.8498
▁촐	-10.8498
▁팩	-10.8501
▁많네	-10.8501
▁찍었	-10.8507
▁추우	-10.8507
▁편이구	-10.8508
▁싱	-10.8511
▁놓을	-10.8513
▁그랬잖아	-10.8515
▁고기가	-10.8515
▁제라	-10.8516
었노	-10.8519
▁어무니	-10.8521
▁요번엔	-10.8522
▁까페	-10.8523
▁찝	-10.8525
▁번두	-10.8525
▁좋아하거든	-10.8528
▁중심	-10.8529
▁같네	-10.8532
▁어멍이예	-10.8533
▁내비	-10.8536
▁속을	-10.8537
▁예술	-10.8546
▁캤	-10.8549
▁넓은	-10.8549
찔	-10.8553
▁혼자서	-10.8556
쁠	-10.8566
▁회사서	-10.8567
▁가다가	-10.8569
▁우떻게	-10.8569
▁혔었었간디	-10.8569
▁이번으는	-10.857
▁아쉬웠	-10.857
주를	-10.8573
▁과외	-10.8574
▁싸워	-10.8577
▁여자들	-10.8578
게끔	-10.8578
하지만	-10.8578
▁골목	-10.8579
▁추천혀	-10.858
▁무료	-10.8584
▁다루	-10.8586
▁그동안	-10.8586
▁공부해	-10.8588
원에	-10.8588
▁팔고	-10.8589
▁목이	-10.859
▁힘들어야	-10.8591
렇게	-10.8591
▁맞아요	-10.8592
▁일등	-10.8593
▁평가	-10.8595
▁모르겄다	-10.8595
병이	-10.8597
▁알면	-10.8597
▁먹는다	-10.8599
거려	-10.86
▁누그야	-10.8602
▁비형	-10.8604
▁마른	-10.8606
갔다	-10.8607
▁봉사	-10.8609
▁남겨	-10.8609
▁닥	-10.8617
▁많대이	-10.8623
▁께임이	-10.8627
▁버티	-10.8628
날에	-10.8629
▁거믄	-10.8631
▁죽고	-10.8632
▁속상하	-10.8633
빼	-10.8634
들에	-10.8635
▁겡기	-10.8636
▁현대	-10.8636
▁건강이	-10.8639
▁대신에	-10.8639
▁정해	-10.8639
▁서러레	-10.864
▁술집	-10.864
판에	-10.8642
▁지낸	-10.8646
▁공부도	-10.8647
이어서	-10.8649
부턴	-10.8651
▁진정	-10.8653
▁그래문	-10.8657
아요	-10.8661
▁모른다	-10.8664
새가	-10.8665
▁아들을	-10.8667
▁사무님	-10.867
▁끝낭	-10.8671
▁훨	-10.8674
▁했주게	-10.8674
▁그냐	-10.8675
▁능력이	-10.8677
되느	-10.868
▁핀	-10.8682
▁모르겠지만	-10.8683
▁맛없	-10.8683
▁번을	-10.8684
▁카꼬	-10.8687
▁데려가	-10.8687
▁향수	-10.869
▁잘라	-10.8692
▁바르	-10.8692
▁같으문	-10.8693
▁주신	-10.8694
▁전주	-10.8695
▁내려와	-10.87
▁사람들의	-10.8703
지꼬	-10.8704
기고	-10.8706
▁욕심이	-10.8708
▁고객	-10.8714
▁근다구	-10.8714
▁전세	-10.8717
▁키고	-10.8717
▁와그넨	-10.8718
▁샤워	-10.8719
▁왔다갔다	-10.8719
▁있데	-10.8719
▁심어	-10.8719
허지	-10.8721
▁갈까	-10.8722
▁갱아지	-10.8723
허민	-10.8723
해진	-10.8723
▁팀이	-10.8723
▁칸	-10.8727
▁환경이	-10.8728
▁분들은	-10.8729
데끼	-10.8733
이라든지	-10.8738
▁음식은	-10.8739
경이	-10.8739
▁그담이	-10.8741
▁필수	-10.8744
오고	-10.8749
▁갔당	-10.8752
떼	-10.8752
▁인생에	-10.8754
▁좋아졌	-10.8755
▁못했어	-10.8756
▁더운	-10.8756
▁고기는	-10.8758
▁발생	-10.8759
▁혈액형	-10.876
더러	-10.8761
▁가그넹	-10.8764
▁밖	-10.8764
▁결제	-10.8767
▁이어	-10.8768
▁배고프	-10.8769
▁표현을	-10.8771
▁식품	-10.8773
줘요	-10.8773
▁예즌	-10.8775
▁얼음	-10.8781
값이	-10.8782
▁그런거가	-10.8784
▁취향이	-10.8785
▁그랬었는디	-10.8787
▁거면	-10.8799
▁보내주	-10.8801
▁뒀	-10.8802
▁특이한	-10.8807
▁둘러	-10.8811
▁한동안	-10.8813
▁나물	-10.8817
▁테이블	-10.8818
▁플레이	-10.8819
▁녀나	-10.8819
▁가르체	-10.882
▁있어요잉	-10.8821
었꼬	-10.8821
▁많아가	-10.8821
▁무겁	-10.8825
▁안보	-10.8825
▁외출	-10.8825
▁글로	-10.8827
▁교복	-10.8827
▁혼저	-10.8829
가요	-10.8836
▁아인	-10.8839
녜	-10.8841
▁낫다	-10.8844
▁똑똑	-10.8848
▁에이형	-10.8854
▁설치	-10.8855
한테두	-10.8858
든둥	-10.8858
▁할게요	-10.8862
▁홈	-10.8865
▁수구	-10.8867
깃	-10.8869
틱	-10.8869
▁고등학생	-10.8869
▁허리깽이	-10.8869
▁사람이랑	-10.8869
▁아니지	-10.8873
일을	-10.8876
▁내한테는	-10.8877
▁받았어	-10.8879
▁부족하	-10.8886
▁지느	-10.8886
▁생이라	-10.8887
▁오라버이	-10.8888
▁험	-10.8889
▁살라고	-10.8895
▁운동은	-10.8895
놀	-10.8896
쭈	-10.8896
▁보고서	-10.8896
▁그글	-10.8899
▁문학	-10.89
▁인식	-10.8903
▁서루	-10.8907
했네	-10.8907
▁귀찮아	-10.891
▁마음도	-10.8912
▁근거	-10.8913
▁해그냉	-10.8913
▁지구	-10.8917
▁다치	-10.8917
▁사롬덜도	-10.8919
▁죙일	-10.8919
뻑	-10.8919
▁도대체	-10.8919
▁어짓께	-10.8919
▁메나리	-10.892
으넹	-10.8921
▁발이	-10.8921
▁괜찮으	-10.8922
했는지	-10.8928
▁싫어서	-10.893
▁그카대이	-10.8934
렵	-10.8934
▁언어	-10.894
▁됨	-10.8941
▁잡으	-10.8942
▁있디	-10.8943
으론	-10.8944
▁사회생활	-10.8945
▁비대	-10.8951
존	-10.8951
▁동상은	-10.8959
톤	-10.8959
겅	-10.8959
▁군인	-10.8959
▁모시구	-10.896
▁실내	-10.8964
▁반에	-10.8964
▁학상들	-10.8965
▁줘서	-10.8966
둑	-10.8967
▁다운	-10.8969
혁	-10.897
▁옮기	-10.897
▁치구	-10.8974
으룬	-10.8979
▁볼라꼬	-10.8981
김	-10.8981
▁어쩜	-10.8983
▁엄마한티	-10.8984
▁검은	-10.8985
▁달러	-10.8988
떠	-10.8988
▁겅하난	-10.8992
▁잃어	-10.8993
▁밑에서	-10.8998
▁거개	-10.8999
▁가까운	-10.9
▁부분들	-10.9001
셨던	-10.9007
▁어플	-10.9008
▁가입	-10.9008
▁미안한	-10.9008
▁와인	-10.9009
▁되노	-10.901
▁바까	-10.901
앵	-10.901
▁가능하	-10.9011
▁아야	-10.9011
▁있으여	-10.9018
▁근력	-10.9018
▁씨잘데기	-10.9022
▁충부이	-10.9022
▁아쉬워	-10.9022
▁훨썩	-10.9022
▁피시방	-10.9022
▁조심해야	-10.9022
시네	-10.9022
▁정이	-10.9024
▁두세	-10.9026
▁벼	-10.9028
까지느	-10.9029
▁밝은	-10.9031
▁연말	-10.9032
▁전날	-10.9032
▁주택	-10.9034
▁흠	-10.9035
▁히야	-10.9035
▁놀리	-10.9036
▁표정	-10.9036
▁가스	-10.9041
구만유	-10.9046
▁사업을	-10.9048
▁먼지	-10.9049
▁전국	-10.9051
제를	-10.9051
▁받아들이	-10.9052
▁게서	-10.9058
▁나야	-10.906
▁음악이	-10.906
▁목적	-10.9062
▁시작할	-10.9067
▁데다	-10.9068
꼼	-10.907
▁여것저것	-10.9073
▁춘천	-10.9073
▁로봇	-10.9073
▁해사	-10.9074
▁앞전에	-10.9076
▁아빠랑	-10.9077
▁뒤집어	-10.9079
▁했꼬	-10.908
▁족은	-10.908
▁그래게	-10.908
▁됐는데	-10.9081
원을	-10.9082
야겠어	-10.9083
▁동창	-10.9083
▁작아	-10.9086
▁외에	-10.9086
▁섭섭	-10.9086
로워	-10.9087
▁사면	-10.909
당이	-10.9092
세예	-10.9092
▁모르겠네	-10.9094
▁아는데	-10.9095
▁가젠	-10.9095
▁적에	-10.9095
▁친구한테	-10.9097
▁수익	-10.9102
▁거니	-10.9103
▁엄마랑	-10.9103
▁엇	-10.9105
겠지를	-10.9109
웠어	-10.9111
▁야이네	-10.9111
▁에전에는	-10.9112
▁하랜	-10.9114
곰	-10.9115
운데	-10.9118
▁저축	-10.9118
었으면	-10.9119
▁할머이가	-10.9121
▁만져	-10.9122
▁햄버거	-10.9125
▁에너지	-10.9125
▁갱벤	-10.9125
버릴	-10.9126
검	-10.9126
▁아저씨	-10.9129
▁한마두	-10.913
▁자녀	-10.9132
▁편이야	-10.9132
▁겨우	-10.9132
▁신세	-10.9133
▁공격	-10.9134
▁이애기하라우	-10.9136
▁되겄대이	-10.9136
▁시대가	-10.9138
▁여가	-10.9139
▁깡	-10.9148
▁사줄	-10.9153
▁들었는디	-10.9154
▁급식	-10.9157
▁거제	-10.9161
▁기도	-10.9162
▁있께	-10.9164
▁된대	-10.9165
▁산업	-10.9167
칸	-10.9167
▁운영	-10.917
아야	-10.9173
▁해사에	-10.9175
▁지굼부터	-10.9176
▁불쌍하	-10.9177
▁힙합	-10.9177
▁제한	-10.9182
▁괜찮을	-10.9184
▁보드	-10.9184
었어요잉	-10.9188
▁매련	-10.919
▁끝에	-10.919
▁했대	-10.9191
▁행동을	-10.9191
▁오늘랑	-10.9192
▁원을	-10.9193
▁남녀	-10.9194
▁견디	-10.9196
욱	-10.9197
▁땅을	-10.9197
드라고예	-10.9197
▁마주	-10.9199
▁강으네	-10.92
▁숭	-10.9209
▁쌓아	-10.9211
▁오른	-10.9212
어신디	-10.9213
벽	-10.9216
▁거란	-10.9218
▁날래	-10.9219
옵	-10.922
▁듣느	-10.9221
쇠	-10.9221
▁드릴게요	-10.9225
▁가아지	-10.9226
▁흔	-10.9226
▁때까지	-10.9226
▁할수	-10.9228
▁들어가지고	-10.9229
으로써	-10.9229
▁고마워	-10.923
▁손가락	-10.923
거는	-10.9233
▁그제	-10.9234
있다	-10.9235
▁겉애서	-10.9237
▁좌	-10.924
▁만들맨	-10.924
▁그렇대이	-10.9241
속에	-10.9244
▁없으니께네	-10.9244
▁뭐해	-10.9245
▁십이월	-10.9247
▁가두	-10.9247
▁애교	-10.9249
싸요	-10.9249
▁아버지	-10.925
▁객	-10.9253
우꽈	-10.9253
▁말어	-10.9255
▁샀는디	-10.9261
▁문재	-10.9264
▁거였	-10.9266
▁꺼라구	-10.9268
려나	-10.9268
▁놈의	-10.9268
▁팀장	-10.9272
▁넷	-10.9272
어라	-10.9273
▁오름	-10.9273
▁갈게	-10.9276
▁있드라	-10.9279
▁동영상	-10.9282
▁금요일	-10.9282
▁나구	-10.9282
▁무서웠	-10.9286
▁거그서	-10.9286
▁다서	-10.9286
러워	-10.9289
▁배경	-10.9289
▁그랬셔	-10.9292
▁옆집	-10.9293
▁풍경	-10.9296
▁동의	-10.9297
▁걷기	-10.9298
줄게	-10.9299
▁만지	-10.9299
▁곤란	-10.93
▁한복	-10.93
▁감당	-10.9306
▁나왔다	-10.931
▁할려	-10.9313
▁딸은	-10.9317
▁싶었던	-10.9326
▁말에	-10.9327
▁생각하지	-10.933
▁보였	-10.9331
▁남자가	-10.9331
▁한국에서	-10.9334
▁야그	-10.9334
▁편어게	-10.9335
▁대비	-10.9336
▁우짜	-10.9343
▁있다가	-10.9345
▁세월이	-10.9346
▁넣꼬	-10.9347
해가지구	-10.9347
댕	-10.9348
▁깔끔	-10.9351
있고	-10.9351
▁껌	-10.9351
▁물어볼	-10.9353
▁편이꼬	-10.9353
▁빠질	-10.9355
▁그때논	-10.9356
▁알바가	-10.9356
▁초밥	-10.9358
자들이	-10.9359
▁친척	-10.9366
▁간단	-10.9369
여가지고	-10.9369
▁초대	-10.9375
▁그다가	-10.9377
▁암마	-10.9378
▁쭐여	-10.9378
▁믿으	-10.9388
▁자극	-10.9389
▁마인드	-10.939
▁좋겠사	-10.939
▁여동생	-10.9391
▁추위	-10.9397
▁버는	-10.9398
▁휘가	-10.9399
▁수업을	-10.9402
▁이상형	-10.9403
▁왜냐먼	-10.9403
▁있어야지	-10.9404
▁모대구	-10.9404
▁읽는	-10.9404
램	-10.9405
▁세트	-10.9405
기야	-10.9405
▁우에서	-10.9405
▁비우	-10.9405
▁사당	-10.9406
▁애기씨	-10.9406
▁썬	-10.941
▁나머	-10.9413
▁진상	-10.9416
커라	-10.9419
▁도전	-10.9421
▁해봤는디	-10.9421
▁교수님이	-10.9426
▁사돈	-10.9427
▁제작	-10.9427
▁재미있는	-10.9427
욕	-10.9428
납	-10.9431
랜드	-10.9433
▁떠들	-10.9433
▁많았어	-10.9436
하맨	-10.9436
해지고	-10.9437
▁어신거	-10.9438
▁으른들	-10.9442
▁마음은	-10.9443
우면	-10.9443
▁꽃이	-10.9445
▁오매	-10.9446
▁안돼요	-10.9449
▁줄을	-10.945
봤는데	-10.945
▁몰르구	-10.9456
었대이	-10.946
▁집안이	-10.9462
▁여자들이	-10.9468
▁먹노	-10.9471
▁쓴다	-10.9472
▁왼	-10.9474
▁진실	-10.9477
녀가	-10.948
▁많어	-10.9481
▁노래들	-10.9483
켓	-10.9484
▁노래는	-10.9485
▁피곤	-10.9488
산을	-10.949
들이나	-10.9491
조차	-10.9493
▁한식	-10.9493
▁잘모	-10.9494
겔	-10.9495
▁프랑스	-10.9495
▁먹으먼서	-10.9495
▁백게서	-10.9496
▁운전하	-10.9498
▁웬일이	-10.9499
▁붙잡	-10.9499
▁가족끼리	-10.95
▁전화가	-10.9501
▁헤어	-10.9503
▁있당	-10.9503
기다	-10.9505
▁꼬리	-10.9507
집을	-10.9508
▁없닥	-10.9509
▁해줘야	-10.951
▁밸	-10.9512
▁두부	-10.9514
▁과연	-10.9521
▁걸리는	-10.9521
▁단점이	-10.9525
▁말씀을	-10.9529
혜	-10.9532
▁미안해요	-10.9532
▁글씨	-10.9533
▁옴	-10.9534
▁엿	-10.9536
▁당연한	-10.9538
▁밴드	-10.9539
흥	-10.9544
▁보조	-10.9546
▁희안진	-10.9549
▁움직여	-10.955
▁이캤는데	-10.955
▁이미지	-10.955
▁역할	-10.9552
▁잘하고잉	-10.9553
▁땀새	-10.9554
▁서운	-10.9557
▁동갑	-10.9557
텐	-10.9557
▁백신	-10.9558
▁기타	-10.956
▁장점이	-10.9561
▁만낭	-10.9563
렝이	-10.9564
었다고	-10.9573
▁들어주	-10.9574
▁올라간	-10.9574
▁먹던	-10.9579
▁이상은	-10.9579
▁불이	-10.9579
▁산이	-10.958
▁일자리	-10.9583
▁눈도	-10.9584
에만	-10.9585
▁편이라	-10.9586
▁넣는	-10.9586
▁반대로	-10.9588
▁필요하다	-10.9589
▁생각난	-10.9589
▁간게	-10.9592
▁잘했	-10.9593
▁볶	-10.9593
▁뜰	-10.9594
었어유	-10.9598
▁맛도	-10.9599
▁야기	-10.9601
▁생물	-10.9602
▁짓이	-10.9603
▁맡아	-10.9604
픽	-10.9604
▁아맹해도	-10.9605
▁넓어	-10.9605
▁바꿨	-10.9605
▁말했듯이	-10.9606
해그넹	-10.9606
▁노릇	-10.9606
▁꺼니께	-10.9606
▁어느정도	-10.9608
이죠	-10.9609
낭구	-10.9613
▁엥	-10.9621
약을	-10.9621
합니까	-10.9622
▁불편	-10.9622
신이	-10.9636
▁읽고	-10.9638
▁있더라	-10.9638
▁기초	-10.9643
았던	-10.9643
▁있었꼬	-10.9644
▁물질	-10.9644
▁그놈	-10.9647
하거든	-10.9647
▁그래가주	-10.9653
섰	-10.9654
▁잘해주	-10.9654
▁하제	-10.9656
▁편이긴	-10.9658
▁자동	-10.9658
▁헨재	-10.9658
▁지절로	-10.9659
▁헹펜	-10.9659
▁고개	-10.966
▁시선	-10.966
▁나오고이	-10.9664
▁타임	-10.9664
게만은	-10.9666
▁생일이	-10.967
▁말리	-10.967
▁입장이	-10.9674
▁뻥	-10.9675
방을	-10.9677
▁꽈	-10.9678
▁아니잖아	-10.968
으멍	-10.968
▁외롭	-10.9682
받는	-10.9684
▁교육을	-10.9685
▁주셨	-10.9687
▁오놀두	-10.9689
▁가그네	-10.969
▁떨어진	-10.9693
▁위험하	-10.9695
▁앉앙	-10.9696
▁잘하는	-10.9697
▁글을	-10.9698
▁할매가	-10.97
▁아니었어	-10.97
▁여행은	-10.9701
▁기억도	-10.9701
한댄	-10.9704
▁먹어두	-10.9705
▁좋더라고	-10.9707
▁말투	-10.9709
▁물려	-10.971
닌	-10.971
▁응원	-10.9712
▁댕김시롱	-10.9713
꿍	-10.9713
▁대한민국	-10.9713
▁한반씩	-10.9713
▁맨그는	-10.9714
▁언니도잉	-10.9714
으러	-10.9716
▁질리	-10.9716
▁드론	-10.9718
▁느희	-10.9718
▁질투	-10.972
▁내나	-10.972
겠네요	-10.9724
▁사장이	-10.9726
▁술이	-10.973
▁허젠	-10.9732
▁자식들	-10.9735
▁만내고	-10.9735
▁분은	-10.9736
▁생겼다	-10.9737
▁하르방이	-10.9737
▁오래된	-10.9738
▁공주	-10.9739
▁짜리에	-10.9743
▁받느	-10.9745
▁마참	-10.9746
자면	-10.9747
▁좋대	-10.975
▁하내기만	-10.9752
▁예즌에는	-10.9752
▁살게	-10.9752
▁세일	-10.9754
▁주에	-10.9757
▁어린아	-10.976
잖나	-10.9761
▁이후	-10.9761
▁괴기가	-10.9762
▁없어져	-10.9768
▁반지	-10.9768
▁예자들	-10.9769
▁하얀	-10.9769
▁맡겨	-10.9769
▁스테이크	-10.9769
▁에피소드	-10.9769
▁매니저	-10.9769
▁자사히	-10.9769
▁어거지로	-10.9769
▁튀김	-10.9769
▁스님	-10.977
▁암것도	-10.9771
▁측	-10.9772
뿐	-10.9773
▁그자락	-10.9773
▁보이깐	-10.9774
▁성격도	-10.9775
▁피씨방	-10.9777
▁이름은	-10.9777
▁강아지를	-10.9778
▁때랑	-10.978
▁골르	-10.9781
원에서	-10.9781
▁쪽을	-10.9783
▁받안	-10.9786
▁팥	-10.9788
으이	-10.9793
▁정신을	-10.9794
▁영화도	-10.9795
▁싸울	-10.9798
▁겅해신디	-10.9798
▁명씩	-10.9799
곱	-10.9805
▁악기	-10.9808
▁주기	-10.981
▁해장님	-10.9811
▁했제	-10.9811
▁셀	-10.9813
▁인디	-10.9814
보다도	-10.9815
모가	-10.9817
▁반이	-10.9819
세가	-10.9821
▁앉재서	-10.9824
▁좋타꼬	-10.9824
▁슈퍼	-10.9825
▁버릇	-10.9825
▁싶네	-10.9825
▁파스타	-10.9826
▁흔히	-10.9827
▁겉애예	-10.9828
▁재혼	-10.9828
▁살꼬	-10.9833
▁그랬든	-10.9835
▁죽여	-10.9835
▁드갈	-10.9836
▁들지	-10.9837
▁으사	-10.984
▁없어가	-10.9841
▁대기	-10.9844
▁실력이	-10.9847
기나	-10.9848
▁할게	-10.9849
탱	-10.9851
▁잘할	-10.9853
▁단기	-10.9853
▁뚝	-10.9855
래서	-10.986
▁케이크	-10.9862
▁힘들었던	-10.9862
려면은	-10.9863
▁아부지를	-10.9866
▁생각했던	-10.9869
▁자제	-10.987
▁공부할	-10.9871
국이	-10.9872
▁토요일	-10.9876
▁짜리가	-10.9877
콜	-10.9878
▁바깥	-10.988
▁마스크를	-10.9881
움씨	-10.9881
인데도	-10.9882
▁괴롭	-10.9882
▁해이지	-10.9883
▁구찮	-10.9885
▁진고이	-10.9885
▁걔랑	-10.9886
봅서	-10.9888
▁꺼리가	-10.9889
▁먹긴	-10.9889
▁올라와	-10.989
▁없대	-10.9891
드라구예	-10.9891
▁좋께	-10.9895
스타	-10.9898
▁노동	-10.99
▁중에서도	-10.9902
▁머시	-10.9905
▁생각하먼	-10.9905
가루	-10.9906
▁맞춰서	-10.9906
▁폭력	-10.9912
▁셋이	-10.9916
▁사준	-10.9918
▁장면이	-10.9919
▁잘되	-10.9926
▁그러구	-10.993
어가지꼬	-10.9931
찮	-10.9931
따라	-10.9932
▁올렸	-10.9934
▁철이	-10.9934
죄	-10.9935
▁엠비티아이	-10.9936
▁블로그	-10.9936
▁동남아	-10.9936
▁걸루	-10.9937
부를	-10.9937
갱이	-10.994
▁요고도	-10.994
▁먼가를	-10.9942
▁먹으랜	-10.9945
▁묻어	-10.9949
▁보관	-10.995
픈	-10.9951
▁음식도	-10.9956
▁스타일은	-10.9957
▁밭이	-10.9957
▁냅두	-10.9959
▁예자는	-10.9965
▁한달	-10.9969
표를	-10.997
▁냉장고에	-10.997
▁좋겠는데	-10.9971
▁단지	-10.9972
▁관한	-10.9972
▁부담이	-10.9973
▁키우고	-10.9974
▁몸무게	-10.9978
라든둥	-10.9979
▁건지를	-10.9981
▁정보를	-10.9982
▁지내고	-10.9982
▁점은	-10.9983
▁그러잖아	-10.9983
▁겨울은	-10.9984
먹을	-10.9985
▁생산	-10.9985
밍	-10.9993
▁않안	-10.9993
▁쩨일	-10.9993
▁쭐어들	-10.9993
▁좋겄쇼	-10.9993
▁저으기	-10.9993
▁채널	-10.9995
▁없었는디	-10.9996
▁잘한	-10.9997
▁대즙	-10.9998
▁아직은이	-10.9998
▁솜씨	-10.9999
▁웃어	-11
▁태풍	-11.0002
▁이삼	-11.0003
실에	-11.0005
▁미련	-11.0007
▁바리	-11.0009
▁강아지가	-11.0012
▁시험을	-11.0013
▁물고기	-11.0014
▁정지	-11.0017
▁샤	-11.0019
▁결혼하	-11.002
▁있었지	-11.0021
▁올린	-11.0021
▁마련	-11.0023
▁놈은	-11.0024
▁모냥이	-11.0031
해주는	-11.0032
기사	-11.0038
▁멩	-11.0038
▁동생이	-11.0039
▁봥	-11.0039
▁먹어난	-11.0039
▁날아	-11.004
▁왔대이	-11.0041
▁그냐면	-11.0041
▁좋드라고	-11.0042
▁독일	-11.0043
에서느	-11.0046
▁촌에	-11.0047
▁이용하	-11.0048
▁데느	-11.0049
쭉	-11.0049
▁생각핸	-11.005
▁필라테스	-11.005
▁즐길	-11.005
▁초등학생	-11.005
▁잘생겼	-11.005
총	-11.005
▁접어	-11.0052
▁극복	-11.0053
▁어맀	-11.0054
▁일일	-11.0054
보면은	-11.0055
▁생견	-11.0056
풀이	-11.0056
뱅이	-11.0056
▁진심	-11.006
▁아참	-11.0061
▁오라바이는	-11.0062
▁모르겄네	-11.0062
세를	-11.0062
▁하라구	-11.0066
▁그랬을	-11.0068
▁굿	-11.0068
▁보니까네	-11.007
▁행님	-11.0074
▁기다	-11.0074
▁잘해는	-11.0075
거리고	-11.0077
봐서	-11.0078
▁가불	-11.0081
▁환장	-11.0082
▁거짓	-11.0083
▁아니고	-11.0083
▁기자	-11.0088
▁우리나라가	-11.0091
▁되죠	-11.0091
▁설레	-11.0091
더라고잉	-11.0091
▁페이	-11.0096
폰	-11.0099
▁대사	-11.01
▁오난	-11.01
▁가가주	-11.0101
▁힘드나	-11.0102
▁콜	-11.0103
하셔	-11.0104
바지	-11.0106
▁엄따고	-11.0107
▁케익	-11.0107
▁가차이	-11.0109
▁학과	-11.0115
▁결국에는	-11.0117
▁돼가꼬	-11.0119
▁얼라	-11.0121
▁했잖여	-11.0122
언니	-11.0126
▁가이도	-11.0128
▁화나	-11.0128
다보면	-11.0129
▁먹으난	-11.0131
▁놀랜	-11.0134
▁필요할	-11.0134
▁삶아	-11.0136
▁한쪽	-11.0136
▁시케	-11.0137
녠	-11.0138
▁가잰	-11.0141
하라고	-11.0141
▁선물로	-11.0143
▁중요하다	-11.0144
▁전까지	-11.0147
▁힘들주게	-11.0148
▁줌	-11.015
으셨	-11.0152
▁저때	-11.0153
▁우울	-11.0154
▁계셔	-11.0155
▁지식	-11.016
멩	-11.016
▁김에	-11.0162
▁체력이	-11.0162
▁샐러드	-11.0164
▁당뇨	-11.0165
▁우리나래이	-11.0165
▁일어난	-11.0166
▁막걸리	-11.0167
▁말고도	-11.0168
이었나	-11.0168
괴기	-11.017
▁부인	-11.0171
인가요	-11.0171
▁검사를	-11.0172
▁시작핸	-11.0175
▁힘들구	-11.0175
▁도와줄	-11.0176
▁발써	-11.0176
▁거그도	-11.0176
▁아빠도	-11.0183
▁음료수	-11.0185
들과	-11.0185
▁웅	-11.0186
▁에미	-11.0186
▁친구덜	-11.0187
▁왔지	-11.0188
▁같다라	-11.0188
▁고맙다	-11.0188
▁크구	-11.0189
▁내서	-11.0191
할때	-11.0191
▁그러제	-11.0193
▁부려	-11.0197
▁오형	-11.0198
▁게니까	-11.0199
▁먹어서	-11.0201
▁아덜을	-11.0209
▁기구나	-11.0209
▁오머	-11.0214
▁선수들	-11.0215
▁양보	-11.0215
▁났다	-11.0218
▁비느	-11.0221
▁쌓이	-11.0222
▁헜더니	-11.0222
쳔	-11.0222
▁그짓말	-11.0222
▁사이트	-11.0222
▁완성	-11.0222
▁그러니께	-11.0223
▁다녀오	-11.0223
▁관계가	-11.0225
▁꾸며	-11.0227
▁많아가지고	-11.0229
▁사먹	-11.023
▁몰르느	-11.0231
더라두	-11.0231
시장	-11.0232
▁목강	-11.0233
났다	-11.0237
▁어마이가	-11.0237
▁즌화두	-11.0237
▁묶어	-11.0239
▁가셨	-11.0239
▁많애서	-11.024
▁머이하는	-11.024
▁해주세요	-11.0242
▁있었사	-11.0242
▁먹어봐	-11.0243
▁할마시가	-11.0245
▁성향	-11.0245
놨어	-11.0247
▁뺄	-11.0249
▁구입	-11.0251
거에요	-11.0252
▁말이제	-11.0253
▁되사	-11.0255
▁혈	-11.0255
▁난리가	-11.0256
▁받기	-11.0258
드러	-11.0259
▁별거	-11.0262
▁나가야	-11.0263
▁부러워	-11.0264
▁앵간	-11.0264
▁지지	-11.0265
▁아세요	-11.0266
▁해보자	-11.0266
여행	-11.0266
▁의자	-11.0267
▁죄송	-11.0268
▁친구들한테	-11.0273
▁어어	-11.0273
즙	-11.0275
하더라고	-11.0275
금이	-11.0276
▁이년	-11.0277
▁중헉교	-11.028
▁귀여운	-11.0281
▁았다가	-11.0282
컨	-11.0283
▁졌	-11.0283
▁있으시	-11.0283
▁구조	-11.0284
▁읽었	-11.0285
▁찾아봐	-11.0286
▁싸장님	-11.0286
▁있지만으	-11.0288
▁나으에	-11.0292
▁정해져	-11.0295
▁좋아햐	-11.0296
▁일주일이	-11.0297
▁돌아가는	-11.0298
▁좋아해가	-11.0298
▁필기	-11.0299
▁미용	-11.03
▁이러는	-11.0301
으까	-11.0301
▁따뜻	-11.0303
했고	-11.0303
▁남친	-11.0306
볼려고	-11.0306
▁팽	-11.0306
▁모래	-11.0308
▁우리집이	-11.0308
▁들어가고	-11.0309
▁여자애	-11.0312
▁이바구를	-11.0313
▁맞네	-11.0313
▁들렁	-11.0314
▁해주시	-11.0314
▁과장	-11.0319
▁했었거든	-11.0322
▁안핸	-11.0327
보지	-11.0328
▁벗어나	-11.0329
▁연락이	-11.0335
▁준비해	-11.0336
칫	-11.0339
▁말하자믄	-11.0339
▁즌쟁	-11.0339
▁모르겠사	-11.0339
낀	-11.034
▁거절	-11.0341
▁알아듣	-11.0342
▁교회를	-11.0343
맛이	-11.0344
▁할어머이	-11.0344
▁먹었다	-11.0344
집에서	-11.0344
▁심장	-11.0345
▁양쪽	-11.035
▁아이나	-11.0351
▁종목	-11.0352
▁좋았을	-11.0354
▁용기	-11.0355
▁잡히	-11.0357
▁따뜻해	-11.0362
▁부족한	-11.0363
▁나지	-11.0365
▁빨라	-11.0368
▁싸운	-11.037
이었는데	-11.0371
▁북한	-11.0374
▁시설	-11.0375
▁어멍도	-11.0376
▁년도	-11.0376
▁귀가	-11.0376
▁웬수	-11.0379
엄는	-11.0379
▁가네들	-11.0381
▁교사	-11.0385
만에	-11.0387
말고	-11.0388
▁갔단	-11.0391
▁선임	-11.0391
▁빼야	-11.0393
▁좋아가꼬	-11.0393
▁먹어신디	-11.0393
▁않으믄	-11.0394
▁겨론하	-11.0395
▁건가요	-11.0396
▁오랍드리	-11.0397
▁남자들	-11.0398
▁가맨예	-11.0398
▁어머야라	-11.0398
▁편이에예	-11.0399
▁펜션	-11.0399
▁쉰	-11.0401
▁상태가	-11.0402
거랜	-11.0404
▁동료	-11.0406
▁대장	-11.0406
▁하대	-11.0407
딴	-11.041
▁와요	-11.0411
이었다	-11.0413
▁썸	-11.0415
▁한나를	-11.0415
▁아니예요	-11.0416
▁길거리	-11.0417
▁은제	-11.0418
▁누구나	-11.0419
▁흘러	-11.042
시녜	-11.0423
허믄	-11.0423
▁가까	-11.0425
거냐	-11.0428
▁고려	-11.0429
▁불쌍한	-11.0431
▁사람들이랑	-11.0432
다냐	-11.0435
▁쩌번이	-11.0436
▁알바생	-11.0437
▁전문가	-11.0438
▁제목	-11.0441
▁회사에서	-11.0442
성은	-11.0443
▁먹응께	-11.0443
▁학교에	-11.0446
▁상하	-11.0447
▁나이를	-11.0448
▁이후에	-11.0448
▁많은지	-11.0448
▁낀	-11.0454
▁부서	-11.0455
늠	-11.0457
▁다혈질	-11.0457
▁태어났	-11.0457
▁사춘기	-11.0457
▁지나믄	-11.0457
▁안타까운	-11.0459
▁항공	-11.046
▁강께	-11.046
▁맨들노	-11.0461
▁오랜만이	-11.0461
뚱	-11.0462
▁실습	-11.0463
▁있응께	-11.0464
▁불을	-11.0468
▁알았지	-11.0468
▁샘	-11.0471
▁잘난	-11.0471
▁절댜	-11.0472
▁누이	-11.0473
▁헹부	-11.0473
보민	-11.0475
▁개념	-11.0476
▁추미	-11.0477
▁올래느	-11.0481
▁싱야	-11.0481
▁가자구	-11.0482
▁있겄	-11.0484
▁술도	-11.0484
▁카는지	-11.0487
▁퍽데기	-11.0487
▁불편해	-11.0487
▁보내구	-11.0487
내가	-11.0488
▁몸매	-11.0489
▁소릴	-11.0489
▁양반	-11.0489
▁키도	-11.0492
▁끝나는	-11.0494
▁텐디	-11.0496
▁구해	-11.0496
▁가져와	-11.05
개월	-11.05
야요	-11.0501
▁다가오	-11.0505
▁어려웠	-11.0509
▁지르	-11.051
▁엄마는	-11.0511
었구	-11.0511
▁일요일	-11.0515
▁레시피	-11.0516
▁오랫동안	-11.0516
▁핵꾜	-11.0516
▁했뜨니	-11.0516
▁호렝이담배피우던시절에는	-11.0516
첩	-11.0516
▁없게	-11.0516
실을	-11.0517
▁해놓	-11.0517
▁전자	-11.052
▁경우엔	-11.0525
▁쟈	-11.0525
▁자랐	-11.0526
▁유행이	-11.0528
치다	-11.0529
▁수리	-11.0531
▁그마	-11.0534
▁들어올	-11.0536
▁대가	-11.0538
▁살민서	-11.0539
▁피티	-11.0539
▁싸고	-11.0541
졌던	-11.0541
▁한국에	-11.0542
▁정식	-11.0543
이드	-11.0544
▁사정이	-11.0544
▁핏	-11.0544
▁부담스럽	-11.0546
재나	-11.0546
▁이야기하	-11.0546
▁쓰기	-11.0547
▁주차장	-11.0548
▁겨론할	-11.055
▁땀이	-11.055
▁아닌데	-11.0552
▁닦아	-11.0552
▁하겠다	-11.0557
▁걱정되	-11.0558
▁다행인	-11.056
▁구분	-11.056
사람이	-11.0561
▁조용	-11.0563
▁드릴까요	-11.0566
▁올라가는	-11.0568
▁야단	-11.0568
▁계셨	-11.057
▁않앴	-11.0573
▁포도	-11.0574
▁누군지	-11.0574
▁가치가	-11.0576
▁에어컨	-11.0576
▁초딩학교	-11.0576
▁실지루	-11.0576
▁잘하느	-11.0577
▁무거운	-11.0577
장님이	-11.0577
▁준다구	-11.0579
▁어다	-11.058
닭	-11.0581
▁얼어져	-11.0582
▁야간	-11.0584
▁주믄	-11.0584
▁접근	-11.0584
만큼은	-11.0585
가믄	-11.0588
▁행복한	-11.0588
▁모르켜	-11.0589
▁음식점	-11.0589
▁내느	-11.059
▁니들이	-11.0592
▁이빨	-11.0592
▁긍	-11.0594
▁고다음에	-11.0599
▁가볼	-11.0605
▁딸려	-11.0606
▁벵원에서	-11.0608
▁친구들을	-11.0611
▁선상	-11.0613
▁좋았느	-11.0615
차를	-11.0617
▁고마워요	-11.0622
한다꼬	-11.0623
권이	-11.0623
아부지	-11.0625
▁살암	-11.0625
▁언니랑	-11.0629
▁느낌도	-11.063
슥	-11.0631
▁엄마도	-11.0631
▁보께	-11.0634
▁낭구	-11.0634
▁대개	-11.0636
▁나떠러	-11.0636
▁부작용	-11.0636
활	-11.0641
휴	-11.0642
▁소재	-11.0645
주지	-11.0645
선생님	-11.065
▁충전	-11.065
싸움	-11.0651
▁여행도	-11.0652
▁늘어나	-11.0653
▁생각한	-11.0654
▁삶이	-11.0655
▁쓰겄	-11.066
▁오바	-11.0661
▁야자	-11.0663
▁신비	-11.0663
▁주소	-11.0667
킬	-11.0669
▁몰랐는디	-11.0671
▁하드	-11.0671
▁됐든	-11.0672
돌이	-11.0672
▁조리	-11.0673
▁달달	-11.0675
▁빡세	-11.0676
▁자살	-11.0678
▁살살	-11.0678
▁따래이	-11.0681
▁이서난	-11.0683
▁않애두	-11.0685
▁장가	-11.069
▁요소	-11.069
신다	-11.069
▁배를	-11.069
▁다쳤	-11.069
▁매우	-11.0692
▁입맛	-11.0693
실거	-11.0696
▁자금	-11.0697
카부댄	-11.0697
▁됩니까	-11.0698
▁있거등	-11.07
▁고를	-11.0701
▁잡혀	-11.0701
꿀	-11.0702
▁나믄은	-11.0704
▁먹여	-11.0707
▁가깝	-11.0707
드릴게요	-11.0707
▁집에서	-11.0713
▁마침	-11.0713
▁댕겨야	-11.0713
▁앞을루	-11.0716
▁안될	-11.0717
▁스트레스가	-11.0717
▁아니랜	-11.0719
▁지두	-11.0721
▁국수	-11.0723
▁범	-11.0726
▁하시우	-11.0726
▁멋있어	-11.0727
▁야기가	-11.0729
▁이르는	-11.0731
주마는	-11.0731
▁괜찮다	-11.0732
분들이	-11.0733
▁자식이	-11.0733
실거라	-11.0734
장창	-11.0736
동에	-11.0747
▁그러세요	-11.0747
▁몸은	-11.0747
▁아니지만	-11.0747
▁곳은	-11.0748
▁실러레	-11.0749
특	-11.0752
▁찍을	-11.0753
실래요	-11.0756
▁밍구수라	-11.0758
▁쬐끄만	-11.0758
▁에어팟	-11.0758
▁호나씩	-11.0758
▁기어	-11.0758
▁깜빡	-11.0758
▁중학생	-11.076
▁읎지만	-11.076
▁어여	-11.0761
▁운이	-11.0761
카느	-11.0766
▁쪽으루	-11.0766
▁웹툰을	-11.0767
▁고정	-11.0768
으라	-11.0768
▁가거나	-11.0769
▁서런	-11.077
웨이	-11.0773
▁볼링	-11.0775
▁훌륭한	-11.0776
▁아조	-11.0781
▁미루	-11.0781
▁댕길심	-11.0781
▁같거든	-11.0783
▁장난감	-11.0785
▁아맹	-11.0785
▁하나두	-11.0786
드린	-11.0791
으로만	-11.0791
▁방식	-11.0794
▁되켜	-11.0795
림이	-11.0804
는데도	-11.0805
▁왔던	-11.0809
법을	-11.0811
▁좋아진	-11.0812
야겄다	-11.0813
▁생각했는데	-11.0813
해그네	-11.0814
▁가세요	-11.0814
딘	-11.0817
▁때마다이	-11.0818
▁박아	-11.0821
▁뚱뚱	-11.0821
▁못살	-11.0822
▁기획	-11.0823
▁운동장	-11.0828
앗	-11.083
▁찾으	-11.0835
▁어딘	-11.0835
▁매력이	-11.0835
▁그닥	-11.0837
▁찾아봤	-11.084
▁들어가믄	-11.0843
것이	-11.0844
▁않았다	-11.0848
▁되서	-11.0849
벙	-11.0851
▁박사	-11.0854
▁이라면은	-11.0857
▁돈으루	-11.0861
학생	-11.0864
▁촉	-11.0864
▁그렇잖아	-11.0865
웨	-11.0866
▁사람이라	-11.0868
▁이랜	-11.0869
방에서	-11.0871
▁팔재	-11.0874
▁딸기	-11.0876
▁가긴	-11.0877
▁구매	-11.0878
▁섞어	-11.0881
▁#	-11.0881
해줄	-11.0882
▁드라이브	-11.0882
▁날라가	-11.0882
▁빨아	-11.0886
▁마라탕	-11.0886
▁자석은	-11.0888
회장	-11.089
▁사람인디	-11.0891
▁좋아하긴	-11.0893
▁좋겐	-11.0894
▁언니야가	-11.0895
당한	-11.0896
▁행정	-11.0898
▁듣지	-11.0899
십니다	-11.0899
▁일굽	-11.0902
▁또래	-11.0903
▁음청	-11.0903
▁티비를	-11.0903
▁청년	-11.0904
▁윗	-11.0905
니대이	-11.0907
▁장마	-11.0914
▁사건이	-11.092
▁없드라구	-11.0921
▁해봐야	-11.0921
▁배는	-11.0921
▁좋드라	-11.0921
▁정확	-11.0923
▁다음날	-11.0924
주가	-11.0926
둥이	-11.0928
▁되제	-11.0928
▁당연하	-11.0929
▁자매	-11.0929
▁가득	-11.0934
▁구석	-11.0935
▁째증	-11.0936
다든가	-11.0937
▁살아있	-11.0939
▁퇴직	-11.0941
▁됩니다	-11.0943
▁공부하는	-11.0943
닉	-11.0943
▁규칙	-11.0943
▁마탕가지	-11.0943
▁목걸이	-11.0944
▁어매랑	-11.0944
▁몸도	-11.0944
▁착각	-11.0945
▁너무나	-11.0946
▁일인	-11.0946
▁댄스	-11.0947
▁헷	-11.0948
▁강사	-11.0949
땡	-11.0953
▁일하고	-11.0953
콘	-11.0954
놩	-11.0954
▁소고기	-11.0955
▁옷들	-11.096
선게	-11.096
▁한대	-11.0961
▁연주	-11.0961
적으루	-11.0963
▁하니까	-11.0964
▁복수	-11.0967
▁그때부터	-11.0968
▁당했	-11.0969
▁드는디	-11.097
▁좀비	-11.0972
▁소름	-11.0974
▁근강하	-11.0974
▁안에가	-11.0975
▁일들이	-11.098
정한	-11.0984
굼	-11.0992
▁사위	-11.0993
기러레	-11.0993
▁뻘	-11.0995
▁대문	-11.0997
마리	-11.1
▁싸우는	-11.1001
▁수술을	-11.1001
▁낳은	-11.1006
▁아이패드	-11.1006
▁콤퓨터	-11.1006
▁탄수화물	-11.1006
렬	-11.1006
▁저장	-11.1006
▁신뢰	-11.1006
상에	-11.1008
▁성적이	-11.1008
▁퍼센트	-11.1008
▁그래고	-11.1012
▁파악	-11.1014
▁책임감	-11.1014
듣	-11.1014
▁대해그넹	-11.1014
섬	-11.1017
▁인생을	-11.1017
▁파리	-11.1018
▁거자녀	-11.102
▁사다가	-11.102
▁있도록	-11.102
▁씻고	-11.102
버리는	-11.1021
▁생각에는	-11.1027
▁원인가	-11.1028
▁신호	-11.1029
▁야이는	-11.1031
▁하나의	-11.1035
▁아일	-11.104
항께	-11.1041
▁제안	-11.1042
▁이러이까	-11.1044
▁뱅	-11.1046
▁복잡하	-11.1047
▁가능	-11.1049
▁인연이	-11.1051
▁시절에	-11.1052
▁벌어서	-11.1054
비는	-11.1056
▁계기가	-11.1059
▁가루	-11.1063
진이	-11.1063
▁순수	-11.1063
▁등록	-11.1065
▁있거든요	-11.1065
▁수영을	-11.1066
허영	-11.1066
▁지난번에이	-11.1068
▁운전면허	-11.1068
▁오도바이	-11.1069
▁홍콩	-11.1069
▁맨드는	-11.1071
▁재미지게	-11.1073
▁있겄지만	-11.1077
▁고랐	-11.1078
▁소문이	-11.108
▁대학원	-11.1081
퉁	-11.1082
▁초코	-11.1082
▁집착	-11.1082
교육	-11.1089
▁재밌었던	-11.1091
▁차별	-11.1092
▁재밌을	-11.1092
▁싫고	-11.1093
▁오일	-11.1095
▁하날이	-11.1096
▁했지만	-11.1097
▁가족들이	-11.1099
▁이마	-11.1102
했으면	-11.1103
▁씻어	-11.1107
▁예방	-11.1107
혀서	-11.1109
▁쪼꼬만	-11.1109
▁걸엉	-11.1111
지마는	-11.1114
▁하야지	-11.1116
▁발목	-11.1118
▁얘기는	-11.1124
▁붙었	-11.1129
에게는	-11.1129
텔	-11.113
▁멋지	-11.113
▁칭구들	-11.1132
▁특벨히	-11.1132
셈	-11.1132
▁포인트	-11.1132
▁사모님	-11.1132
▁느석이	-11.1134
▁나가서	-11.1136
▁돌고	-11.1136
▁넘어갈	-11.1138
▁유치	-11.1139
▁애기는	-11.1139
▁마디	-11.114
앤	-11.1142
▁상의	-11.1142
▁돌아왔	-11.1143
렇	-11.1143
▁콧	-11.1145
▁사와	-11.1149
냐믄	-11.115
▁찜	-11.1156
▁짖	-11.1158
▁하드라도	-11.1158
▁짐을	-11.1158
▁없어진	-11.1159
▁않은데	-11.1159
▁지랄	-11.1166
▁앉으	-11.1166
▁먹나	-11.1168
▁그랜	-11.1171
▁빨랑	-11.1175
▁당하	-11.1182
버스	-11.1184
▁늦은	-11.1186
▁반갑	-11.1187
▁어머이는	-11.119
▁근강에	-11.1191
▁미니	-11.1193
▁움직이는	-11.1193
▁계획이	-11.1195
▁글렀느	-11.1195
▁블랙	-11.1196
에프	-11.1197
줍서	-11.1197
▁슬퍼	-11.1197
▁정시이	-11.1197
▁받어	-11.1198
▁건강에	-11.1198
▁누굴	-11.12
▁설거지	-11.12
했대이	-11.12
이라든가	-11.1201
누리	-11.1201
▁혜	-11.1202
▁우울증	-11.1202
▁알다시피	-11.1202
롭게	-11.1203
▁쪼꼼씩	-11.1205
▁신중	-11.1206
▁최소한	-11.1207
▁댕긴	-11.1208
▁아들들도	-11.1208
쥐	-11.121
▁냄비	-11.1211
▁통통	-11.1211
▁매번	-11.1213
▁말랐	-11.1216
▁넣었	-11.1217
▁뭐라고이	-11.1217
▁온도	-11.1218
▁외식	-11.1219
▁이번엔	-11.1221
걸러레	-11.1224
종이	-11.1228
저히	-11.1232
▁핵교에서	-11.1234
▁땅이	-11.1235
▁입양	-11.1235
안에	-11.1236
란게	-11.1241
▁노시	-11.1242
▁그전이	-11.1242
▁쿨	-11.1245
▁되이까	-11.1247
▁피우	-11.1249
▁좋아해요	-11.1253
▁간대이	-11.1255
▁이쁘다	-11.1256
▁컨	-11.1256
▁빠지는	-11.1259
싯	-11.126
▁선호하는	-11.126
▁좋아했었	-11.1263
▁핸폰	-11.1263
▁세월	-11.1263
▁감서	-11.1264
▁사는디	-11.1271
많	-11.1273
팍	-11.1274
낙	-11.1274
우가	-11.1275
▁없댄	-11.1278
▁줘요	-11.1279
▁고무	-11.128
▁통시	-11.128
▁있을랑가	-11.1283
▁입으믄	-11.1286
▁어르신	-11.1293
▁이곳	-11.1293
▁차로	-11.1293
▁한시간	-11.1294
▁선수가	-11.1294
백이	-11.1296
▁전통	-11.1296
져야	-11.1297
▁뜨는	-11.1299
▁갔나	-11.13
▁아프믄	-11.1305
▁카머	-11.1308
▁온다구	-11.1309
▁호주	-11.131
전을	-11.1312
▁식물	-11.1314
▁먹겠	-11.1316
▁닮고	-11.1317
▁곳을	-11.1319
▁조언	-11.1321
▁절루	-11.1323
▁우는	-11.1323
▁장비	-11.1324
▁맞재비	-11.1324
▁매한가지다	-11.1324
▁죄송합니다	-11.1325
▁넘들	-11.1325
▁자신을	-11.1326
▁춤추	-11.1326
▁팁	-11.1327
▁잔못	-11.1327
▁말라꼬	-11.1328
▁우리끼리	-11.1329
▁물러	-11.1329
▁굳	-11.133
줌	-11.133
져게	-11.133
▁생각행	-11.133
▁방법은	-11.1331
▁사왔	-11.1331
벤	-11.1332
뒤	-11.1338
▁배우들	-11.1338
턴	-11.1341
렸던	-11.1342
▁취미로	-11.1343
복이	-11.1343
▁아쉽긴	-11.1347
▁받아주	-11.1349
▁올릴	-11.135
▁넘들이	-11.1354
▁병원에서	-11.1356
▁아나고	-11.1357
▁들어봐	-11.136
▁꼬추	-11.1363
으내	-11.1363
▁담당	-11.1363
▁심심하	-11.1365
▁좋지를	-11.1366
▁시간씩	-11.1369
하이	-11.1371
▁알아봤	-11.1374
지말고	-11.1378
꺼라	-11.1378
▁삽	-11.1384
▁튀어	-11.1385
멈	-11.1389
▁똑바루	-11.1389
▁프로젝트	-11.1389
▁왜냐하믄	-11.1389
▁신혼여행	-11.1389
▁지집아	-11.1389
▁먼첨	-11.139
▁찾아가꼬	-11.139
▁채우	-11.139
큰게	-11.1391
▁놀러가	-11.1391
▁먹어여	-11.1396
▁퇴원	-11.1398
▁뜨신	-11.1399
▁잡은	-11.14
▁대하	-11.1401
▁이겨	-11.1402
자들은	-11.1403
▁싶었어	-11.1403
▁됐네	-11.1407
▁충분	-11.1408
▁양식	-11.1408
▁깍	-11.1408
▁욱	-11.141
▁펜지	-11.141
▁아이라고	-11.1411
▁면도	-11.1412
▁했지를	-11.1414
▁가야지	-11.1417
▁변했	-11.1419
▁아사리	-11.1421
▁왜사	-11.1425
▁이서부난	-11.143
▁나와가	-11.1432
▁시도	-11.1433
▁지꺼	-11.1433
▁햄수다	-11.1435
▁왔네	-11.1438
▁걔를	-11.1438
▁원인	-11.1438
▁도둑	-11.1441
▁싸가지	-11.1441
▁다친	-11.1444
해질	-11.1445
▁내놔	-11.145
▁낮아	-11.1453
▁그릏지만	-11.1454
▁뺏어	-11.1454
▁앨범	-11.1454
쳥	-11.1454
▁기집애	-11.1454
▁요자게	-11.1455
▁기준이	-11.1455
▁주시겠습니까	-11.1455
▁읽을	-11.1456
▁뭣하러	-11.1457
▁작가가	-11.1457
▁남자친구가	-11.1458
▁닫아	-11.146
▁실례	-11.146
▁고걸로	-11.1461
빛	-11.1465
▁에프	-11.1466
▁고때	-11.1466
하당	-11.1467
만히	-11.1467
▁조각	-11.1467
▁우승	-11.1468
▁해갖구	-11.1471
촉	-11.1471
합니대이	-11.1471
▁정도가	-11.1472
해주고	-11.1474
▁있겠지	-11.1476
▁찍으	-11.1476
▁이애기를	-11.1478
▁느그들	-11.148
▁이십오	-11.1481
▁와가주꼬	-11.1481
▁운명	-11.1485
▁새박	-11.1485
▁느면	-11.1487
▁봤거든	-11.1491
네요잉	-11.1493
▁없었는데	-11.1493
▁영상을	-11.1495
▁조심해	-11.1497
▁미안하다	-11.1502
켰	-11.1505
▁조개	-11.1507
▁겡영	-11.1507
▁길러	-11.1511
▁놀이	-11.1512
▁결말	-11.1512
▁정도느	-11.1513
▁인식이	-11.1514
▁됐사	-11.1514
했습니다	-11.1517
져가지고	-11.1519
▁이무가	-11.152
▁쓰게	-11.152
▁낳을	-11.152
▁짬뽕	-11.152
▁여기저기	-11.152
▁셔츠	-11.152
▁어때요	-11.152
▁가라앉	-11.152
▁혔다고	-11.1521
▁물어보는	-11.1527
▁했드냐	-11.1527
▁오면은	-11.1527
▁참여	-11.1528
▁있으까	-11.1531
▁들언가	-11.1531
괴	-11.1532
▁따뜻하	-11.1536
▁편안	-11.1537
▁않드라고	-11.1539
▁지치	-11.154
했다는	-11.1541
▁먹응께로	-11.1543
▁출장	-11.1544
▁없었나	-11.1549
▁근다	-11.155
▁얼어	-11.1552
▁괜찮아요	-11.1555
▁잇	-11.1556
▁선물은	-11.156
잖니	-11.1564
해가꼬	-11.1565
▁만나자	-11.1566
▁사내	-11.1567
지마느	-11.1568
불어	-11.157
▁비해가	-11.1577
▁했지마는	-11.1577
텀	-11.1577
▁피곤한	-11.1579
▁그러네	-11.1579
시대	-11.158
▁게매	-11.1583
딱지	-11.1586
▁깊게	-11.1586
▁울우덜두	-11.1586
▁짧아	-11.1586
▁주행	-11.1586
▁왜냐머	-11.1587
▁글자나	-11.1587
▁굴러	-11.159
▁수상	-11.159
▁해놔	-11.1592
▁승질이	-11.1598
▁볶아	-11.1601
▁디지	-11.1602
▁서울에	-11.1605
꽁	-11.1606
▁잘못된	-11.1607
영화	-11.1607
▁맞는디	-11.1612
▁마시오	-11.1613
▁소통	-11.1614
▁없기	-11.1615
▁즌화가	-11.162
▁덴	-11.1622
▁좋았는디	-11.1624
거등	-11.163
▁줄은	-11.1633
▁관광지	-11.1634
러스	-11.1634
한지	-11.1638
▁대형	-11.1639
▁디비	-11.1639
▁냄새가	-11.1641
▁힘들지	-11.1643
▁특이	-11.1648
▁쩡도는	-11.1653
디여	-11.1653
▁쓰러지	-11.1654
맹이	-11.1655
▁괴롭히	-11.1656
▁어떵해	-11.1658
▁꼬라지	-11.1659
▁관절	-11.166
보기	-11.166
▁신혼	-11.1661
▁놀구	-11.1661
▁쏘주	-11.1661
▁거그를	-11.1662
▁냄	-11.1664
▁방을	-11.1664
▁웃는	-11.1664
▁시원	-11.1666
▁친구들끼리	-11.1666
▁후반	-11.1668
벵이	-11.1673
솥	-11.1673
▁가볍게	-11.1673
▁팔천	-11.1673
▁조심하라우	-11.1674
▁같드라꼬	-11.1679
▁어렵다	-11.168
▁분들도	-11.1681
▁받으문	-11.1681
▁내린	-11.1681
▁처음으로	-11.1683
네예	-11.1683
▁싫었	-11.1685
▁막아	-11.1685
▁삼일	-11.1687
▁주먹	-11.1688
놈이	-11.169
▁되잖여	-11.1691
▁이층	-11.1691
▁따루	-11.1692
과는	-11.1698
▁구름	-11.1701
▁개나	-11.1703
▁요번	-11.1704
부렀어	-11.1704
▁물건이	-11.1705
▁넘겨	-11.1706
▁남자애들	-11.1706
▁일억	-11.1707
▁하시구	-11.1708
▁머슴아는	-11.1708
뜨리	-11.171
▁낭비	-11.171
▁영행	-11.171
▁맛있었	-11.171
▁사람마다	-11.1715
▁파도	-11.1715
새끼	-11.1716
▁클래식	-11.172
▁애초에	-11.172
▁언젠가	-11.172
▁트롯	-11.1721
▁목욕	-11.1721
▁엑스	-11.1721
▁김치를	-11.1722
▁미역국	-11.1723
▁몬딱	-11.1723
▁쌤은	-11.1724
▁고사리	-11.1726
▁이상해	-11.1727
▁앵	-11.1727
▁아방도	-11.1729
▁자신감	-11.173
하겠다	-11.173
▁정도의	-11.1731
▁있었고잉	-11.1732
▁미안해	-11.1732
▁체중	-11.1733
▁신랑은	-11.1734
▁여러분	-11.1739
▁인원	-11.1739
▁생각엔	-11.174
뼈	-11.1741
▁잠만	-11.1741
▁시커	-11.1745
▁없는데	-11.1751
▁적용	-11.1752
▁들엉	-11.1753
▁마씸	-11.1758
▁어여게	-11.1759
▁갚아	-11.1763
▁즌화하라우	-11.1764
▁남자들은	-11.1765
▁작정	-11.1767
▁경력	-11.1768
▁어떻게	-11.1768
는것도	-11.1769
▁도라	-11.1775
▁급하	-11.1777
▁번쯤	-11.1777
▁않지만	-11.1782
▁정도는	-11.1783
▁빌리	-11.1784
릭	-11.1787
▁갠찮아	-11.1788
▁똔똔이	-11.1788
▁멸치	-11.1788
▁왜요	-11.1789
▁알러지	-11.179
나난	-11.1792
▁했으이까	-11.1792
▁여름은	-11.1794
▁검정	-11.1796
▁어이가	-11.1799
▁후배	-11.18
구먼	-11.1806
▁무게	-11.1807
해영	-11.1808
▁같은데요	-11.1808
▁건께	-11.181
▁국밥	-11.1811
▁무순	-11.1811
▁멧	-11.1812
센터	-11.1812
▁자리가	-11.1812
▁금메	-11.1813
▁갈치	-11.1814
▁와라	-11.1815
▁주장	-11.1816
셍이	-11.1816
▁이짝	-11.1817
▁우리나라에서	-11.182
지민	-11.1824
래미	-11.1824
▁갔었는디	-11.1825
▁많았던	-11.1826
▁배고	-11.1826
▁죄다	-11.1827
▁프리	-11.1829
▁이래갖고	-11.183
▁끌려	-11.1832
▁향이	-11.1834
하다는	-11.1836
▁자석들	-11.1836
▁일월	-11.1837
해준	-11.184
었으문	-11.1845
▁말인지	-11.1845
▁학원을	-11.1846
▁인연	-11.1847
▁냉동	-11.1847
▁줜	-11.1848
▁아한테	-11.185
략	-11.185
▁일종	-11.1852
▁몰려	-11.1853
▁나니케느	-11.1856
▁며느리	-11.1856
▁시끄럽	-11.1856
▁오에스티	-11.1856
▁칭구는	-11.1856
▁자잔거	-11.1856
▁요금	-11.1856
▁으른이	-11.1856
부난이	-11.1856
▁개인적을루	-11.1859
▁떠올	-11.1861
▁이길	-11.1862
▁하겄다	-11.1863
▁그짝이	-11.1865
▁몇번	-11.1866
▁읎	-11.1867
▁말자	-11.187
▁가주고	-11.187
▁아니이까	-11.187
▁할려고	-11.187
▁듣다	-11.187
녀의	-11.187
▁보나	-11.1872
브렀	-11.1874
▁태우	-11.1875
크냐	-11.1875
▁불법	-11.1877
▁대만	-11.1877
넘	-11.1878
▁할때	-11.188
▁보예	-11.188
▁서방님	-11.1881
▁지낼	-11.1882
심을	-11.1883
▁편집	-11.1884
▁사줘	-11.1886
▁꽃을	-11.1886
▁아르바이트를	-11.1889
▁거잖어	-11.189
친다	-11.1894
▁아껴	-11.1897
▁멕여	-11.1897
▁삼년	-11.1897
▁지내는	-11.1898
▁기운	-11.1898
▁않느	-11.1899
▁말해주	-11.1901
▁좋아한	-11.1905
▁성향이	-11.1907
▁스토리가	-11.1909
▁갈라구	-11.1915
라기	-11.1916
▁물리	-11.1916
트리	-11.1918
▁말핸	-11.1919
롯	-11.1923
아빠	-11.1923
▁두번	-11.1923
윈	-11.1924
▁데련님	-11.1924
▁귀여워	-11.1924
▁즉어두	-11.1924
▁핵교에	-11.1924
▁손톱	-11.1926
▁예민한	-11.1926
▁교환	-11.1926
▁봉다리	-11.1928
▁갈아입	-11.1928
▁도덕	-11.1929
▁기뻐	-11.1929
▁섰	-11.193
▁오줌	-11.1934
▁조용하	-11.1935
▁얼굴도	-11.1935
▁콤플렉스가	-11.1939
▁톤	-11.194
▁끼라꼬	-11.1947
꼴	-11.1948
▁큰소리	-11.1949
▁채소	-11.1953
▁까불	-11.1956
▁그거루	-11.1957
으니깐	-11.1957
▁썽	-11.1957
텐디	-11.1958
▁케어	-11.1965
▁않네	-11.1966
▁몰래두	-11.1967
▁오른쪽	-11.1967
닐	-11.1969
▁편할	-11.1974
받았	-11.1974
▁편하께	-11.1975
▁없겠	-11.1976
▁마다	-11.1977
▁찌는	-11.1978
▁병원이	-11.1979
▁찾아오	-11.1981
▁귀한	-11.1986
▁때까장	-11.1992
▁또한	-11.1992
▁것인가	-11.1992
▁가이드	-11.1993
쇄	-11.1993
▁믿지	-11.1993
▁잊지	-11.1993
▁오징어	-11.1993
▁쟤가	-11.1994
▁곳에서	-11.1995
겨서	-11.1995
▁편이에유	-11.1995
▁냉거지	-11.1995
▁에휴	-11.1996
▁테스트	-11.1996
깽이	-11.2
▁읎잖아	-11.2002
싶은	-11.2002
▁먹엄	-11.2003
▁만나고잉	-11.2004
이에유	-11.2005
▁없어가지구	-11.2007
빤	-11.2008
띠기	-11.2008
▁어무이	-11.201
▁부산에	-11.2011
▁편이거든	-11.2012
▁이그는	-11.2013
▁아니께	-11.2016
▁글케	-11.2017
▁어떨까	-11.2018
다면서요	-11.2019
왔다	-11.202
오라	-11.2023
▁혼번도	-11.2027
권을	-11.2031
▁촘	-11.2032
▁하드라구요잉	-11.2033
▁아니주게	-11.2034
▁하노	-11.2034
▁드네	-11.2034
▁옆이서	-11.2035
▁없거든	-11.2035
시킬	-11.2037
▁엘지	-11.2037
줬어	-11.2039
▁고놈	-11.2041
▁여자들은	-11.2041
▁약속이	-11.2044
▁시까지	-11.2045
▁없던	-11.2046
▁안심	-11.2049
▁알어서	-11.2052
▁읽으	-11.2052
▁만났어	-11.2053
▁부모님들	-11.2054
▁기억하	-11.2054
▁바꼈어	-11.2055
랑게	-11.206
▁보름	-11.2062
▁잠깜만	-11.2063
▁훔쳐	-11.2063
▁그마만큼	-11.2064
▁그기야	-11.2071
▁형수	-11.2074
▁예민하	-11.2076
▁입술	-11.2076
허다	-11.2076
▁무시하	-11.2077
▁배구	-11.2078
▁그축	-11.2079
▁십팔	-11.2081
▁크지	-11.2082
▁이걸로	-11.2085
▁정기	-11.2085
난다	-11.2086
▁자료	-11.2087
▁느껴지는	-11.2091
▁입느	-11.2095
▁어렵게	-11.2096
▁보냐	-11.2099
▁감이	-11.2101
▁시작했어	-11.2103
▁있댜	-11.2103
▁만났을	-11.2103
▁모기	-11.2104
▁야외	-11.2104
▁불안하	-11.2106
▁어디가	-11.2106
▁생활비	-11.2106
▁맞으믄	-11.2107
▁시상에서	-11.2108
▁뻬	-11.2108
▁느네	-11.2109
▁얼구리을	-11.211
▁설정	-11.2113
▁가르치	-11.2115
▁거잖아요	-11.2115
▁상대방이	-11.2116
▁체질	-11.2116
▁재밌다	-11.2119
질러	-11.2121
▁막히	-11.2123
즐	-11.2132
▁엊그저께	-11.2133
▁머릿속	-11.2133
▁스페인	-11.2133
▁어거지루	-11.2133
▁해달라	-11.2133
▁가차운	-11.2133
▁수학여행	-11.2133
줄래	-11.2134
▁존경	-11.2136
▁묵어	-11.2136
▁취급	-11.2136
▁중요헌	-11.2137
▁증거	-11.2139
▁있그든예	-11.214
▁어멍안티	-11.2141
▁꿩	-11.2141
▁없었다	-11.2142
▁뽈	-11.2143
▁돕	-11.2143
▁몰래이	-11.2144
▁주변이	-11.2144
▁할라구	-11.2146
▁내려왔	-11.2148
섭	-11.2149
껍	-11.215
▁이뤄	-11.2151
▁수밖에	-11.2152
▁할망들	-11.2154
▁쉐	-11.2154
▁십분	-11.2154
▁조용한	-11.2157
▁나오지	-11.2157
▁없으면은	-11.2158
▁순간에	-11.2159
룰	-11.2159
▁항게	-11.2162
▁지들끼리	-11.2163
▁건강하	-11.2164
▁잠자	-11.2167
▁이전	-11.2168
▁할바이	-11.2169
▁이랬는디	-11.2169
▁바껴서	-11.2173
때도	-11.2176
▁떡을	-11.2176
▁이런께	-11.2176
▁운제부터	-11.2177
▁받으믄	-11.2178
▁생각해도	-11.2178
▁넘어서	-11.2182
▁말하구	-11.2183
스러웠	-11.2186
▁애정	-11.2191
▁꿈은	-11.2194
▁맛있드라구	-11.2195
▁드신	-11.2197
앴	-11.2198
▁허벅지	-11.2203
▁티켓	-11.2204
▁묵으러	-11.2204
▁이천십	-11.2205
▁정도믄	-11.2206
▁정확히	-11.2206
▁그라여	-11.2207
하는게	-11.2208
▁정도로이	-11.2209
▁대지	-11.2209
▁툭	-11.2212
▁부다	-11.2213
▁주름	-11.2215
▁같드라	-11.2215
▁취미가	-11.2216
▁싶습니다	-11.2219
▁소심하	-11.2223
▁아부지두	-11.2224
드려요	-11.2224
▁있걸랑	-11.2225
▁쪼끔은	-11.2227
▁시절이	-11.2228
▁축구를	-11.2229
▁바램에	-11.2229
숭	-11.2231
짠	-11.2231
▁저디	-11.2232
▁요새는이	-11.2232
▁하는거라	-11.2233
사람들	-11.2235
▁친절	-11.2236
▁들어가갖고	-11.2237
▁버렸어	-11.2237
▁듯이	-11.2237
▁가께	-11.2238
▁밥두	-11.224
▁이미지가	-11.2241
▁세탁기	-11.2241
▁상황을	-11.2241
▁표시	-11.2242
▁언니들	-11.2244
▁양심	-11.2245
꺼야	-11.2245
▁크림	-11.2246
봐신디	-11.2246
▁얘를	-11.2248
▁넣을	-11.2248
▁쓰시	-11.225
▁설마	-11.2253
▁부치	-11.2259
▁집안일	-11.2263
▁말라지	-11.2265
▁끝까지	-11.2266
▁종류의	-11.2268
▁고기를	-11.2269
▁있었을	-11.2272
▁두레기얜	-11.2274
▁강냉이	-11.2274
▁섭취	-11.2274
▁당해	-11.2275
▁엄싸요	-11.2275
기에느	-11.2276
▁공간이	-11.2276
▁실험	-11.2277
▁흐름	-11.2277
▁원체	-11.2278
▁구신	-11.2278
▁특별히	-11.2278
▁스키장	-11.2281
▁벌었	-11.2281
▁주제에	-11.2283
▁기본적으로	-11.2283
▁결혼해	-11.2285
▁있는거	-11.2287
▁밥먹	-11.2288
▁절에	-11.2288
▁일인지	-11.2289
▁태양	-11.2289
▁장갑	-11.2289
▁귀에	-11.2293
▁인도	-11.2293
▁와가주구	-11.2294
더마	-11.2295
▁경우에	-11.2298
▁한약	-11.2299
팩	-11.2303
쑥	-11.2303
▁지워	-11.2304
▁들어있	-11.2307
▁책은	-11.2308
▁사천	-11.2309
▁싫어해	-11.2311
▁하그든	-11.2311
▁있드라꼬	-11.2313
해봐	-11.2317
▁완벽	-11.2321
하진	-11.2328
▁감정을	-11.233
▁그람	-11.2331
▁못하믄	-11.2331
▁가격대	-11.2331
▁놀랬어	-11.2336
▁붙어있	-11.2337
▁영향	-11.2338
▁있거든예	-11.2339
▁상황에	-11.2342
▁몰랐어	-11.2344
▁그럈어	-11.2345
▁자존심	-11.2345
▁으외로	-11.2345
▁뻐리고	-11.2346
▁의외	-11.2346
▁허기가	-11.2347
▁아이템	-11.2347
▁옛	-11.2347
▁사람들한티	-11.2349
드렸	-11.235
드리고	-11.235
▁올라온	-11.235
▁인간이	-11.2351
▁있거덩	-11.2352
▁이해할	-11.2354
회사	-11.2357
▁것에	-11.2357
▁뒷날	-11.2358
밥을	-11.236
트로	-11.2361
▁마시는	-11.2362
▁추미가	-11.2363
▁소슬	-11.2365
▁나보고	-11.2365
▁이녁이	-11.2366
▁어마이는	-11.237
▁그담	-11.237
▁에이아이	-11.237
▁합쳐	-11.2371
▁없냐	-11.2373
▁특이하	-11.2375
잇	-11.2375
▁가신	-11.2377
▁울었	-11.2377
▁어휴	-11.2378
▁결심	-11.238
▁간닥	-11.2381
놨는데	-11.2381
▁몇십	-11.2382
▁캔	-11.2382
▁뵈기가	-11.2392
▁고양	-11.2392
▁애도	-11.2392
▁변한	-11.2394
했간디	-11.2395
▁자유롭	-11.24
▁중의	-11.24
▁보태	-11.2401
하십니까	-11.2402
▁해주믄	-11.2408
▁결과가	-11.241
▁그렇긴	-11.2414
▁여잔	-11.2414
▁덮어	-11.2417
▁아름다운	-11.2417
▁낳는	-11.2417
▁이으쟁이	-11.2417
▁전자기기	-11.2418
▁확진자	-11.2418
▁보니깐에	-11.2418
▁쇼핑몰	-11.2419
▁글잖아	-11.2419
▁식탁	-11.242
▁묵으면은	-11.2421
▁성님은	-11.2422
을텐데	-11.2423
▁먹거나	-11.2424
느라고	-11.2425
▁대박	-11.2425
▁생각허민	-11.2426
▁방송국	-11.2427
▁선상님은	-11.2428
▁역할을	-11.2429
으여	-11.2429
▁극정마	-11.2431
▁사램들두	-11.2432
▁요잉	-11.2439
▁나라가	-11.2441
▁합니까	-11.2443
▁아까도	-11.2445
▁사람헌티	-11.2446
▁완전히	-11.2446
▁쎄게	-11.2446
▁케야	-11.2447
옹	-11.2448
붓	-11.2448
맘	-11.2449
그리	-11.245
▁핵	-11.245
▁다음부터	-11.2451
▁너넨	-11.2451
▁열정	-11.2452
▁이카꼬	-11.2454
▁소심한	-11.2454
▁짜리를	-11.2455
▁타지	-11.2456
▁부위	-11.2459
떨어	-11.2459
사리	-11.246
▁나간다	-11.2463
▁이거여	-11.2463
▁나왔을	-11.2464
▁성님도	-11.2465
우스	-11.2467
▁샀는데	-11.247
▁구경하	-11.247
▁보신	-11.2471
▁독감	-11.2473
▁없다는	-11.2476
▁가져오	-11.2476
보카	-11.2477
▁때쯤	-11.2478
▁언니는	-11.2479
▁보기에는	-11.248
▁지나서	-11.248
달랜	-11.2483
스크	-11.2483
▁음료	-11.2484
▁나왔던	-11.2485
▁알께	-11.2485
▁못허는	-11.2488
▁가만히그네	-11.249
▁고라재마는	-11.249
▁필리핀	-11.249
▁가벼운	-11.249
▁사계절	-11.249
▁떠오르	-11.249
▁좋아갖고	-11.249
▁짜장멘	-11.249
▁해산물	-11.249
▁낙엽	-11.249
▁이십사	-11.2492
▁애니	-11.2495
▁만나게	-11.2496
▁괜잖다	-11.2496
대고	-11.2496
▁약혼	-11.2496
▁볼려구	-11.2499
▁가야제	-11.2499
▁얘기했던	-11.25
▁순위	-11.2501
맹	-11.2502
▁고대루	-11.2502
▁갠데	-11.2505
▁올라왔	-11.2507
▁어뜩해	-11.2508
▁엉망	-11.2508
▁미역	-11.2509
▁위해	-11.251
▁왜냐면은	-11.2512
▁새러레	-11.2513
▁가덕	-11.2514
보러	-11.2516
▁온천	-11.2519
놔야	-11.252
때문에	-11.2522
▁봤대이	-11.2523
▁해가지구	-11.2524
셨죠	-11.2526
▁것다	-11.2528
▁경계	-11.253
운동	-11.2531
▁있거든유	-11.2532
▁선호	-11.2534
▁찾기	-11.2537
▁리가	-11.2539
▁있수다	-11.2539
▁지역에	-11.2542
▁국제	-11.2547
▁전화해	-11.2547
▁쳐다	-11.2549
▁보여줄	-11.255
▁겨론한	-11.2551
러운	-11.2551
주마씨	-11.2553
토리	-11.2556
▁했어예	-11.2557
▁취미를	-11.2557
▁전달	-11.2558
▁내보다	-11.2559
펀	-11.2562
▁내용을	-11.2562
▁멤버	-11.2563
▁규모	-11.2563
▁들었다	-11.2564
▁선택을	-11.2565
할게요	-11.2565
▁서러지	-11.2565
▁이쁘고	-11.2566
▁지우	-11.2567
▁줍	-11.2568
▁반말	-11.2568
▁종종	-11.2569
▁맹금	-11.2569
▁지속	-11.2572
▁이카믄	-11.2573
▁가죽	-11.2574
▁삼월	-11.2574
▁고대러레	-11.2576
놘	-11.2577
▁다니민서	-11.2578
▁특히나	-11.2579
▁즌화해서	-11.2579
▁고소	-11.2582
▁태도	-11.2582
▁훌	-11.2583
▁좋드만	-11.2585
▁어린이집	-11.2585
▁웃고	-11.2587
▁나가고잉	-11.2592
씨가	-11.2593
▁답답해	-11.2596
▁저녁에랑	-11.2597
▁그긋	-11.2599
관리	-11.26
보험	-11.2601
▁못먹	-11.2602
▁즐겁	-11.2606
▁묵을	-11.2607
야겠대이	-11.2608
룹다	-11.2609
▁올게	-11.2611
▁앉어	-11.2613
▁헬	-11.2614
▁슈	-11.2615
▁직업을	-11.2618
▁들어야	-11.262
▁이대루	-11.262
▁싶다고	-11.2622
▁개념이	-11.2628
▁잘했다	-11.2628
▁나이가이	-11.2633
▁통과	-11.2634
▁분양	-11.2635
멸	-11.2636
▁늙은	-11.2636
▁칭구랑	-11.2636
▁부드럽	-11.2636
▁모바일	-11.2636
▁다암한테	-11.2636
▁유산균	-11.2636
▁남매	-11.2639
▁몰입	-11.2643
▁문제로	-11.2644
▁떨어지는	-11.2644
▁감각	-11.2645
▁니네가	-11.2645
▁순서	-11.2648
어야지	-11.265
▁강아지들	-11.2652
▁나오므	-11.2656
▁화내	-11.2657
놔서	-11.2657
▁많자녀	-11.2657
뿔	-11.2662
▁연금	-11.2663
▁갸네	-11.2663
하죠	-11.2663
▁뭐랄까	-11.2664
▁대고	-11.2664
▁대단하다	-11.2668
쪼	-11.267
▁헤어져	-11.2678
▁마신	-11.268
▁괜찮아지	-11.2683
▁회과	-11.2685
▁되요	-11.2685
▁듯한	-11.2686
▁정심	-11.2686
▁암도	-11.2687
쳤다	-11.2693
진거	-11.2694
▁잘됐	-11.2695
▁큰애	-11.2696
▁능	-11.2698
든디	-11.2699
▁알잖아	-11.2701
▁의사가	-11.2703
▁수준이	-11.2707
짼	-11.2707
▁가니께	-11.2708
▁하겄	-11.271
▁그릏다	-11.271
▁쫍아	-11.271
▁장모님	-11.271
▁롯데	-11.271
▁미끄러	-11.2711
▁호루에	-11.2711
▁베기구	-11.2711
네잉	-11.2711
▁혜택	-11.2711
▁웹툰이	-11.2711
▁판타지	-11.2711
▁많애	-11.2712
▁셋째	-11.2712
▁원망	-11.2713
▁읎다구	-11.2713
▁곱창	-11.2714
▁의무	-11.2715
▁했주	-11.2715
할라고	-11.2715
카드	-11.2719
▁거따	-11.272
▁테니스	-11.2721
▁싸우고	-11.2724
▁기본적인	-11.2724
▁부렀	-11.2724
이라든둥	-11.2726
▁내하고	-11.2729
▁장새	-11.2729
▁아니연	-11.273
▁예정	-11.273
▁땐가	-11.2732
▁거주게	-11.2733
▁멜	-11.2735
▁빨르	-11.2735
▁신앙	-11.2736
▁맨들	-11.2739
▁왼쪽	-11.2742
행으네	-11.2743
앉	-11.2745
▁그러드라	-11.2746
▁뺑	-11.2747
했지만	-11.275
▁회를	-11.2752
▁올케	-11.2752
▁얄	-11.2755
▁대상	-11.2755
▁됐고	-11.2755
▁언나가	-11.2756
▁친해	-11.2756
▁지고	-11.276
▁몰르꼬	-11.2762
▁추웠	-11.2769
▁거게가	-11.2771
▁뿌듯	-11.2772
▁재주	-11.2776
▁봐여	-11.2776
▁대학을	-11.278
우리	-11.278
▁쉬워	-11.2781
▁묵고	-11.2782
▁햄서	-11.2785
▁올림픽	-11.2785
촤	-11.2785
▁스릴러	-11.2785
▁홈쇼핑	-11.2785
▁아이스크림	-11.2785
▁돈까스	-11.2785
었걸랑	-11.2785
▁이노무	-11.2786
▁해신가	-11.2786
▁말래	-11.2786
▁가만뎅이	-11.2786
▁멍청	-11.2787
▁곱닥	-11.2788
▁앞드레	-11.2788
거난	-11.279
▁당신한테	-11.2792
▁울리	-11.2792
▁드는데	-11.2792
▁터졌	-11.2793
▁가멍	-11.2793
▁질질	-11.2795
▁고래	-11.2796
▁배송	-11.2796
▁계정	-11.2798
▁잣	-11.2801
라인	-11.2803
웃게	-11.2803
▁아니가	-11.2804
▁생강	-11.2804
▁웃음	-11.2804
▁시골에서	-11.2805
▁아들한테	-11.2806
▁찼	-11.2807
▁아내	-11.2808
▁당한	-11.2808
▁타면	-11.281
▁가아지가	-11.2812
▁하필	-11.2814
▁범인	-11.2814
▁하나를	-11.2815
▁오세요	-11.2815
▁근강을	-11.2816
▁놈을	-11.2817
▁시엄	-11.2818
콩	-11.282
핏	-11.2822
내서	-11.2822
▁제주도가	-11.2823
▁문화가	-11.2824
▁아재가	-11.2829
▁번이나	-11.2835
되기	-11.2836
▁방어	-11.2837
▁만화를	-11.284
▁손목	-11.2841
▁심정	-11.2841
▁와따	-11.2844
▁사줬	-11.2845
▁고르민	-11.2845
▁나꼬	-11.2845
거주게	-11.2846
▁삼아	-11.2847
▁지안	-11.2848
▁마요	-11.2851
▁년은	-11.2851
▁내놓	-11.2855
▁하셨는데	-11.2857
▁러시아	-11.286
▁태권도	-11.286
▁메이커	-11.286
▁재수바리	-11.2861
▁의료	-11.2861
▁없어요	-11.2862
▁밀가루	-11.2862
▁기다릴	-11.2863
▁신기했	-11.2863
래기	-11.2864
▁공감이	-11.2867
▁현상	-11.2867
▁거짓말	-11.2868
인줄	-11.2871
▁일본어	-11.2871
▁숨어	-11.2873
▁경허면은	-11.2874
됐다	-11.2878
▁그치만	-11.288
었습니다	-11.288
▁계실	-11.2882
▁센치	-11.2883
▁그린	-11.2883
용으로	-11.2884
▁열이	-11.2887
▁가방을	-11.2891
▁알바는	-11.2896
▁생각했는디	-11.2896
▁줄여	-11.2906
▁고칠	-11.2907
▁삼십분	-11.2907
▁물도	-11.2909
▁늦께	-11.2909
▁중이야	-11.291
▁요런게	-11.2912
▁겨란	-11.2912
▁오는데	-11.2912
국시	-11.2913
▁시험이	-11.2914
▁다음주	-11.2914
▁멀쩡	-11.2915
▁핸드폰이	-11.2915
▁마감	-11.2915
버렸어	-11.2916
▁그기느	-11.2917
▁입학	-11.2918
▁서로가	-11.2918
▁그렇구	-11.2919
▁이사를	-11.292
▁있겠어	-11.292
▁미치겠	-11.2921
▁이러믄	-11.2923
▁챙겨보	-11.2925
▁되다	-11.2926
▁이상이	-11.2926
불라	-11.2928
▁좋제	-11.2928
꼈	-11.2932
보여	-11.2935
▁똑겉이	-11.2936
▁얻을	-11.2936
▁읃어	-11.2936
댈	-11.2936
▁스케줄	-11.2936
▁잔잔한	-11.2936
▁텐트	-11.2936
▁고내이	-11.2937
▁전부터	-11.2937
▁냉귀	-11.2937
▁밴	-11.2939
▁빵빵	-11.294
▁지정	-11.2942
하곤	-11.2942
▁개의	-11.2943
▁옵	-11.2943
▁전복	-11.2944
▁내려온	-11.2944
▁흐르	-11.2947
▁개성	-11.2948
했댄	-11.2952
▁훈	-11.2953
갱	-11.2954
▁억울	-11.2954
▁노후	-11.2955
스러	-11.296
▁주식이	-11.2961
▁앞머리	-11.2962
▁있어도	-11.2962
▁레이	-11.2963
▁비용이	-11.2964
▁끔찍	-11.2965
▁한국인	-11.2965
혹	-11.2966
▁마지막이	-11.2967
▁자락은	-11.2967
뜻	-11.2969
하기로	-11.2972
였고	-11.2974
거리가	-11.2976
▁얘기하니께	-11.2989
▁털이	-11.299
▁센터	-11.299
▁살아보	-11.2991
▁교감	-11.2994
▁묵은	-11.2999
▁고마운	-11.3
▁사료	-11.3001
▁이십만	-11.3006
▁따러서	-11.3008
으라구	-11.3009
▁프로그램이	-11.301
▁낳으	-11.3012
▁아직까징	-11.3012
▁찬찬히	-11.3012
괄	-11.3012
랠	-11.3012
맬	-11.3012
▁박물관	-11.3012
▁맞차서	-11.3012
▁울매나	-11.3012
▁혔거든	-11.3012
▁전하라우	-11.3013
▁없제	-11.3015
▁생각하멘	-11.3016
▁소녀	-11.3017
텡이	-11.3017
▁심각	-11.3017
▁당빠	-11.302
▁재미있었	-11.302
▁한다믄	-11.3022
▁하우스	-11.3022
버리고	-11.3023
▁옹	-11.3026
▁사겼던	-11.3026
▁형태	-11.3026
▁이러민서	-11.3028
란가	-11.3028
▁드라마도	-11.3029
▁보먼서	-11.303
▁주일	-11.3031
▁한솜	-11.3036
▁리인데	-11.3036
▁물어본	-11.3036
앙으네	-11.3038
▁잘하구	-11.3039
▁꾀	-11.3041
▁좋겠는디	-11.3044
▁젊어	-11.3045
▁거길	-11.3046
야돼	-11.3048
▁되어있	-11.3048
▁그르니께	-11.305
▁다르다	-11.3052
▁만치	-11.3053
냄	-11.3053
부로	-11.3059
▁달고	-11.3063
헌디	-11.3063
▁가는거	-11.3066
▁망신	-11.3068
되었	-11.3068
▁반장	-11.307
▁나오기	-11.3071
▁법을	-11.3075
테주	-11.3077
▁있었단	-11.3078
▁인사를	-11.3079
▁겉은	-11.3084
▁건강검진	-11.3089
▁틴데	-11.3089
▁그래더거	-11.3089
▁생각일랑	-11.3089
▁아이디어	-11.309
▁두번째	-11.309
헌거	-11.309
▁밀려	-11.3091
▁설득	-11.3093
▁아닌가이	-11.3093
▁코드	-11.3093
▁했었고잉	-11.3095
▁개개	-11.3095
▁경우에도	-11.3095
▁막냉이	-11.3097
▁자세히	-11.3097
▁지루하	-11.3097
▁교실	-11.3098
▁좌우명	-11.3099
▁뭐시기	-11.3099
▁살까	-11.3102
문을	-11.3103
▁혼차서	-11.3103
▁가수들	-11.3103
▁머슴아	-11.3103
오면	-11.3103
▁하시느	-11.3104
▁직원이	-11.3105
▁질려	-11.3107
▁태국	-11.3108
▁통해가	-11.3109
▁그느마	-11.3115
▁자체도	-11.3115
▁주라	-11.3116
▁라구	-11.312
▁미터	-11.312
▁바른	-11.3121
▁놓아	-11.3128
▁경비	-11.3129
앞	-11.313
▁백오십	-11.3131
▁가봔	-11.3131
는거지	-11.3131
거죠	-11.3134
통을	-11.3134
▁추워지	-11.3134
계를	-11.3137
▁해녀	-11.314
▁모르겄	-11.3141
▁약해	-11.3148
▁병원을	-11.3148
▁여자애들	-11.315
▁지하	-11.3152
율이	-11.3153
▁옛날부터	-11.3157
▁시끄러	-11.3157
▁긁어	-11.3167
▁아름답	-11.3167
▁커지	-11.3168
▁평균	-11.3168
▁대기업	-11.3168
▁배고파	-11.3168
▁예전에느	-11.3168
▁쫓겨	-11.3169
▁잘하라우	-11.3169
▁엣날	-11.317
▁먹어본	-11.317
▁전다지	-11.3171
▁거처럼	-11.3172
▁비닐	-11.3172
▁캐갖꼬	-11.3172
▁친굴	-11.3173
▁보상	-11.3174
▁환불	-11.3174
▁하그덩	-11.3174
셨나	-11.3176
▁밝혀	-11.3176
▁애들은이	-11.3178
다보니께	-11.3178
▁이래가주꼬	-11.3179
▁자넨	-11.3184
▁알민서	-11.3186
▁맛집이	-11.3189
▁냉동실	-11.3189
▁검질	-11.319
▁헤어진	-11.319
사주게	-11.3194
▁시키고	-11.3195
▁이래요	-11.3196
▁유멩한	-11.3197
▁받아가주구	-11.3201
▁시각	-11.3202
▁이윤	-11.3202
▁하더라구예	-11.3203
볶음	-11.3204
▁명의	-11.3204
껀디	-11.3205
▁휴학	-11.3207
▁말이에요	-11.3208
꼭	-11.3209
▁떠나서	-11.321
▁카레	-11.3213
▁재미로	-11.3214
▁드가는	-11.3216
▁사람인	-11.3219
향이	-11.3219
▁공동	-11.3219
▁대게	-11.3221
▁입장에서는	-11.3224
▁먹젠	-11.3226
▁어서부난	-11.3226
▁않는데	-11.3228
부렁	-11.3229
▁눈은	-11.3231
▁흔들리	-11.3233
▁쓰던	-11.3234
▁놀다	-11.3236
▁영해	-11.3236
▁원장님	-11.3241
▁들었을	-11.3243
겟	-11.3245
▁얇은	-11.3245
▁젊을	-11.3245
▁이그저그	-11.3245
▁비디오	-11.3245
▁패턴	-11.3246
용품	-11.3247
▁꿉	-11.3248
▁딸리	-11.3249
▁스킨	-11.325
▁가까워	-11.3251
▁얼매든지	-11.3251
▁콜라	-11.3251
▁이상허게	-11.3253
▁달랐	-11.3253
▁기구	-11.3255
낭그	-11.3257
▁바라는	-11.3259
▁여기는이	-11.3262
▁대화가	-11.3262
▁냅	-11.3263
▁경헌디	-11.3266
▁들면은	-11.3267
▁그마이	-11.3268
▁하드라고유	-11.3269
해줬	-11.327
▁비염	-11.3271
▁눌르	-11.3271
▁발을	-11.3275
▁될건디	-11.3277
▁되었다	-11.3282
되구	-11.3284
▁편히	-11.3284
협	-11.3285
팽	-11.3288
졸	-11.3288
▁혹시나	-11.329
▁많아부난	-11.3291
▁줄까	-11.3292
▁제주도서	-11.3293
▁허리가	-11.3293
할려꼬	-11.3293
▁표현하	-11.3294
▁생각했어	-11.3297
▁자내	-11.3297
▁책도	-11.3298
▁요것	-11.33
▁보민서	-11.3301
▁변화가	-11.3302
▁뒤이	-11.3306
▁저희가	-11.3307
▁다시금	-11.3307
▁떤지	-11.3308
▁삶의	-11.331
▁놔야	-11.331
하도록	-11.3312
겠다구	-11.3313
할려구	-11.3314
▁아시는	-11.3314
▁일부	-11.3315
잖냐	-11.3317
▁심각한	-11.3317
▁이상형이	-11.3319
▁혼났	-11.3321
챙	-11.3322
▁사이가	-11.3323
▁딜	-11.3323
▁살던	-11.3323
▁팔자	-11.3323
▁겪어	-11.3324
삿	-11.3324
씁	-11.3324
▁싸게싸게	-11.3324
▁평범한	-11.3324
▁츠녀	-11.3324
▁자리에서	-11.3324
▁즈네가	-11.3325
▁수요일	-11.3326
▁말씀하셨	-11.3326
▁어무이가	-11.3326
▁겡우가	-11.3327
▁잘못했	-11.3329
줘야지	-11.3329
▁추천해주	-11.3332
▁지붕	-11.3332
▁보이고이	-11.3334
▁손으로	-11.3335
▁피곤해	-11.3335
▁어려움	-11.3336
▁피로	-11.3338
▁죄송하	-11.3338
▁뱃살	-11.3339
▁엄지	-11.334
▁오라버이랑	-11.3341
▁가대이	-11.3342
▁몬하꼬	-11.3346
▁오십만	-11.3347
▁아이지마	-11.3347
▁따고	-11.3348
▁돼가주꼬	-11.3348
▁교정	-11.335
▁성인이	-11.3353
▁서리	-11.3355
쌈	-11.3358
▁되신디	-11.336
▁이바구	-11.336
▁치면	-11.336
▁신어	-11.3369
▁남자애	-11.3369
상으로	-11.3372
량을	-11.3374
▁풀려	-11.3375
달리	-11.3376
▁성경	-11.338
야겠사	-11.3383
▁놨어	-11.3387
▁대해서느	-11.3388
▁고아	-11.339
▁녹아	-11.3391
▁세시	-11.3392
▁욱에	-11.3392
▁상자	-11.3393
▁과정이	-11.3395
▁먹는거	-11.3397
▁나와신디	-11.3397
▁어린이	-11.3398
▁월세	-11.3399
친구	-11.3403
▁스트레칭	-11.3403
▁하루죙일	-11.3403
▁덕부에	-11.3403
▁기럭지	-11.3403
▁심자랑	-11.3403
▁유튜브를	-11.3403
▁칼국수	-11.3404
▁행복하게	-11.3404
▁했습니다	-11.3404
▁놔둬	-11.3407
▁건강해	-11.3408
▁종합	-11.3409
▁시작한	-11.3411
▁저느마	-11.3412
▁호끔씩	-11.3412
▁아척에	-11.3413
▁결국엔	-11.3414
▁모르지만	-11.3415
되었다	-11.3415
거던	-11.3415
▁잡앙	-11.3417
▁쌤들이	-11.3418
▁맛있드라	-11.3419
▁요청	-11.3419
▁자율	-11.342
▁정서	-11.3424
▁결혼은	-11.3424
시키는	-11.3425
▁야기를	-11.3426
▁나가꼬	-11.3427
▁주는디	-11.3429
▁서울로	-11.343
▁성형	-11.3436
▁기억나는	-11.3437
▁소용없	-11.3437
▁들사	-11.3438
▁농새	-11.3439
▁사극	-11.3439
▁있었대이	-11.3439
▁마음의	-11.344
▁최선을	-11.344
▁신체	-11.3443
▁올리는	-11.3444
▁이걸루	-11.3446
잠	-11.3447
됨	-11.3449
▁부애	-11.3453
▁힘든디	-11.3454
학원	-11.3456
생각	-11.3456
▁밤을	-11.3457
▁봐래이	-11.3458
▁배신	-11.3459
▁도와줘	-11.346
▁치과	-11.3462
▁다녀왔	-11.3464
▁삼사	-11.3466
▁가주	-11.3468
무리	-11.3469
▁결정을	-11.347
▁산책을	-11.3471
▁줘여	-11.3475
▁시아버	-11.3475
▁시야	-11.3475
▁깨끗하	-11.3478
▁재미도	-11.3479
▁예쁘게	-11.3482
▁스마트	-11.3483
▁좋아하잖아	-11.3483
▁우타됐든	-11.3483
▁천주교	-11.3483
▁갱년기	-11.3483
▁혔지만	-11.3483
▁사귄	-11.3484
▁소개시켜	-11.3485
▁여보서요	-11.3486
▁케야지를	-11.3489
▁처지	-11.349
▁하더라고예	-11.3491
▁돌아올	-11.3491
▁모르겄지만	-11.3494
▁씨가	-11.3495
▁생전	-11.3496
▁들어가는	-11.35
▁회살	-11.3501
▁숨겨	-11.3502
▁주랜	-11.3503
▁말인디	-11.3505
▁연인	-11.3508
▁직장을	-11.3509
▁아아	-11.3509
▁같진	-11.351
▁알겐	-11.3512
▁곱게	-11.3513
▁하기엔	-11.3516
▁앉어서	-11.3516
▁유명해	-11.3517
시롱	-11.3517
▁외워	-11.3518
▁보통은	-11.3519
▁신기해	-11.3519
▁시스템	-11.352
▁쪼러레	-11.3521
▁니처럼	-11.3522
▁누그랑	-11.3525
▁시켜주	-11.3526
▁꼬추장	-11.3529
▁있었고	-11.353
▁들으면은	-11.353
▁도장	-11.353
▁댕기기	-11.353
▁봉께	-11.3532
▁인구	-11.3535
▁알았사	-11.3537
▁가든	-11.3539
▁뽕	-11.3541
▁신발이	-11.3541
▁어색하	-11.3542
▁만들기	-11.3544
▁않았는디	-11.3545
▁놀꼬	-11.3545
▁그렇드라구	-11.3545
▁느껴져	-11.3545
났주게	-11.3547
▁말아라	-11.3548
▁기술이	-11.3549
▁읍	-11.3549
▁그러나	-11.3552
▁왔잖아	-11.3554
▁건설	-11.3557
▁없긴	-11.3559
▁십일월	-11.3562
▁운동할	-11.3564
▁핵교는	-11.3564
▁목욕탕	-11.3565
▁아끄매부터	-11.3565
▁못해요	-11.3565
▁말러레	-11.3566
▁웬만한	-11.3566
▁사단	-11.3567
▁않지	-11.3567
▁한계가	-11.3567
▁오래되	-11.3568
▁달라진	-11.3568
▁갈라꼬	-11.3571
▁겅헌디	-11.3572
▁옷에	-11.3572
▁하간거	-11.3573
▁있어도잉	-11.3573
▁식이	-11.3576
▁원하느	-11.3577
▁아무나	-11.3577
▁누그한테	-11.3577
▁기대를	-11.358
▁가헌티	-11.358
▁폼	-11.3581
▁있었어유	-11.3583
▁시대에	-11.3583
▁보람	-11.3584
▁몰라가지고	-11.3585
▁않도록	-11.3586
▁특성	-11.3592
▁대처	-11.3594
▁경기도	-11.3599
▁샀다	-11.3603
▁진지	-11.3604
▁생각해요	-11.3604
▁해당	-11.3608
▁유명헌	-11.3609
▁사람이여	-11.3612
▁고백	-11.3612
▁많긴	-11.3615
▁알바도	-11.3616
▁했었는데	-11.3619
▁약국	-11.362
▁치꼬	-11.3623
▁갈색	-11.3623
▁기운이	-11.3623
▁난께	-11.3624
▁답이	-11.3624
▁그랬거든	-11.3624
▁받아야	-11.3626
▁거라서	-11.3627
▁이르게	-11.3628
▁성두	-11.3629
▁어멍이가	-11.363
▁혹은	-11.3632
▁영화관에서	-11.3634
▁경핸	-11.3634
▁이논	-11.3635
▁한글	-11.3639
▁좋을까	-11.364
▁줘도	-11.3643
▁버섯	-11.3644
▁카카오	-11.3645
▁넉넉	-11.3645
▁붕어빵	-11.3645
▁상견례	-11.3645
▁오버워치	-11.3645
맣	-11.3645
▁타이밍	-11.3645
▁따양한	-11.3645
▁있사노니	-11.3645
▁쿠키	-11.3645
▁김치찌개	-11.3646
▁경상도	-11.3646
▁가성비	-11.3646
▁것부다	-11.3646
▁변해	-11.3647
▁목사님	-11.3648
▁조용히	-11.3649
▁보증	-11.3655
▁서운하	-11.3658
▁보아	-11.3658
▁억울하	-11.3659
▁가재	-11.3662
느니	-11.3663
라던지	-11.3667
▁끼꼬	-11.367
▁꼭같은	-11.3671
▁운동하는	-11.3672
▁없단	-11.3676
▁똑똑하	-11.3678
▁만나가꼬	-11.3679
▁재밌언	-11.3679
▁담날	-11.3679
▁오빠가	-11.368
니더	-11.3683
▁드셔	-11.3684
▁선생님들	-11.3685
▁꿈에	-11.3685
▁당시는	-11.3686
▁다녀와	-11.3688
▁터진	-11.3688
▁개선	-11.369
▁챙피하	-11.369
▁신발을	-11.3693
▁느낌은	-11.3695
먹구	-11.3696
▁우째다	-11.3696
여섯	-11.3697
▁접데	-11.3699
▁넣은	-11.3705
▁중간이	-11.3708
래면	-11.3709
▁흘러가	-11.3709
▁프로그램을	-11.3711
▁순대	-11.3712
린데	-11.3715
▁환상	-11.3716
▁되거든	-11.3719
▁찌개	-11.372
르르	-11.3722
▁적게	-11.3723
▁맛있드라고	-11.3723
▁고양이가	-11.3724
▁쫍은	-11.3727
▁필료한	-11.3727
▁고깃집	-11.3727
▁안소설	-11.3727
▁렌트	-11.3727
▁위험한	-11.3729
▁생각나느	-11.373
▁몰르겠지만	-11.3731
▁않앤	-11.3731
▁바쁠	-11.3732
▁껀	-11.3734
▁갈거	-11.3739
▁토끼	-11.374
하드라고	-11.3741
▁살리	-11.3742
▁저건	-11.3742
▁한대는	-11.3744
▁일본에서	-11.3746
시나요	-11.3754
▁산디	-11.3756
▁멀었	-11.3756
▁겅핸	-11.3758
보젠	-11.3762
▁먹는데	-11.3764
▁준비할	-11.3766
▁과장님	-11.377
▁잘허는	-11.3773
▁길르	-11.3774
▁언니야느	-11.3774
▁댕기다	-11.3776
멀	-11.3778
짤	-11.3778
▁예약을	-11.3785
▁걷어	-11.3785
없어	-11.3787
▁됐었	-11.3793
뻐	-11.3794
▁나오는데	-11.3797
롬	-11.3802
▁시원한	-11.3802
▁끊고	-11.3802
▁들어감	-11.3802
▁불행	-11.3805
▁코가	-11.3806
▁좌우	-11.3806
▁즈그들이	-11.3808
툴	-11.3809
▁그나저나	-11.3809
▁머시마가	-11.381
▁운진을	-11.381
▁어뜨게	-11.381
▁그마맨큼	-11.381
▁데이터	-11.381
▁아오	-11.381
▁아끼	-11.3811
▁울산	-11.3812
▁체질이	-11.3814
▁여쭤	-11.3814
나봐요	-11.3817
▁올라강	-11.3818
▁우짜노	-11.3818
▁이마트	-11.3819
▁귀경	-11.3822
▁빨간색	-11.3823
▁심각하	-11.3825
▁해불고	-11.3828
▁싶어유	-11.3833
▁감수	-11.3833
▁편하고	-11.3836
더래	-11.3836
▁느리	-11.3837
▁열시	-11.3837
▁없자녀	-11.3838
▁끊었	-11.3838
기엔	-11.3839
▁괘	-11.384
▁맞춰가	-11.3842
▁눕	-11.3843
▁허시는	-11.3843
▁드라이	-11.3844
▁생각하거든	-11.3846
▁보았	-11.3848
▁한국사	-11.3849
웅	-11.3851
▁좋아했는디	-11.3851
▁열리	-11.3852
몇	-11.3856
시간에	-11.3858
▁사항	-11.3859
뎌	-11.3862
우다게	-11.3862
▁가지는	-11.3865
▁셔	-11.3869
▁지짜	-11.3871
▁뜨고	-11.3871
▁좋아해지	-11.3872
불지	-11.3872
▁비어	-11.3873
▁떠났	-11.3875
였간디	-11.3876
▁반응이	-11.3876
▁예비	-11.3878
▁느끼고	-11.3878
▁불쌍	-11.3885
이까네	-11.3886
냐꼬	-11.3887
▁작성	-11.3888
▁외우	-11.3889
▁노란	-11.389
키로	-11.3891
▁좋겠네	-11.3891
▁맡기	-11.3893
▁아븐님	-11.3893
▁뚜껑	-11.3893
▁햄스터	-11.3895
▁활발하	-11.3897
받을	-11.3898
었는지	-11.3899
▁적극	-11.3899
신가요	-11.39
▁예전엔	-11.39
▁깔끔한	-11.39
▁아프고잉	-11.3901
▁아프구	-11.3902
▁바꾼	-11.3904
▁주래기	-11.3906
▁등급	-11.3908
▁넘어갔	-11.391
▁따르께	-11.391
▁오셔	-11.3911
▁만들구	-11.3912
▁먹으러	-11.3914
▁사양	-11.3914
▁잡어	-11.3925
▁애들끼리	-11.3926
▁그랬사	-11.3927
▁선호하	-11.3927
▁지켜보	-11.3927
▁일이나	-11.3928
▁쓸어	-11.3928
▁받게	-11.3929
땜	-11.393
▁잘나가	-11.393
▁어르신들	-11.3934
▁끊을	-11.3937
▁우리더러	-11.394
▁공개	-11.3942
했었는데	-11.3944
▁돌았	-11.3946
낄	-11.3947
▁들어가지는	-11.395
▁했구나	-11.3952
▁뺄라	-11.3954
▁말이다	-11.3955
▁가냐	-11.3962
▁저렴하	-11.3964
▁있었으	-11.3964
▁과재	-11.3964
▁즘	-11.3967
▁허다	-11.3968
▁측면	-11.3969
▁갚을	-11.397
▁바닥에	-11.397
▁혼내	-11.3972
▁그때부떠	-11.3975
▁얻어먹	-11.3976
줏	-11.3976
웁	-11.3977
▁깊이	-11.3977
▁늫고	-11.3977
▁특벨한	-11.3977
벳	-11.3977
▁깨깟이	-11.3977
▁라디오	-11.3977
▁멈추	-11.3977
▁생케서	-11.3977
▁커피숍	-11.3977
▁보담은	-11.3977
▁즌화번호	-11.3978
▁그때그때	-11.3978
▁드라마는	-11.3978
▁징허게	-11.3979
▁들으가는	-11.3979
▁개문	-11.3979
가즈구	-11.3979
▁통해갖고	-11.398
▁넘어가는	-11.3981
▁저게요	-11.3981
▁해석	-11.3981
▁왔는데잉	-11.3981
▁맞구	-11.3981
▁모재	-11.3982
십쇼	-11.3982
▁넘들은	-11.3983
▁뭣이	-11.3984
▁창고	-11.3984
▁예자를	-11.3985
▁동안은	-11.3985
▁먹어봔	-11.3988
▁신경쓰	-11.3988
▁오빤	-11.3989
▁살안	-11.3989
▁벗겨	-11.3989
▁먹어야지	-11.399
▁경하난	-11.399
르면	-11.399
당보난	-11.3993
▁반죽	-11.3994
▁최대한잉	-11.3995
▁동생들	-11.3995
▁목표가	-11.3997
▁차례	-11.3998
▁입어야	-11.3999
봤는디	-11.4
▁가자네	-11.4001
▁이웃	-11.4003
▁했어요	-11.4006
▁질이	-11.4007
더랑께	-11.4007
▁구성	-11.4009
▁쉬물	-11.4009
▁마래이	-11.4012
▁표정이	-11.4013
엉으네	-11.4015
▁가보꼬	-11.4016
▁마블	-11.4018
▁이디가	-11.4018
▁날리	-11.4019
▁존거	-11.402
▁받았던	-11.4023
찌개	-11.4025
▁숫자	-11.4028
던데요	-11.4028
▁위주	-11.4029
▁요런거	-11.403
▁살찌	-11.403
▁많드라구	-11.4031
▁자석을	-11.4034
년에	-11.4035
▁드와	-11.4035
▁야네들	-11.4037
▁안되지	-11.4038
▁식당에	-11.4039
대매	-11.4042
▁본게	-11.4044
움이	-11.4045
▁밀리	-11.4048
▁외국에서	-11.4051
▁구할	-11.4052
▁미국에	-11.4052
▁업체	-11.4053
▁참석	-11.4057
▁지역이	-11.4058
▁좋아하시는	-11.4059
▁편이고	-11.406
▁없으이	-11.4061
▁만나구	-11.4061
갤	-11.4062
깅	-11.4062
웂	-11.4062
▁거렁뱅이	-11.4062
▁꼼짝	-11.4062
▁맨드느	-11.4062
▁뉴욕	-11.4062
▁싱싱	-11.4062
▁사소한	-11.4063
▁어울려	-11.4064
▁계열	-11.4064
▁어실	-11.4064
▁거지뿔	-11.4066
▁봉게	-11.4067
▁사램들을	-11.4068
보이까	-11.4071
▁같아서	-11.4072
▁먹기도	-11.4075
▁얼렁	-11.4075
▁어려서	-11.4077
▁주머	-11.4078
▁사램인데	-11.408
▁니네는	-11.4081
드리겠습니다	-11.4082
▁어쩔수	-11.4085
▁불르구	-11.4086
▁있으까요	-11.4087
▁도우	-11.4091
▁츰으로	-11.4094
▁벨일	-11.4096
▁주인이	-11.4097
▁께임	-11.4098
▁여섯시	-11.4099
▁사용할	-11.4101
▁양복	-11.4102
▁했지마	-11.4103
▁쌤들	-11.4105
▁생각났	-11.4107
▁질문을	-11.4107
▁건축	-11.4108
▁단식	-11.4109
▁이카다	-11.4112
▁전이는	-11.4113
▁저냑은	-11.4113
▁길께	-11.4113
아버지	-11.4114
▁티가	-11.4114
▁그거여	-11.4119
▁되믄서	-11.4119
▁지각	-11.412
▁드니께	-11.412
▁길로	-11.4121
▁들어서	-11.4122
▁신기하다	-11.4123
▁튀기	-11.4125
▁남기	-11.4127
▁그라제	-11.4128
▁약속으	-11.4129
▁이러시	-11.413
▁했죠	-11.4131
▁반은	-11.4134
▁저녁이	-11.4135
▁어떡해	-11.4135
▁올레	-11.4136
▁어렵지	-11.4136
▁갖다주	-11.4136
▁쓰는디	-11.4136
▁싶어예	-11.4138
▁크면	-11.4139
▁중요하지	-11.414
▁하간	-11.4141
▁설명해	-11.4142
▁짤르	-11.4143
▁깨지	-11.4143
생활을	-11.4144
▁키우느	-11.4145
▁몰르겠어	-11.4145
▁벌고	-11.4146
▁다릏게	-11.4147
▁리조트	-11.4147
▁대간혀	-11.4147
덩어리	-11.4147
▁팍팍	-11.4147
▁포기하	-11.4148
▁펀드	-11.4148
▁탄탄	-11.415
▁클럽	-11.415
셨나요	-11.415
▁베란다	-11.415
▁뒤져	-11.415
▁싫구	-11.415
▁지지바	-11.4151
▁드럽	-11.4153
▁모욕	-11.4153
보내	-11.4159
▁교양	-11.4161
▁음석이	-11.4161
▁될지를	-11.4161
▁했잖아요	-11.4165
▁고만히	-11.4166
▁당관	-11.4166
▁같다구	-11.4166
▁걸음	-11.4167
▁거맨치로	-11.417
▁미운	-11.417
▁살멍	-11.4171
▁뭔지를	-11.4173
▁대우	-11.4175
▁아파가지고	-11.4176
▁일본은	-11.4177
▁속으로	-11.4179
▁불리	-11.4179
▁장만	-11.4183
▁되겠나	-11.4183
▁회원	-11.4184
▁바지를	-11.4186
▁돼있	-11.4186
▁하체	-11.4187
▁제출	-11.4188
▁나이키	-11.4189
▁갈등	-11.419
▁돼유	-11.419
▁감히	-11.4192
▁먹었사	-11.4192
보니	-11.4192
▁모셔	-11.4194
▁잡지	-11.4195
▁인천	-11.4198
▁영향이	-11.4199
컷	-11.4203
▁사이즈가	-11.4204
춤	-11.4204
▁너신디	-11.4204
▁묵는데	-11.4206
▁보석	-11.4206
▁아주멍이가	-11.4209
▁내리는	-11.421
▁무꾸	-11.421
▁시월	-11.421
▁갈게요	-11.4211
▁띵	-11.4212
▁시켜먹	-11.4216
▁먹었을	-11.4218
이라부난	-11.4224
흡	-11.4231
▁인터뷰	-11.4233
▁죽기	-11.4234
▁츠음에는	-11.4234
▁요러케	-11.4235
▁오뎅	-11.4235
▁생각으로	-11.4237
▁사괘	-11.4237
▁한라산	-11.4237
▁눈빛	-11.4237
▁언간이	-11.4238
▁기래	-11.4238
▁적당한	-11.4238
▁당시에는	-11.4238
▁얼어진	-11.4242
▁게론식	-11.4242
▁호는게	-11.4243
▁장르가	-11.4243
▁아녜요	-11.4243
▁짤리	-11.4243
다녀	-11.4244
▁보일러	-11.4244
하니깐	-11.4244
▁상황은	-11.4245
뱅	-11.4245
▁가격도	-11.4246
▁당진	-11.4247
▁창가	-11.4247
목이	-11.4248
▁됐으믄	-11.4249
▁십육	-11.425
▁빌어	-11.4252
▁그림을	-11.4254
버련	-11.4256
하느라	-11.4256
▁고것만	-11.4256
▁싫으문	-11.4258
▁먹어라	-11.4259
▁기도를	-11.426
▁잠들	-11.4267
▁이카느	-11.4267
▁인터넷에서	-11.4269
머리가	-11.427
▁핸지	-11.427
▁말아야	-11.4276
우니께	-11.4279
▁줄라고	-11.428
▁나온대이	-11.4284
▁전수	-11.4286
▁깔끔하	-11.4289
▁국어	-11.4289
▁처음엔이	-11.4289
▁용돈을	-11.4292
▁사태	-11.4292
▁갈켜	-11.4293
겸	-11.4293
▁내리은	-11.4294
▁비율	-11.4295
▁좋아라	-11.4295
▁찾아와	-11.4296
▁속은	-11.4298
▁남어	-11.4299
▁허기도	-11.4299
▁잡구	-11.43
▁카대	-11.43
▁분위기를	-11.43
▁넘치	-11.4301
▁야식	-11.4302
▁모르이까	-11.4302
▁하진	-11.4302
▁형식	-11.4308
▁우리나라는	-11.4311
▁이월	-11.4312
먹은	-11.4313
▁사라져	-11.4315
▁부모님한테	-11.4316
▁잊을	-11.432
캉	-11.432
▁깊었	-11.432
▁묵어강께	-11.432
▁미세먼지	-11.432
▁밟아	-11.432
▁운젠가	-11.432
▁나훈아	-11.432
▁조들	-11.4321
▁피해를	-11.4321
▁조만간	-11.4321
▁범위	-11.4322
▁비빔밥	-11.4322
▁지내구	-11.4323
▁단순히	-11.4323
가젱이	-11.4323
▁요만히	-11.4324
있습니대이	-11.4324
▁마음을	-11.4325
▁삼시롱	-11.4325
▁비싸게	-11.4327
▁한개도	-11.4327
▁누군	-11.4328
▁자체가이	-11.433
▁가심에	-11.4331
▁흥분	-11.4331
▁장미	-11.4334
▁하라는	-11.4334
▁찾어서	-11.4334
▁모르는디	-11.4335
▁먹으멍	-11.4336
되꼬	-11.4337
▁있었는데	-11.4337
▁갈려	-11.4341
▁익숙	-11.4341
▁소풍	-11.4342
▁노트	-11.4343
▁먹을라구	-11.4344
▁보다는	-11.4345
에따가	-11.4346
▁기끈	-11.4347
▁미스	-11.4348
오름	-11.4349
▁잡아먹	-11.4351
▁계획은	-11.4351
▁육수	-11.4351
▁잎	-11.4351
▁작품이	-11.4355
크림	-11.4355
▁있어가지구	-11.4357
▁죽으	-11.4359
▁쪼끄만	-11.436
때마다	-11.436
▁안들어	-11.4361
▁끄내	-11.4362
▁시작하는	-11.4362
▁되크라	-11.4365
▁콧대	-11.4366
▁가수가	-11.4367
▁되주게	-11.437
입니대이	-11.4373
▁들으믄서	-11.4373
▁심했	-11.4375
▁쟤는	-11.4377
팬	-11.4382
숫	-11.4382
깍	-11.4382
▁준비가	-11.4383
▁얼굴은	-11.4387
▁이득	-11.4388
▁안되겠	-11.4391
▁앗	-11.4393
▁불르고	-11.4393
▁그랬단	-11.4393
▁만나지	-11.4393
▁편안하	-11.4396
▁배우가	-11.4396
▁간호	-11.4401
▁나오므는	-11.4401
▁가족은	-11.4403
오빠	-11.4404
▁낭반	-11.4406
끗	-11.4407
하며	-11.4407
▁굶어	-11.4408
▁부딪치	-11.4408
▁아줌씨	-11.4408
▁에이비형	-11.4408
▁식솔이	-11.4408
▁은애이	-11.4408
▁좋아하니께	-11.4408
▁밉	-11.4409
▁남편은	-11.4411
▁생겨불고	-11.4411
▁최악	-11.4412
▁줄어들	-11.4412
▁일상생활	-11.4412
▁느낌인	-11.4414
▁살았어	-11.4416
▁남안	-11.4421
▁정책	-11.4423
▁말까	-11.4424
▁머시여	-11.4424
▁할로에	-11.4425
▁햄시	-11.4429
▁줬던	-11.443
▁꼴을	-11.443
▁화려하	-11.4434
▁끝나구	-11.4436
▁문제가이	-11.4437
▁있었으문	-11.444
▁와중에	-11.444
▁없드라	-11.4443
▁우주	-11.445
▁하다이까	-11.4451
▁학생이	-11.4451
▁번째로	-11.4452
▁지점	-11.4461
▁많안	-11.4462
▁있잖	-11.4464
주머니	-11.4465
웠다	-11.4465
▁올라오는	-11.4466
▁반성	-11.4466
▁고른	-11.4468
핀	-11.4471
▁아이에요	-11.4474
블믄	-11.4475
▁지쳐	-11.4475
▁마약	-11.4478
▁조건이	-11.448
▁솜	-11.448
▁돼여	-11.4484
▁아니우다	-11.4484
▁숨이	-11.4489
▁놀기	-11.4494
▁버터	-11.4495
▁쟁	-11.4495
▁꽂아	-11.4496
▁배드민턴	-11.4496
▁얻었	-11.4496
▁오프라인	-11.4496
▁팝송	-11.4496
▁백종원	-11.4496
▁일학년	-11.4496
▁빡시게	-11.4497
▁조으다	-11.4497
▁직사게	-11.4497
▁개인적으루	-11.4497
▁예나친구	-11.4498
▁차량	-11.4498
▁묵었	-11.4499
▁나보구	-11.4499
하간디	-11.45
겠드라	-11.45
▁슬슬	-11.45
▁도구	-11.4501
▁속상	-11.4502
▁바다가	-11.4503
셨습니까	-11.4505
▁기존	-11.4507
▁봤으믄	-11.4509
▁오놀부터	-11.4509
▁갔으믄	-11.4511
▁고등어	-11.4511
▁지진	-11.4515
▁죽음	-11.4522
▁확실하	-11.4522
▁생각혀서	-11.4523
▁끝나가지고	-11.4526
▁했었언	-11.4527
▁봤었는디	-11.453
▁여러가지	-11.453
▁도착하	-11.4532
▁월에	-11.4535
▁멋져	-11.4535
▁들었던	-11.4538
▁날려	-11.4538
▁분리	-11.4538
▁일일이	-11.4539
▁복지	-11.454
▁복잡	-11.4543
▁쫓	-11.4543
었구나	-11.4545
▁파느	-11.4545
▁시합	-11.4547
더군	-11.4547
▁젊어서	-11.4548
▁좋기는	-11.4549
▁다가가	-11.4549
▁볼일	-11.4551
렉	-11.4552
률	-11.4554
▁질병	-11.456
선생	-11.4561
셋	-11.4561
▁입히	-11.4564
디다게	-11.4566
▁후임	-11.4566
▁보니까	-11.457
▁철학	-11.4573
▁나온디	-11.4573
▁일본에	-11.4573
▁하잰	-11.4576
▁우수	-11.4576
석반	-11.4583
보니께	-11.4584
잼	-11.4586
▁차단	-11.4586
▁레스토랑	-11.4586
댐	-11.4586
룡	-11.4586
▁따땃한	-11.4586
툼	-11.4586
▁딸내미	-11.4586
▁뽀뽀	-11.4586
▁가믄서	-11.4586
립니다	-11.4589
▁당일	-11.4589
▁매누리	-11.4589
▁아지매	-11.4589
▁뽄	-11.459
▁힘든데	-11.4592
▁고마애	-11.4592
▁나라에	-11.4592
▁여그는	-11.4592
▁소방	-11.4593
▁방해	-11.4594
▁빽	-11.4595
겼어	-11.4595
전히	-11.4595
▁언능	-11.4596
▁먹었나	-11.4598
다기보다는	-11.4601
▁종류를	-11.4601
▁이상하다	-11.4601
▁유독	-11.4601
▁맞출	-11.4603
걸음	-11.4603
▁서너	-11.4603
하젠	-11.4604
▁경치	-11.4604
▁왕따	-11.4605
▁살아가는	-11.4606
▁살아온	-11.461
▁받았다	-11.461
▁맨들어서	-11.461
▁앵간한	-11.4611
▁하래	-11.4611
▁들렸	-11.4613
▁도리	-11.4613
▁타서	-11.4615
▁아팡	-11.4617
▁매년	-11.4617
▁스파	-11.4617
▁연관	-11.4618
▁되겠네	-11.4619
덩이	-11.462
▁좋겠노	-11.4621
▁보여주는	-11.4623
▁강남	-11.4624
▁보이지	-11.4625
▁반반	-11.4626
▁선생님이	-11.4628
▁유형	-11.4628
▁부어	-11.4628
▁고양이를	-11.463
▁지발	-11.4634
▁소속	-11.4636
▁내려갔	-11.4643
▁신랑도	-11.4646
▁좋으문	-11.4646
하자고	-11.4648
버리면	-11.4648
▁제공	-11.4649
▁목적이	-11.4651
샵	-11.4652
턱	-11.4652
홍	-11.4652
▁들리는	-11.4653
▁몰르지만	-11.4657
▁됐구	-11.466
▁속상해	-11.4664
하지마	-11.4668
▁생각했을	-11.4671
다던지	-11.4673
며는	-11.4675
▁내보대이	-11.4676
▁기관	-11.4676
렛	-11.4676
▁고등학고	-11.4676
▁대그빡에	-11.4676
▁안좋아	-11.4676
▁아쉬움	-11.4676
▁잘생긴	-11.4676
▁고넹이	-11.4676
▁나래비	-11.4676
▁생겨서	-11.4676
▁미뤄	-11.4677
▁그렇다손	-11.4677
▁불만	-11.4678
라기보다는	-11.4679
▁가르키	-11.4679
▁바뻐	-11.4679
▁기쁘	-11.4682
▁씨레기	-11.4683
드라구요	-11.4683
시험	-11.4685
했으문	-11.4686
▁덧	-11.4687
▁색조	-11.4687
▁말고느	-11.4687
▁지킬	-11.4691
▁것과	-11.4691
▁질러	-11.4692
▁속초	-11.4693
▁면역력	-11.4694
▁남자가예	-11.4695
▁유전	-11.4699
▁샵	-11.47
▁에어	-11.47
▁보기도	-11.4703
▁외부	-11.4703
▁나문지	-11.4705
파리	-11.4706
▁불만이	-11.4708
▁마대이에	-11.4709
녕	-11.471
시케	-11.4712
▁고삼	-11.4713
▁시굴	-11.4715
▁들어본	-11.4716
▁더욱	-11.4716
▁됬	-11.4719
▁좋더라	-11.4719
▁마지막으로	-11.4722
▁야들은	-11.4722
었지만	-11.4723
▁조기	-11.4724
▁고모부	-11.473
▁맛있는디	-11.4734
▁생각보다이	-11.4742
▁지한테	-11.4742
뉴	-11.4742
▁신용	-11.4744
▁섭섭하	-11.4744
샘	-11.4744
▁해래이	-11.4747
▁오일장	-11.4748
▁시집가	-11.4749
▁콘	-11.4751
릇	-11.4753
▁쩌거	-11.4754
▁잔모했	-11.4756
시켰	-11.4756
▁얘들을	-11.4758
▁만들엉	-11.476
준다고	-11.4761
▁할까요	-11.4763
▁비상	-11.4763
▁내리고	-11.4763
▁제품을	-11.4766
▁드루와서	-11.4767
▁좋갰대야	-11.4767
▁즐거운	-11.4767
뒁	-11.4767
▁집구석에	-11.4767
▁없잖아요	-11.4767
▁쎄리로	-11.4767
▁패키지	-11.4767
▁드레스	-11.4767
▁커피를	-11.4767
▁불구하고	-11.4768
▁긴데	-11.4768
▁독새기	-11.4768
▁허기는	-11.4768
▁사이에서	-11.4768
▁갖춰	-11.4768
▁감사합니다	-11.4768
▁뺨	-11.4768
▁돼지고기	-11.4769
▁신겡을	-11.4769
▁번째는	-11.4772
▁위주루	-11.4772
▁미드	-11.4773
▁그니까느	-11.4775
▁좌석	-11.4778
▁가라고	-11.4779
▁가지로	-11.478
▁그립	-11.4781
▁내릴	-11.4782
▁저것도	-11.4783
▁다듬	-11.4785
▁가켄	-11.4786
▁실천	-11.4786
▁킬로	-11.4787
▁손질	-11.4787
▁아씨	-11.4792
▁리그	-11.4794
▁몫	-11.4794
▁손녀	-11.4796
▁앱	-11.4797
▁위가	-11.4797
얘	-11.4798
▁충격을	-11.4798
▁누워있	-11.4799
▁기르	-11.48
▁마시믄	-11.4803
팡	-11.4804
▁않습니다	-11.4807
▁피고	-11.4807
▁되니까	-11.4809
벙이	-11.4811
▁믿음	-11.4811
▁어깨가	-11.4813
적이고	-11.4813
▁생각하세요	-11.4814
▁달마	-11.4815
▁내렸	-11.4816
▁있당께	-11.4816
▁두시	-11.4818
▁달래구	-11.4819
▁뻔한	-11.4819
▁줬는디	-11.4819
▁분석	-11.482
▁싶언	-11.4821
▁벌레	-11.4822
▁킬	-11.4822
▁잡수	-11.4823
▁생각하기	-11.4824
백오십	-11.4825
▁들오	-11.4828
쥬게	-11.4828
▁웃겼	-11.4828
흔	-11.4831
하면서도	-11.4832
몸	-11.4832
▁보셨	-11.4835
▁모대	-11.4839
국수	-11.4842
돼요	-11.4842
▁만들어가	-11.4844
▁자신감이	-11.4845
▁점수가	-11.4845
▁걸까	-11.4846
▁생각하시	-11.485
월달에	-11.4853
▁하겠지	-11.4853
▁첫날	-11.4854
▁파일	-11.4855
▁펼쳐	-11.4858
왁	-11.4858
▁아닙니다	-11.4858
솟	-11.4858
▁디저트	-11.4859
▁교통사고	-11.4859
▁빡빡	-11.4859
▁줏어	-11.4859
▁칼로리	-11.4859
▁놈삐	-11.486
▁번씩은	-11.486
▁밖으루	-11.486
▁아닌가베	-11.4861
▁주부	-11.4861
▁벽에	-11.4862
▁잔뜩	-11.4862
▁재벌	-11.4869
하듯이	-11.487
▁요중간에	-11.4873
▁카니께	-11.4873
▁십삼	-11.4878
▁전엔	-11.4878
▁오라고	-11.4879
▁고등	-11.488
▁손으루	-11.4882
▁왔냐	-11.4886
▁얘기해야	-11.4889
▁찐하게	-11.489
▁근육이	-11.489
▁좋잖아	-11.4893
▁실기	-11.4896
▁하잖아예	-11.4896
▁뱃	-11.4898
▁하겠습니다	-11.49
▁무리가	-11.49
▁풀고	-11.4901
▁발음	-11.4903
▁개봉	-11.4907
▁먹었든	-11.4907
▁갔었는데	-11.4908
▁있었어예	-11.4911
선수	-11.4914
▁어이없	-11.4915
▁주고받	-11.4916
▁거기따	-11.4916
▁오분	-11.4918
▁숫	-11.4923
▁슨	-11.4924
애비	-11.4924
▁해보까	-11.4925
▁되겠지	-11.4929
뵈	-11.493
▁질구	-11.4931
▁특정	-11.4931
▁돌아와	-11.4932
▁위기	-11.4938
▁대학교를	-11.494
▁노면	-11.494
하시느	-11.4941
▁동서	-11.4943
쁘	-11.4944
▁때까정	-11.4944
▁달라졌	-11.4945
▁했다가	-11.4945
▁들어가주구	-11.4946
▁드린	-11.4948
▁발르고	-11.495
▁굉일	-11.4951
▁어저께도	-11.4951
▁엎어	-11.4951
▁오갈단지	-11.4951
받은	-11.4951
▁젓갈	-11.4951
▁어울릴	-11.4951
▁잰작	-11.4951
▁어깨바지	-11.4952
▁도세	-11.4952
▁해보고졍	-11.4953
거리지	-11.4953
▁몰르겠지마	-11.4953
▁유산소	-11.4954
▁아니드라도	-11.4954
▁실갱이	-11.4954
▁나타났	-11.4956
▁시어머니	-11.4956
▁봉투	-11.4956
▁머시매	-11.4956
▁집으로	-11.4958
▁갓인디	-11.4958
▁대맹이	-11.4958
▁인턴	-11.4959
률이	-11.496
부니깐	-11.496
▁모르쿠다	-11.496
▁연장	-11.4962
▁형편	-11.4962
▁벤소	-11.4962
▁청소년	-11.4964
▁생각해보면	-11.4966
▁붙은	-11.4966
▁놓지	-11.4969
▁해주꼬	-11.497
▁했었던	-11.497
▁느꼈던	-11.4975
▁만남	-11.4976
▁비해	-11.4978
▁미칠	-11.4979
▁찾아볼	-11.4983
▁눈으루	-11.4983
▁메모	-11.4985
▁말이죠	-11.4985
▁중국어	-11.4986
절루	-11.4987
▁말대루	-11.4987
야겠네	-11.499
▁있겠다	-11.4992
▁알암	-11.4992
▁얼굴에	-11.4995
들이영	-11.4995
▁샀던	-11.4996
▁테니	-11.4998
▁장난치	-11.4999
▁바빠사	-11.5002
▁집에선	-11.5002
▁맛있언	-11.5003
▁컴퓨터를	-11.5004
▁이모가	-11.5004
▁한림	-11.5005
▁알리	-11.5005
아이가	-11.5005
▁좋지만	-11.5006
▁친구의	-11.5008
▁틀렸	-11.5009
줍	-11.5009
▁소나이	-11.5012
▁처방	-11.5012
▁무선	-11.5013
그램	-11.5021
쑤	-11.5024
▁냉면	-11.5024
갓	-11.5024
▁조정	-11.5025
▁마이크	-11.5028
▁갔었어	-11.5034
▁맞꼬	-11.5034
무르	-11.5035
▁숨을	-11.5036
▁가르쳐	-11.5038
같습니대이	-11.5038
줄까	-11.5039
▁가치관이	-11.504
▁좋아하게	-11.504
▁동호회	-11.5045
▁좁은	-11.5045
톨	-11.5045
▁포장마차	-11.5045
▁먹음시롱	-11.5045
▁응급실	-11.5045
▁고로케	-11.5045
▁요새간는	-11.5045
봅써	-11.5045
▁많으니까네	-11.5045
라던지를	-11.5048
다던지를	-11.505
▁쌌	-11.5052
▁물놀이	-11.5054
▁벤명	-11.5055
▁흰색	-11.5056
▁말대로잉	-11.5056
있지	-11.5057
▁짓는	-11.5058
▁비벼	-11.5058
▁식초	-11.5059
▁개인적인	-11.5061
▁지저분	-11.5062
관계	-11.5064
▁애덜	-11.5067
▁논란	-11.5067
니껜	-11.5068
▁저헌티	-11.5068
▁기달려	-11.5068
▁전환	-11.5069
▁받는다	-11.5069
구먼유	-11.5072
▁많아요	-11.5073
▁회계	-11.5074
▁보거나	-11.5076
▁맛있어야	-11.508
▁친구느	-11.5081
▁겅해야	-11.5081
▁조작	-11.5083
▁부쳐	-11.5085
젱	-11.5086
▁말이냐	-11.5088
▁있었잖아	-11.5088
▁단속	-11.5089
▁해보믄	-11.5091
깝	-11.5091
▁자다가	-11.5091
직한	-11.5093
▁짜증이	-11.5095
▁편안한	-11.5095
▁해보는	-11.5096
▁글더라고	-11.5096
허곡	-11.5098
보잰	-11.5098
▁마음에	-11.5099
갖	-11.5101
▁하거든예	-11.5102
▁있겄다	-11.5103
▁했거든예	-11.5105
▁끼치	-11.5106
▁해야되나	-11.5106
쌍	-11.5116
▁해변	-11.5117
▁보이고	-11.5117
▁수박	-11.5119
쿵	-11.5119
▁드셨	-11.5122
▁제품이	-11.5124
▁가능성이	-11.5126
▁끊기	-11.5127
▁티비에	-11.5129
▁비비	-11.5137
▁지나간	-11.5138
댓	-11.5139
▁깻잎	-11.5139
▁어쩐가	-11.5139
▁펜트하우스	-11.5139
췌	-11.5139
▁엄마핸테	-11.5139
▁재작년	-11.5139
▁뭐시기인가를	-11.5139
▁케잌	-11.5139
▁컨셉	-11.5139
▁불가능	-11.5139
▁리뷰	-11.5139
▁기능이	-11.514
그덩	-11.514
▁일요일날	-11.5143
▁다니믄서	-11.5143
▁있그든	-11.5145
▁열매	-11.5146
▁쪼만한	-11.5146
▁큰일이	-11.5152
▁재기는	-11.5155
▁살자	-11.5157
▁펄	-11.5157
▁빅	-11.5161
▁아이잖아	-11.5165
▁갔다오	-11.5165
▁썼어	-11.5166
▁로망이	-11.5166
▁마사지	-11.5169
땜에	-11.517
▁아가씨가	-11.5171
▁쪼간	-11.5174
▁저한테	-11.5175
▁몬해서	-11.5179
▁춤을	-11.5182
▁종교를	-11.5184
▁동양	-11.5189
▁출근하	-11.5191
신다고	-11.5193
기라두	-11.5195
▁친정에	-11.5195
▁그쪽에서	-11.5196
다든둥	-11.52
으래	-11.5201
▁보였어	-11.5202
▁재워	-11.5203
▁놔서	-11.5204
▁취해	-11.5205
▁초기	-11.5205
붕	-11.5206
▁예자한테	-11.5206
았는데	-11.5207
▁기절	-11.5208
▁지나갔	-11.5209
쎄	-11.5209
▁퉁	-11.5214
▁발로	-11.5215
▁가격을	-11.5217
▁오빠랑	-11.5219
▁사우나	-11.5219
했었어	-11.5221
▁롱	-11.5221
▁보단	-11.5227
▁월요일	-11.5227
때기	-11.5229
해졌어	-11.5231
▁와갖고	-11.5231
▁연예인이	-11.5232
▁했기	-11.5233
▁도깨비	-11.5234
▁맛좋아	-11.5234
▁멈춰	-11.5234
솨	-11.5234
캡	-11.5234
▁손꾸락	-11.5234
▁중간중간	-11.5234
▁챙길	-11.5234
▁테이프	-11.5235
▁같앴	-11.5237
▁달라붙	-11.5237
▁토론	-11.5241
▁토요일날	-11.5241
▁끝까정	-11.5241
▁갑작	-11.5241
뎅	-11.5242
▁디자인이	-11.5242
▁싸인	-11.5243
▁고뱅이	-11.5243
▁가치관	-11.5244
▁독서실	-11.5244
▁만나야	-11.5245
▁자긴	-11.5245
▁껍질	-11.5247
▁모레	-11.525
▁타러	-11.5252
▁맨들꼬	-11.5257
▁소중한	-11.5257
▁안되고	-11.5257
놔라	-11.5258
▁어떠한	-11.5259
▁육군	-11.526
▁겅하멍	-11.5262
▁경찰서	-11.5264
▁해안	-11.5264
▁나강	-11.5266
▁겨실	-11.5266
▁비슷해	-11.5268
▁익숙해	-11.527
왔는데	-11.5271
▁예민해	-11.5274
▁비대면	-11.5276
▁추구하	-11.5277
▁쌤한테	-11.5278
▁워치	-11.5282
▁크꼬	-11.5284
▁그랬대이	-11.5284
▁봐유	-11.5285
▁우염한	-11.5286
▁비워	-11.5286
▁돌아가셔	-11.5287
▁세탁	-11.5288
▁의도	-11.5289
▁피어	-11.529
▁먹잖아	-11.5292
▁되여	-11.5295
▁고기에서	-11.5296
▁대면	-11.5296
▁가르켜	-11.5296
▁그딴	-11.5297
▁겅해가지고	-11.53
▁시쯤	-11.5302
▁그캤	-11.5304
▁누워서	-11.5307
▁수정	-11.5308
▁가격은	-11.5309
휘	-11.531
조리	-11.5311
▁글러레	-11.5312
까짐	-11.5314
▁직전	-11.5317
나부다	-11.5317
▁느끼느	-11.5318
▁원작	-11.5319
▁고생했	-11.5319
▁예배	-11.5321
▁좋데	-11.5321
▁접시	-11.5322
▁나갔어	-11.5323
대요잉	-11.5324
▁그라는데	-11.5325
했단	-11.5326
▁안경하시갸우	-11.533
▁인테리어	-11.533
룻	-11.533
찻	-11.533
갯	-11.533
▁바이러스	-11.533
▁부끄럽	-11.5331
▁디리구	-11.5331
▁뻐스를	-11.5331
▁우선은	-11.5332
▁곳도	-11.5332
▁친구영	-11.5333
▁자락	-11.5334
▁꿰	-11.5334
▁처벌	-11.5336
▁합의	-11.5336
▁길은	-11.5336
▁않았을까	-11.5337
▁어떡하라우	-11.5338
▁좋겠꼬	-11.5339
▁사탕	-11.534
▁좋응께	-11.534
▁들어부난	-11.5341
▁모댔	-11.5342
해그냉	-11.5342
▁배우꼬	-11.5345
▁조직	-11.5346
▁싸사	-11.5346
▁다니시	-11.5347
▁어딘가	-11.5348
시킨	-11.5348
본께	-11.535
▁선거	-11.535
▁연속	-11.5351
▁쇠주	-11.5352
레미	-11.5352
▁검진	-11.5353
▁좀더	-11.5353
해지구	-11.5355
▁대책	-11.5355
▁아닌게	-11.5357
▁달린	-11.5357
▁정확한	-11.5357
▁입어보	-11.5359
▁기침	-11.536
▁좋아하고	-11.5363
▁얼구리두	-11.5364
▁고것	-11.5366
▁비행	-11.5367
▁해봤는데	-11.5369
▁친구인데	-11.5376
▁와가주	-11.5377
▁캐릭터가	-11.5378
꺼정	-11.5378
▁그러민서	-11.5379
▁제거	-11.5379
났져	-11.5379
▁씹어	-11.5382
햄시	-11.5383
▁끝나꼬	-11.5384
▁형부가	-11.5385
▁시작했다	-11.5385
▁누르	-11.5388
▁정도먼	-11.5391
▁많다구	-11.5391
▁키와	-11.5391
▁화분	-11.5392
▁걸리고	-11.5396
▁민망	-11.5397
▁훌륭	-11.5399
▁소식이	-11.5399
떵	-11.54
▁먹어가꼬	-11.5401
▁공부만	-11.5403
▁만들어주	-11.5404
십디다	-11.5406
▁졸라	-11.5406
셨을	-11.5406
쟈	-11.5407
▁찾은	-11.5408
쓱	-11.5411
▁바꼈다	-11.5412
▁선생이	-11.5421
▁싫어하느	-11.5422
믹	-11.5426
▁가랜	-11.5427
▁꺾어	-11.5427
▁엄따꼬	-11.5427
▁말했어	-11.5428
▁몰라도잉	-11.5428
▁호흡	-11.5429
▁지원을	-11.5429
렀다	-11.543
▁따져	-11.543
▁새끼덜토	-11.5432
▁소굼	-11.5432
▁사백	-11.5433
▁키우기	-11.5433
▁미스터	-11.5435
▁전활	-11.5436
▁말이에예	-11.5437
추륵	-11.5438
▁희생	-11.5438
▁존중	-11.5438
▁후라이	-11.5439
▁염려	-11.5442
▁연출	-11.5444
▁놓치	-11.5444
▁천원	-11.5444
▁고수	-11.5446
▁들엄	-11.5447
▁보충	-11.5448
▁실질적	-11.5448
하시면	-11.5449
▁행님이	-11.545
▁왔습니다	-11.5451
▁단위	-11.5455
하메	-11.5459
▁희한하	-11.5459
▁카페에서	-11.546
▁삼십만	-11.5461
▁사람신디	-11.5462
▁걔느	-11.5463
▁떨리	-11.5466
▁역할이	-11.5468
▁하시면	-11.5469
▁시키믄	-11.547
▁께임은	-11.5472
▁싶드라구	-11.5475
▁헙	-11.5476
▁독서	-11.548
▁소용이	-11.5481
룹	-11.5483
▁직장생활	-11.5487
▁나오드라고	-11.5487
▁망치	-11.549
▁꽝	-11.5492
▁되겠어	-11.5494
▁무섭다	-11.5495
▁확신	-11.5495
뗘	-11.5498
해져서	-11.5501
야될	-11.5503
▁빼구	-11.5503
▁입혀	-11.5506
▁곳으로	-11.5506
▁오이까	-11.5508
▁드리는	-11.5509
▁먹다가	-11.5511
▁빵집	-11.5512
▁태풍이	-11.5513
▁선택한	-11.5514
▁많은께	-11.5514
▁지낭	-11.5515
▁엄청난	-11.5515
▁사라졌	-11.5516
▁싶댄	-11.5516
▁따라오	-11.5518
▁사램과	-11.5518
▁공무원이	-11.5521
▁아이스	-11.5524
게임	-11.5525
쫑	-11.5525
▁머리카락	-11.5525
▁돈으로잉	-11.5526
▁사회적	-11.5528
▁티브이	-11.5528
▁월달	-11.5529
▁학습	-11.553
▁각각	-11.553
▁그란꼬	-11.5531
▁힘들꼬	-11.5531
▁애기들은	-11.5532
▁미스타	-11.5532
▁델러	-11.5534
하겠다고	-11.5537
▁소린	-11.5538
▁그러드냐	-11.554
▁허긴	-11.5541
▁군댜	-11.5542
▁같닥	-11.5543
▁만일	-11.5546
▁삘	-11.5546
▁다양하	-11.5549
▁집안에서	-11.5549
▁주위에서	-11.5551
▁하거덩	-11.5552
▁장인	-11.5556
▁있었음	-11.5557
▁살믄서	-11.5557
▁바꾸고	-11.5559
▁추리	-11.5559
▁다니멍	-11.5559
▁선배들	-11.5559
▁엄마헌티	-11.5561
▁마르	-11.5563
▁있겠나	-11.5564
▁제우	-11.5564
▁빼고는	-11.5565
▁다년	-11.5565
라곤	-11.5569
웠던	-11.557
▁소년	-11.5573
▁보라구	-11.5575
▁않았는데	-11.5576
▁들온	-11.5576
▁실행	-11.5577
▁눈치를	-11.5577
였단	-11.5578
▁하켄	-11.5581
하시고	-11.5581
▁입어도	-11.5584
▁많았는디	-11.5585
▁가볍	-11.5585
었거든유	-11.5585
▁일박	-11.5586
▁기부	-11.5592
▁심장이	-11.5595
하드라구	-11.5595
▁불안한	-11.5596
▁키우꼬	-11.5597
▁때문에	-11.5599
▁제목이	-11.5601
▁계기	-11.5602
▁사는거	-11.5605
▁입엉	-11.5606
▁키스	-11.5606
▁니맨치로	-11.561
▁해볼까	-11.5611
▁당구	-11.5612
▁부지런	-11.5614
▁친구네	-11.5617
▁것인지	-11.5618
▁뽂아	-11.5624
륙	-11.5624
▁매겼던	-11.5624
▁쿠팡	-11.5624
▁샥시	-11.5624
▁앉거서	-11.5625
▁줘야지	-11.5625
▁그만쿰	-11.5625
▁아까침에	-11.5625
▁첫사랑	-11.5625
▁가기도	-11.5625
▁허거든	-11.5625
▁메느리	-11.5626
▁그기시	-11.5626
▁뵈리는	-11.5627
▁아문것두	-11.5627
▁두루	-11.5627
▁있엉으네	-11.5628
▁총각	-11.5629
▁하나씩	-11.5631
▁하다와	-11.5631
▁이삐	-11.5634
▁날더러	-11.5635
▁푸는	-11.5635
▁안되고이	-11.5635
▁달리기	-11.5636
▁현관	-11.5638
▁하신다	-11.5638
아방	-11.5639
봤던	-11.564
▁저걸	-11.5641
▁헉	-11.5645
▁활동적인	-11.5645
▁몰랑	-11.5645
▁절반	-11.5645
▁특수	-11.5647
▁하리	-11.5649
▁대니	-11.565
▁몸무게가	-11.565
▁군대에	-11.5651
▁체계	-11.5652
▁아주멍이	-11.5654
▁내용은	-11.5655
▁산다고	-11.5655
▁사실상	-11.5655
▁같아서요	-11.5657
▁갸네들	-11.5661
▁행이네	-11.5661
▁부정적인	-11.5662
▁못핸	-11.5662
▁하겄어	-11.5664
▁챙겨야	-11.5666
▁인지	-11.5668
▁기계가	-11.5672
▁해준다	-11.5674
▁잊어버리	-11.5677
▁좋았다	-11.5679
▁이유는	-11.5681
▁사전	-11.5681
▁좋냐	-11.5684
라면서	-11.5685
▁되잖아요	-11.5686
▁투표	-11.5689
▁단순	-11.5694
▁대박이	-11.5699
▁남성	-11.57
었거든요잉	-11.5703
홀	-11.5708
▁집안에	-11.5709
▁결론은	-11.5709
묘	-11.571
▁하느냐	-11.5712
▁아직부터	-11.5714
얀	-11.5715
▁하겠어	-11.5719
▁들으문	-11.572
줬으면	-11.5721
▁있기는	-11.5721
꿨	-11.5721
▁그리는	-11.5722
▁뜨구	-11.5723
걱	-11.5724
벡	-11.5724
▁말씀허신	-11.5724
▁움직일	-11.5724
▁아프리카	-11.5724
▁구들에서	-11.5725
▁빙떡	-11.5727
▁좋아해가주꼬	-11.5727
▁우연히	-11.5727
▁인쟈	-11.573
▁싶은데요	-11.573
▁말씀하신	-11.5731
▁시점	-11.5733
▁학창	-11.5733
▁썰매	-11.5734
달래	-11.5734
▁싸움이	-11.5734
▁문제인	-11.5735
▁즈네두	-11.5735
▁시기가	-11.5738
▁죽일	-11.5738
▁몬하느	-11.5738
▁드가면	-11.574
▁동네에서	-11.5741
▁훈련소	-11.5741
▁대접	-11.5742
▁큰아들	-11.5742
▁쌉	-11.5742
십만원	-11.5744
▁경허멍	-11.5744
▁댕기다가	-11.5746
▁그람요	-11.5747
▁해줄게	-11.5748
▁좋나	-11.5749
▁후기	-11.5751
▁몰라신디	-11.5751
▁장애	-11.5753
▁없지를	-11.5754
▁먹어보고	-11.5754
▁초보	-11.5755
▁허랜	-11.5756
▁보먼	-11.5757
▁삭제	-11.5761
▁중반	-11.5761
▁나머지는	-11.5764
▁애쓰	-11.5766
▁그중에	-11.5766
▁소심	-11.5767
▁나쁘다	-11.5767
▁됐다구	-11.5768
셔가지고	-11.5773
조사	-11.5775
린다고	-11.5777
▁써주	-11.578
▁오월	-11.5784
▁짓고	-11.5785
▁놀다가	-11.5787
▁챙기는	-11.5787
▁돼요잉	-11.5789
▁먹방	-11.5789
▁됭	-11.579
브렀어	-11.579
▁진로	-11.5791
▁그라이까	-11.5793
▁않았사	-11.5793
▁장관	-11.5794
▁가시나들	-11.5796
▁하는거야	-11.5796
▁서양	-11.5803
스럽다	-11.5804
▁고용	-11.5805
▁예쁘다	-11.5806
▁중대	-11.5806
▁따우	-11.5812
됐어	-11.5814
▁출발하	-11.5817
▁힘들드라고	-11.5818
▁편지를	-11.5818
▁못된	-11.5819
▁믿구	-11.5825
넝	-11.5825
켠	-11.5825
텅	-11.5825
▁있다카마	-11.5825
▁볶음밥	-11.5825
▁할락산	-11.5825
▁은그이	-11.5826
▁부엌	-11.5826
▁호기심	-11.5826
▁무너지	-11.5826
▁평상시에	-11.5826
▁째끔	-11.5828
▁주문을	-11.5828
▁초딩	-11.5829
▁자극적인	-11.5831
▁같든데	-11.5832
▁많댄	-11.5833
▁결혼헐	-11.5835
▁되니	-11.5839
적거리	-11.5839
▁정장	-11.5842
▁썼던	-11.5842
▁소독	-11.5844
갈비	-11.5845
▁입맛에	-11.5849
▁우찌	-11.5849
▁피아노를	-11.5851
▁말허고	-11.5854
▁궁금하네	-11.5855
▁팀은	-11.5856
▁뽑는	-11.5858
▁싶다구	-11.5862
▁없구나	-11.5863
▁좋아하거든예	-11.5865
▁다음에는	-11.5866
▁그러드만	-11.5867
▁입으루	-11.5867
▁하셨는디	-11.5868
거우다	-11.587
떨	-11.5872
▁참치	-11.5872
▁잉게	-11.5873
▁낙지	-11.5878
▁피해자	-11.588
▁경영	-11.5881
▁내려놓	-11.5882
▁되나요	-11.589
▁사망	-11.589
다닌	-11.5894
▁어뜨케든	-11.5896
▁가문	-11.5898
▁많기	-11.5898
▁조명	-11.5899
▁뿐이야	-11.5899
▁갔네	-11.5903
겠제	-11.5904
▁하거든요잉	-11.5906
▁갔댄	-11.591
▁내보꼬	-11.591
탑	-11.5916
콕	-11.5925
헨	-11.5927
▁긍정적인	-11.5927
▁아랐싸요	-11.5927
둠	-11.5927
뜸	-11.5927
▁아닙니까	-11.5927
▁상새나	-11.5928
▁을마나	-11.5928
▁행수님	-11.5928
▁잔인한	-11.5928
▁꽁구	-11.5929
▁담배를	-11.593
▁청춘	-11.593
▁만나꼬	-11.5931
▁튼튼	-11.5931
▁끼구	-11.5934
▁구수	-11.5934
▁면허증	-11.5935
했구나	-11.5937
▁보장	-11.5941
▁한짝	-11.5941
▁이유로	-11.5942
하려면	-11.5942
▁묵었는데	-11.5944
▁무척	-11.5947
▁지옥	-11.5954
까던	-11.5954
▁세상을	-11.5956
▁어떡	-11.5957
▁좋아질	-11.596
▁전헤	-11.5961
▁좋아하지	-11.5961
▁많으니께	-11.5961
▁그택	-11.5962
▁남자들이	-11.5964
▁줄거리	-11.5966
▁전학	-11.597
▁아프게	-11.5971
▁숱	-11.5971
▁보험을	-11.5972
▁하셨어	-11.5974
▁소설이	-11.5974
▁이해해	-11.5979
▁기다리는	-11.598
▁년도에	-11.5984
▁구역	-11.5984
▁키러레	-11.5989
했었던	-11.599
▁이론	-11.5995
▁놈한테	-11.5996
▁갈려고	-11.5998
▁할아부지가	-11.5999
▁주벤에	-11.6
▁중국에서	-11.6001
▁나이대	-11.6002
▁무심	-11.6003
▁코인	-11.6004
동생	-11.6005
▁사이에	-11.6007
▁육아	-11.6007
▁인가이	-11.6008
▁연수	-11.6009
▁하주는	-11.6012
▁메리	-11.6013
덤	-11.6016
▁줬는데	-11.6018
시니까	-11.6022
▁다니는디	-11.6023
▁주제를	-11.6024
톱	-11.6026
▁버거	-11.6028
▁요러	-11.6029
▁오빠야가	-11.603
▁워째문	-11.6031
▁플랫폼	-11.6031
펑	-11.6031
▁마케팅	-11.6031
▁활성화	-11.6031
▁나름때로	-11.6031
볼래	-11.6031
▁콩나물	-11.6031
▁요망지	-11.6031
▁츠음부터	-11.6032
▁멘탈	-11.6032
▁고고마	-11.6032
▁끝냈	-11.6033
▁기념	-11.6035
▁협박	-11.6035
▁언니네이	-11.6036
▁깨달	-11.6036
▁열두시	-11.6036
▁시어멍이	-11.6037
▁전체적으로	-11.604
▁이디도	-11.6041
▁성능	-11.6044
▁구멍	-11.6044
▁보당	-11.6045
▁초등	-11.6045
▁춥다	-11.6045
▁거러지	-11.6046
▁허무	-11.6047
▁목통	-11.6048
▁보고싶	-11.6049
▁내중에	-11.605
▁사정을	-11.605
▁살았는데	-11.6053
▁벌어야	-11.6054
▁알려줘	-11.6055
않	-11.6055
▁해수욕장	-11.6055
▁드간	-11.6057
▁반품	-11.6057
▁싶으면은	-11.6058
▁올려놓	-11.6061
▁어른이	-11.6063
▁있잖어	-11.6064
▁홈트	-11.6065
▁뵈지	-11.6066
▁상식	-11.6067
▁형아	-11.6068
▁먹을래	-11.6069
▁찍구	-11.6069
▁단정	-11.607
해지꼬	-11.6076
▁사램으로	-11.6076
▁맛있지	-11.6078
▁가그냉	-11.6081
식데레	-11.6081
▁소용	-11.6084
▁정해진	-11.6089
▁생각해가	-11.6093
▁욕먹	-11.6094
▁모았	-11.6094
▁해봔	-11.6096
▁솥	-11.6104
▁맥여	-11.6108
이래두	-11.6109
▁타입이	-11.611
▁실장님	-11.611
▁했수다	-11.6112
▁아빠트	-11.6113
이에요잉	-11.6116
▁뉴스에	-11.612
쌌	-11.6121
▁끝났어	-11.6122
▁잠잠	-11.6122
▁멋있게	-11.6123
▁의견을	-11.6123
뛰	-11.6125
▁생기구	-11.6126
▁막둥이	-11.6126
▁시도를	-11.6127
▁말씀하시	-11.6128
▁관계를	-11.6129
▁가기로	-11.6129
▁집중을	-11.6129
▁땡기는	-11.613
▁성분	-11.6134
닷	-11.6135
▁갖는	-11.6135
꼿	-11.6135
▁닭가슴살	-11.6135
▁뒈져두	-11.6135
▁손흥민	-11.6135
▁실커정	-11.6135
▁애완동물	-11.6135
맷	-11.6135
▁저렴한	-11.6135
▁껍데기	-11.6135
▁괘안아요	-11.6135
▁아적은	-11.6137
▁캐나다	-11.6137
▁내리부터	-11.6137
▁식욕	-11.6137
▁문제여	-11.6139
▁바둑	-11.6141
▁오라방은	-11.6141
▁쏴	-11.6141
▁오케이	-11.6141
▁떠난	-11.6142
▁마시고	-11.6143
▁휴양	-11.6143
▁헤어질	-11.6143
▁추세	-11.6146
▁만내러	-11.6149
▁뜨거운	-11.615
▁아까운	-11.615
▁닳	-11.6152
시키고	-11.6154
▁만들어갖고	-11.6154
▁알았디야	-11.6157
▁육지서	-11.6158
졌는데	-11.616
다닐	-11.6162
▁맹글	-11.6164
▁반팔	-11.6166
풍이	-11.6171
▁회사기	-11.6173
▁말아사	-11.6175
▁쩔	-11.6175
▁좋아해유	-11.6179
으시로	-11.6181
▁요것두	-11.6183
▁있었주게	-11.6185
▁전시	-11.6187
▁글믄	-11.6189
다본께	-11.6191
▁도착했	-11.6194
데렌	-11.6195
▁꼬매	-11.6198
▁박혀	-11.6198
▁흥미가	-11.6198
▁맞안	-11.6198
▁구박	-11.6209
▁평화	-11.6213
▁되시	-11.6214
▁고프	-11.6215
▁필요없	-11.6217
▁주워	-11.6217
▁끌구	-11.6219
겹	-11.6221
▁썼다	-11.6224
▁모르는데	-11.6225
▁불과	-11.6225
▁끌리	-11.6225
▁얘랑	-11.6225
▁나오드라구	-11.6226
▁키운다	-11.6227
▁죽겄어	-11.6232
획	-11.6233
▁준비하는	-11.6233
▁소모	-11.624
▁쌂아	-11.624
쫘	-11.624
▁반굉일	-11.624
▁웨딩	-11.624
▁영수증	-11.624
▁화요일	-11.624
▁바끼는	-11.624
▁겡우는	-11.6241
▁낡	-11.6241
▁쌍둥이	-11.6241
▁혔다가	-11.6241
▁반장님	-11.6242
▁편이에요잉	-11.6242
▁싹싹	-11.6242
▁청바지	-11.6242
▁빨끈	-11.6243
▁놔뒀	-11.6243
▁리스트	-11.6245
▁워드메서	-11.6247
▁팬들	-11.6247
▁최종	-11.6248
▁그림체	-11.6248
▁살암신	-11.6248
▁메시지	-11.6249
▁야이를	-11.625
보담	-11.6251
▁간단하게	-11.6252
▁듣게	-11.6252
▁들었거든	-11.6253
▁주드라고	-11.6253
▁싶어가주꼬	-11.6253
였으면	-11.6256
▁커버	-11.6256
▁가짜	-11.6258
▁추룩	-11.6262
▁두이서	-11.6262
▁생리	-11.6263
▁같더라고	-11.6264
▁아랫	-11.6264
였노	-11.6265
▁닮안	-11.6265
▁빌려주	-11.6266
▁조합	-11.6267
▁신청을	-11.6267
▁학생회	-11.6272
▁대전이	-11.6274
▁아쉽기	-11.6274
▁옹게	-11.6282
▁얌전	-11.6285
▁증가	-11.6289
▁댁에	-11.6292
▁요기서	-11.6297
▁어쩌다	-11.6297
▁미국에서	-11.6298
▁뛰고	-11.63
▁얘기하구	-11.63
▁건데요	-11.6302
▁꾹	-11.6302
▁관광객	-11.6303
▁타입	-11.6306
▁손잡	-11.6306
▁낫겠	-11.6307
▁고단	-11.6311
들안티	-11.6312
▁저쪽	-11.6317
▁얘들	-11.6328
▁식당에서	-11.633
겠소	-11.6333
▁골았	-11.6341
늬	-11.6342
/	-11.6346
▁뜨뜻한	-11.6346
▁생가개보면	-11.6346
▁잊고	-11.6346
▁지송합니다	-11.6346
▁펑펑	-11.6346
▁날매둥	-11.6346
▁코미디	-11.6346
▁씅질	-11.6346
▁그러먼서	-11.6346
▁게윽을	-11.6346
▁마누라	-11.6347
▁맨들고이	-11.6347
▁말씀드렸	-11.6347
▁뻔뻔	-11.6348
▁물건들	-11.6349
▁주무시	-11.635
▁메누리가	-11.6353
▁우타하나	-11.6354
▁간섭	-11.6354
▁않앴던	-11.6356
마냥	-11.6358
▁주드라구	-11.6358
▁편견	-11.6359
▁서버	-11.6359
▁미팅	-11.6359
▁내밀	-11.6359
▁잡아야	-11.636
▁들어왔어	-11.6361
▁최저	-11.6363
▁시국이	-11.6363
▁머스마들은	-11.6364
▁을매나	-11.6365
너머	-11.6365
▁속으루	-11.6365
▁봤제	-11.6367
▁아닌거	-11.6368
▁가을은	-11.6369
▁쓸데	-11.6372
▁받음	-11.6373
▁중단	-11.6374
▁중고차	-11.6374
▁마옴두	-11.6377
▁죽으문	-11.6377
▁쳐서	-11.6378
▁취미생활	-11.638
▁도는	-11.6381
▁바짝	-11.6382
참내	-11.6384
▁합디다	-11.6386
▁받쳐	-11.6387
▁데려다	-11.6388
▁사램하고	-11.6389
스런	-11.639
▁강제	-11.639
▁그그만	-11.6394
▁말씀드리	-11.6396
▁들머	-11.6396
▁껍	-11.6398
▁가봐야	-11.6399
▁엄니가	-11.6399
▁머스마랑	-11.6401
줬으머	-11.6402
▁영하곡	-11.6405
구마잉	-11.6406
봐야겠다	-11.6407
▁결과는	-11.6409
▁겹	-11.641
쭈게	-11.641
조림	-11.6411
▁달르다	-11.6416
▁니네들	-11.6416
▁알겠지	-11.6419
▁말씸하시	-11.642
▁찬성	-11.642
▁느낌으로	-11.6421
▁특징	-11.6422
▁처제	-11.6423
▁여자친구가	-11.643
랄까	-11.6431
▁께임도	-11.6433
▁데려오	-11.6435
이라던지	-11.6435
▁조상	-11.6436
▁매치	-11.6436
▁예산	-11.6438
▁하셨어요	-11.6443
찾	-11.6445
넷	-11.6447
헙	-11.6447
▁봤네	-11.6449
▁성격인	-11.6453
▁잃었	-11.6454
▁낳구	-11.6454
▁맑은	-11.6454
▁에스유브이	-11.6454
▁째깐한	-11.6454
▁쭈꾸미	-11.6454
뱈	-11.6454
▁헷수고	-11.6454
▁천처이	-11.6454
▁발쌔	-11.6454
▁안그래	-11.6455
▁베이스	-11.6456
▁기쁨	-11.6457
▁기억나나	-11.6458
▁강화	-11.6458
▁호텔에서	-11.6461
▁츰엔	-11.6462
▁좋아한단	-11.6462
▁헙디다	-11.6462
▁드라만	-11.6462
▁잡채	-11.6463
▁빵꾸	-11.6466
▁행복해	-11.6468
▁최근에느	-11.6468
▁단골	-11.647
▁그기에서	-11.647
▁심하다	-11.6477
▁닭발	-11.6478
려머	-11.6479
▁뛰어나	-11.6483
미터	-11.6483
▁보여줘	-11.6485
▁많아졌	-11.6489
▁장남	-11.649
▁확인해	-11.649
▁고맙구	-11.6491
▁뒤집	-11.6491
▁뎌	-11.6494
▁오븐	-11.6494
▁주식은	-11.6495
▁인수	-11.6499
▁많잖아예	-11.65
셔야죠	-11.65
셨는지	-11.6501
▁니트	-11.6509
▁먹으이까	-11.6511
▁보이는디	-11.6512
▁치아	-11.6515
▁인성	-11.6518
▁먹을까	-11.652
▁났는디	-11.6521
▁얘기하느	-11.6525
▁근강한	-11.6526
하내기	-11.6527
▁시장에	-11.6534
졌사	-11.6534
▁보세	-11.6536
▁맞죠	-11.6537
▁보이는데	-11.6537
▁마직	-11.6538
▁부모님은	-11.6538
▁바까야	-11.6539
▁받았는데	-11.6539
▁취하	-11.654
▁줬다	-11.6541
▁겨론하면	-11.6547
▁그러는거	-11.6548
▁들어오구	-11.6549
▁매주	-11.6549
▁넘쳐	-11.655
▁둘러보	-11.6552
꿉	-11.6558
퍼센트	-11.6558
컴	-11.6558
엑	-11.656
▁좁아	-11.6563
깄	-11.6563
▁따뜨단	-11.6563
▁여그저기	-11.6563
▁받어갖고는	-11.6563
▁색다른	-11.6563
▁쎄께	-11.6563
▁가차분	-11.6563
▁일어낭	-11.6563
▁시금치	-11.6563
▁관객	-11.6565
잡아	-11.6565
▁은근히	-11.657
▁탈출	-11.6571
▁낯선	-11.6572
▁억수	-11.6573
▁모르겄대이	-11.6575
▁밥이나	-11.6576
▁고딩	-11.6577
▁칠천	-11.6578
▁자체는	-11.6579
▁공다지로	-11.658
▁화해	-11.6582
▁대간하	-11.6582
▁없어가꼬	-11.6586
읍디다	-11.6588
▁애견	-11.6589
▁독자	-11.6589
▁돌아갈	-11.6589
▁반전	-11.659
▁경제적인	-11.6593
▁아파요	-11.6593
▁생각한대이	-11.6596
▁공공	-11.6597
▁허버	-11.6597
▁싶어요잉	-11.6597
▁사무실에	-11.6599
▁느무	-11.6599
▁고냥	-11.6601
▁했져	-11.6606
▁같던데	-11.661
▁바까서	-11.6611
▁유지하	-11.6616
▁대놓고	-11.6621
▁놨는디	-11.6621
▁연상	-11.6627
▁들어갔다	-11.6629
▁룰	-11.6631
▁부산에서	-11.6634
드릴께요	-11.6634
▁힘들긴	-11.6635
▁책들	-11.6638
▁자란	-11.6639
▁웃움	-11.6642
▁짓이야	-11.6642
▁이딴데	-11.6642
▁공부허	-11.6643
▁트레	-11.6646
▁접수	-11.6648
겠더라	-11.6651
▁지겡	-11.6652
▁되거나	-11.6655
하드라	-11.6657
▁드라마에서	-11.6659
▁살아가지고	-11.666
▁사용하는	-11.666
▁아저씨들	-11.6664
▁매트	-11.6665
▁스트레스받	-11.6665
▁알아보고	-11.6671
쩡	-11.6672
▁늙으	-11.6672
▁뎅기민시	-11.6672
▁숟갈	-11.6672
▁컨트롤	-11.6672
▁그나따나	-11.6672
▁매일매일	-11.6672
▁웬만하믄	-11.6672
▁영원히	-11.6673
▁된장찌개	-11.6673
▁냄시가	-11.6673
▁엉덩이	-11.6673
▁없아두	-11.6673
스름	-11.6673
▁멜론	-11.6673
▁접촉	-11.6674
▁좋아한데이	-11.6674
▁잔잔하	-11.6674
▁구녕	-11.6675
▁중요해	-11.6675
▁취득	-11.6675
▁깼	-11.6676
▁극정되	-11.6676
▁써먹	-11.6677
▁좋겄는디	-11.6679
댕겨	-11.6679
▁몰르겠	-11.668
놨다가	-11.6681
▁족발	-11.6681
▁현질	-11.6683
▁블루	-11.6686
▁낭반이	-11.6687
▁별론	-11.6687
▁오디	-11.6688
▁변경	-11.669
▁겅허고	-11.6693
▁그치마	-11.6693
▁피디	-11.6694
▁오늘도이	-11.6695
▁경제적으로	-11.6695
▁넷이	-11.67
▁정직	-11.67
▁경해부난	-11.6702
▁받으러	-11.6703
▁염증	-11.6705
▁아직까정	-11.6706
▁십칠	-11.6708
▁넘어지	-11.6708
▁요령	-11.6708
▁조교	-11.6709
연히	-11.6709
▁깨워	-11.6712
혔다	-11.6717
▁저한테는	-11.6717
▁하르방은	-11.672
▁요릴	-11.6722
▁하던데	-11.6723
▁동그	-11.6723
▁모르겄고	-11.6724
▁뼈가	-11.6724
▁몬하게	-11.6724
▁아이래요	-11.6726
▁벗고	-11.6734
▁펌	-11.6737
▁없었사	-11.6738
▁느껴졌	-11.6738
▁소유	-11.6742
▁대세	-11.6744
▁무지기	-11.6745
▁동백	-11.6747
▁주임	-11.6752
▁달래이	-11.6752
말루	-11.6756
▁해봐라	-11.6758
▁고파	-11.6758
▁멀미	-11.6759
▁사램에게	-11.676
천만원	-11.676
▁인분	-11.6762
▁겅하곡	-11.6765
▁됐는지	-11.6767
▁와그넹	-11.6769
▁당연	-11.6775
▁입시	-11.6775
▁학점	-11.6776
첨	-11.6778
쏠	-11.678
▁힘들었어	-11.678
▁멕이고	-11.678
갠	-11.6781
흐	-11.6781
▁모른디	-11.6782
왜	-11.6782
▁낚수	-11.6784
▁똑부러지니	-11.6784
▁롱패딩	-11.6784
▁말마따나	-11.6784
▁얇게	-11.6784
▁컴뷰터	-11.6784
▁트라우마	-11.6784
밧	-11.6784
샷	-11.6784
▁부처님	-11.6784
▁변호사	-11.6784
▁두시간	-11.6784
▁장단점	-11.6784
▁말허서	-11.6784
▁만났는데	-11.6785
▁알아볼	-11.6785
▁도저히	-11.6785
▁당첨	-11.6785
▁계좌	-11.6785
▁관념	-11.6787
▁크리스	-11.6787
▁모르것어	-11.6788
▁봅서	-11.6788
▁건조기	-11.6788
▁극단적	-11.6788
▁대해선	-11.679
▁뛸	-11.6791
▁최근엔	-11.6791
▁고뿔	-11.6791
▁아빠한티	-11.6793
▁기우	-11.6795
▁예자들이	-11.6796
▁인해가	-11.6796
▁마농	-11.6797
▁감추	-11.6801
▁떡국	-11.6801
▁방송에서	-11.6802
▁가위	-11.6803
▁쓱	-11.6803
▁통신	-11.6803
▁언니야잉	-11.6804
▁긍가	-11.6805
▁작품을	-11.6806
▁어찌고	-11.6806
▁때까지는	-11.6806
▁돌아보	-11.6807
▁깜장	-11.681
▁비트	-11.681
▁도랜	-11.6811
▁재밌디야	-11.6812
▁정신없	-11.6812
▁상추	-11.6815
▁시간대	-11.6816
▁놓으믄	-11.6817
▁낄	-11.6822
▁그러까	-11.6823
▁가운데	-11.6823
짐치	-11.6823
▁고갯목을	-11.6823
▁했더니	-11.6825
▁놨다가	-11.6826
▁뽑았	-11.6828
▁죽언	-11.6831
▁부정	-11.6835
싶어	-11.6839
▁옥상	-11.684
▁거개서	-11.6841
랬어	-11.6842
윤	-11.6843
▁뭐냐면은	-11.6844
시럽	-11.6846
므리	-11.6848
▁좋겄	-11.6851
줬으문	-11.6852
▁지키는	-11.6852
▁오염	-11.6854
▁좋아지는	-11.6863
▁남자친구랑	-11.6863
셨잖아요	-11.6872
▁이카지	-11.6878
▁짜장	-11.6885
▁앞서	-11.6888
▁짤라서	-11.689
▁기상	-11.689
▁찝찝	-11.6892
융	-11.6894
▁쓰잘데기	-11.6896
깟	-11.6896
켔	-11.6896
▁떨어지믄	-11.6896
▁엘리베이터	-11.6896
▁고속도로	-11.6896
▁새벡에	-11.6896
▁태어난	-11.6896
▁무서왕	-11.6896
▁은퇴	-11.6897
▁입장에선	-11.6897
▁말했다시피	-11.6897
▁안녕히	-11.6899
▁젠부	-11.69
▁정원	-11.69
▁대핵교	-11.69
▁목장	-11.6901
활동	-11.6905
▁혼처	-11.6905
▁육천	-11.6906
▁홈치	-11.6908
▁엄마영	-11.6909
▁생각해보믄	-11.691
▁어린애	-11.691
▁좋아한다구	-11.6911
▁영웅	-11.6911
▁말해봐	-11.6913
▁맥히	-11.6913
▁뽁	-11.6915
▁두렵	-11.6916
▁우아	-11.6917
▁좋아하다	-11.6917
▁아척	-11.6918
▁개안은데	-11.6919
▁보냉	-11.6919
▁이상하라우	-11.692
▁노면은	-11.6921
▁일반적인	-11.6922
▁거쪽으로	-11.6923
▁카거든예	-11.6926
▁십만원	-11.6927
▁쓰여	-11.6928
▁괜찮애	-11.6928
▁유산	-11.693
▁보조제	-11.693
▁누군데	-11.6932
▁다음엔	-11.6932
였사	-11.6933
▁복학	-11.6935
▁샛	-11.6936
▁봤었는데	-11.6937
▁피파	-11.6938
▁열받	-11.694
▁세종	-11.694
▁재능	-11.6941
▁풀어주	-11.6942
얘기	-11.6944
▁먹을라고	-11.6945
▁되신	-11.6945
▁야근	-11.6947
▁말았어	-11.6949
▁자존감이	-11.6953
▁열려	-11.6955
▁생각하기에	-11.6958
▁왔는데	-11.6961
▁봄에는	-11.6963
▁살았는디	-11.6963
▁제법	-11.6966
▁살아왔	-11.6971
▁않으니께	-11.6972
▁신부	-11.6973
▁대본	-11.6977
▁있었네	-11.6978
▁파란	-11.6982
쩜	-11.6982
▁으디가	-11.6983
▁안되믄	-11.6985
▁시무	-11.6987
▁복사	-11.6989
▁안녕하	-11.6991
▁밥상	-11.6992
여운	-11.6992
▁결혼할	-11.6993
▁나아지	-11.6997
부분	-11.6998
▁있겄어	-11.6998
이라니	-11.6999
▁사냥	-11.7001
▁효과를	-11.7002
▁갇	-11.7003
▁만들어진	-11.7005
천구백	-11.7008
▁생각해봐	-11.7008
▁아깝다	-11.7009
주셔서	-11.7009
▁꼬춧가루	-11.701
▁뷔페	-11.701
▁샌드위치	-11.701
▁숟가락	-11.701
▁튀어나왔었가지고	-11.701
▁횟집	-11.701
▁디즈니	-11.701
▁요기는	-11.701
▁가운디	-11.701
▁프라이	-11.7012
▁뜨겁	-11.7012
▁발톱	-11.7012
▁신세계	-11.7015
▁아까워	-11.7016
▁진지하게	-11.7018
▁입짝으로	-11.702
돌아	-11.702
▁안타까워	-11.7021
▁벌금	-11.7023
▁오셨어요	-11.7024
▁현실적으로	-11.7025
▁작곡	-11.7025
▁낭말	-11.7028
▁한번씩	-11.703
▁제주시	-11.703
▁동물들	-11.7033
▁머스마들이	-11.7034
▁피해가	-11.7034
▁있으니까	-11.7035
▁사람들헌티	-11.7036
문제	-11.7039
▁싸께	-11.7041
▁선수들이	-11.7041
겡	-11.7044
▁노출	-11.7044
▁방식이	-11.7044
▁멋있다	-11.7048
▁오직	-11.705
▁생신	-11.705
▁완벽하	-11.7051
▁혈관	-11.7059
▁쓰는데	-11.706
▁군산	-11.7061
겠단	-11.7062
▁쥐어	-11.7065
▁결혼하기	-11.7066
▁오년	-11.7066
▁하거든요	-11.7067
▁햄더라	-11.7076
봐봐	-11.7082
▁운전병	-11.7086
▁친절하	-11.7088
▁봤잖아	-11.709
▁살았다	-11.7091
▁공감을	-11.7091
▁가만있	-11.7094
▁주목	-11.7098
딜	-11.7098
▁감시	-11.7104
▁봤노	-11.7105
▁한국어	-11.7107
▁안녕	-11.7108
▁않아유	-11.7108
▁오믄서	-11.7109
▁청소기	-11.7109
줬던	-11.711
▁좋죠	-11.711
하더니	-11.7113
▁뚱	-11.7114
▁재미난	-11.7118
▁바램	-11.7118
▁불량	-11.7121
▁닮지	-11.7123
▁혈액	-11.7124
빳	-11.7124
돔	-11.7124
깁	-11.7124
잽	-11.7124
▁긍강하게	-11.7125
▁껌정색	-11.7125
▁무릎고벵이	-11.7125
▁잘지꺼리고	-11.7125
윙	-11.7125
챔	-11.7125
▁곳테서	-11.7125
▁앤만하면	-11.7125
▁내꼰지	-11.7125
봅시다	-11.7125
▁캤었꼬	-11.7125
▁하드라구유	-11.7125
▁나타난	-11.7125
깜	-11.7126
땀	-11.7126
▁그만뒀	-11.7126
▁저지레	-11.7127
버섯	-11.7127
▁놀이터	-11.7127
▁지지배	-11.7128
▁사람이영	-11.7129
▁꼼꼼	-11.7131
▁백팔십	-11.7134
▁했응께	-11.7135
▁뉴	-11.7136
▁하와이	-11.7137
▁혼자만이	-11.7137
▁코치	-11.7138
▁오버	-11.7142
▁돌아온	-11.7143
▁그랬싸	-11.7143
하잰	-11.7147
▁오디로	-11.7148
▁알았으문	-11.7149
▁살아남	-11.7149
▁걸려가지고	-11.7151
▁팡	-11.7153
다기보다느	-11.7155
▁아짐부	-11.7155
▁춥고	-11.7157
▁싶어신디	-11.7159
▁만났던	-11.7159
▁회산	-11.7159
▁습관을	-11.7163
▁카트	-11.7164
▁보여요	-11.7166
▁저렴하게	-11.7166
▁트리	-11.7167
▁원장	-11.7169
▁입력	-11.7169
▁물어보면은	-11.7173
▁가족들이랑	-11.7174
▁지네들	-11.7177
였잖아	-11.7178
허연	-11.7179
▁관해서	-11.718
▁국민들	-11.7181
▁재재	-11.7181
▁알죠	-11.7184
▁트러블이	-11.7185
▁음성	-11.7188
▁물어봤어	-11.7188
▁굴리	-11.7193
▁좋아하세요	-11.7193
▁천상	-11.7196
▁노려	-11.7197
주마씸	-11.7197
놨던	-11.72
▁결혼하고	-11.72
▁들어가기	-11.7205
▁승부	-11.7205
▁들어갔어	-11.7206
▁말이예요	-11.7213
▁실실	-11.7214
▁징말	-11.7216
▁재기야	-11.7217
겼다	-11.7224
▁가야되	-11.7226
▁버치	-11.7227
▁이랬어	-11.7228
▁유명했	-11.7232
▁짜르고	-11.7232
▁좋아하기	-11.7233
▁찾아보꼬	-11.7236
▁생기꼬	-11.7236
륜	-11.7237
▁깨끗한	-11.7238
핼	-11.7241
▁서둘러	-11.7241
▁양배추	-11.7241
▁오라부댁	-11.7241
▁컨디션	-11.7241
▁플라스틱	-11.7241
▁금마들이랑	-11.7241
▁꺼꿀로	-11.7241
▁상그	-11.7241
▁유재석	-11.7241
▁컬러	-11.7241
▁너갱이가	-11.7241
▁이적때	-11.7241
▁쓰러져	-11.7241
▁동시에	-11.7242
어머이	-11.7242
▁검찰	-11.7242
▁하겄지	-11.7242
▁자녀들	-11.7243
▁바나나	-11.7244
힘	-11.7244
▁압박	-11.7245
▁출신이	-11.7245
▁햄신지	-11.7245
▁온몸	-11.7245
답니다	-11.7248
▁결혼했	-11.7248
▁더이상	-11.7249
▁형제들	-11.725
▁창피	-11.7252
▁지켜야	-11.7256
▁상처를	-11.7257
▁아직까진	-11.7257
▁소이에	-11.7257
▁어두워	-11.7257
식품	-11.7258
▁매너	-11.7259
▁페이지	-11.7259
▁탈색	-11.726
▁혈액형이	-11.726
구녕	-11.726
▁불려	-11.7261
▁열차	-11.7261
▁선택하	-11.7262
▁해주이고	-11.7263
▁안해동	-11.7264
▁가작	-11.7264
▁개미	-11.7266
▁아이모	-11.7267
▁몰른게	-11.727
▁만난다	-11.7271
▁당할	-11.7273
▁댕기는데	-11.7273
▁산소	-11.7273
▁쑤	-11.7274
▁있었으믄	-11.7276
▁투어	-11.7276
▁배우자	-11.7278
▁컷	-11.7279
▁공통	-11.7281
▁마옴으로	-11.7281
▁사람들끼리	-11.7285
▁그러이까	-11.7285
▁절약	-11.7287
▁이카는데	-11.7289
▁살아갈	-11.7289
▁없으시	-11.729
▁맞치	-11.7292
▁있드라고유	-11.7292
했주게	-11.7292
▁비끄	-11.7294
▁갔잖아	-11.7297
▁그른건	-11.7302
▁시스템이	-11.7304
▁확인하	-11.7306
▁놘	-11.7306
▁아퍼서	-11.7307
▁저번에	-11.7315
▁에스엔에스를	-11.7315
▁닮아가지고	-11.7324
당으네	-11.7326
▁천사	-11.7326
▁왕자	-11.7327
▁다닌다	-11.7335
▁뭉치	-11.7337
▁즈그느	-11.7338
▁연어	-11.7339
▁돌봐	-11.7342
했더니	-11.7346
▁해봤어	-11.7348
▁문제점	-11.735
▁갈쳐	-11.7351
▁많았는데	-11.7351
▁곤치	-11.7353
▁걸쳐	-11.7357
햄쪄	-11.7357
컹	-11.7358
▁바이올린	-11.7358
▁뻐꾸기눈물	-11.7358
▁섞여	-11.7358
▁이탈리아	-11.7358
삥	-11.7358
왓	-11.7358
컥	-11.7358
▁이래브면	-11.7358
▁됐따꼬	-11.7358
▁요쯤에는	-11.7358
▁팔로우	-11.7359
▁간헐적	-11.7359
▁혀보구	-11.7359
▁해병대	-11.736
▁다행으로	-11.736
▁한편으로	-11.736
▁해드리	-11.736
▁말했데끼	-11.736
▁징그러	-11.736
▁메밀	-11.7366
▁목돈	-11.7366
▁바지씨	-11.7367
▁인터넷으루	-11.7368
▁꽁짜로	-11.7373
▁마취	-11.7378
습디다	-11.7378
▁알려줄	-11.7379
▁본다고	-11.7379
▁무지하게	-11.7381
▁출연	-11.7382
▁서운한	-11.7382
겄는가	-11.7383
▁쿵	-11.7383
했노	-11.7384
▁것이고잉	-11.7385
▁겁내	-11.7386
▁입금	-11.7388
▁생각합니다	-11.7389
▁경해난	-11.739
다보니까	-11.7392
려민	-11.7392
▁도와준	-11.7392
▁마커	-11.7394
▁카드라꼬	-11.7394
▁복상	-11.7398
▁할려면	-11.7401
▁대출을	-11.7401
▁수습	-11.7402
더냐	-11.7404
▁했거든요	-11.7406
▁풋	-11.7406
▁부장님	-11.741
▁물어보니께	-11.7416
▁누님	-11.7417
▁리더	-11.742
▁돼가지구	-11.742
월드	-11.7421
▁문신	-11.7424
▁착상	-11.7425
주시는	-11.743
▁동화	-11.7433
▁인간들	-11.7435
▁터치	-11.7437
▁재능이	-11.7441
▁억울한	-11.7441
▁멀어지	-11.7443
▁농사를	-11.7445
▁떤	-11.7448
▁단순한	-11.7448
▁찾아왔	-11.7448
▁칩	-11.7448
▁입대	-11.7449
▁정학	-11.745
가지고잉	-11.7454
▁벌리	-11.7455
▁편하다	-11.7456
▁레드	-11.7458
▁뭔디	-11.7459
실건디	-11.746
▁잡꼬	-11.7461
더래도	-11.7463
▁닮수다	-11.7463
▁거게까지	-11.7465
▁백만원	-11.7471
▁전원	-11.7473
▁깝깝	-11.7477
▁로래방	-11.7477
▁샴푸	-11.7477
▁했으닝게	-11.7477
궂	-11.7477
튿	-11.7477
▁야야라이	-11.7478
▁목요일	-11.7478
▁은혜	-11.7478
▁삐삐	-11.7479
▁데뷔	-11.7479
▁보여줬	-11.748
▁재미있어	-11.748
▁말씸드렸	-11.748
▁떨어졌어	-11.7481
▁빠져나가	-11.7481
▁서울엘	-11.7482
▁목도리	-11.7483
뭉	-11.7483
▁새램	-11.7484
▁아방안티	-11.7485
▁서핑	-11.7486
▁채리고	-11.7487
▁형성	-11.7489
▁가봥	-11.7491
▁이어지	-11.7493
▁묵다	-11.7493
▁거북이	-11.7493
▁말쌈	-11.7494
▁스승	-11.7495
▁헝	-11.7496
▁운제든지	-11.7496
▁애껴	-11.7498
▁예측	-11.7499
▁입짝	-11.75
▁지혜	-11.75
▁증상이	-11.7504
▁타격	-11.7506
▁파워	-11.7506
▁컴퓨터로	-11.7508
▁좋아했어	-11.7509
그등	-11.7511
▁힘들었느	-11.7511
▁먹잰	-11.7512
▁부검	-11.7512
▁년째	-11.7512
▁내보내	-11.7514
▁없는데요	-11.7518
▁쌓인	-11.7519
▁가수들이	-11.7527
▁친구들하구	-11.7529
▁전투	-11.7531
슬한	-11.7533
▁사랭이	-11.7533
▁한국말	-11.7535
▁그라요잉	-11.7535
▁돌아가신	-11.7537
햄수과	-11.7537
▁유전자	-11.7546
▁출산	-11.7546
▁공부하구	-11.7546
빼기	-11.7546
▁싫은디	-11.7548
▁사례	-11.755
▁휴식	-11.7552
▁지네들이	-11.7553
▁챙겨먹	-11.7555
▁사라진	-11.7556
▁몰르지	-11.7558
▁찐한	-11.7559
▁몰라부난	-11.7565
▁간판	-11.7567
▁있었어요잉	-11.7567
▁이야기해	-11.7571
▁해야겠다	-11.7583
▁왕으네	-11.7584
▁모처럼	-11.7586
해부니까	-11.7589
▁없죠	-11.759
▁요리사	-11.7592
해주세요	-11.7596
▁기생충	-11.7598
▁맛좋게	-11.7598
▁자연스럽께	-11.7598
▁즐거움	-11.7598
▁뚜꺼운	-11.7598
▁삼학년	-11.7598
▁엄악을	-11.7598
▁적당히	-11.7598
▁친구들허구	-11.7598
▁메이플	-11.7598
▁요양원	-11.7598
▁따땃하	-11.7598
▁두려워	-11.7598
▁하거나잉	-11.7599
▁혼번씩	-11.7599
▁잘생기	-11.76
▁초록색	-11.7601
야말로	-11.7603
▁구체적으	-11.7604
썼	-11.7605
쓴	-11.7606
▁했거덩	-11.7606
▁또다시	-11.7608
▁서빙	-11.7608
▁장거리	-11.7608
▁꿈꾸	-11.7608
렸는데	-11.761
▁꼬마	-11.7615
▁많단	-11.7617
▁봠	-11.7618
▁해여주고	-11.762
▁풍선	-11.7622
▁매출	-11.7625
▁없지만	-11.7631
▁어뗘	-11.7632
▁느려	-11.7633
▁맛있긴	-11.7634
▁몰러	-11.7637
▁나영이	-11.7637
▁입으면은	-11.7638
▁봤사	-11.7639
▁겹치	-11.7643
▁새복에	-11.7644
▁보호자	-11.7645
▁되더라	-11.7646
▁동기들	-11.7646
▁것추룩	-11.7649
▁증상	-11.7651
▁놓았	-11.7653
▁기후	-11.7655
▁골치	-11.7656
▁댕기니께	-11.7657
▁조화	-11.766
▁될랑가	-11.766
하신다	-11.7661
▁믿음이	-11.7661
▁들어간다	-11.7663
▁쪼끄만한	-11.7664
▁갸한테	-11.7667
▁급허	-11.767
▁영광	-11.7676
▁순간부터	-11.7679
▁줭	-11.7679
▁어울리느	-11.7679
▁도전을	-11.7682
▁호감	-11.7684
▁들어가문	-11.7687
▁비슷하게	-11.7688
▁밝아	-11.7689
정된	-11.7695
▁호수	-11.7698
▁고거만	-11.7701
프트	-11.7701
▁몰른	-11.7704
▁갱아지를	-11.7708
▁경허고	-11.7716
새기	-11.7717
였는지	-11.7717
▁뵈기	-11.7718
펴	-11.772
▁겪었	-11.772
▁기프티콘	-11.772
▁꽂혀	-11.772
▁늙었	-11.772
▁미안타만은	-11.772
▁부잣집	-11.772
▁잤어	-11.772
왈	-11.772
탠	-11.772
▁껌은색	-11.772
▁새각시	-11.772
▁나뽀구	-11.772
▁여동상	-11.772
▁모십이	-11.772
▁뚜껍	-11.772
▁불구하구	-11.772
▁달르게	-11.7721
▁에이에스	-11.7725
흘	-11.7725
▁손바닥	-11.7726
▁처음부터	-11.7727
▁홍삼	-11.7727
▁끝까증	-11.7727
▁숙박	-11.7728
삽	-11.7729
▁후딱	-11.7729
▁찾으러	-11.773
▁지나놓고	-11.7731
했냐	-11.7732
▁가이안티	-11.7733
▁몰라도이	-11.7743
▁성한테	-11.7744
▁유머	-11.7746
▁댕겼던	-11.7748
▁양치	-11.7748
▁좋으시	-11.7748
▁있길래	-11.775
▁츰이	-11.7751
▁전북	-11.7754
▁끼워	-11.7755
▁좋아해부난	-11.7757
▁한숨	-11.7757
▁화난	-11.7758
▁경허믄	-11.776
▁이용해서	-11.776
▁달구리	-11.7761
줬다	-11.7765
▁잔말	-11.7767
▁썩어	-11.7767
▁감독님	-11.7768
▁작용	-11.7768
▁봤냐	-11.7769
▁있었는지	-11.777
▁주벤	-11.777
▁설계	-11.7771
▁쓰겄다	-11.7772
▁같으이까	-11.7773
▁장식	-11.7779
더군요	-11.7781
▁해외에서	-11.7783
▁사달라	-11.7786
▁애국	-11.7787
▁방울	-11.7788
▁잔인하	-11.779
▁소중	-11.7792
▁연세가	-11.7793
겠구만	-11.7793
드려야	-11.7802
▁겅하민	-11.7805
▁구하기	-11.7805
▁빼먹	-11.7808
▁친해져	-11.781
▁확률이	-11.7811
▁로망	-11.7811
다보니	-11.7811
▁잊어먹	-11.7815
솜	-11.7815
▁했니	-11.7817
▁읽어보	-11.7819
▁우짼지	-11.7822
▁하거든유	-11.7824
▁겨론해서	-11.7825
▁가아지를	-11.7827
▁아픈디	-11.7827
▁쪄서	-11.7829
▁지출	-11.7832
▁화상	-11.7838
맙	-11.7838
▁꺼려	-11.7842
▁여게저게	-11.7843
▁오시갸우	-11.7843
듀	-11.7843
롸	-11.7843
▁놔뚜고	-11.7843
▁청국장	-11.7843
▁키보드	-11.7843
▁끝네미	-11.7843
▁나옹게	-11.7844
▁견딜	-11.7844
▁어울린다	-11.7844
▁냅둬	-11.7844
▁장마철	-11.7844
▁새벽에가	-11.7845
▁애매한	-11.7846
▁끝낼	-11.7846
▁관람	-11.7848
▁안카나	-11.7848
▁허다본께	-11.7849
▁이십년	-11.785
▁그래가꾸	-11.7851
▁체격	-11.7852
▁가보자	-11.7853
즉	-11.7854
뇌	-11.7854
▁연탄	-11.7854
▁좋아라하라우	-11.7854
▁그르믄	-11.7855
▁된장국	-11.7855
▁배차	-11.7859
▁조끔	-11.7859
▁붐	-11.786
▁시장에서	-11.786
▁잔모된	-11.7861
▁날엔	-11.7864
▁소득	-11.7864
▁큰딸	-11.7865
▁미래를	-11.7867
▁댕기멍	-11.7868
▁부상	-11.7869
▁재밌대이	-11.7871
▁넓게	-11.7872
▁늘려	-11.7873
▁실프	-11.7874
▁되더라구예	-11.7875
▁선배님	-11.7875
▁걔네들	-11.7875
▁좋아한께	-11.7875
▁발령	-11.7878
▁나가지고잉	-11.7878
▁터질	-11.788
▁얘기햐	-11.788
읍써	-11.7884
▁심해지	-11.7884
▁했으니께	-11.7885
▁되겠노	-11.7888
▁맹질	-11.789
▁샌	-11.789
▁추운데	-11.7891
▁보살	-11.7892
자식	-11.7897
▁째증나	-11.7901
▁깨우	-11.7901
▁통영	-11.7908
▁들어온다	-11.7909
▁버렸다	-11.7914
▁생가간	-11.7915
▁살아난	-11.7915
▁하드라고요잉	-11.7921
▁컸다	-11.7926
▁않으믄은	-11.7931
▁띠어	-11.7932
▁의리	-11.7936
▁으디	-11.794
숨	-11.7941
▁뜨거	-11.7945
▁백이십	-11.7947
▁만나보	-11.7953
▁맞춰주	-11.7953
▁반영	-11.7957
▁말했다	-11.7961
▁오라버니	-11.7962
▁왔댄	-11.7963
▁있디야	-11.7964
▁올혀	-11.7966
꼰	-11.7968
엣	-11.7968
▁괜츈한	-11.7968
▁꼬박꼬박	-11.7968
▁똑땍이	-11.7968
▁만글아사	-11.7968
▁월드컵	-11.7968
▁즐거웠	-11.7968
넉	-11.7968
츄	-11.7968
휙	-11.7968
▁무조끈	-11.7968
▁하것지만	-11.7968
▁홍팀장	-11.7968
▁이응감	-11.7968
▁이끌어	-11.7969
▁무거워	-11.7969
▁신천지	-11.797
▁했다아이가	-11.797
▁할배가	-11.797
▁용의자	-11.797
▁합시다	-11.7971
▁이때까증	-11.7972
▁서울이서	-11.7973
▁하다보믄	-11.7973
▁살찐	-11.7977
▁교회에서	-11.7977
젤	-11.7981
▁마켓	-11.7981
낭기	-11.7983
▁빨개	-11.799
▁정답	-11.7991
▁갔었거든	-11.7996
▁착해	-11.7999
공원	-11.8
▁엔진	-11.8
▁외박	-11.8001
▁시켜야	-11.8003
▁알아본	-11.8004
▁되그든	-11.8004
▁특징이	-11.8006
▁생일날	-11.8014
▁최신	-11.8014
▁불편함	-11.8015
▁고상한	-11.8015
으냉	-11.8018
▁각오	-11.8018
▁차선	-11.8019
▁안나오	-11.8021
▁소위	-11.8021
▁말씀해주	-11.8022
▁달달한	-11.8025
▁좋드라꼬	-11.8026
▁달렸	-11.8028
▁부모님께	-11.8029
▁버텨	-11.803
맞아	-11.8031
▁템	-11.8033
었냐	-11.8036
▁같아가주구	-11.8037
▁생각남	-11.8039
▁꺼져	-11.804
▁하겠나	-11.8041
▁청주	-11.8042
▁으미가	-11.8046
▁마주치	-11.8048
▁닮긴	-11.8049
▁한다거나	-11.8049
▁넘어간	-11.8052
▁통제	-11.8058
되민	-11.8061
▁아픈데	-11.8061
▁성산	-11.8073
▁지역에서	-11.8077
찹	-11.8079
▁들어오믄	-11.8079
구들로	-11.8083
▁예정이	-11.8084
▁박수	-11.8088
▁도전해	-11.809
앨	-11.8092
▁절차	-11.8094
▁밑반찬	-11.8095
▁비티에스	-11.8095
▁잡숫구	-11.8095
깬	-11.8095
떄	-11.8095
욜	-11.8095
톰	-11.8095
▁쌍꺼풀	-11.8095
▁장례식	-11.8095
▁찹쌀	-11.8095
▁위해그넹에	-11.8095
▁빡시대이	-11.8095
▁조그매	-11.8095
▁바로바로	-11.8095
▁기횔	-11.8095
▁닭갈비	-11.8096
▁쪼그만	-11.8096
▁온갖	-11.81
▁명언	-11.81
▁말인고	-11.8101
▁좋수다	-11.8107
▁있든데	-11.8107
▁들으이까네	-11.8108
뽀	-11.8108
▁라민	-11.8109
그릇	-11.8109
▁잔떡	-11.811
▁으찌	-11.811
▁났었	-11.8111
▁하나썩	-11.8112
▁진단	-11.8112
▁익히	-11.8113
▁언론	-11.8114
▁잃어버리	-11.8115
봤더니	-11.8116
▁현실적인	-11.8118
▁쉬었	-11.812
▁갈라믄	-11.812
▁이기적이	-11.8122
▁발싸부터	-11.8126
▁여적	-11.8128
▁아방이영	-11.8128
▁동전	-11.8128
▁제철	-11.8128
▁매형	-11.8129
▁진공	-11.8131
▁민간	-11.8131
▁그랬으문	-11.8134
▁이릏게까지	-11.8134
▁돗	-11.8135
▁분류	-11.814
▁시작해서	-11.8142
▁조회	-11.8143
▁닮댄	-11.8149
▁담양	-11.815
▁남았어	-11.815
▁생겼는데	-11.815
살아	-11.8153
▁인생에서	-11.8156
▁죽는다	-11.8156
▁퍽데기하	-11.8157
▁했음	-11.8158
겠는가	-11.8159
▁나와부난	-11.8161
▁빠졌어	-11.8162
▁허니깐	-11.8162
▁부러운	-11.8162
▁물어보믄	-11.8163
하켄	-11.8167
▁피워	-11.8169
▁매달리	-11.8169
보니깐	-11.8172
▁지인들	-11.8172
▁감명	-11.8174
▁공복	-11.8175
▁우울하	-11.8177
▁떨어진다	-11.8179
▁놔두구	-11.8183
▁이애기할	-11.8184
▁해시난	-11.8185
▁사생활	-11.8186
▁어떡해요	-11.8188
▁구매를	-11.819
▁짱구	-11.8191
▁찬물	-11.8192
▁아웃	-11.8198
봅	-11.8199
▁카는지를	-11.8201
마둥	-11.8206
▁간덴	-11.821
▁임대	-11.8212
▁도마	-11.8216
▁중식	-11.8217
▁핑크	-11.8219
▁싶단	-11.822
뷰	-11.8222
씽	-11.8223
▁곹은거	-11.8223
▁네꾸다이	-11.8223
▁알레르기	-11.8223
▁임영웅	-11.8223
앰	-11.8223
▁빼빼로	-11.8223
▁야즌에는	-11.8223
▁쿠폰	-11.8223
▁가벼워	-11.8223
▁고등핵교	-11.8223
▁글타구	-11.8223
▁하였어유	-11.8223
▁혁명	-11.8223
▁깨닫	-11.8224
▁흡수	-11.8224
▁깡패	-11.8224
▁냄겨	-11.8227
찐	-11.8229
▁춥지	-11.8233
▁본격적	-11.8233
▁왔드라구	-11.8234
▁사랑한다	-11.8234
▁괜찮다라고	-11.8239
▁넣으	-11.8239
▁소소하	-11.824
▁호떡	-11.824
▁폭풍	-11.8241
▁하셨사	-11.8242
▁연세	-11.8244
▁보리밥	-11.8244
▁처음부통	-11.8245
▁있었으면은	-11.8246
▁모밀	-11.8247
▁구월	-11.8248
▁검색해	-11.8249
하셔서	-11.8249
▁외국어	-11.825
▁관련해서	-11.8251
▁원룸	-11.8252
▁되겄어	-11.8254
▁파트	-11.8258
즘	-11.8263
▁들드라꼬	-11.8263
▁씰	-11.8264
▁닮기도	-11.8269
▁나갔는디	-11.8269
▁쓰겄다고	-11.8271
▁부품	-11.8272
▁부끄	-11.8272
▁밖으로	-11.8272
▁싶기	-11.8275
▁점심시간	-11.8279
▁설사	-11.828
▁하나가이	-11.8282
▁좋아해예	-11.8293
났거든	-11.8294
▁편혀	-11.8295
▁해나신디	-11.8295
없다	-11.8297
▁보말	-11.831
▁퇴근하	-11.8314
▁올해랑	-11.8315
▁흔한	-11.8317
▁생각한다	-11.8324
▁젖어	-11.8326
▁알바비	-11.8327
▁끓였	-11.833
▁날개	-11.8331
▁팔리	-11.8341
뜬	-11.8342
▁통일	-11.8346
▁외동	-11.8346
따리	-11.8347
▁좋아하제	-11.8349
시러워	-11.8351
▁차릴	-11.8351
뿌리	-11.8352
얜	-11.8353
▁짧께	-11.8353
삔	-11.8353
▁트레이너	-11.8353
▁요망진	-11.8353
▁까챙이	-11.8353
카부덴	-11.8353
▁이학년	-11.8353
▁손재주	-11.8353
▁시어매	-11.8353
▁농협	-11.8354
▁규정	-11.8354
▁눈앞에	-11.8354
▁들으가구	-11.8354
▁쭉쭉	-11.8354
▁만만치	-11.8355
▁재미단지	-11.8355
▁돌아다녀	-11.8355
이라던지를	-11.8355
▁당사자	-11.8356
▁검토	-11.8357
▁속옷	-11.8358
▁가리키	-11.8359
▁있었거덩	-11.8359
▁커필	-11.8361
▁있드나	-11.8363
▁마저	-11.8366
▁같네요	-11.8367
▁팔월	-11.8369
▁엔간	-11.837
쌤	-11.837
▁그리워	-11.8371
오너라	-11.8371
▁진료	-11.8371
▁으르신	-11.8371
▁화토	-11.8374
▁화학	-11.8376
▁나쁘진	-11.8377
▁상승	-11.8378
▁읎어유	-11.8381
▁않드라구	-11.8383
▁욕실	-11.8387
▁이십일	-11.8389
▁없다이가	-11.8392
▁깔려	-11.8392
▁요것만	-11.8393
▁어떠세요	-11.8394
▁남았던	-11.8394
▁문과	-11.8404
▁위안	-11.8405
▁오래비	-11.8405
▁다행히도	-11.8405
▁어만히	-11.841
▁오디를	-11.8412
▁이라는데	-11.8412
▁갈꺼	-11.8417
▁돌앙	-11.8419
▁책임지	-11.8419
▁재밌었어	-11.842
▁달라질	-11.8426
▁불쌍해	-11.8427
▁조심해서	-11.8428
▁직장인	-11.8429
▁얌	-11.8429
▁정체	-11.843
▁하기에는	-11.8432
▁불고기	-11.8436
▁불안해	-11.844
▁이래가주구	-11.844
▁비치	-11.8445
▁끓일	-11.8448
▁좋겄구	-11.845
▁행운	-11.8451
▁아홉시	-11.8451
▁여길	-11.8452
▁평일	-11.8452
▁해야될	-11.8453
▁죽겠다	-11.8455
▁으미	-11.8457
▁떼어	-11.8457
▁없주게	-11.8465
문화	-11.8465
▁대강	-11.8469
▁있겠지마	-11.8469
▁강조	-11.8469
▁높여	-11.847
▁청약	-11.8478
▁숨기	-11.848
▁글루	-11.8484
뚤	-11.8485
츤	-11.8485
▁귀빠진날	-11.8485
▁있으실까요	-11.8485
▁해리포터	-11.8485
▁호불호	-11.8485
▁조미료	-11.8485
▁졸바러레	-11.8485
▁토마토	-11.8485
▁째끄만	-11.8485
▁가꺼운	-11.8485
▁허운데기	-11.8485
▁과수원	-11.8485
▁해붓가	-11.8485
▁볼테기	-11.8485
▁파이브	-11.8485
▁구루마	-11.8485
▁견뎌	-11.8485
▁단톡	-11.8486
▁레벨	-11.8486
▁치러	-11.8488
▁없어가주구	-11.8488
▁으응	-11.8489
▁무덤	-11.849
▁오라버니한테	-11.8491
▁갬성	-11.8495
▁속상하라우	-11.8496
▁있응게	-11.8498
티브	-11.8499
▁동상이랑	-11.8499
▁지그들	-11.85
▁맛있고잉	-11.85
▁없으세요	-11.8502
▁잠잠해지	-11.8502
▁상대적으로	-11.8502
▁수확	-11.8502
▁듣는디	-11.8503
튀	-11.8503
됩니다	-11.8504
▁언니한티	-11.8505
그륵	-11.8506
▁찔러	-11.8507
▁불평	-11.8511
▁짜리에서	-11.8514
▁쓰다가	-11.8515
▁물가가	-11.8515
벼락	-11.8517
▁공중	-11.8518
▁접때	-11.8519
▁만났다	-11.8527
주마씀	-11.8527
▁돌릴	-11.8528
▁짜장면	-11.8529
▁튀겨	-11.8529
그런	-11.853
▁맨들지	-11.853
▁느꼈어	-11.8533
▁소형	-11.8534
▁왔으문	-11.8534
▁가르켜주	-11.8535
▁씨씨	-11.8543
것냐	-11.8544
▁흘려	-11.8545
▁든든하	-11.8549
▁있었거든예	-11.8551
▁구천	-11.8551
▁과정에서	-11.8557
먹으면	-11.8557
▁주켄	-11.8557
▁키워보	-11.8565
같아	-11.8566
▁속상한	-11.8567
▁돌려주	-11.8569
▁없네요	-11.857
▁하든데	-11.8571
▁찍엉	-11.8577
▁된댜	-11.8578
▁작동	-11.8581
▁조심스럽	-11.8581
▁방영	-11.8591
▁해보니께	-11.8597
▁우동	-11.86
▁줘신디	-11.86
▁공다지	-11.8606
▁쫄라	-11.8609
▁담앙	-11.8611
▁만들었어	-11.8615
음식	-11.8617
▁색시장사	-11.8618
▁얇아	-11.8618
▁탕수육	-11.8618
▁트레이닝	-11.8618
꼉	-11.8618
쨰	-11.8618
▁초등학고	-11.8618
▁헷갈리	-11.8618
▁무스와서	-11.8618
▁얌저이	-11.8618
▁마이너스	-11.8618
▁않겄나	-11.8618
▁남동상	-11.8618
▁컴활	-11.8618
▁인간관계	-11.8619
▁냄살이	-11.8619
▁현빈	-11.862
▁금융	-11.862
▁계십니까	-11.862
▁아척부터	-11.8622
▁민족	-11.8623
▁포항	-11.8625
▁들오믄	-11.8625
▁계급	-11.8626
▁했잖소	-11.8627
▁전단지	-11.8628
▁시아방	-11.8628
▁최소	-11.8629
▁이후루	-11.8631
▁힘내	-11.8631
▁의문	-11.8632
▁어두운	-11.8632
▁시아부지	-11.8633
▁감염	-11.8633
▁최선	-11.8635
버텀	-11.8637
▁푸대	-11.8637
▁이카면은	-11.8638
밴	-11.8638
▁마땅	-11.8638
▁헝이한테	-11.8639
▁아쉽다	-11.864
▁어젯밤에	-11.864
▁않을까라는	-11.8641
▁육백	-11.8642
▁있당예	-11.8643
▁놓으먼	-11.8644
▁하셔가지고	-11.8647
카페	-11.8649
▁불편했	-11.8654
▁들수록	-11.8655
▁친구분	-11.8655
▁서브	-11.8659
▁비누	-11.866
▁친구들이영	-11.866
▁좋겄고	-11.8661
▁녹차	-11.8661
▁선임들	-11.8662
▁들으면서	-11.8663
▁눈사람	-11.8666
▁이라니께	-11.8666
▁나빠지	-11.8667
▁했었거든예	-11.867
▁즐겁게	-11.8673
▁허잰	-11.8675
하겠습니다	-11.8675
캤	-11.8676
▁틀어놓	-11.8678
▁들었든	-11.8679
▁아까바	-11.8681
▁정작	-11.8684
▁자존감	-11.8684
▁나와있	-11.8688
▁뭐냐머	-11.8689
▁페시	-11.8689
▁적당하니	-11.8693
▁나오모	-11.8694
▁인공	-11.8697
박질	-11.87
▁손데레	-11.8707
검사	-11.8707
▁잘못됐	-11.8709
▁자본	-11.8718
왔던	-11.8728
▁좋으신	-11.8739
▁쏟	-11.8745
▁지목	-11.8749
▁놀자	-11.8751
▁몰른다	-11.8752
▁비빔	-11.8753
럿	-11.8753
▁트위터	-11.8753
▁뛰뛰빵빵	-11.8753
▁인두꺼비	-11.8753
둰	-11.8753
▁학부모	-11.8753
▁주무세요	-11.8753
▁억질로	-11.8753
▁렌즈	-11.8753
▁죄송하지마는	-11.8753
▁내시경	-11.8754
▁무언가	-11.8754
▁로또	-11.8755
▁소개팅	-11.8756
▁그대다가	-11.8758
▁드럼	-11.8758
▁주서서	-11.8758
▁타이어	-11.8759
▁비쌌	-11.876
▁불빛	-11.876
▁교류	-11.8761
▁맞춘	-11.8761
▁완결	-11.8762
▁베스트	-11.8763
▁이제도양	-11.8763
▁몇몇	-11.8764
▁자극적이	-11.8769
▁미안한데	-11.8773
할머니	-11.8774
엿	-11.8775
▁멜로	-11.8776
놓으면	-11.8778
▁조립	-11.8779
▁남잔	-11.8781
▁전기차	-11.8784
▁혼차	-11.8785
▁스포	-11.8789
▁피씨	-11.8794
사무소	-11.8796
▁기달려야	-11.8798
▁뛰었	-11.8802
▁인격	-11.8804
▁갔는지	-11.8808
▁바위	-11.8809
▁다녔는디	-11.8814
▁그다음부터	-11.882
▁아닌가요	-11.882
▁생각했으	-11.8822
▁로마	-11.8823
▁농약	-11.8827
▁났던	-11.883
▁드러내	-11.8838
▁걸린다	-11.8838
▁많으시	-11.884
▁그르치	-11.8844
▁이천이십	-11.8846
▁애덜이랑	-11.8848
▁넘어져	-11.8851
시럽게	-11.8852
▁같더라	-11.8853
▁드가느	-11.8856
랫	-11.8858
▁보냈어	-11.8866
▁전망	-11.8867
었으니까	-11.8876
▁만화방	-11.8876
어머니	-11.888
▁임시	-11.8883
▁주관	-11.8886
▁고춧가루	-11.889
▁독특한	-11.889
▁스피커	-11.889
▁어마무시하	-11.889
▁외삼춘	-11.889
▁챙견	-11.889
▁카고서로	-11.889
▁호르몬	-11.889
▁갈수룩	-11.889
▁이런저런	-11.889
▁그렜제	-11.889
▁소소한	-11.889
▁간단한	-11.8891
▁짤랐	-11.8892
▁복잡한	-11.8892
▁애덜헌티	-11.8893
▁갑시다	-11.8893
▁책임져	-11.8894
▁동원	-11.8895
▁파란색	-11.8896
▁베풀	-11.8896
▁갈라먼	-11.8898
▁교대	-11.89
▁짜식	-11.8902
박스	-11.8902
▁캤거든	-11.8904
▁두껍	-11.8908
▁신선하	-11.8908
▁부츠	-11.8909
망쿰	-11.891
뜰	-11.891
▁짐작	-11.8911
▁다르잖아	-11.8914
뻘	-11.8914
▁채식	-11.8916
▁놀았던	-11.8917
▁허더라도	-11.8919
▁비틀	-11.8921
▁용건	-11.8921
▁즌화할게	-11.8923
▁괜찮아졌	-11.8924
▁있었구나	-11.8925
▁드러운	-11.8926
▁서점	-11.8928
▁이겨내	-11.893
갑니다	-11.8934
▁소비자	-11.8936
버터	-11.8936
시구요	-11.8938
▁영하니까	-11.8944
▁알민서두	-11.8946
븐다	-11.8949
▁취한	-11.895
▁편안하게	-11.8951
이에예	-11.8957
▁괴물	-11.8958
▁돌렸	-11.8961
▁들으이까	-11.8963
▁있드라고예	-11.8963
▁갔언	-11.8965
▁상점	-11.8966
▁말해줘	-11.8972
▁쭐여야	-11.8976
▁먹음	-11.8977
▁사램이에요	-11.8977
▁생각한게	-11.898
▁받았는디	-11.898
▁단순하	-11.8985
▁위생	-11.8985
▁권리	-11.8988
▁공식	-11.8989
▁일루와	-11.899
▁느끼기	-11.8994
▁재밌드라구	-11.9004
▁올게요	-11.9013
▁브레이크	-11.9029
▁아메리카노	-11.9029
▁잭년이	-11.9029
▁진돗개	-11.9029
▁향신료	-11.9029
냇	-11.9029
훅	-11.9029
▁중등과	-11.9029
▁반공일	-11.9029
▁여드름	-11.9029
▁하루하루	-11.9029
▁가뵈야	-11.9029
▁당기다가	-11.9029
▁깨깟하	-11.9029
▁배고픈	-11.9029
▁이루어지	-11.903
▁오디션	-11.903
▁온께느	-11.903
▁뒤돌아	-11.903
▁예자친구	-11.9031
▁레슨	-11.9031
▁앞뒤	-11.9032
▁힘들드라구	-11.9032
▁실컷	-11.9032
▁이슈가	-11.9033
▁사람서야	-11.9033
▁잠옷	-11.9033
▁아이덜	-11.9035
▁발랐	-11.9038
봥	-11.9038
▁어뜩하지	-11.9039
▁줬으믄	-11.904
▁필름	-11.904
▁쪼매이씩	-11.9041
▁말고슨	-11.9044
▁방탄	-11.9045
▁알았으이까	-11.9046
싼	-11.905
라니까요	-11.9053
▁지나갈	-11.9054
▁라이브	-11.9055
▁들깨	-11.9055
▁빼지고	-11.9057
▁평일에	-11.9058
▁컸어	-11.9058
▁늘리	-11.9064
▁육체	-11.9064
▁정신적으로	-11.9068
▁처녀	-11.9071
▁혼수	-11.9073
▁학교생활	-11.9074
▁부러웠	-11.9075
▁넘어졌	-11.9076
▁먹잖여	-11.9076
▁모냥인데	-11.9077
▁허길래	-11.9078
▁기다린	-11.9081
렉스	-11.9082
▁편해지	-11.9084
▁매점	-11.9085
▁머이하고	-11.9086
▁늘었	-11.9088
▁도착할	-11.9089
▁보여준	-11.9092
▁비추	-11.9093
▁좋으이까	-11.9097
▁봤주게	-11.9099
▁읽기	-11.9099
▁갔주게	-11.9105
▁서있	-11.9106
▁삼십년	-11.9108
▁익혀	-11.911
▁들어가세요	-11.911
▁꺼려지	-11.9113
▁빠졌다	-11.9117
▁비켜	-11.9118
▁재판	-11.9125
▁재우	-11.9129
▁들릴	-11.9132
▁익숙해지	-11.9136
▁얘기하자	-11.9146
직원	-11.9156
▁새복	-11.9168
자석	-11.9168
껭	-11.9169
▁깊께	-11.917
▁속눈썹	-11.917
▁징그럽	-11.917
곶	-11.917
뿜	-11.917
웜	-11.917
▁그글지마나	-11.917
▁한편으론	-11.917
▁우체국	-11.917
▁인제부텀	-11.917
▁뜨개질	-11.917
▁주목등거리	-11.917
▁날매당	-11.917
▁유일하게	-11.917
▁사랭은	-11.917
▁양아치	-11.917
▁오사카	-11.917
▁뿌러지	-11.9171
▁되잖아예	-11.9171
▁한순간	-11.9171
▁빌딩	-11.9172
▁반가워	-11.9172
▁물어봔	-11.9173
▁익어	-11.9174
▁않을건가	-11.9175
▁유혹	-11.9175
▁되돌아	-11.9176
▁막내성이	-11.9177
▁올리고잉	-11.9177
▁했드니	-11.9179
▁자켓	-11.9184
▁가찹	-11.9188
▁순천	-11.9189
▁그랬으믄	-11.9191
▁기념일	-11.9191
▁모르클	-11.9192
▁모자라	-11.9192
▁힘드노	-11.9192
▁책임질	-11.9194
▁깨끗해	-11.9194
▁언덕	-11.9195
셀	-11.9198
드릴까요	-11.9201
▁새롭게	-11.9205
▁잡으문	-11.9206
▁저딴	-11.9209
▁동작	-11.9211
▁했자녀	-11.9212
▁많으이까	-11.9217
▁갈라면은	-11.9218
▁승진	-11.9219
바구니	-11.9221
▁드물	-11.9223
지말라	-11.9229
▁그렇죠	-11.9235
▁영해신디	-11.9241
▁들어오신디	-11.9242
▁있었지만	-11.9243
▁않었는디	-11.9245
▁뒤러레	-11.9248
▁다양하니	-11.9251
▁털어놓	-11.9253
▁알겠다	-11.9257
▁혼번	-11.9259
업체	-11.9262
▁닫았	-11.9276
▁보이드라고	-11.9276
륵	-11.9283
지만서도	-11.9284
냑	-11.9286
▁알려져	-11.9296
팟	-11.9313
▁썪어서	-11.9313
▁아울렛	-11.9313
▁온쥉일	-11.9313
웰	-11.9313
횡	-11.9313
▁숯불	-11.9313
▁스크린	-11.9313
▁아이도양	-11.9314
▁않겠다	-11.9315
▁내현에	-11.9315
▁오렌지	-11.9315
▁엣날엔	-11.9317
▁생존	-11.9317
▁호나는	-11.9317
▁첫눈	-11.9317
▁잡힌	-11.9321
▁순환	-11.9321
▁푸른	-11.9321
▁재없	-11.9322
▁새싹	-11.9324
▁전부터잉	-11.9324
▁가볍께	-11.9326
거리메	-11.9326
▁많아가주꼬	-11.9328
▁했는가	-11.9328
▁신부님	-11.9329
▁있자너	-11.9329
▁싶드라고	-11.933
▁벨그	-11.9332
▁제주도도이	-11.9332
▁병원비	-11.9334
▁우울해	-11.9334
▁연봉	-11.9335
▁겅허댄	-11.9335
핵교	-11.9338
▁예자애	-11.9339
닮	-11.9342
탐	-11.9343
▁애덜토	-11.9343
▁원이믄	-11.9343
▁느껴진	-11.9347
▁때민이	-11.9353
▁넣었어	-11.9354
▁겅허믄	-11.9355
▁아니우꽈	-11.936
▁민망하	-11.9367
▁흐리	-11.937
▁보염	-11.9371
▁성공하	-11.9372
▁풀렸	-11.9373
▁건드리	-11.9377
▁짠하	-11.9377
▁고치장	-11.9378
거같아	-11.9379
▁받아보	-11.9389
▁답장	-11.9394
▁물려받	-11.9397
▁팔백	-11.94
▁여권	-11.94
▁놀려	-11.9405
▁순정	-11.9407
▁그랬었어	-11.9408
▁버전	-11.942
▁사무실에서	-11.9422
▁준비해야	-11.9428
▁오천원	-11.9437
▁후보	-11.9447
▁고양이들	-11.945
▁고쳤	-11.9453
▁격리	-11.9454
랙	-11.9457
렘	-11.9458
쫀	-11.9458
▁업그레이드	-11.9458
▁에버랜드	-11.9458
▁인공지능	-11.9458
▁찡자	-11.9458
▁출퇴근	-11.9458
냔	-11.9458
뵌	-11.9458
샜	-11.9458
▁툭툭	-11.9458
▁또이또이	-11.9458
▁않지마잉	-11.9458
▁유기견	-11.9458
▁특유의	-11.9458
▁손고락	-11.9458
▁유일한	-11.9458
▁궁금합니대이	-11.9458
▁영한거가	-11.9458
▁의존	-11.9458
▁동네에예	-11.9458
▁난증에	-11.9458
▁사타구	-11.9459
▁새애기	-11.9459
▁부담스러워	-11.9459
▁받아들여	-11.946
▁어떻습니까	-11.9461
▁담궈	-11.9464
▁반납	-11.9466
▁극정돼서	-11.9466
▁울집에	-11.9466
▁친해질	-11.9469
회관	-11.947
▁아주방이	-11.9472
▁좋아해가주구	-11.9474
▁겹쳐	-11.9474
▁무릅	-11.9475
▁프러레	-11.9475
▁관점	-11.9479
으메	-11.948
▁알람	-11.9483
▁감싸	-11.9483
▁소나이라	-11.9487
▁각재	-11.9487
▁없을까	-11.9488
낮	-11.9489
됀	-11.949
컵	-11.949
봄	-11.949
바퀴	-11.9491
▁바쁜디	-11.9492
▁앉혀	-11.9494
▁잠바	-11.9495
▁구독	-11.9495
▁겅해갖고	-11.9497
▁껴입	-11.9497
묘한	-11.9498
▁밥맛	-11.9498
▁패스	-11.95
▁찌르	-11.9502
▁있겠노	-11.9504
▁보기엔	-11.9504
▁봤었던	-11.9508
리까리	-11.9508
▁물품	-11.9513
▁왕복	-11.9515
타임	-11.9516
▁명령	-11.9517
▁된당께	-11.9525
▁가봤는디	-11.9528
▁몰랐던	-11.953
▁모당께	-11.953
▁우덜	-11.9535
▁부정적	-11.9541
▁않으이까	-11.9541
▁작가님	-11.9542
▁식전	-11.9543
▁말해줄	-11.9546
▁부럽다	-11.9548
▁생각하이까	-11.9554
▁죽었다	-11.9569
▁곤란하	-11.9571
▁쌔빠지	-11.9575
▁경제적	-11.9582
▁새롭	-11.9585
▁위장	-11.9596
▁넘어오	-11.9597
▁천장	-11.9603
▁어마어마	-11.9605
뛴	-11.9605
잭	-11.9605
햅	-11.9605
2	-11.9605
▁괜차녀	-11.9605
▁꼬닥꼬닥	-11.9605
▁박았어요잉	-11.9605
▁악세사리	-11.9605
▁어찌됐든	-11.9605
▁진즉에	-11.9605
뵐	-11.9605
▁큰아벙이	-11.9605
▁나중에는이	-11.9605
▁유렘이	-11.9605
▁충청도	-11.9605
▁스위스	-11.9605
▁생가갰	-11.9605
▁아바님	-11.9605
▁낮잠	-11.9606
▁자유로운	-11.9606
▁싸돌아	-11.9608
스러울	-11.9609
▁선뜻	-11.9609
▁배우고이	-11.9611
▁발바닥	-11.9611
▁병장	-11.9614
▁오즘	-11.9616
배우	-11.9616
▁전략	-11.9616
▁야네가	-11.9618
▁낸다	-11.9619
▁억양	-11.9623
▁찾아다니	-11.9623
▁환영	-11.9623
▁도박	-11.9623
▁쩍어	-11.9624
▁소송	-11.9626
▁고쪽에	-11.9627
▁애월	-11.9627
▁상품권	-11.9628
▁제외하	-11.9629
▁폭발	-11.9631
▁이짝으로	-11.9631
▁잊어불	-11.9634
해진다	-11.9636
썰	-11.9639
뜯	-11.9639
쏘	-11.9639
벗	-11.9639
▁선호하느	-11.9641
▁폴아	-11.9645
▁가능할	-11.9645
▁운동회	-11.9648
▁흔하	-11.9649
▁추운디	-11.9655
백만원	-11.966
르륵	-11.9664
▁천재	-11.9666
▁영혼	-11.9668
쿨	-11.9678
▁감사한	-11.9688
▁죽겄다	-11.9693
▁고마웠	-11.9693
▁복장	-11.9694
하시나요	-11.9696
▁여버리	-11.9696
▁즈그들	-11.9701
커녕	-11.9705
▁콩국	-11.9707
▁죽겠어	-11.9714
▁갔냐	-11.9717
▁망했	-11.9724
▁어려우	-11.9728
▁소중하	-11.9744
집니다	-11.9753
▁깰끔하게	-11.9754
▁밖으레	-11.9754
▁복숭아	-11.9754
▁봤더마잉	-11.9754
▁비트코인	-11.9754
▁빠빨리	-11.9754
▁쌍커풀	-11.9754
▁업데이트	-11.9754
▁엑셀	-11.9754
툰	-11.9754
▁그랬띠니	-11.9754
▁빠발리	-11.9754
▁국회의원	-11.9754
▁맞췅	-11.9754
▁일으키	-11.9754
▁두려움	-11.9754
▁제정신	-11.9754
▁나오께네	-11.9754
▁못생겼	-11.9754
▁쩌번	-11.9755
▁스카이	-11.9756
▁기쁜	-11.9757
▁만구에	-11.9759
▁몰람	-11.9759
▁많다고잉	-11.9759
▁결국에느	-11.976
▁좋아해가주고	-11.9761
▁안정적인	-11.9765
▁하얀색	-11.9767
즈막	-11.977
▁현타	-11.977
▁넘으믄	-11.9771
▁권력	-11.9773
▁비웃	-11.9773
▁실현	-11.9773
▁반항	-11.9774
▁경기장	-11.9774
자마대이	-11.9779
▁그짝을루	-11.9781
▁커져	-11.9782
▁브니까	-11.9783
▁빠지믄	-11.9785
▁위반	-11.9786
▁누웠	-11.9787
칩	-11.979
띵	-11.9791
최	-11.9791
넌	-11.9791
▁떠날	-11.9792
▁쉽다	-11.9792
▁바껴가지고	-11.9793
▁호강	-11.9796
▁맛있었어	-11.9798
▁재밌드라고	-11.9798
▁비료	-11.9803
▁쪼개	-11.9804
▁위쪽	-11.9805
▁놀아주	-11.9809
▁짤렸	-11.9809
▁보완	-11.9811
▁하내기씩	-11.9812
▁항시	-11.9816
▁같음	-11.9817
▁굳어	-11.982
▁카기는	-11.9821
▁맹글어	-11.9821
▁차지하	-11.983
▁누게랑	-11.983
▁좋아해가지고	-11.9833
▁닦으	-11.9835
▁어떡할	-11.9836
▁입으문	-11.9838
▁천국	-11.9843
▁용량	-11.9849
▁요쪽	-11.9856
▁선택할	-11.9859
▁깨졌	-11.9871
▁바가지	-11.9873
▁가져왔	-11.9889
▁입었던	-11.989
▁때문인	-11.9893
▁괜찮드라고	-11.9893
▁안전하	-11.9893
▁먹었는지	-11.9895
났잖아	-11.9896
▁해볼라	-11.9897
낌	-11.9904
▁괸당	-11.9905
▁몸뚱아리	-11.9905
▁설렁탕	-11.9905
▁있거덜랑요잉	-11.9905
짰	-11.9905
펠	-11.9905
▁식습관	-11.9905
▁생일선물	-11.9905
▁칼슘	-11.9905
▁도쿄	-11.9905
▁같았어	-11.9905
▁후라이팬	-11.9906
▁신선한	-11.9906
▁균형	-11.9906
▁참기름	-11.9906
▁버틸	-11.9906
▁빳는	-11.9906
짜잘한	-11.9907
▁개안을	-11.9907
▁재밌드라	-11.9908
▁진심으루	-11.9908
▁근사한	-11.991
▁디스크	-11.991
▁알뜰	-11.991
▁소홀	-11.991
▁코딩	-11.9911
▁놀랍	-11.9911
▁일반인들	-11.9911
▁날씬하	-11.9911
▁앉으세요	-11.9913
▁할부지	-11.9916
▁돈가스	-11.9917
▁좋아하그든	-11.9917
▁갔드냐	-11.9917
▁코너	-11.9918
▁엿날	-11.992
▁걸레미	-11.992
▁돼싸요	-11.9925
▁쓸쓸하	-11.9925
▁할로라두	-11.9925
▁없습니까	-11.9927
▁이용해	-11.9928
▁흔들어	-11.993
▁자세하게	-11.9936
▁바꽈	-11.9939
▁화났	-11.9941
▁중요하라우	-11.9943
▁도착해	-11.9943
롤	-11.9944
▁해놘	-11.9944
빗	-11.9945
▁삼각	-11.9949
▁남았는디	-11.9951
▁졸업식	-11.9954
▁동반	-11.9956
▁쪼꼬만한	-11.996
▁부추	-11.9964
▁튼튼한	-11.9968
후러레	-11.9968
만으로두	-11.9981
▁뚜렷	-11.9982
▁많으신	-11.9988
▁징하	-12.0012
▁논문	-12.0022
▁향기	-12.0045
▁찾아본	-12.0057
볕	-12.0059
윽	-12.0059
▁립스틱	-12.0059
▁잊었	-12.0059
▁학창시절	-12.0059
륨	-12.0059
젯	-12.0059
▁반려견	-12.0059
▁옮겼	-12.0059
▁큰어멍이	-12.0059
▁가운테	-12.0059
▁할어멍이	-12.0059
▁모니터	-12.0059
▁트렌드	-12.0059
▁다양히	-12.006
▁쓰잘데기없는	-12.006
▁잘생겨	-12.0061
▁거드미	-12.0061
▁땅콩	-12.0061
▁된다아이가	-12.0062
▁운동선수	-12.0064
▁그만둬	-12.0064
▁그래야제	-12.0064
▁지네들끼리	-12.0065
▁낮추	-12.0066
▁축복	-12.0067
▁잇날엔	-12.0067
▁편입	-12.0067
▁꺼냈	-12.0067
▁쌔끼	-12.0067
힌테	-12.0067
▁평범하	-12.0068
▁채팅	-12.0068
▁친해졌	-12.0068
▁그랬자너	-12.0069
▁마카롱	-12.0069
▁아픔	-12.0069
▁크다란	-12.0069
▁참말루	-12.007
▁전문적으로	-12.0073
▁잡으러	-12.0074
▁유행하는	-12.0075
▁응원하	-12.0075
▁들어봔	-12.008
▁쪼끼	-12.0085
▁뻔했어	-12.0085
▁들응께	-12.0087
▁투명	-12.0087
▁통계	-12.0089
▁점프	-12.0093
▁도둑질	-12.0094
▁세븐	-12.0094
▁러브	-12.0096
델	-12.0096
▁생각하거든예	-12.0097
▁의상	-12.0097
꿔	-12.0098
▁유채	-12.0098
▁고맙수다	-12.0099
쫓	-12.0101
틈	-12.0101
▁멀쩡하	-12.0103
였으문	-12.0108
▁댕겼어	-12.0116
▁따지믄	-12.0118
▁얘기해주	-12.012
▁관광객들	-12.0124
▁먹으면은	-12.0136
▁어려와	-12.0137
▁고다음	-12.0157
▁않았지만	-12.0158
섯	-12.0166
▁챙피한	-12.0179
▁겉애	-12.0186
찌덕	-12.0196
뿐마	-12.0204
▁진행되	-12.0207
이께네	-12.0211
튜	-12.0215
▁깐딴하게	-12.0215
▁스케이트	-12.0215
▁퀄리티	-12.0215
▁스파게티	-12.0216
▁아들래미는	-12.0216
▁한꺼번에	-12.0216
▁구미호	-12.0216
▁이래저래	-12.0216
▁몹시	-12.0216
▁꼰대	-12.0216
▁시타고	-12.0216
▁아니니까잉	-12.0216
▁괴로워	-12.0216
▁규제	-12.0217
▁끼어들	-12.0217
▁생각해본께	-12.0217
▁까시뎅이	-12.0218
▁교훈	-12.0218
▁해운대	-12.0219
▁들어보이꼬	-12.0219
▁적극적으로	-12.022
▁그만둔	-12.022
▁찝찝하	-12.0221
▁관찰	-12.0221
▁갔드니	-12.0223
▁복귀	-12.0224
▁질기	-12.0224
▁냉장	-12.0226
▁해줬어	-12.0226
▁유익	-12.0227
▁위험하다	-12.0228
▁식빵	-12.0229
▁기라가	-12.0229
▁재밌고잉	-12.0229
▁뛰쳐	-12.0231
▁큰언니	-12.0231
▁아무런	-12.0234
▁버즈	-12.0234
▁놔두믄	-12.0235
▁들어본께	-12.0238
▁엔씨	-12.0238
밲에	-12.0239
▁해가멍	-12.024
▁느껴질	-12.024
▁내려갈	-12.024
▁몰르겠꼬	-12.024
▁빠져가꼬	-12.0241
▁편리하	-12.0241
▁심허게	-12.0242
▁합치	-12.0242
▁용서하라우	-12.0243
▁읽었던	-12.0246
▁이기적인	-12.0246
▁팔찌	-12.0249
▁갔다왔	-12.0249
▁전반적	-12.0253
옴	-12.0254
▁놀랬던	-12.0256
덕거리	-12.0259
뽕	-12.0259
▁중이에요	-12.0261
▁피부과	-12.0264
▁구찌	-12.0265
▁운영하	-12.0267
▁가져갔	-12.0269
▁잃어버렸	-12.0279
▁봤었어	-12.0281
▁맛있싸	-12.0283
▁같거든예	-12.0287
▁승리	-12.0302
▁묻혀	-12.0319
▁변비	-12.0322
▁수월하	-12.0325
▁때려치	-12.0337
드랑께	-12.0339
번호	-12.034
뇨	-12.0341
▁배움	-12.0345
▁적당하	-12.0347
놔신디	-12.0348
주시면	-12.0358
줬음	-12.036
▁사람들에게	-12.0371
꺽	-12.0374
▁띄워	-12.0374
▁어쩌고저쩌	-12.0374
▁옮길	-12.0374
궜	-12.0374
껐	-12.0374
솖	-12.0374
훤	-12.0374
▁밟으	-12.0374
▁비슷비슷	-12.0374
▁엥간하면	-12.0374
▁있능그	-12.0374
▁후배들	-12.0374
▁아토피	-12.0374
▁덕분에	-12.0374
▁스케일	-12.0374
▁찬차이	-12.0374
▁핼미	-12.0374
▁맙서	-12.0375
▁배터리	-12.0375
▁입덧	-12.0375
▁희얀	-12.0375
▁깜깜	-12.0375
▁내성적이	-12.0375
▁땜시	-12.0375
▁신제주	-12.0375
▁늦잠	-12.0376
▁귀걸이	-12.0376
▁누나야가	-12.0376
▁토깽이	-12.0377
▁간호새	-12.0377
▁불편헌	-12.0377
▁취했	-12.0378
▁공기업	-12.0378
▁동창회	-12.0379
▁미안하데이	-12.0379
▁누웡	-12.038
▁무늬	-12.0381
▁군인들	-12.0384
▁간혹	-12.0385
▁땡길	-12.0386
▁카기느	-12.0386
옵니다	-12.0386
▁엇댄	-12.0389
▁연락처	-12.0389
▁술자리	-12.0389
▁출석	-12.0391
▁많그든	-12.0395
▁소변	-12.0395
▁요만한	-12.0406
▁한의원	-12.0407
▁장애인	-12.0408
▁좋아한대이	-12.0417
▁가르쳐주	-12.0417
멕	-12.042
읎	-12.0421
▁센스	-12.0427
▁끓인	-12.0429
▁하더라고잉	-12.0431
▁쭐었	-12.0439
▁있으면서	-12.0459
났구나	-12.0461
▁가능성	-12.0462
▁빼놓	-12.0462
▁돌보	-12.0468
▁농장	-12.0469
밖	-12.0473
했으니까	-12.049
▁가족들한테	-12.0491
▁실감	-12.0494
▁불편할	-12.0511
▁유치하	-12.0514
▁작품들	-12.0523
만원씩	-12.0528
▁뚱뚱하	-12.0531
▁끝장	-12.0535
혐	-12.0535
캠	-12.0535
▁밤늦게	-12.0536
▁맨투맨	-12.0536
▁박보검	-12.0536
▁산시금치	-12.0536
▁얻으	-12.0536
▁여븐뎅이	-12.0536
▁있습니더	-12.0536
쌘	-12.0536
얗	-12.0536
▁역활을	-12.0536
▁아반떼	-12.0536
▁걸립니까	-12.0536
▁아나운서	-12.0536
▁해비시민	-12.0536
▁짓거리를	-12.0536
▁저쩌고	-12.0536
▁머시마들	-12.0536
▁간다나니	-12.0536
▁그녀에게	-12.0536
▁노하우	-12.0536
[...]
