<pad>	0
<s>	0
</s>	0
<unk>	0
<jj>	0
<jd>	0
<gs>	0
<cc>	0
<kw>	0
<std>	0
▁이	-0
▁그	-1
▁.	-2
▁가	-3
▁는	-4
▁하	-5
▁아	-6
▁어	-7
▁거	-8
▁고	-9
▁에	-10
▁나	-11
▁을	-12
▁다	-13
▁지	-14
▁은	-15
▁?	-16
▁도	-17
▁있	-18
▁쫌	-19
▁한	-20
▁게	-21
▁해	-22
▁사	-23
▁들	-24
▁를	-25
▁보	-26
▁구	-27
▁안	-28
▁내	-29
▁인	-30
▁느	-31
▁꼬	-32
▁으	-33
▁라	-34
▁기	-35
▁같	-36
▁시	-37
▁되	-38
▁근	-39
▁대	-40
▁니	-41
▁주	-42
▁우	-43
▁뭐	-44
▁오	-45
▁두	-46
▁막	-47
▁말	-48
▁좋	-49
▁만	-50
▁야	-51
▁여	-52
▁일	-53
▁자	-54
▁많	-55
▁때	-56
▁그런	-57
▁생	-58
▁너	-59
▁저	-60
▁이제	-61
▁것	-62
▁마	-63
▁했	-64
▁먹	-65
▁수	-66
▁할	-67
▁또	-68
▁더	-69
▁서	-70
▁면	-71
▁애	-72
▁우리	-73
▁었	-74
▁예	-75
▁드	-76
▁네	-77
▁부	-78
▁없	-79
▁잘	-80
▁요	-81
▁긍	-82
▁그래	-83
▁진	-84
▁로	-85
▁~	-86
▁제	-87
▁생각	-88
▁많이	-89
▁는디	-90
▁좀	-91
▁아니	-92
▁이케	-93
▁에서	-94
▁그냥	-95
▁근데	-96
▁께	-97
▁무	-98
▁알	-99
▁의	-100
▁아이	-101
▁는데	-102
▁겠	-103
▁진짜	-104
▁않	-105
▁허	-106
▁데	-107
▁사람	-108
▁잖	-109
▁못	-110
▁난	-111
▁모	-112
▁신	-113
▁던	-114
▁약	-115
▁살	-116
▁집	-117
▁정	-118
▁건	-119
▁바	-120
▁영	-121
▁인제	-122
▁믄	-123
▁이런	-124
▁전	-125
▁적	-126
▁으로	-127
▁싶	-128
▁잉	-129
▁왜	-130
▁번	-131
▁드라	-132
▁걸	-133
▁엄	-134
▁너무	-135
▁경	-136
▁노	-137
▁까	-138
▁그서	-139
▁대이	-140
▁약간	-141
▁머	-142
▁비	-143
▁가지	-144
▁개	-145
▁소	-146
▁봐	-147
▁얘	-148
▁았	-149
▁스	-150
▁상	-151
▁따	-152
▁그거	-153
▁세	-154
▁와	-155
▁맞	-156
▁냐	-157
▁남	-158
▁간	-159
▁재	-160
▁미	-161
▁친	-162
▁원	-163
▁그러	-164
▁랑	-165
▁근디	-166
▁중	-167
▁언	-168
▁쪼	-169
▁유	-170
▁당	-171
▁잖아	-172
▁라우	-173
▁해서	-174
▁십	-175
▁가주	-176
▁거든	-177
▁갖	-178
▁동	-179
▁얼	-180
▁조	-181
▁받	-182
▁물	-183
▁불	-184
▁지금	-185
▁입	-186
▁계	-187
▁사램	-188
▁겅	-189
▁성	-190
▁싸	-191
▁돈	-192
▁봤	-193
▁음	-194
▁그때	-195
▁된	-196
▁누	-197
▁차	-198
▁공	-199
▁날	-200
▁디	-201
▁돼	-202
▁장	-203
▁한테	-204
▁학	-205
▁긴	-206
▁얘기	-207
▁갔	-208
▁카	-209
▁글	-210
▁올	-211
라고	-212
▁겨	-213
▁선	-214
▁긍까	-215
▁그게	-216
▁달	-217
▁긍께	-218
▁줄	-219
▁니께	-220
▁배	-221
▁님	-222
▁몰	-223
▁이르	-224
▁친구	-225
▁운	-226
▁뭔	-227
▁분	-228
▁해야	-229
▁맨	-230
▁편	-231
▁맛	-232
▁본	-233
▁연	-234
▁라고	-235
▁레	-236
▁딱	-237
니까	-238
▁이게	-239
▁갈	-240
▁같이	-241
▁엄마	-242
▁들어	-243
▁처	-244
▁쓰	-245
▁삼	-246
▁단	-247
▁이거	-248
▁과	-249
▁힘	-250
▁케	-251
▁긍게	-252
▁실	-253
▁매	-254
▁참	-255
▁문	-256
▁시간	-257
▁돌	-258
▁식	-259
▁타	-260
▁치	-261
▁혀	-262
▁어서	-263
▁되게	-264
▁증	-265
▁강	-266
▁이나	-267
▁될	-268
▁다가	-269
▁까지	-270
▁러	-271
▁민	-272
▁반	-273
▁방	-274
▁버	-275
▁든	-276
▁눈	-277
▁이르케	-278
▁년	-279
▁혼	-280
▁그렇	-281
▁하나	-282
▁감	-283
▁응	-284
▁인자	-285
니다	-286
▁관	-287
▁닮	-288
▁보다	-289
▁새	-290
▁겄	-291
▁키	-292
▁행	-293
▁래	-294
▁왔	-295
▁놀	-296
▁결	-297
▁됐	-298
▁지만	-299
▁뭔가	-300
▁피	-301
▁그랬	-302
머이	-303
▁완	-304
▁볼	-305
▁화	-306
▁습	-307
신디	-308
▁헌	-309
▁그른	-310
▁이랑	-311
▁요즘	-312
▁추	-313
▁먼	-314
▁모르	-315
▁손	-316
▁루	-317
▁다른	-318
▁지굼	-319
라구	-320
▁코	-321
▁쪼끔	-322
▁심	-323
▁위	-324
▁몇	-325
▁큰	-326
▁발	-327
가주	-328
▁놓	-329
▁담	-330
▁그럼	-331
▁면은	-332
▁다고	-333
▁양	-334
▁별	-335
▁무신	-336
▁엔	-337
▁괜	-338
▁댕	-339
▁나가	-340
▁엄청	-341
▁이까	-342
▁보이	-343
▁인데	-344
▁씩	-345
▁줘	-346
▁으믄	-347
▁계속	-348
▁밥	-349
▁잡	-350
▁죠	-351
▁언니	-352
▁산	-353
▁죽	-354
▁증말	-355
▁팔	-356
▁빨	-357
▁회	-358
▁드라구	-359
▁길	-360
▁명	-361
▁따른	-362
▁작	-363
▁나오	-364
▁백	-365
▁빠	-366
▁가꼬	-367
▁암	-368
▁찾	-369
▁부터	-370
▁정도	-371
▁열	-372
▁해도	-373
▁어디	-374
▁핸	-375
▁직	-376
▁싫	-377
▁앞	-378
▁기억	-379
▁라는	-380
▁호	-381
▁준	-382
▁거기	-383
▁그릏	-384
▁드라고	-385
▁게난	-386
▁아요	-387
▁땜	-388
▁마이	-389
▁이라	-390
▁크	-391
▁으문	-392
▁어떤	-393
▁교	-394
▁속	-395
▁끝	-396
▁영화	-397
▁그리	-398
▁세요	-399
▁질	-400
▁덜	-401
해서	-402
▁다시	-403
▁겁	-404
▁외	-405
▁한다	-406
▁둘	-407
▁온	-408
▁점	-409
▁겐	-410
▁힘들	-411
▁짜	-412
▁어머이	-413
▁운동	-414
▁어뜨	-415
▁옷	-416
▁셨	-417
▁니까	-418
▁였	-419
▁다구	-420
▁몸	-421
▁씨	-422
▁어뜨케	-423
▁솔	-424
▁혹	-425
▁어요	-426
▁통	-427
▁신디	-428
▁그걸	-429
▁아들	-430
▁꺼	-431
▁파	-432
▁싸람	-433
▁넘	-434
는디	-435
▁라꼬	-436
▁완전	-437
▁저기	-438
▁더라고	-439
▁그라	-440
▁소리	-441
▁후	-442
▁애기	-443
▁이래	-444
▁재밌	-445
▁아주	-446
▁메	-447
▁아부	-448
▁필	-449
가꼬	-450
▁맨날	-451
▁워	-452
▁너머	-453
▁한디	-454
▁학교	-455
▁은디	-456
▁딸	-457
▁사실	-458
▁항	-459
▁잠	-460
▁취	-461
▁는지	-462
▁돌아	-463
▁밖	-464
▁맛있	-465
▁정말	-466
▁형	-467
▁혹시	-468
▁초	-469
▁테	-470
바이	-471
▁군	-472
▁목	-473
▁최	-474
▁제일	-475
▁벌	-476
▁거나	-477
▁라구	-478
▁다는	-479
▁괜찮	-480
▁처음	-481
▁걔	-482
▁남자	-483
▁여개	-484
▁천	-485
▁어멍	-486
▁잔	-487
▁더라	-488
▁써	-489
▁여행	-490
▁금	-491
▁노래	-492
▁경우	-493
▁듣	-494
▁예요	-495
▁껴	-496
▁꼭	-497
▁끼	-498
▁국	-499
▁오놀	-500
▁아부지	-501
▁텨	-502
▁냉	-503
▁쪽	-504
▁나이	-505
▁걍	-506
▁공부	-507
▁으면	-508
▁술	-509
니께	-510
▁어야	-511
▁일단	-512
▁아직	-513
▁육	-514
▁면서	-515
▁들어가	-516
▁겁나	-517
▁커	-518
▁김	-519
▁얼매	-520
▁댕기	-521
▁무슨	-522
▁은데	-523
▁인가	-524
▁왜냐	-525
▁옛	-526
▁아닌	-527
▁갑	-528
▁아빠	-529
▁간디	-530
▁만나	-531
▁뒤	-532
▁해요	-533
▁래이	-534
▁헌티	-535
▁멍	-536
이까	-537
▁자기	-538
▁근까	-539
▁몰르	-540
▁습니다	-541
▁책	-542
▁절	-543
▁뭘	-544
▁하구	-545
▁종	-546
▁병	-547
▁옛날	-548
▁곡	-549
▁떠	-550
▁여자	-551
▁믄서	-552
▁거의	-553
▁오늘	-554
▁즌	-555
▁골	-556
▁결혼	-557
▁올라	-558
▁이상	-559
▁구나	-560
▁요새	-561
▁사램이	-562
▁느낌	-563
▁려	-564
▁했었	-565
▁스타	-566
▁귀	-567
▁특	-568
▁머리	-569
▁이여	-570
▁프	-571
▁움	-572
▁제주	-573
▁시작	-574
▁어데	-575
▁여기	-576
▁떨	-577
▁자녀	-578
▁이러	-579
▁원래	-580
▁넣	-581
▁짝	-582
▁부분	-583
▁울	-584
▁*	-585
▁아가	-586
▁티	-587
▁만들	-588
▁하고	-589
▁웃	-590
▁청	-591
▁체	-592
학교	-593
▁그까	-594
▁필요	-595
▁개가주	-596
▁박	-597
▁토	-598
▁아무	-599
▁함	-600
▁져	-601
▁빼	-602
▁줬	-603
▁데레	-604
▁순	-605
가주구	-606
▁한데	-607
▁몰라	-608
▁으루	-609
▁극	-610
▁맘	-611
▁합	-612
▁된다	-613
▁겡	-614
부난	-615
▁트	-616
▁평	-617
▁챙	-618
▁그건	-619
▁항상	-620
▁성격	-621
▁오빠	-622
▁그리구	-623
▁부난	-624
▁찍	-625
▁그르	-626
▁각	-627
▁앉	-628
▁겉	-629
▁나와	-630
▁믄은	-631
▁재미	-632
▁똑	-633
▁놔	-634
▁왕	-635
▁포	-636
▁선물	-637
▁본께	-638
▁드라마	-639
▁별로	-640
▁그래가꼬	-641
▁설	-642
▁리	-643
▁어태	-644
▁혼자	-645
▁오래	-646
▁하난	-647
▁옆	-648
▁등	-649
내기	-650
▁확	-651
▁댜	-652
▁아예	-653
▁났	-654
▁현	-655
▁대해서	-656
▁좋아	-657
▁랜	-658
▁와서	-659
▁하민	-660
▁문제	-661
▁코로	-662
▁묵	-663
▁얼매나	-664
▁햄	-665
▁음식	-666
▁나라	-667
▁브	-668
▁겨울	-669
▁알바	-670
▁마옴	-671
▁고거	-672
▁논	-673
▁코로나	-674
▁망	-675
▁월	-676
▁생활	-677
▁아까	-678
▁곳	-679
다고	-680
▁붙	-681
▁쪼금	-682
▁그께	-683
▁쉬	-684
▁밤	-685
▁당신	-686
▁댄	-687
▁다니	-688
▁어떵	-689
▁깨	-690
▁그럴	-691
▁그기	-692
▁어느	-693
▁민시	-694
▁놈	-695
▁칠	-696
▁태	-697
▁역	-698
▁아유	-699
▁헤	-700
▁용	-701
▁하내기	-702
▁오라	-703
▁꾸	-704
▁이서	-705
▁회사	-706
▁예자	-707
▁풀	-708
▁밖에	-709
▁고게	-710
▁다음	-711
▁빨리	-712
▁즌화	-713
▁복	-714
▁싱	-715
▁째	-716
▁이그	-717
▁보내	-718
▁어유	-719
세요	-720
▁난중	-721
▁셔	-722
▁여러	-723
▁부모	-724
▁거든요	-725
▁채	-726
▁나왔	-727
▁사진	-728
먼은	-729
▁떨어	-730
▁가족	-731
▁여름	-732
▁게임	-733
▁베	-734
▁엉	-735
▁찌	-736
▁즈	-737
▁전화	-738
▁극정	-739
▁그릏게	-740
▁에다	-741
▁스타일	-742
▁누가	-743
▁내려	-744
▁처럼	-745
▁이젠	-746
▁관심	-747
▁고잉	-748
▁건데	-749
▁마다	-750
▁겨론	-751
▁출	-752
▁동안	-753
▁자석	-754
▁이딴	-755
▁늦	-756
▁건강	-757
▁쇼	-758
▁조금	-759
▁다이	-760
▁보여	-761
▁왜냐믄	-762
▁더라구	-763
▁짓	-764
▁으이까	-765
▁란	-766
▁틀	-767
▁따라	-768
▁사랑	-769
▁이렇	-770
▁땐	-771
▁캐	-772
▁믿	-773
▁쩌	-774
▁마음	-775
▁대로	-776
▁지나	-777
▁우린	-778
▁네요	-779
▁제주도	-780
▁운제	-781
▁꿈	-782
▁쌤	-783
▁아냐	-784
▁하곡	-785
▁이야	-786
마이	-787
▁인지	-788
▁며	-789
▁아프	-790
▁에요	-791
▁한번	-792
▁그믄	-793
▁검	-794
▁서울	-795
▁준비	-796
▁지끔	-797
▁아야	-798
▁을까	-799
▁프로	-800
▁기양	-801
▁나온	-802
▁중요	-803
▁걸로	-804
▁이건	-805
▁대한	-806
▁아덜	-807
▁가이	-808
▁변	-809
거리	-810
▁얼마	-811
면은	-812
▁에게	-813
▁읽	-814
▁시상	-815
▁갑자	-816
▁딴	-817
▁넹	-818
▁갱	-819
▁뿌	-820
▁잖여	-821
▁궁	-822
▁다꼬	-823
▁얼굴	-824
▁그래가주구	-825
▁자주	-826
▁뜨	-827
▁터	-828
▁그래두	-829
▁만약	-830
▁봐야	-831
▁배우	-832
▁엣	-833
▁당께	-834
▁멀	-835
▁아방	-836
▁투	-837
▁이번	-838
▁활	-839
▁독	-840
▁찾아	-841
▁캤	-842
인디	-843
▁욕	-844
▁수다	-845
▁색	-846
▁고것	-847
▁쳐	-848
▁젊	-849
▁인디	-850
▁고등	-851
▁기분	-852
▁집이	-853
▁축	-854
▁어도	-855
▁이름	-856
▁디야	-857
▁구만	-858
▁상황	-859
▁상구	-860
▁자꾸	-861
▁봄	-862
▁잖아요	-863
▁쉽	-864
▁슬	-865
▁넌	-866
▁없이	-867
▁표	-868
▁하루	-869
▁샀	-870
▁으니께	-871
▁쓸	-872
▁챙겨	-873
▁환	-874
▁고기	-875
▁더니	-876
다구	-877
▁지대	-878
▁농	-879
▁한국	-880
▁시켜	-881
▁낭	-882
▁라서	-883
▁텐	-884
▁바로	-885
▁보통	-886
는데	-887
▁건디	-888
▁누구	-889
▁으네	-890
▁어려	-891
▁걱	-892
▁편이	-893
▁가주구	-894
▁혼재	-895
▁쎄	-896
아지	-897
▁암튼	-898
잖아	-899
▁거난	-900
▁충	-901
▁서로	-902
▁걱정	-903
▁짐	-904
▁패	-905
▁임	-906
▁멋	-907
려고	-908
▁승	-909
▁운전	-910
▁먼저	-911
▁놨	-912
▁맹	-913
▁높	-914
▁이렇게	-915
▁에이	-916
▁짜리	-917
▁는가	-918
▁뛰	-919
어나	-920
▁자체	-921
다는	-922
▁자격	-923
▁끊	-924
▁아버	-925
▁병원	-926
▁아파	-927
▁마시	-928
▁멘	-929
▁모든	-930
대이	-931
▁가장	-932
▁낳	-933
▁기래	-934
▁허멍	-935
▁습니까	-936
▁접	-937
▁그래구	-938
▁소리기	-939
▁언제	-940
▁블	-941
▁시키	-942
▁헐	-943
▁동상	-944
▁해여	-945
▁똑같	-946
▁생기	-947
▁밀	-948
▁일본	-949
▁보난	-950
▁하꼬	-951
▁암만	-952
▁싱각	-953
▁그디	-954
▁보믄	-955
▁늘	-956
▁억	-957
▁아마	-958
▁학년	-959
▁당시	-960
▁기다	-961
▁누그	-962
▁비싸	-963
▁이십	-964
▁물론	-965
▁급	-966
▁요잉	-967
래이	-968
▁다이어	-969
▁듯	-970
▁연락	-971
▁키우	-972
구리	-973
이라	-974
▁부러	-975
▁알아	-976
▁법	-977
▁해신디	-978
▁미안	-979
▁괴	-980
▁스트	-981
레스	-982
▁아서	-983
▁까정	-984
▁무사	-985
▁라면	-986
▁판	-987
▁까장	-988
▁시험	-989
▁버리	-990
▁에스	-991
▁밑	-992
▁경한	-993
▁허고	-994
▁죄	-995
▁최근	-996
▁사이	-997
▁쯤	-998
인데	-999
▁핵	-1000
▁똥	-1001
▁해두	-1002
▁하이	-1003
▁봉	-1004
▁돼서	-1005
▁이기	-1006
▁빨라	-1007
▁졸	-1008
▁돌아가	-1009
▁이해	-1010
▁다이어트	-1011
▁졌	-1012
▁애서	-1013
▁넘어	-1014
▁드리	-1015
▁신경	-1016
▁힘든	-1017
▁논다	-1018
▁글면	-1019
▁요번	-1020
▁좋아하	-1021
▁끼리	-1022
▁잘못	-1023
▁즐	-1024
▁어머	-1025
▁선생	-1026
▁아바이	-1027
▁팀	-1028
▁우타	-1029
▁착	-1030
▁나요	-1031
▁이미	-1032
▁봔	-1033
▁맥	-1034
실히	-1035
▁궁금	-1036
▁노력	-1037
▁광	-1038
▁어릴	-1039
▁구유	-1040
▁가져	-1041
▁빌	-1042
▁들어오	-1043
으믄	-1044
▁자격증	-1045
▁자신	-1046
▁줘야	-1047
▁아침	-1048
려구	-1049
▁깜	-1050
▁어제	-1051
가지	-1052
▁첫	-1053
▁차이	-1054
▁빵	-1055
▁정신	-1056
▁생겼	-1057
▁저녁	-1058
▁고민	-1059
▁답	-1060
드라	-1061
▁휴	-1062
▁그치	-1063
▁벵	-1064
▁추천	-1065
▁히	-1066
▁요리	-1067
▁글고	-1068
▁아라	-1069
찬히	-1070
▁으면은	-1071
▁빠지	-1072
▁엣날	-1073
▁유명	-1074
▁롱	-1075
▁대학	-1076
▁이고	-1077
▁꽃	-1078
▁혔	-1079
▁스럽	-1080
▁이쁘	-1081
▁라도	-1082
▁으이	-1083
▁음악	-1084
▁누우	-1085
▁이카	-1086
▁벨	-1087
▁주변	-1088
그넹	-1089
▁드냐	-1090
▁몬	-1091
▁가끔	-1092
▁저희	-1093
▁바러	-1094
▁허난	-1095
▁빨라당	-1096
▁스트레스	-1097
▁침	-1098
▁화장	-1099
▁닥	-1100
▁재기	-1101
▁잊	-1102
▁말씸	-1103
▁거서	-1104
르바이	-1105
▁데꼬	-1106
▁에다가	-1107
▁다녀	-1108
▁갸	-1109
▁달라	-1110
▁냄	-1111
▁땅	-1112
▁내리	-1113
▁말씀	-1114
▁어린	-1115
▁불편	-1116
▁이유	-1117
▁살짝	-1118
▁벵원	-1119
▁사고	-1120
▁철	-1121
▁가격	-1122
▁동네	-1123
▁겅해	-1124
게요	-1125
▁경험	-1126
▁거게	-1127
▁신기	-1128
데기	-1129
▁관리	-1130
▁솔찬히	-1131
▁샹	-1132
▁낮	-1133
부러	-1134
▁끓	-1135
▁젠	-1136
▁퍼	-1137
▁핸드	-1138
▁어쩔	-1139
▁인생	-1140
▁올라가	-1141
▁어떠	-1142
이여	-1143
▁느끼	-1144
▁쿠	-1145
▁해라	-1146
▁떵	-1147
▁사장	-1148
▁그만	-1149
▁고마	-1150
▁군대	-1151
▁살아	-1152
▁지내	-1153
▁깔	-1154
▁날씨	-1155
▁컴	-1156
▁다섯	-1157
▁떡	-1158
▁빡	-1159
▁응께	-1160
▁가을	-1161
▁뿐	-1162
▁텐데	-1163
▁희	-1164
드라고	-1165
▁낫	-1166
▁그런디	-1167
▁내용	-1168
▁보민	-1169
▁굳	-1170
▁잠깐	-1171
▁그니	-1172
▁할머이	-1173
▁쪼매	-1174
▁저게	-1175
들이	-1176
▁학실히	-1177
▁저거	-1178
▁취미	-1179
▁편하	-1180
▁조석	-1181
▁커피	-1182
▁존	-1183
▁짤	-1184
▁어마이	-1185
▁땡	-1186
▁그려	-1187
▁냉중	-1188
▁연애	-1189
▁한티	-1190
▁아문	-1191
▁플	-1192
▁덴	-1193
▁방법	-1194
▁어렸	-1195
▁여개서	-1196
▁갑자기	-1197
▁건지	-1198
▁내일	-1199
▁다들	-1200
▁야이	-1201
▁무서	-1202
▁거지	-1203
▁하지	-1204
▁할망	-1205
▁려고	-1206
▁마카	-1207
▁일찍	-1208
▁나으	-1209
▁조심	-1210
▁그것	-1211
▁곧	-1212
▁남편	-1213
▁그러고	-1214
▁도와	-1215
▁핸드폰	-1216
▁꽈	-1217
▁홍	-1218
민서	-1219
▁특히	-1220
▁자꼬	-1221
▁낼	-1222
▁클	-1223
▁끄	-1224
▁절대	-1225
▁창	-1226
▁쇼핑	-1227
▁칭	-1228
▁돼요	-1229
▁저냑	-1230
▁걸랑	-1231
▁끌	-1232
치로	-1233
▁거리	-1234
▁그도	-1235
▁던데	-1236
▁데이	-1237
▁어렵	-1238
▁이걸	-1239
▁드릴	-1240
▁애요	-1241
▁어예	-1242
▁왜서	-1243
▁퇴	-1244
▁신랑	-1245
▁어두	-1246
▁티비	-1247
▁업	-1248
소리	-1249
▁택	-1250
▁알려	-1251
▁으시	-1252
▁이란	-1253
▁는다	-1254
▁악	-1255
구나	-1256
▁쭐	-1257
▁마씸	-1258
▁집안	-1259
▁앙	-1260
▁첨	-1261
▁걷	-1262
▁가시	-1263
▁핵교	-1264
▁겅행	-1265
▁자네	-1266
▁몰랐	-1267
▁외국	-1268
▁행복	-1269
▁읎	-1270
▁김치	-1271
▁맨치로	-1272
▁냐구	-1273
▁워데	-1274
까요	-1275
▁모습	-1276
▁봐요	-1277
▁결국	-1278
▁델	-1279
▁탈	-1280
▁합니다	-1281
▁동생	-1282
▁직장	-1283
▁아따	-1284
▁자리	-1285
▁뽑	-1286
▁냐고	-1287
▁만화	-1288
▁보대	-1289
▁멘치	-1290
▁얼구리	-1291
▁밭	-1292
▁각이	-1293
▁느껴	-1294
▁그라구	-1295
▁직접	-1296
▁이라구	-1297
▁상관	-1298
▁권	-1299
▁니깐	-1300
▁맨들	-1301
▁숨	-1302
▁그양	-1303
▁다르	-1304
▁얻	-1305
요일	-1306
▁고등학교	-1307
▁미국	-1308
▁어짜	-1309
▁머시	-1310
▁학원	-1311
▁건가	-1312
▁쪄	-1313
▁걸리	-1314
▁선수	-1315
▁페	-1316
▁사회	-1317
▁삐	-1318
▁개인	-1319
▁불러	-1320
▁뻔	-1321
스마	-1322
▁동물	-1323
▁굴	-1324
▁인터	-1325
▁얼만	-1326
▁민서	-1327
▁비슷	-1328
▁래요	-1329
▁기냥	-1330
▁상태	-1331
▁었었	-1332
▁구요	-1333
▁스러	-1334
▁보고	-1335
▁이라두	-1336
▁그러니까	-1337
▁는데요	-1338
▁어쩌	-1339
▁활동	-1340
▁아픈	-1341
▁훨	-1342
▁무시	-1343
▁칼	-1344
가이	-1345
▁도움	-1346
▁계획	-1347
▁다리	-1348
▁비싼	-1349
▁곤	-1350
▁그렁	-1351
▁삶	-1352
▁헤어	-1353
▁그라고	-1354
▁도록	-1355
▁수업	-1356
▁시민	-1357
▁카민	-1358
▁숙	-1359
▁슨	-1360
▁생긴	-1361
▁츰	-1362
▁인저	-1363
▁폭	-1364
▁요것	-1365
▁으신	-1366
▁아하	-1367
▁펜	-1368
시난	-1369
▁바람	-1370
▁안티	-1371
▁다닐	-1372
▁그든	-1373
▁장난	-1374
▁주식	-1375
▁올리	-1376
▁야지	-1377
▁짧	-1378
▁켜	-1379
▁상대	-1380
▁탁	-1381
▁그지	-1382
▁순간	-1383
▁사용	-1384
찌기	-1385
▁잰	-1386
▁중간	-1387
▁가르	-1388
▁굳이	-1389
▁카페	-1390
▁난리	-1391
▁어뜬	-1392
▁솔찌기	-1393
▁이라고	-1394
▁꼴	-1395
▁새로	-1396
▁할라	-1397
▁해가	-1398
▁빠져	-1399
▁보먼은	-1400
▁벗	-1401
▁쌓	-1402
▁썼	-1403
▁따로	-1404
▁어울	-1405
▁개월	-1406
▁움직	-1407
▁가게	-1408
▁그날	-1409
▁머이	-1410
▁전이	-1411
레기	-1412
▁쪼꼼	-1413
▁인간	-1414
▁만났	-1415
▁쩌번	-1416
▁으니까	-1417
▁털	-1418
시오	-1419
▁익	-1420
▁물건	-1421
▁나쁜	-1422
▁이것	-1423
▁잔모	-1424
▁갓	-1425
▁튀	-1426
▁분위	-1427
▁상간	-1428
▁아이머	-1429
버이	-1430
▁하난이	-1431
▁쓴	-1432
▁많아	-1433
▁웬	-1434
으문	-1435
는이	-1436
▁인대	-1437
▁분위기	-1438
대로	-1439
▁듯이	-1440
▁시장	-1441
▁약속	-1442
▁으까	-1443
▁맡	-1444
▁중국	-1445
마는	-1446
▁잖아유	-1447
▁말앙	-1448
▁탄	-1449
▁주일	-1450
▁지역	-1451
▁하머	-1452
▁요거	-1453
▁므	-1454
▁이야기	-1455
▁흔	-1456
▁얘길	-1457
▁떼	-1458
▁효	-1459
▁경허	-1460
▁척	-1461
▁나올	-1462
▁둥	-1463
▁웹	-1464
▁대신	-1465
▁입장	-1466
▁괜히	-1467
▁입니다	-1468
▁콩	-1469
▁이랬	-1470
▁정리	-1471
▁라두	-1472
▁드만	-1473
스트	-1474
▁이라도	-1475
▁수술	-1476
▁대학교	-1477
▁능	-1478
▁싹	-1479
▁여섯	-1480
▁켔	-1481
▁바꼈	-1482
▁쬐	-1483
▁으세요	-1484
라이	-1485
▁고양	-1486
▁불르	-1487
▁녹	-1488
▁인터넷	-1489
▁곱	-1490
▁시대	-1491
▁값	-1492
▁쌔	-1493
▁주인	-1494
▁맴	-1495
▁금방	-1496
▁나갔	-1497
▁맞춰	-1498
▁종류	-1499
▁만큼	-1500
▁그그	-1501
▁버스	-1502
▁영어	-1503
▁중학교	-1504
스크	-1505
▁찬	-1506
▁향	-1507
▁뭣	-1508
▁나름	-1509
▁닭	-1510
▁물어	-1511
▁아니믄	-1512
▁묻	-1513
▁징	-1514
▁못하	-1515
▁아님	-1516
▁교수	-1517
▁누나	-1518
▁점점	-1519
다이	-1520
레이	-1521
▁멋있	-1522
▁으먼	-1523
▁가수	-1524
▁풍	-1525
워서	-1526
젱이	-1527
▁갔었	-1528
▁아버니	-1529
려서	-1530
면서	-1531
▁다행	-1532
▁방송	-1533
▁무섭	-1534
▁씻	-1535
라지	-1536
▁교회	-1537
추룩	-1538
▁생일	-1539
▁그른데	-1540
▁아싸	-1541
▁강아지	-1542
▁움씨	-1543
▁끔	-1544
▁부산	-1545
▁아닌디	-1546
▁생겨	-1547
▁장히	-1548
▁혈	-1549
▁느냐	-1550
▁솔치	-1551
▁추억	-1552
뎅이	-1553
▁고상	-1554
▁새끼	-1555
▁마지	-1556
▁끝나	-1557
▁부담	-1558
▁떨어지	-1559
▁총	-1560
▁거그	-1561
▁푸	-1562
▁아싸리	-1563
가리	-1564
▁워낙	-1565
▁인사	-1566
▁작년	-1567
▁케이	-1568
▁흘	-1569
다가	-1570
▁초등	-1571
▁쌀	-1572
▁아쉬	-1573
▁근강	-1574
▁바껴	-1575
▁아깨	-1576
▁아우	-1577
▁웹툰	-1578
▁널	-1579
▁늫	-1580
▁갑자키	-1581
▁촌	-1582
▁싸우	-1583
▁씸	-1584
▁식당	-1585
▁올해	-1586
▁으머	-1587
▁버렸	-1588
▁염	-1589
퓨터	-1590
▁고런	-1591
▁식구	-1592
▁이모	-1593
그네	-1594
▁께임	-1595
▁뒷	-1596
▁자식	-1597
▁허여	-1598
▁딱히	-1599
▁봐서	-1600
▁고생	-1601
▁오랜	-1602
▁기본	-1603
▁할까	-1604
▁집이서	-1605
▁드렁	-1606
▁매일	-1607
▁수영	-1608
▁깊	-1609
▁데유	-1610
▁가능	-1611
▁자연	-1612
아리	-1613
주게	-1614
▁할로	-1615
▁교육	-1616
▁던디	-1617
▁봐도	-1618
▁길래	-1619
▁드가	-1620
▁선상	-1621
▁연예	-1622
▁이럴	-1623
▁부택	-1624
▁사무	-1625
▁뚜	-1626
▁걸러	-1627
▁축구	-1628
래두	-1629
▁마리	-1630
▁바다	-1631
▁앵	-1632
▁슈	-1633
▁이지	-1634
▁빈	-1635
▁기달	-1636
▁지네	-1637
▁으제	-1638
▁쪼매이	-1639
크라	-1640
▁어트	-1641
▁감정	-1642
▁예쁘	-1643
▁일어나	-1644
▁땀	-1645
▁센	-1646
▁공연	-1647
▁불나	-1648
▁색깔	-1649
▁층	-1650
▁보꼬	-1651
▁넓	-1652
▁할라고	-1653
렉스	-1654
▁당장	-1655
▁대단	-1656
▁마씨	-1657
▁댕겨	-1658
▁들으	-1659
▁아매	-1660
▁마지막	-1661
랜드	-1662
▁먹으	-1663
▁만든	-1664
▁청소	-1665
▁고라	-1666
▁고맙	-1667
▁주로	-1668
▁견	-1669
▁뜻	-1670
▁일반	-1671
▁관련	-1672
▁보험	-1673
▁셋	-1674
▁해외	-1675
▁그네	-1676
▁피부	-1677
▁사업	-1678
▁냄새	-1679
▁하영	-1680
▁학생	-1681
수다	-1682
▁기도	-1683
▁은께	-1684
▁투자	-1685
▁간다	-1686
▁흥	-1687
▁따러	-1688
▁관계	-1689
▁오라버이	-1690
▁걸어	-1691
쟁이	-1692
▁계절	-1693
드만	-1694
▁때미	-1695
▁아녀	-1696
▁이무	-1697
▁자고	-1698
▁직업	-1699
▁어멍이	-1700
▁으러	-1701
▁모른	-1702
▁닌	-1703
▁꽤	-1704
▁경해	-1705
▁대화	-1706
▁움석	-1707
▁호끔	-1708
▁신가	-1709
▁언닌	-1710
▁유행	-1711
▁최고	-1712
▁오라바이	-1713
거든	-1714
튜브	-1715
▁괴기	-1716
▁미리	-1717
▁잇	-1718
▁피곤	-1719
▁저래	-1720
▁느그	-1721
▁하민서	-1722
▁찐	-1723
▁오날	-1724
▁뵈	-1725
▁올려	-1726
▁저런	-1727
▁카드	-1728
▁키워	-1729
▁기대	-1730
▁어라	-1731
▁고양이	-1732
▁즈네	-1733
▁졸업	-1734
▁늙	-1735
▁나쁘	-1736
▁콤	-1737
▁가민	-1738
▁이신디	-1739
▁세상	-1740
▁아쉽	-1741
▁연예인	-1742
▁감사	-1743
▁고람	-1744
▁일어	-1745
▁껀	-1746
거지	-1747
▁신발	-1748
▁도대	-1749
▁습니	-1750
▁시절	-1751
▁시기	-1752
이가	-1753
▁지유	-1754
아가	-1755
▁무조	-1756
▁기회	-1757
▁혀서	-1758
▁황	-1759
▁이후	-1760
▁요런	-1761
▁지그	-1762
▁후회	-1763
든지	-1764
▁멕	-1765
▁든지	-1766
플렉스	-1767
▁가꾸	-1768
▁신겡	-1769
▁짜증	-1770
▁깡	-1771
▁깜짝	-1772
▁만난	-1773
▁시어	-1774
▁지난	-1775
▁허리	-1776
▁잃	-1777
▁훈	-1778
▁나갈	-1779
▁벌써	-1780
▁인나	-1781
▁프로그	-1782
▁코로나이	-1783
▁데려	-1784
▁마옴이	-1785
▁고서	-1786
▁무리	-1787
▁해야지	-1788
디다	-1789
재기	-1790
▁어른	-1791
▁아이돌	-1792
▁유튜브	-1793
▁밲	-1794
▁의사	-1795
▁책임	-1796
▁뭔지	-1797
▁경제	-1798
▁안타	-1799
▁하당	-1800
▁아파트	-1801
다리	-1802
▁봐라	-1803
▁이디	-1804
▁재미있	-1805
▁사건	-1806
▁선택	-1807
▁뉴	-1808
▁발싸	-1809
▁송	-1810
러지	-1811
▁큼	-1812
▁어떡	-1813
▁우쨌	-1814
▁했잖아	-1815
▁본인	-1816
▁행동	-1817
▁괘	-1818
▁헬	-1819
▁주말	-1820
▁아덜이	-1821
▁위험	-1822
▁이어	-1823
▁하이튼	-1824
▁죄송	-1825
▁부족	-1826
▁즈그	-1827
▁어찌	-1828
▁겅해도	-1829
▁즘	-1830
▁바꾸	-1831
▁봤었	-1832
▁하르바이	-1833
수록	-1834
▁다녔	-1835
▁후지	-1836
▁디서	-1837
▁요샌	-1838
▁직원	-1839
▁설명	-1840
▁표현	-1841
작이	-1842
▁내년	-1843
▁없사	-1844
▁드라구요	-1845
▁귀찮	-1846
▁무지	-1847
▁현실	-1848
▁어야지	-1849
▁누군	-1850
▁배워	-1851
▁하도	-1852
머리	-1853
▁컴퓨터	-1854
▁남펜	-1855
▁어때	-1856
▁막상	-1857
▁넘어가	-1858
▁요작이	-1859
▁콘	-1860
▁고느	-1861
▁으민	-1862
▁쌍	-1863
▁훨씬	-1864
▁겁나게	-1865
마나	-1866
으롤	-1867
▁이릏	-1868
▁생각으롤	-1869
다니	-1870
▁부르	-1871
▁소개	-1872
▁여그	-1873
▁이따	-1874
▁계시	-1875
▁서방	-1876
중간	-1877
▁가방	-1878
▁연습	-1879
▁오히	-1880
▁육지	-1881
머니	-1882
▁이구	-1883
▁오히려	-1884
▁여보	-1885
▁하지마	-1886
▁쭉	-1887
▁그나	-1888
▁어짜피	-1889
▁모아	-1890
▁몰래	-1891
▁사나	-1892
▁흐	-1893
▁결정	-1894
▁더라구요	-1895
▁게신	-1896
▁프로그램	-1897
▁범	-1898
▁영상	-1899
▁깐	-1900
▁춥	-1901
무리	-1902
고기	-1903
매나	-1904
▁그분	-1905
으믄은	-1906
▁거이	-1907
▁당연	-1908
▁출근	-1909
으루	-1910
▁이사	-1911
▁거따	-1912
▁머스마	-1913
▁쥐	-1914
▁아이라	-1915
▁세계	-1916
▁아인	-1917
▁가요	-1918
▁가치	-1919
▁주문	-1920
▁우덜	-1921
▁는구나	-1922
▁썩	-1923
▁답답	-1924
▁멀리	-1925
▁아이씨	-1926
▁뭐여	-1927
▁락	-1928
부분	-1929
▁낸	-1930
▁젤	-1931
▁뭐라	-1932
▁드니	-1933
고이	-1934
▁나무	-1935
▁담배	-1936
▁섭	-1937
더라	-1938
▁붕	-1939
▁고치	-1940
부터	-1941
▁바꿔	-1942
▁휘	-1943
▁아래	-1944
▁마대이	-1945
▁탕	-1946
▁그녀	-1947
▁먼전	-1948
▁팬	-1949
빨리	-1950
▁나신	-1951
▁예쁜	-1952
▁썰	-1953
▁다양	-1954
▁밝	-1955
▁석	-1956
▁눈물	-1957
▁쏘	-1958
▁엘	-1959
▁걸려	-1960
▁그림	-1961
▁대하	-1962
▁아닌가	-1963
▁요중간	-1964
▁일곱	-1965
야지	-1966
▁내인데	-1967
▁넷	-1968
▁아무래두	-1969
▁띠	-1970
르바이트	-1971
▁아르바이트	-1972
▁여서	-1973
▁덕	-1974
▁도시	-1975
▁튼	-1976
더레	-1977
져서	-1978
▁자동	-1979
▁시골	-1980
▁연기	-1981
▁좌	-1982
▁검사	-1983
▁문화	-1984
▁아짐	-1985
▁그쪽	-1986
▁호텔	-1987
▁것도	-1988
▁근다	-1989
▁바지	-1990
▁낙	-1991
▁시집	-1992
▁으런	-1993
▁쟤	-1994
▁치킨	-1995
▁한다고	-1996
▁이혼	-1997
▁기다리	-1998
▁가만	-1999
▁그깐	-2000
▁어떻	-2001
▁하니께	-2002
▁선배	-2003
▁족	-2004
누리	-2005
▁나타	-2006
▁집서	-2007
▁할아	-2008
드라구	-2009
▁심하	-2010
▁지요	-2011
▁쇠	-2012
는거	-2013
▁반대	-2014
▁한참	-2015
었는디	-2016
▁이까네	-2017
▁녀	-2018
던가	-2019
▁돌려	-2020
▁예나	-2021
▁십시오	-2022
▁엠	-2023
▁졍	-2024
도이	-2025
▁아시	-2026
▁확인	-2027
▁회장	-2028
▁기사	-2029
▁둘째	-2030
▁벤	-2031
르방	-2032
▁샘	-2033
▁작가	-2034
▁가까	-2035
▁주제	-2036
▁쫓	-2037
▁이쁜	-2038
▁해결	-2039
▁시가이	-2040
▁곰	-2041
▁닷	-2042
▁바뀌	-2043
▁별러	-2044
▁이새	-2045
▁지나가	-2046
▁멩	-2047
▁컸	-2048
거나	-2049
은디	-2050
▁대루	-2051
▁대부분	-2052
▁-	-2053
▁아줌	-2054
▁정두	-2055
▁종교	-2056
▁버려	-2057
▁예전	-2058
▁햐	-2059
▁만날	-2060
▁승격	-2061
▁아도	-2062
▁자구	-2063
▁점심	-2064
▁옮	-2065
▁이용	-2066
▁싼	-2067
▁국민	-2068
▁다면	-2069
▁말꼬	-2070
▁결과	-2071
▁전부	-2072
▁제품	-2073
▁될지	-2074
▁앤	-2075
▁해유	-2076
▁눌	-2077
애기	-2078
▁허구	-2079
▁가심	-2080
▁장사	-2081
▁친정	-2082
▁하믄	-2083
▁고르	-2084
학생	-2085
▁실수	-2086
▁에선	-2087
▁우선	-2088
▁갑재기	-2089
▁하르방	-2090
▁홈	-2091
▁점슴	-2092
▁그기서	-2093
▁브랜드	-2094
▁느꼈	-2095
▁그추룩	-2096
▁나신더레	-2097
▁갈라	-2098
▁떠나	-2099
▁갠	-2100
▁가진	-2101
▁바라	-2102
▁스포	-2103
▁았었	-2104
신게	-2105
▁기름	-2106
▁꽁	-2107
▁핑	-2108
▁빠빠	-2109
▁자유	-2110
▁환경	-2111
▁춤	-2112
토리	-2113
▁아쭈	-2114
▁여덟	-2115
▁예즌	-2116
▁그랬었	-2117
▁어울리	-2118
▁갔다	-2119
▁던지	-2120
▁여유	-2121
▁헬스	-2122
▁거덩	-2123
▁인기	-2124
▁들어갔	-2125
▁눈치	-2126
▁빠빠빨리	-2127
어지	-2128
▁비행	-2129
▁시원	-2130
▁추워	-2131
▁햄신디	-2132
▁겐디	-2133
▁훈련	-2134
▁컨	-2135
▁글구	-2136
▁목소리	-2137
▁쭈	-2138
▁친해	-2139
▁스포츠	-2140
▁닫	-2141
▁런	-2142
▁군요	-2143
▁그카	-2144
▁바쁘	-2145
▁조용	-2146
▁하먼	-2147
▁보이까	-2148
▁아인데	-2149
▁마스크	-2150
지게	-2151
▁아구	-2152
▁평상	-2153
▁허민	-2154
▁뻐	-2155
든가	-2156
▁가정	-2157
▁식사	-2158
▁이천	-2159
▁전문	-2160
▁헹	-2161
▁고유	-2162
▁바당	-2163
▁속상	-2164
▁아휴	-2165
▁켔는데	-2166
▁북	-2167
▁구경	-2168
▁경기	-2169
▁써서	-2170
▁메이	-2171
▁있으믄은	-2172
▁도대처	-2173
▁한다꼬	-2174
▁움직이	-2175
▁뽀	-2176
▁샤	-2177
▁려구	-2178
▁키로	-2179
▁그짝	-2180
▁워느	-2181
▁정보	-2182
부지	-2183
▁아두	-2184
▁엄니	-2185
▁을까요	-2186
▁큰일	-2187
▁머시기	-2188
▁월급	-2189
▁특별	-2190
스로	-2191
▁아닐	-2192
▁끓여	-2193
▁일루	-2194
▁나간	-2195
▁발라	-2196
▁꿀	-2197
▁배달	-2198
▁괜잖	-2199
▁드러	-2200
▁제발	-2201
▁때문	-2202
▁번호	-2203
▁돌아댕	-2204
▁모임	-2205
▁워드	-2206
▁거우	-2207
▁놀래	-2208
▁드렸	-2209
▁아홉	-2210
▁기계	-2211
▁글지	-2212
▁역시	-2213
▁분명	-2214
▁주위	-2215
▁지켜	-2216
▁함께	-2217
▁생각혀	-2218
▁어부	-2219
▁지원	-2220
▁백만	-2221
▁줄게	-2222
▁해그넹	-2223
▁콤플렉스	-2224
▁작품	-2225
린다	-2226
▁개안	-2227
▁부리	-2228
▁추운	-2229
▁아이고	-2230
▁납	-2231
▁말이	-2232
▁학상	-2233
▁규	-2234
▁역사	-2235
▁스스로	-2236
▁알아보	-2237
▁모다	-2238
▁정해	-2239
▁쫄	-2240
냉이	-2241
▁허지	-2242
▁들어간	-2243
▁르	-2244
▁기간	-2245
▁불안	-2246
▁신고	-2247
▁집중	-2248
▁해부난	-2249
던지	-2250
▁가믄	-2251
▁사라	-2252
▁산책	-2253
▁어매	-2254
▁잇날	-2255
▁날라	-2256
▁능력	-2257
▁께서	-2258
▁대요	-2259
▁도착	-2260
▁대구	-2261
▁라이	-2262
▁액	-2263
▁야구	-2264
▁햇	-2265
▁인재	-2266
▁포기	-2267
▁닦	-2268
▁쥬	-2269
▁바램	-2270
▁자는	-2271
▁편한	-2272
▁찾아보	-2273
▁할려구	-2274
▁간호	-2275
▁내금	-2276
▁메칠	-2277
▁빡세	-2278
▁어니	-2279
▁어마	-2280
▁더라도	-2281
▁관광	-2282
▁랑가	-2283
▁겔	-2284
▁쩡	-2285
▁목표	-2286
▁고것도	-2287
▁가난	-2288
▁허영	-2289
▁입니까	-2290
▁맛집	-2291
▁어트게	-2292
▁한다는	-2293
▁경찰	-2294
▁볼까	-2295
▁빌려	-2296
▁뿔	-2297
▁거여	-2298
▁할려	-2299
▁해가꼬	-2300
▁당근	-2301
▁시방	-2302
▁할지	-2303
▁모여	-2304
▁어신	-2305
▁워드메	-2306
▁볶	-2307
▁찔	-2308
▁게론	-2309
▁인정	-2310
▁바이	-2311
▁쩌기	-2312
▁고만	-2313
▁으면서	-2314
동안	-2315
▁내가	-2316
▁던가	-2317
▁성님	-2318
▁아지	-2319
▁이만	-2320
▁쩡도	-2321
▁챙기	-2322
▁피해	-2323
▁냈	-2324
▁근처	-2325
▁욕심	-2326
▁한두	-2327
▁효과	-2328
▁까진	-2329
▁성공	-2330
▁잊어	-2331
▁지방	-2332
▁할매	-2333
▁홀	-2334
▁근무	-2335
▁위해서	-2336
부이	-2337
▁억수	-2338
▁지도	-2339
▁해사	-2340
▁스토리	-2341
자리	-2342
▁놀랬	-2343
▁부렀	-2344
▁이뻐	-2345
▁일부	-2346
▁평소	-2347
▁어려운	-2348
▁롤	-2349
▁내금새	-2350
▁불쌍	-2351
▁어깨	-2352
▁장르	-2353
으면	-2354
▁보단	-2355
▁새로운	-2356
다보	-2357
▁이신	-2358
▁친한	-2359
▁도망	-2360
▁은이	-2361
▁이녁	-2362
▁충격	-2363
▁며칠	-2364
▁보냈	-2365
▁영향	-2366
▁거래	-2367
▁만족	-2368
▁모양	-2369
▁월마나	-2370
▁택시	-2371
▁자세	-2372
▁편인디	-2373
▁웅	-2374
래기	-2375
하다	-2376
▁으셨	-2377
▁나서	-2378
▁땡기	-2379
▁새벽	-2380
▁손님	-2381
▁애유	-2382
▁으니	-2383
▁다니까	-2384
▁라고유	-2385
▁적이	-2386
▁이애기	-2387
▁겟	-2388
▁섬	-2389
▁유지	-2390
▁계산	-2391
▁소문	-2392
▁스물	-2393
▁최대	-2394
▁읍	-2395
무원	-2396
▁어딨	-2397
▁중이	-2398
▁마세요	-2399
▁잖아예	-2400
▁즉	-2401
▁든데	-2402
▁은지	-2403
▁이시	-2404
▁찾아가	-2405
▁낚	-2406
▁댁	-2407
▁나눠	-2408
▁면허	-2409
▁자마	-2410
랑께	-2411
▁그마	-2412
▁니가	-2413
▁들리	-2414
▁어째	-2415
▁간나	-2416
▁그땐	-2417
▁그면	-2418
▁버린	-2419
▁실지	-2420
▁저것	-2421
▁올라오	-2422
▁슨상	-2423
▁주인공	-2424
▁우떤	-2425
▁나머	-2426
▁된께	-2427
▁위주	-2428
▁유투	-2429
▁크리	-2430
▁하긴	-2431
▁기술	-2432
▁도로	-2433
▁예약	-2434
▁메누리	-2435
▁달르	-2436
▁쬐끔	-2437
▁오랜만	-2438
▁맞아	-2439
▁소설	-2440
▁퇴근	-2441
▁글쎄	-2442
▁무서워	-2443
▁품	-2444
에이	-2445
▁쩍	-2446
▁가마	-2447
▁습관	-2448
▁페이	-2449
▁거래이	-2450
마시	-2451
▁댕겼	-2452
▁배고	-2453
▁줘서	-2454
▁통화	-2455
▁갚	-2456
▁마주	-2457
▁마트	-2458
▁질문	-2459
▁처레	-2460
대루	-2461
▁그란	-2462
▁정확	-2463
▁되지	-2464
▁때메	-2465
마트	-2466
▁드려	-2467
▁반찬	-2468
▁이루	-2469
▁틀리	-2470
▁과정	-2471
▁지지	-2472
▁허믄	-2473
▁낯	-2474
▁냉장	-2475
▁깎	-2476
▁에전	-2477
▁저번	-2478
▁전기	-2479
▁내려가	-2480
▁뉴스	-2481
▁심히	-2482
▁치료	-2483
▁그니까	-2484
▁용돈	-2485
▁사램들이	-2486
▁뜯	-2487
▁똘	-2488
가락	-2489
데이	-2490
▁막내	-2491
▁잘도	-2492
▁팀장	-2493
▁문리	-2494
래요	-2495
▁빠졌	-2496
▁상상	-2497
▁안주	-2498
▁애미	-2499
▁준다	-2500
▁자동차	-2501
▁건물	-2502
▁비행기	-2503
▁지마는	-2504
▁감자	-2505
▁하께	-2506
▁위해	-2507
▁으난	-2508
▁인상	-2509
▁됩	-2510
▁둔	-2511
▁폐	-2512
▁셔서	-2513
▁앵간	-2514
▁상구두	-2515
▁겪	-2516
▁달부	-2517
▁떨어져	-2518
▁이시난	-2519
▁젖	-2520
▁가슴	-2521
▁성겍	-2522
▁영양	-2523
▁하노	-2524
▁디자	-2525
▁먹언	-2526
▁헝	-2527
▁어무	-2528
▁하튼	-2529
▁들어왔	-2530
▁자마자	-2531
▁씀	-2532
▁대충	-2533
▁스무	-2534
사리	-2535
▁다잉	-2536
▁성적	-2537
▁먹어	-2538
▁모시	-2539
▁특이	-2540
▁편안	-2541
▁들어와	-2542
▁고집	-2543
▁달려	-2544
▁모냥	-2545
▁다라	-2546
▁따뜻	-2547
▁어이	-2548
▁거는이	-2549
▁문젠	-2550
▁사정	-2551
▁전혀	-2552
▁롭	-2553
끼리	-2554
으네	-2555
▁네이	-2556
▁대해	-2557
▁힘드	-2558
라인	-2559
▁아줌마	-2560
▁그저	-2561
▁라예	-2562
▁마찬	-2563
▁놀이	-2564
▁섞	-2565
▁고모	-2566
▁노트	-2567
▁오후	-2568
▁가느	-2569
▁어리	-2570
▁그케	-2571
▁선호	-2572
▁공감	-2573
▁농사	-2574
▁뛰어	-2575
▁받아	-2576
▁양념	-2577
▁우울	-2578
락지	-2579
이영	-2580
▁둬	-2581
▁벽	-2582
▁옥	-2583
▁게따	-2584
▁디게	-2585
▁상가	-2586
▁시직	-2587
하게	-2588
▁금사	-2589
▁깨끗	-2590
▁느라	-2591
▁사기	-2592
▁자라	-2593
▁뼈	-2594
▁삘	-2595
느마	-2596
스터	-2597
▁보일	-2598
▁상체	-2599
▁입맛	-2600
동생	-2601
▁돼지	-2602
▁웃기	-2603
▁전체	-2604
▁짤라	-2605
▁해다	-2606
▁흔들	-2607
▁유투브	-2608
▁아주머이	-2609
▁굽	-2610
▁짠	-2611
▁야기	-2612
▁참말	-2613
▁캐릭	-2614
▁든가	-2615
▁영하	-2616
▁으라	-2617
▁뮤	-2618
▁바빠	-2619
▁직히	-2620
▁평생	-2621
▁헌디	-2622
▁최대한	-2623
▁맥주	-2624
▁장면	-2625
▁지가	-2626
▁다시피	-2627
▁폴	-2628
▁취업	-2629
끄러	-2630
▁과일	-2631
▁매력	-2632
▁발전	-2633
▁왠	-2634
▁유치	-2635
▁지하	-2636
▁지만은	-2637
▁앴	-2638
랭이	-2639
▁가리	-2640
▁따지	-2641
▁보리	-2642
▁지키	-2643
▁출발	-2644
▁가젱이	-2645
없이	-2646
▁사귀	-2647
▁공무원	-2648
▁짱	-2649
레비	-2650
▁경행	-2651
▁어잉	-2652
▁꽉	-2653
▁못한	-2654
▁냉장고	-2655
쥉일	-2656
▁당하	-2657
▁못했	-2658
▁실은	-2659
▁격	-2660
▁맻	-2661
▁캠	-2662
▁바루	-2663
▁쉬운	-2664
▁냐믄	-2665
▁더만	-2666
▁모이	-2667
▁웃긴	-2668
▁그래요	-2669
▁스러운	-2670
▁마찬가지	-2671
▁쌩	-2672
▁웨	-2673
▁마누	-2674
▁안정	-2675
▁하날	-2676
▁음매나	-2677
▁가구	-2678
▁게메	-2679
▁수학	-2680
▁충분	-2681
▁잤	-2682
▁달리	-2683
▁될까	-2684
▁신청	-2685
▁장점	-2686
▁글런	-2687
▁난다	-2688
▁이틀	-2689
▁이자	-2690
▁편의	-2691
▁몽	-2692
동산	-2693
▁감독	-2694
▁올래	-2695
▁일케	-2696
▁감동	-2697
▁근육	-2698
▁돌리	-2699
▁주차	-2700
▁쳤	-2701
▁꾸준	-2702
▁상품	-2703
▁초반	-2704
▁껌	-2705
▁꽂	-2706
▁기준	-2707
▁느이	-2708
▁방학	-2709
▁을라	-2710
▁을지	-2711
▁체력	-2712
▁캐릭터	-2713
▁더라고요	-2714
심히	-2715
▁긍꼬	-2716
▁마을	-2717
▁싸움	-2718
▁취향	-2719
▁쫍	-2720
끄만	-2721
▁들언	-2722
▁사겼	-2723
▁어고	-2724
▁휴대	-2725
▁경한거	-2726
▁콜	-2727
불고	-2728
▁냐면	-2729
▁어여	-2730
▁예민	-2731
▁우째	-2732
▁유럽	-2733
▁해영	-2734
▁희한	-2735
▁아이구	-2736
▁갬	-2737
▁처름	-2738
▁한단	-2739
▁꾼	-2740
시다	-2741
▁수과	-2742
▁연결	-2743
▁포장	-2744
▁삭	-2745
▁맛인	-2746
▁맞추	-2747
▁보머	-2748
▁진행	-2749
▁키웠	-2750
▁기억나	-2751
화점	-2752
▁마라	-2753
▁오만	-2754
▁한다구	-2755
▁하드	-2756
▁라니까	-2757
▁쐬	-2758
▁보인	-2759
▁예뻐	-2760
▁탔	-2761
저이	-2762
▁매장	-2763
▁배웠	-2764
▁아나	-2765
▁정치	-2766
▁차려	-2767
▁고자	-2768
▁분멩	-2769
▁자랑	-2770
▁된다구	-2771
▁따라가	-2772
▁츠	-2773
가루	-2774
으는	-2775
▁아칙	-2776
▁외려	-2777
▁개구	-2778
▁무릎	-2779
▁덮	-2780
려면	-2781
▁걸렸	-2782
▁이러이	-2783
▁밟	-2784
▁푹	-2785
서트	-2786
▁그자	-2787
▁뭐냐	-2788
▁소심	-2789
▁어뜩	-2790
▁위하	-2791
▁타이	-2792
쿠다	-2793
▁기구	-2794
▁승질	-2795
▁전자	-2796
▁떨어졌	-2797
▁흰	-2798
▁실력	-2799
▁애매	-2800
▁봅	-2801
▁닮아	-2802
▁대답	-2803
▁계신	-2804
▁누워	-2805
▁말여	-2806
▁백화점	-2807
▁생각나	-2808
▁단계	-2809
▁동아리	-2810
▁사람덜	-2811
▁렇	-2812
▁붙여	-2813
▁해보	-2814
▁디자인	-2815
▁콰	-2816
▁협	-2817
마씸	-2818
▁서운	-2819
▁얼릉	-2820
▁엉차	-2821
▁역할	-2822
▁콘서트	-2823
▁닿	-2824
▁가사	-2825
▁써야	-2826
▁재테	-2827
▁고대로	-2828
▁뺏	-2829
▁구하	-2830
▁단점	-2831
▁때려	-2832
▁안해	-2833
▁토막	-2834
▁놔두	-2835
▁마셔	-2836
▁보호	-2837
▁아깝	-2838
▁꼽	-2839
▁귀여	-2840
▁사무실	-2841
▁할마시	-2842
▁빙	-2843
랑가	-2844
▁래두	-2845
▁마실	-2846
▁바까	-2847
▁사우	-2848
▁허기	-2849
▁재테크	-2850
멍이	-2851
바리	-2852
▁처리	-2853
▁상대방	-2854
▁그냐	-2855
▁끝내	-2856
▁스키	-2857
▁얼른	-2858
▁묶	-2859
▁시즌	-2860
▁휴대폰	-2861
▁야채	-2862
▁줘요	-2863
▁터지	-2864
▁테이	-2865
▁패딩	-2866
▁데이트	-2867
▁할마이	-2868
▁대차	-2869
▁어는	-2870
▁카톡	-2871
▁아인가	-2872
우스	-2873
▁그놈	-2874
▁이니	-2875
▁무조근	-2876
▁쩐	-2877
▁그나마	-2878
▁삔	-2879
바닥	-2880
▁된장	-2881
▁비교	-2882
▁비스	-2883
▁소금	-2884
▁기달리	-2885
▁나왕	-2886
▁다닌	-2887
▁매운	-2888
▁심해	-2889
▁어띃	-2890
▁요기	-2891
▁응게	-2892
▁허벌	-2893
▁어신디	-2894
▁얇	-2895
▁꺼내	-2896
▁달구	-2897
▁동세	-2898
▁빠진	-2899
▁한지	-2900
▁부동산	-2901
▁허벌나	-2902
어들	-2903
▁문지	-2904
▁빨간	-2905
▁저러	-2906
▁편의점	-2907
▁렌	-2908
▁국가	-2909
▁기능	-2910
▁심한	-2911
▁지름	-2912
▁으이구	-2913
▁거라	-2914
▁계란	-2915
▁이불	-2916
▁친하	-2917
▁편이여	-2918
라도	-2919
▁부대	-2920
▁비밀	-2921
▁피아	-2922
▁억수로	-2923
▁열심히	-2924
▁김장	-2925
▁내기	-2926
▁자전	-2927
으이까	-2928
어진	-2929
▁사주	-2930
▁해졌	-2931
▁휴가	-2932
▁분멩히	-2933
▁그래니까	-2934
▁꼼	-2935
▁좁	-2936
▁깔끔	-2937
▁봐두	-2938
▁삼성	-2939
▁시킬	-2940
▁알앙	-2941
▁외모	-2942
스마스	-2943
▁크리스마스	-2944
▁냅	-2945
라두	-2946
▁시켰	-2947
▁연구	-2948
▁아구구	-2949
▁돌아댕기	-2950
▁쨋	-2951
▁훌	-2952
▁감기	-2953
▁모자	-2954
▁현재	-2955
시리	-2956
▁거짓	-2957
▁골라	-2958
▁놀라	-2959
▁먼가	-2960
▁못해	-2961
▁세대	-2962
▁돌아오	-2963
▁왜냐먼은	-2964
스타	-2965
▁글제	-2966
▁글코	-2967
▁사개	-2968
▁소식	-2969
▁우유	-2970
▁제사	-2971
▁화장실	-2972
▁농구	-2973
▁보였	-2974
빠지게	-2975
▁영화관	-2976
깽이	-2977
볶이	-2978
▁부부	-2979
▁재료	-2980
▁혈액	-2981
▁그그두	-2982
▁역부러	-2983
적지	-2984
▁복잡	-2985
▁있댄	-2986
▁종이	-2987
▁아버이	-2988
▁테레비	-2989
▁뭉	-2990
▁은행	-2991
▁이리	-2992
▁먹으먼은	-2993
▁벼	-2994
▁빚	-2995
르신	-2996
▁이른	-2997
▁커서	-2998
▁환자	-2999
▁공기	-3000
▁마치	-3001
▁상처	-3002
▁심심	-3003
▁아기	-3004
▁떡볶이	-3005
투리	-3006
▁기업	-3007
▁바닥	-3008
▁짐치	-3009
▁챙피	-3010
▁행사	-3011
▁자전거	-3012
▁램	-3013
▁보문	-3014
▁어딜	-3015
▁연극	-3016
▁누군가	-3017
▁할려고	-3018
디야	-3019
보난	-3020
▁비용	-3021
▁주민	-3022
자게	-3023
▁댕길	-3024
▁면접	-3025
▁아뇨	-3026
▁에유	-3027
▁임신	-3028
▁있언	-3029
▁들어갈	-3030
▁십니까	-3031
바구	-3032
▁더러	-3033
▁명품	-3034
▁어떨	-3035
▁와이	-3036
▁겁니다	-3037
갱이	-3038
거운	-3039
▁구워	-3040
▁모두	-3041
▁멫	-3042
▁븐	-3043
에스	-3044
▁등산	-3045
▁작업	-3046
▁지구	-3047
▁한께	-3048
▁경허난	-3049
▁겔혼	-3050
▁광주	-3051
▁알안	-3052
▁호꼼	-3053
▁누게	-3054
▁수준	-3055
▁오메	-3056
▁으른	-3057
▁해져	-3058
▁된다고	-3059
▁볼라고	-3060
▁넨	-3061
배기	-3062
뱅이	-3063
▁드래	-3064
▁말구	-3065
▁모를	-3066
▁오새	-3067
▁혼대	-3068
▁갤	-3069
▁기별	-3070
▁재수	-3071
▁된다는	-3072
▁똑같이	-3073
▁귤	-3074
▁겅하	-3075
▁국물	-3076
▁당게	-3077
▁대전	-3078
▁맹글	-3079
▁미친	-3080
▁사과	-3081
▁신지	-3082
▁치마	-3083
▁노래방	-3084
▁망금	-3085
▁살림	-3086
▁아름	-3087
▁코스	-3088
▁합격	-3089
▁형제	-3090
▁아가씨	-3091
▁랬	-3092
▁헷	-3093
▁고쳐	-3094
▁니랑	-3095
▁다신	-3096
▁일상	-3097
▁니까는	-3098
▁아쉬운	-3099
▁뒈	-3100
통령	-3101
▁부럽	-3102
▁시리	-3103
▁이때	-3104
▁회의	-3105
▁강원	-3106
▁걸린	-3107
▁교통	-3108
▁실망	-3109
▁국내	-3110
▁소비	-3111
▁편지	-3112
▁드라도	-3113
▁드라고요	-3114
▁요즘으는	-3115
▁껍	-3116
▁계약	-3117
▁군데	-3118
▁려면	-3119
▁변화	-3120
▁심각	-3121
▁키울	-3122
▁하늘	-3123
▁어려워	-3124
▁씹	-3125
▁압	-3126
라면	-3127
▁그랜	-3128
▁바쁜	-3129
은이	-3130
테이	-3131
▁귀엽	-3132
▁말라	-3133
▁온다	-3134
▁음석	-3135
▁한창	-3136
▁과장	-3137
▁심들	-3138
▁오빠야	-3139
▁피아노	-3140
▁버릴	-3141
▁얘긴	-3142
▁있어	-3143
▁나신디	-3144
▁대통령	-3145
▁껄	-3146
▁폰	-3147
▁결론	-3148
▁배울	-3149
▁변하	-3150
▁오른	-3151
▁장소	-3152
▁우쨌든	-3153
버지	-3154
▁검색	-3155
▁봐신디	-3156
▁카면은	-3157
▁끈	-3158
▁덥	-3159
▁찜	-3160
이랜	-3161
▁간단	-3162
▁단순	-3163
▁어가	-3164
▁와야	-3165
▁적당	-3166
▁천만	-3167
▁짬	-3168
신가	-3169
▁공간	-3170
▁구두	-3171
▁세워	-3172
▁어우	-3173
▁조절	-3174
▁쥉일	-3175
▁즐기	-3176
▁댔	-3177
마씨	-3178
▁개발	-3179
▁대러	-3180
▁우짜	-3181
▁허락	-3182
▁고구	-3183
▁발르	-3184
▁조영	-3185
▁한텐	-3186
▁오라방	-3187
걸이	-3188
릭스	-3189
여행	-3190
▁애니	-3191
▁팍	-3192
께요	-3193
지컬	-3194
▁안행	-3195
▁여거	-3196
▁추룩	-3197
▁멜	-3198
▁읊	-3199
▁가라	-3200
▁간지	-3201
▁보낸	-3202
▁뿐이	-3203
▁찝	-3204
▁탑	-3205
▁톡	-3206
▁보먼	-3207
▁축제	-3208
와서	-3209
▁꾸워	-3210
▁배운	-3211
▁산다	-3212
▁이백	-3213
▁완저이	-3214
▁멈	-3215
▁대표	-3216
▁오리	-3217
▁왔었	-3218
▁인식	-3219
▁자극	-3220
▁조건	-3221
▁가시나	-3222
▁사이즈	-3223
▁밴	-3224
비스	-3225
장님	-3226
▁공불	-3227
▁넷플	-3228
▁노인	-3229
▁박스	-3230
▁상하	-3231
▁심지	-3232
▁흥미	-3233
▁넷플릭스	-3234
▁굶	-3235
▁쫙	-3236
▁미치	-3237
▁져서	-3238
▁조사	-3239
▁끕	-3240
▁윤	-3241
▁느낀	-3242
▁대리	-3243
▁서이	-3244
▁언나	-3245
▁착한	-3246
▁나타나	-3247
▁아이폰	-3248
▁돋	-3249
▁되민	-3250
▁붙이	-3251
▁점수	-3252
▁힐	-3253
▁삔또	-3254
▁아맹	-3255
▁쓰레기	-3256
▁허는디	-3257
▁뜬	-3258
▁할래	-3259
▁마누래	-3260
▁상관없	-3261
▁헤어지	-3262
▁랄	-3263
하면	-3264
▁따르	-3265
▁로서	-3266
▁반려	-3267
▁부탁	-3268
▁아적	-3269
▁이면	-3270
▁노트북	-3271
▁사램들	-3272
▁펴	-3273
렝이	-3274
▁광고	-3275
▁그릇	-3276
▁기지	-3277
▁학기	-3278
▁렁	-3279
여서	-3280
▁놀러	-3281
▁대회	-3282
▁드레	-3283
▁체육	-3284
▁이미지	-3285
▁뚫	-3286
▁턱	-3287
▁골프	-3288
▁공원	-3289
▁구들	-3290
▁보라	-3291
▁삘이	-3292
▁시청	-3293
▁아야지	-3294
▁뚱	-3295
려운	-3296
▁간식	-3297
▁때리	-3298
▁가먼은	-3299
▁된대	-3300
▁패션	-3301
▁기다려	-3302
▁끝나믄	-3303
▁비스무리	-3304
릏게	-3305
바지	-3306
지마	-3307
▁담이	-3308
▁들이	-3309
▁매달	-3310
▁수워	-3311
▁여성	-3312
▁저렴	-3313
▁즐겨	-3314
▁스마트	-3315
▁롬	-3316
거라	-3317
재는	-3318
▁원하	-3319
▁비해서	-3320
▁솜	-3321
나라	-3322
▁여게	-3323
▁세월	-3324
▁시킨	-3325
▁애들	-3326
▁재산	-3327
▁꾸준히	-3328
▁고대	-3329
▁부지	-3330
▁오디	-3331
▁거든예	-3332
▁줍	-3333
▁동니	-3334
▁메뉴	-3335
▁아재	-3336
▁애비	-3337
▁이실	-3338
▁엑	-3339
▁나꼬	-3340
▁마수	-3341
▁쭐이	-3342
▁해진	-3343
▁드릴게요	-3344
▁흉	-3345
▁흑	-3346
▁까먹	-3347
▁날짜	-3348
▁셔야	-3349
▁안경	-3350
▁요재는	-3351
▁옹	-3352
만은	-3353
죙일	-3354
▁공장	-3355
▁긴장	-3356
▁드나	-3357
▁멕이	-3358
▁한나	-3359
▁할게요	-3360
▁뺄	-3361
▁칸	-3362
▁수능	-3363
▁안녕	-3364
▁익숙	-3365
▁입원	-3366
어져	-3367
▁거개	-3368
▁오눌	-3369
▁가져가	-3370
▁어머님	-3371
▁찢	-3372
▁측	-3373
다지	-3374
이다	-3375
▁미래	-3376
▁억울	-3377
▁오르	-3378
▁우염	-3379
▁인물	-3380
▁공항	-3381
▁서름	-3382
▁성인	-3383
▁유산	-3384
▁피우	-3385
▁긍까는	-3386
▁뮤지컬	-3387
▁살아가	-3388
▁서비스	-3389
▁안타까	-3390
▁긁	-3391
▁쎈	-3392
▁당황	-3393
▁을라구	-3394
▁화장품	-3395
▁뚝	-3396
▁기차	-3397
▁다매	-3398
▁대체	-3399
▁되난	-3400
▁손지	-3401
▁신데	-3402
▁뭔데	-3403
▁반응	-3404
▁시댁	-3405
▁통해	-3406
▁풀리	-3407
▁라구요	-3408
▁왐	-3409
아이	-3410
▁대간	-3411
▁대그	-3412
▁허당	-3413
▁확실	-3414
▁기부이	-3415
▁안타깝	-3416
▁어디강	-3417
▁골아	-3418
▁실패	-3419
▁전공	-3420
▁착하	-3421
▁침대	-3422
▁쏙	-3423
▁들려	-3424
▁요가	-3425
▁콧	-3426
메라	-3427
▁꺼리	-3428
▁신혼	-3429
▁우에	-3430
▁응차	-3431
▁차말	-3432
▁간호사	-3433
▁간장	-3434
▁부딪	-3435
▁비타	-3436
▁시내	-3437
▁아퍼	-3438
▁어사	-3439
▁음료	-3440
▁으라고	-3441
▁뇌	-3442
▁만드	-3443
▁서른	-3444
▁있네	-3445
▁대그빡	-3446
▁아매두	-3447
▁류	-3448
새기	-3449
▁과학	-3450
▁괴롭	-3451
▁달래	-3452
▁돼야	-3453
▁라든	-3454
▁말고	-3455
▁빨래	-3456
▁뿌리	-3457
▁오민	-3458
▁왠지	-3459
▁아무탄	-3460
로케	-3461
▁고장	-3462
▁마냥	-3463
▁몰란	-3464
▁삼춘	-3465
▁십이	-3466
▁적응	-3467
▁고마워	-3468
▁내려오	-3469
▁국민학교	-3470
▁론	-3471
▁나모	-3472
▁뒈져	-3473
▁소스	-3474
▁한대	-3475
▁가아지	-3476
▁그면서	-3477
▁닌아가	-3478
▁비타민	-3479
▁이래요	-3480
▁젼	-3481
▁킬	-3482
▁퍽	-3483
▁가도	-3484
▁곰방	-3485
▁방금	-3486
▁배추	-3487
▁불렀	-3488
▁소용	-3489
▁코트	-3490
▁태어	-3491
▁한가	-3492
▁그랑께	-3493
▁할아부지	-3494
▁짼	-3495
▁무작	-3496
▁베이	-3497
▁시믄	-3498
▁중한	-3499
▁취직	-3500
▁사투리	-3501
▁캔	-3502
었다	-3503
▁단풍	-3504
▁정상	-3505
▁죽이	-3506
▁강원도	-3507
▁결혼식	-3508
▁그면은	-3509
▁분명히	-3510
▁어띃게	-3511
▁왼	-3512
▁생선	-3513
▁시아	-3514
▁식단	-3515
▁이은	-3516
▁짜르	-3517
▁피자	-3518
▁허는거	-3519
디오	-3520
이브	-3521
피스	-3522
▁똑똑	-3523
▁바꿀	-3524
▁새루	-3525
▁웬만	-3526
▁어시난	-3527
▁빛	-3528
▁가볍	-3529
▁데우	-3530
▁라인	-3531
▁방향	-3532
▁애플	-3533
▁좋닥	-3534
▁지갑	-3535
▁하마	-3536
▁혜	-3537
한디	-3538
▁나완	-3539
▁내내	-3540
▁새끄	-3541
▁은근	-3542
▁이네	-3543
▁토익	-3544
▁시상이	-3545
▁어트케	-3546
▁새끄데기	-3547
▁얼구리이	-3548
▁글다	-3549
▁살이	-3550
▁설탕	-3551
▁식품	-3552
▁신문	-3553
▁어시	-3554
▁허드	-3555
▁냐면은	-3556
▁나빠	-3557
▁염색	-3558
▁키운	-3559
▁거유	-3560
▁까시	-3561
▁끝난	-3562
▁우다	-3563
▁위한	-3564
▁은가	-3565
▁나머지	-3566
▁왜냐면	-3567
▁엥	-3568
▁헙	-3569
나무	-3570
▁각자	-3571
▁그램	-3572
▁만일	-3573
▁부재	-3574
▁하는데	-3575
둥이	-3576
이트	-3577
▁단지	-3578
▁아저	-3579
▁여튼	-3580
▁우딴	-3581
▁의식	-3582
▁치매	-3583
▁카메라	-3584
▁낚시	-3585
▁디다	-3586
▁맹그	-3587
▁바뀐	-3588
▁바퀴	-3589
▁슬마	-3590
▁형부	-3591
▁무시거	-3592
▁최근에이	-3593
▁밍	-3594
▁걸릴	-3595
▁기기	-3596
▁자이	-3597
▁추가	-3598
▁카대	-3599
▁학고	-3600
▁이따가	-3601
▁합니까	-3602
너지	-3603
▁그간	-3604
▁숙소	-3605
▁스케	-3606
▁표정	-3607
▁현금	-3608
▁온라인	-3609
▁할머니	-3610
▁꿔	-3611
▁강께	-3612
▁단어	-3613
▁데령	-3614
▁성향	-3615
▁오믄	-3616
▁잖소	-3617
▁정돈	-3618
▁취소	-3619
▁허연	-3620
▁는다고	-3621
▁앞으루	-3622
▁겸	-3623
처럼	-3624
▁공사	-3625
▁그딘	-3626
▁대출	-3627
▁동기	-3628
▁므는	-3629
▁첫째	-3630
▁편해	-3631
▁,	-3632
▁빗	-3633
▁개념	-3634
▁목적	-3635
▁미용	-3636
▁볼라	-3637
▁부텀	-3638
▁용서	-3639
▁위치	-3640
▁추미	-3641
▁한잔	-3642
▁허곡	-3643
시오야	-3644
▁무조건	-3645
▁어머니	-3646
▁어쩌던	-3647
▁떤	-3648
▁뭇	-3649
▁찰	-3650
저께	-3651
▁안전	-3652
▁암시	-3653
▁이민	-3654
▁자취	-3655
▁주사	-3656
▁지를	-3657
▁처먹	-3658
▁파티	-3659
▁어짜든	-3660
▁헌다구	-3661
▁뽂	-3662
찌개	-3663
▁기록	-3664
▁보조	-3665
▁새우	-3666
▁소화	-3667
▁할루	-3668
▁한대이	-3669
▁주시오야	-3670
▁덩	-3671
▁뱃	-3672
▁짚	-3673
버리	-3674
▁감성	-3675
▁다믄	-3676
▁도전	-3677
▁불구	-3678
▁세금	-3679
▁유리	-3680
▁겹	-3681
▁팩	-3682
허고	-3683
▁고는	-3684
▁기여	-3685
▁끓이	-3686
▁들여	-3687
▁머슴	-3688
▁인연	-3689
▁아저씨	-3690
▁여적지	-3691
▁띄	-3692
▁거진	-3693
▁그쵸	-3694
▁먼서	-3695
▁치우	-3696
▁텐디	-3697
▁은데요	-3698
▁껏	-3699
▁쟈	-3700
하고	-3701
▁벨루	-3702
▁분야	-3703
▁속도	-3704
▁이성	-3705
▁진짜루	-3706
▁땄	-3707
▁본다	-3708
▁섭섭	-3709
▁시도	-3710
▁웃겨	-3711
▁자존	-3712
▁화면	-3713
▁활용	-3714
▁간다구	-3715
▁을라고	-3716
▁쑥	-3717
▁기러	-3718
▁보낼	-3719
▁할인	-3720
▁호박	-3721
뿌래이	-3722
▁거지뿌래이	-3723
▁냥	-3724
▁뺀	-3725
▁수도	-3726
▁쓰리	-3727
▁터져	-3728
잘데기	-3729
끄럽	-3730
생활	-3731
▁녀석	-3732
▁니도	-3733
▁둘러	-3734
▁멩게	-3735
▁생길	-3736
▁의견	-3737
▁이긴	-3738
▁체크	-3739
▁다행이	-3740
▁당연히	-3741
▁아버님	-3742
▁엇	-3743
대기	-3744
▁건너	-3745
▁넘들	-3746
▁딱딱	-3747
▁마니	-3748
▁여앵	-3749
▁비스무리한	-3750
▁꽝	-3751
젠가	-3752
▁임마	-3753
▁자야	-3754
▁통장	-3755
▁쌈	-3756
▁쏠	-3757
치기	-3758
▁구매	-3759
▁그랴	-3760
▁몬하	-3761
▁서러	-3762
▁우산	-3763
▁잡아	-3764
▁거긴	-3765
▁건조	-3766
▁사요	-3767
▁사촌	-3768
▁택배	-3769
▁특벨	-3770
▁핏	-3771
▁마는	-3772
▁오토	-3773
▁이럼	-3774
▁재민	-3775
▁크기	-3776
▁할게	-3777
▁심지어	-3778
▁여행지	-3779
▁태어나	-3780
▁푼	-3781
▁게끔	-3782
▁마당	-3783
▁바리	-3784
▁아리	-3785
▁는데유	-3786
메이	-3787
▁길이	-3788
▁방식	-3789
▁세탁	-3790
▁아척	-3791
▁햇빛	-3792
▁흘러	-3793
▁었는디	-3794
▁놩	-3795
▁싰	-3796
느리	-3797
러스	-3798
살이	-3799
▁가당	-3800
▁마셨	-3801
▁서류	-3802
▁치즈	-3803
▁다면서	-3804
▁에려운	-3805
▁욱	-3806
▁그이	-3807
▁됐었	-3808
▁싸웠	-3809
▁이바구	-3810
▁컵	-3811
▁공포	-3812
▁근지	-3813
▁니들	-3814
▁삼겹	-3815
▁어색	-3816
▁후재	-3817
▁상다이	-3818
▁붓	-3819
으니	-3820
▁갈아	-3821
▁꼬추	-3822
▁바닷	-3823
▁서귀	-3824
▁잠시	-3825
▁삼겹살	-3826
▁하드라	-3827
우다	-3828
▁갈비	-3829
▁노난	-3830
▁달달	-3831
▁독립	-3832
▁뒤집	-3833
▁미역	-3834
▁시누	-3835
▁이근	-3836
▁한마	-3837
▁해부	-3838
▁옵	-3839
▁데끼	-3840
▁머럴	-3841
▁살려	-3842
▁신다	-3843
▁쓰이	-3844
▁올제	-3845
▁워치	-3846
▁캠핑	-3847
▁라던지	-3848
▁사램을	-3849
▁하는디	-3850
▁쏟	-3851
사나	-3852
운데	-3853
▁거시	-3854
▁생카	-3855
▁하우스	-3856
▁녜	-3857
▁빤	-3858
▁춘	-3859
▁헛	-3860
나리	-3861
당께	-3862
모님	-3863
▁거등	-3864
▁라지	-3865
▁요구	-3866
▁틀려	-3867
▁판단	-3868
▁는다는	-3869
▁뺐	-3870
▁마늘	-3871
▁몸무	-3872
▁브이	-3873
▁심장	-3874
▁정부	-3875
▁갱아지	-3876
▁속상하	-3877
▁토요일	-3878
▁가가주구	-3879
▁꼐	-3880
▁묘	-3881
▁안되	-3882
▁짜장	-3883
▁돌아다니	-3884
▁까닭	-3885
▁놔야	-3886
▁다서	-3887
▁못행	-3888
▁발표	-3889
▁시계	-3890
▁차리	-3891
▁칭찬	-3892
▁프리	-3893
▁되니께	-3894
▁들어온	-3895
▁해가주구	-3896
▁맑	-3897
허게	-3898
▁과거	-3899
▁으는	-3900
▁장기	-3901
▁차분	-3902
▁그러먼	-3903
▁서귀포	-3904
▁으라구	-3905
겠다	-3906
▁경향	-3907
▁금액	-3908
▁기운	-3909
▁렇구	-3910
▁발견	-3911
▁솔직	-3912
▁어지	-3913
▁영해	-3914
▁장개	-3915
▁태풍	-3916
▁고냉이	-3917
▁따라서	-3918
▁몸무게	-3919
▁우해서	-3920
▁자석아	-3921
▁어머이가	-3922
▁댓	-3923
▁아팠	-3924
▁에레	-3925
▁여야	-3926
▁자면	-3927
▁스러워	-3928
▁글드라고	-3929
까리	-3930
▁낭그	-3931
▁아즉	-3932
▁엄따	-3933
▁해예	-3934
▁맘대로	-3935
▁어린이	-3936
▁함부러	-3937
▁요것도이	-3938
▁옴	-3939
이야	-3940
▁여대	-3941
▁헉	-3942
▁가졌	-3943
▁거낭	-3944
▁긍정	-3945
▁부자	-3946
▁싸이	-3947
▁오름	-3948
▁으셔	-3949
▁으실	-3950
▁하두	-3951
▁겁니까	-3952
▁나래이	-3953
▁엣날에	-3954
▁쳐다보	-3955
▁하나님	-3956
▁뒀	-3957
▁엎	-3958
▁겨를	-3959
▁구겡	-3960
▁전하	-3961
▁존재	-3962
▁해놨	-3963
▁가까이	-3964
▁갈라고	-3965
▁나와서	-3966
▁다구요	-3967
▁마무리	-3968
▁벚	-3969
▁엿	-3970
▁거주	-3971
▁걸충	-3972
▁국시	-3973
▁냉동	-3974
▁목욕	-3975
▁미쳐	-3976
▁주무	-3977
▁냐구요	-3978
▁될까요	-3979
▁올라갔	-3980
▁이은애	-3981
▁혈액형	-3982
▁우리나라	-3983
▁계기	-3984
▁마참	-3985
▁벨로	-3986
▁요만	-3987
▁지루	-3988
▁된단	-3989
▁말랜	-3990
▁이동	-3991
▁중고	-3992
▁생카구	-3993
▁낀	-3994
▁강의	-3995
▁난이	-3996
▁로운	-3997
▁상담	-3998
▁제목	-3999
▁일요일	-4000
▁킹	-4001
▁틈	-4002
가유	-4003
▁다운	-4004
▁예능	-4005
▁있었	-4006
▁자락	-4007
▁치워	-4008
▁고구마	-4009
지만	-4010
▁거예	-4011
▁공유	-4012
▁대중	-4013
▁말금	-4014
▁수구	-4015
▁이다	-4016
▁판매	-4017
▁카더라	-4018
▁뜰	-4019
▁숫	-4020
수과	-4021
▁기숙	-4022
▁보드	-4023
▁봉사	-4024
▁엔날	-4025
▁오지	-4026
▁오해	-4027
▁인형	-4028
▁해난	-4029
▁훌륭	-4030
들끼리	-4031
▁거예에	-4032
▁썬	-4033
▁툭	-4034
드려	-4035
센트	-4036
▁고요	-4037
▁어딘	-4038
▁조캐	-4039
▁체질	-4040
▁초딩	-4041
펜사나	-4042
▁그래이	-4043
▁남대이	-4044
▁인데요	-4045
국수	-4046
로이	-4047
▁그륵	-4048
▁로맨	-4049
▁문자	-4050
▁반복	-4051
▁새꼬	-4052
▁애라	-4053
▁올르	-4054
▁제도	-4055
석이	-4056
▁게민	-4057
▁과목	-4058
▁수입	-4059
▁오전	-4060
▁지두	-4061
▁네이버	-4062
▁워데서	-4063
▁지하철	-4064
▁꺾	-4065
▁됨	-4066
▁랩	-4067
이네	-4068
▁망이	-4069
▁양신	-4070
▁었잖	-4071
▁머슴아	-4072
▁먹거리	-4073
▁모르크라	-4074
▁됀	-4075
▁팝	-4076
▁글긴	-4077
▁누거	-4078
▁맞대	-4079
▁서요	-4080
▁슬프	-4081
▁식이	-4082
▁옮겨	-4083
▁으래	-4084
▁어르신	-4085
▁으로서	-4086
▁페이스	-4087
느매	-4088
어먹	-4089
패기	-4090
▁군인	-4091
▁네예	-4092
▁비양	-4093
▁산업	-4094
▁있노	-4095
▁종일	-4096
▁시느매	-4097
▁하이탄	-4098
▁랴	-4099
▁힙	-4100
▁게서	-4101
▁반장	-4102
▁비해	-4103
▁그란디	-4104
▁친구가유	-4105
▁덤	-4106
▁봥	-4107
바람	-4108
▁가질	-4109
▁그룹	-4110
▁그제	-4111
▁날쌔	-4112
▁동창	-4113
▁맨드	-4114
▁무튼	-4115
▁심리	-4116
▁지냈	-4117
▁그러믄	-4118
▁그만두	-4119
▁떨어진	-4120
▁이럼서	-4121
▁줘야지	-4122
니깐	-4123
▁고추	-4124
▁꼐속	-4125
▁매니	-4126
▁브렀	-4127
▁전쟁	-4128
▁흘리	-4129
▁희망	-4130
▁물어봐	-4131
▁훔	-4132
한다	-4133
▁괜춘	-4134
▁그람	-4135
▁맞다	-4136
▁배려	-4137
▁운영	-4138
▁저르	-4139
▁혈압	-4140
▁롯	-4141
▁줸	-4142
▁탓	-4143
▁펭	-4144
▁고객	-4145
▁곤란	-4146
▁귀신	-4147
▁당했	-4148
▁성장	-4149
▁어릿	-4150
▁잘라	-4151
▁주행	-4152
▁으런들	-4153
▁링	-4154
▁썪	-4155
더니	-4156
▁구해	-4157
▁다를	-4158
▁단체	-4159
▁둘이	-4160
▁이벤	-4161
▁이왕	-4162
▁채워	-4163
▁기숙사	-4164
▁시리즈	-4165
▁줌	-4166
▁녹음	-4167
▁느낄	-4168
▁명절	-4169
▁베리	-4170
▁소나	-4171
▁소중	-4172
▁에프	-4173
▁예상	-4174
▁지났	-4175
▁축하	-4176
▁현장	-4177
▁선상님	-4178
▁좋아허	-4179
▁오토바이	-4180
▁개코	-4181
▁제대	-4182
▁친척	-4183
▁실지로	-4184
▁밸	-4185
▁헨	-4186
도게	-4187
어야	-4188
▁나믄	-4189
▁다요	-4190
▁라게	-4191
▁벚꽃	-4192
▁부드	-4193
▁센터	-4194
▁업무	-4195
▁이쪽	-4196
▁자슥	-4197
▁그니깐	-4198
▁그른지	-4199
▁어릿을	-4200
▁으먼서	-4201
▁이벤트	-4202
리아	-4203
▁강하	-4204
▁눈썹	-4205
▁부다	-4206
▁솔짝	-4207
▁신세	-4208
▁쓰러	-4209
▁이겨	-4210
▁일정	-4211
▁장마	-4212
▁좌우	-4213
▁어거지	-4214
▁와이프	-4215
▁을려고	-4216
▁찡	-4217
▁흙	-4218
하이	-4219
▁계단	-4220
▁고통	-4221
▁날이	-4222
▁도서	-4223
▁모으	-4224
▁선임	-4225
▁성당	-4226
▁야가	-4227
▁즐거	-4228
▁틀린	-4229
▁무자게	-4230
▁스테이	-4231
▁아니여	-4232
▁좋아해	-4233
▁퍼센트	-4234
▁젓	-4235
▁기리	-4236
▁며는	-4237
▁물려	-4238
▁비대	-4239
▁체험	-4240
▁해그네	-4241
▁에펜사나	-4242
▁담임	-4243
▁빠르	-4244
▁엄만	-4245
▁으론	-4246
▁혹예	-4247
▁힐링	-4248
▁아름다	-4249
▁할라믄	-4250
▁겅해부난	-4251
▁련	-4252
▁틴	-4253
동상	-4254
▁걸음	-4255
▁도이	-4256
▁베트	-4257
▁여수	-4258
▁정성	-4259
▁츠음	-4260
▁하대	-4261
▁하이간	-4262
▁해다가	-4263
▁객	-4264
▁얌	-4265
▁튜	-4266
야라	-4267
▁갈래	-4268
▁검진	-4269
▁김밥	-4270
▁내놓	-4271
▁딸래	-4272
▁무대	-4273
▁줄까	-4274
▁트로	-4275
▁계세요	-4276
▁남동생	-4277
▁유치원	-4278
▁탐	-4279
▁핫	-4280
더처	-4281
저히	-4282
▁등록	-4283
▁말러	-4284
▁모대	-4285
▁숙제	-4286
▁언재	-4287
▁예의	-4288
▁저짝	-4289
▁쪼꼬	-4290
▁도시락	-4291
▁기야	-4292
▁데도	-4293
▁등치	-4294
▁바르	-4295
▁사둔	-4296
▁오죽	-4297
▁올랐	-4298
▁의지	-4299
▁잔치	-4300
▁크림	-4301
▁통하	-4302
▁새꼬락지	-4303
▁하이탄지	-4304
▁쑤	-4305
▁팥	-4306
러운	-4307
크업	-4308
▁겡기	-4309
▁느희	-4310
▁대기	-4311
▁여는	-4312
▁원랜	-4313
▁중독	-4314
▁진심	-4315
▁쫓아	-4316
▁그르구	-4317
▁베트남	-4318
▁어무이	-4319
▁충분히	-4320
해도	-4321
▁각시	-4322
▁구석	-4323
▁눌러	-4324
▁더래	-4325
▁몰른	-4326
▁미술	-4327
▁성질	-4328
▁어푸	-4329
▁오픈	-4330
▁잔잔	-4331
▁조카	-4332
▁피하	-4333
▁통해서	-4334
▁랭	-4335
▁맵	-4336
럭지	-4337
하자	-4338
▁낭구	-4339
▁놀랐	-4340
▁무료	-4341
▁째증	-4342
▁해줘	-4343
▁드세요	-4344
▁재미없	-4345
구석	-4346
는지	-4347
뗑이	-4348
▁단백	-4349
▁와라	-4350
▁원장	-4351
▁저그	-4352
▁쪼까	-4353
▁하얀	-4354
▁학과	-4355
▁그더처	-4356
▁비양기	-4357
▁핀	-4358
단지	-4359
생이	-4360
▁된디	-4361
▁들었	-4362
▁밤새	-4363
▁액션	-4364
▁응원	-4365
▁창문	-4366
▁다는데	-4367
▁생이라	-4368
▁달구라지	-4369
▁줜	-4370
저것	-4371
▁가벼	-4372
▁경쟁	-4373
▁고무	-4374
▁급한	-4375
▁나아	-4376
▁네유	-4377
▁담보	-4378
▁없애	-4379
▁오매	-4380
▁친절	-4381
▁그라믄	-4382
▁이것저것	-4383
▁험	-4384
끄매	-4385
인트	-4386
▁감저	-4387
▁다치	-4388
▁라머	-4389
▁슬픈	-4390
▁요양	-4391
▁을래	-4392
▁장깐	-4393
▁냉중에	-4394
▁혼재서	-4395
▁맺	-4396
▁바래	-4397
▁약하	-4398
▁어쨌	-4399
더라고	-4400
▁되는디	-4401
▁됩니다	-4402
▁가여	-4403
▁날쎄	-4404
▁무엇	-4405
▁별루	-4406
▁애인	-4407
▁여긴	-4408
▁전예	-4409
▁한댄	-4410
▁했댄	-4411
▁발라드	-4412
▁슨상님	-4413
▁원피스	-4414
▁트로트	-4415
▁이라든지	-4416
드리	-4417
탱이	-4418
▁기자	-4419
▁나물	-4420
▁웬일	-4421
▁지냑	-4422
▁뵙	-4423
▁엊	-4424
버렸	-4425
▁강한	-4426
▁꾸미	-4427
▁대박	-4428
▁랑께	-4429
▁모델	-4430
▁밖이	-4431
▁생명	-4432
▁시스	-4433
▁영국	-4434
▁이요	-4435
▁주의	-4436
▁커플	-4437
니까네	-4438
▁갈수록	-4439
▁군디야	-4440
▁랐	-4441
▁뤄	-4442
▁뱀	-4443
하나	-4444
▁게이	-4445
▁겡우	-4446
▁고급	-4447
▁과제	-4448
▁그담	-4449
▁극장	-4450
▁니네	-4451
▁범죄	-4452
▁요망	-4453
▁치로	-4454
▁촬	-4455
넹이	-4456
디기	-4457
▁걸루	-4458
▁경주	-4459
▁글자	-4460
▁놔서	-4461
▁데서	-4462
▁시급	-4463
▁건가요	-4464
▁아닐까	-4465
▁일어났	-4466
▁절대루	-4467
▁이라던가	-4468
겄다	-4469
도리	-4470
만히	-4471
▁근께	-4472
▁랜지	-4473
▁먼처	-4474
▁멍이	-4475
▁바보	-4476
▁소원	-4477
▁어쩐	-4478
▁요서	-4479
▁인도	-4480
▁진지	-4481
▁추석	-4482
▁포함	-4483
▁가이네	-4484
▁는데두	-4485
▁섰	-4486
▁앨	-4487
▁쟁	-4488
라스	-4489
벵이	-4490
▁가루	-4491
▁들러	-4492
▁모래	-4493
▁촬영	-4494
▁감재	-4495
▁노니	-4496
▁달러	-4497
▁없언	-4498
▁에어	-4499
▁와요	-4500
▁완벽	-4501
▁유학	-4502
▁촌말	-4503
▁해이	-4504
▁거게서	-4505
▁메이크업	-4506
▁쉴	-4507
▁촐	-4508
그든	-4509
로그	-4510
주의	-4511
▁농담	-4512
▁소주	-4513
▁손주	-4514
▁손해	-4515
▁최소	-4516
▁해질	-4517
▁해외여행	-4518
▁갈까	-4519
▁목숨	-4520
▁부정	-4521
▁사겨	-4522
▁잖어	-4523
▁타임	-4524
▁핑계	-4525
▁걸어가	-4526
▁저릏게	-4527
▁케이스	-4528
▁고집패기	-4529
▁스마트폰	-4530
니스	-4531
라까	-4532
란다	-4533
▁그난	-4534
▁높이	-4535
▁뚱뚱	-4536
▁으멍	-4537
▁활발	-4538
▁도서관	-4539
▁뭘라까	-4540
▁요로케	-4541
▁어머이두	-4542
▁가껌	-4543
▁강릉	-4544
▁말허	-4545
▁부른	-4546
▁식게	-4547
▁젱이	-4548
▁평가	-4549
▁하과	-4550
▁달라지	-4551
▁마주막	-4552
▁앵간히	-4553
▁확실히	-4554
▁페이스북	-4555
▁멸	-4556
▁샐	-4557
▁숲	-4558
▁혁	-4559
던데	-4560
떼기	-4561
▁기념	-4562
▁내보	-4563
▁도둑	-4564
▁따치	-4565
▁땡겨	-4566
▁먼지	-4567
▁반재	-4568
▁아플	-4569
▁어따	-4570
▁회식	-4571
메이션	-4572
▁단백질	-4573
▁어데로	-4574
▁톤	-4575
리카	-4576
▁고개	-4577
▁나누	-4578
▁나민	-4579
▁말려	-4580
▁문학	-4581
▁어땠	-4582
▁조선	-4583
▁주택	-4584
▁한닥	-4585
▁남펜이	-4586
▁시상에	-4587
▁영양제	-4588
▁쪘	-4589
▁가네	-4590
▁거절	-4591
▁과자	-4592
▁목포	-4593
▁수게	-4594
▁아닙	-4595
▁예정	-4596
▁우연	-4597
▁일이	-4598
▁할아버지	-4599
브이	-4600
▁급하	-4601
▁맥이	-4602
▁반지	-4603
▁수리	-4604
▁약한	-4605
▁정하	-4606
▁트럭	-4607
▁시어멍	-4608
▁이느마	-4609
▁령	-4610
▁켄	-4611
▁기독	-4612
▁단발	-4613
▁보구	-4614
▁비느	-4615
▁사춘	-4616
▁성제	-4617
▁실제	-4618
▁적금	-4619
▁클래	-4620
▁해주	-4621
▁했언	-4622
▁닮은디	-4623
▁시스템	-4624
▁이추룩	-4625
▁하지만	-4626
▁애니메이션	-4627
쳐서	-4628
▁다루	-4629
▁담당	-4630
▁랄까	-4631
▁받으	-4632
▁보러	-4633
▁신질	-4634
▁완정	-4635
▁요러	-4636
▁요상	-4637
▁지인	-4638
▁태워	-4639
▁그래고	-4640
▁되먼은	-4641
▁머시마	-4642
▁몰라요	-4643
▁바라보	-4644
▁이어폰	-4645
꺼정	-4646
맹이	-4647
이면	-4648
▁가가	-4649
▁는겨	-4650
▁려는	-4651
▁마흔	-4652
▁므은	-4653
▁박사	-4654
▁뻐리	-4655
▁실장	-4656
▁싫어	-4657
▁엊그	-4658
▁올릴	-4659
▁요고	-4660
▁장애	-4661
▁주방	-4662
▁핑크	-4663
▁너무나	-4664
▁많은디	-4665
▁오라이	-4666
▁지난번	-4667
▁할멍이	-4668
▁굵	-4669
▁뷰	-4670
▁거즘	-4671
▁고향	-4672
▁대는	-4673
▁말리	-4674
▁전역	-4675
▁지식	-4676
▁허시	-4677
▁희안	-4678
▁카만히	-4679
▁플레이	-4680
▁얜	-4681
너무	-4682
시아	-4683
이지	-4684
잖여	-4685
▁계곡	-4686
▁더거	-4687
▁속이	-4688
▁어성	-4689
▁파마	-4690
▁평범	-4691
▁괜잖은	-4692
▁떨어질	-4693
▁바닷가	-4694
▁너무너무	-4695
▁딲	-4696
▁셀	-4697
▁교장	-4698
▁빠른	-4699
▁신나	-4700
▁쐬주	-4701
▁우떻	-4702
▁잔인	-4703
▁책상	-4704
▁로맨스	-4705
▁이신거	-4706
▁준다구	-4707
▁드릴까요	-4708
▁갰	-4709
▁깍	-4710
만큼	-4711
벙이	-4712
▁가실	-4713
▁멋진	-4714
▁발달	-4715
▁비하	-4716
▁세우	-4717
▁영업	-4718
▁외로	-4719
▁위로	-4720
▁자금	-4721
▁정지	-4722
▁중심	-4723
▁홍보	-4724
▁회복	-4725
▁소래기	-4726
▁신질루	-4727
▁증말루	-4728
▁헤어졌	-4729
▁가스	-4730
▁다쳤	-4731
▁부려	-4732
▁뿌려	-4733
▁살인	-4734
▁세트	-4735
▁케익	-4736
▁라든지	-4737
▁으니깐	-4738
▁인해서	-4739
▁쩌번에	-4740
▁참말로	-4741
▁옳	-4742
▁쩨	-4743
놓고	-4744
리어	-4745
▁거민	-4746
▁교사	-4747
▁너희	-4748
▁더워	-4749
▁미쳤	-4750
▁방문	-4751
▁양말	-4752
▁어재	-4753
▁전해	-4754
▁추우	-4755
▁추울	-4756
▁그래서	-4757
▁들으믄	-4758
▁라든가	-4759
▁미용실	-4760
▁사라지	-4761
▁어려울	-4762
▁외국인	-4763
▁긋	-4764
▁뻗	-4765
▁얄	-4766
▁까페	-4767
▁나중	-4768
▁애초	-4769
▁자사	-4770
▁존나	-4771
▁진정	-4772
▁퇴직	-4773
잖아요	-4774
▁나온다	-4775
▁퍽데기	-4776
▁컴플렉스	-4777
▁닝	-4778
▁숭	-4779
진다	-4780
▁결제	-4781
▁마른	-4782
▁마숩	-4783
▁머릿	-4784
▁불교	-4785
▁애끼	-4786
▁오일	-4787
▁후배	-4788
▁그렁께	-4789
▁기독교	-4790
▁대학생	-4791
간다	-4792
들또	-4793
럭시	-4794
▁독서	-4795
▁따땃	-4796
▁생가	-4797
▁아모	-4798
▁나는디	-4799
▁다니께	-4800
▁만화책	-4801
▁볼려고	-4802
▁수영장	-4803
▁아니꽈	-4804
▁있으문	-4805
▁률	-4806
▁샵	-4807
군요	-4808
부런	-4809
▁고예	-4810
▁레이	-4811
▁마디	-4812
▁마인	-4813
▁비형	-4814
▁신선	-4815
▁양파	-4816
▁예술	-4817
▁을려	-4818
어신디	-4819
▁그리무	-4820
▁기다렸	-4821
▁봐야지	-4822
▁트레이	-4823
해가	-4824
▁그덩	-4825
▁납득	-4826
▁넘기	-4827
▁던져	-4828
▁말아	-4829
▁불만	-4830
▁오버	-4831
▁지르	-4832
▁갤럭시	-4833
▁무신거	-4834
▁보인다	-4835
▁올라갈	-4836
▁진뗑이	-4837
▁폼	-4838
▁골목	-4839
▁길러	-4840
▁대비	-4841
▁똑띠	-4842
▁사당	-4843
▁언어	-4844
▁지기	-4845
▁초밥	-4846
▁해니	-4847
▁향수	-4848
▁허젠	-4849
▁가치관	-4850
▁전라도	-4851
▁시어머이	-4852
▁기라	-4853
▁남겨	-4854
▁낭반	-4855
▁녀나	-4856
▁버티	-4857
▁볶음	-4858
▁블랙	-4859
▁시국	-4860
▁오난	-4861
▁주고	-4862
▁현대	-4863
▁아쉬웠	-4864
▁테이블	-4865
▁딜	-4866
것도	-4867
굉일	-4868
타고	-4869
▁꺼정	-4870
▁물러	-4871
▁물질	-4872
▁애두	-4873
▁제한	-4874
▁좋댄	-4875
▁튼튼	-4876
거든예	-4877
▁아이디	-4878
▁펀	-4879
오르	-4880
▁구서	-4881
▁나두	-4882
▁노릇	-4883
▁다게	-4884
▁댓글	-4885
▁먹엉	-4886
▁물리	-4887
▁밴드	-4888
▁사롬	-4889
▁생견	-4890
▁설치	-4891
▁전날	-4892
▁조리	-4893
▁죙일	-4894
▁피시	-4895
▁더라두	-4896
▁메나리	-4897
▁아이스	-4898
▁알민서	-4899
▁일어날	-4900
▁헌다는	-4901
▁고등학생	-4902
▁흠	-4903
브러	-4904
사람	-4905
시롱	-4906
▁꼬리	-4907
▁놀리	-4908
▁느리	-4909
▁더운	-4910
▁마요	-4911
▁발생	-4912
▁부를	-4913
▁사다	-4914
▁샤워	-4915
▁실러	-4916
▁야야	-4917
▁얼음	-4918
▁예방	-4919
▁저도	-4920
▁중앙	-4921
▁지낸	-4922
▁한편	-4923
▁볼려구	-4924
▁을랑가	-4925
▁잔소리	-4926
▁튀어나	-4927
▁할라구	-4928
▁제주도사	-4929
▁룸	-4930
▁공주	-4931
▁보담	-4932
▁술집	-4933
▁주만	-4934
▁질래	-4935
▁탁구	-4936
▁화려	-4937
▁어서요	-4938
▁에너지	-4939
▁했잖아요	-4940
▁팟	-4941
그만	-4942
시믄	-4943
혀서	-4944
▁교복	-4945
▁근게	-4946
▁근력	-4947
▁깨깟	-4948
▁무겁	-4949
▁시설	-4950
▁앞전	-4951
▁외출	-4952
▁줄래	-4953
▁가르체	-4954
▁쉐	-4955
▁씌	-4956
나물	-4957
드래	-4958
▁가차	-4959
▁급식	-4960
▁동의	-4961
▁수익	-4962
▁이전	-4963
▁전국	-4964
▁정식	-4965
▁콜라	-4966
▁폭력	-4967
▁필수	-4968
▁한식	-4969
▁사램두	-4970
▁쎄빠지게	-4971
▁릴	-4972
▁뱅	-4973
▁숟	-4974
▁컬	-4975
▁팁	-4976
그냉	-4977
▁나부	-4978
▁날래	-4979
▁남녀	-4980
▁두부	-4981
▁멀쩡	-4982
▁비빔	-4983
▁비티	-4984
▁안내	-4985
▁어쩜	-4986
▁일으	-4987
▁지집	-4988
▁행이	-4989
▁혼차	-4990
▁아이유	-4991
▁쪼끄만	-4992
▁깝	-4993
핵교	-4994
▁계셨	-4995
▁구먼	-4996
▁근거	-4997
▁때로	-4998
▁떠들	-4999
▁떠올	-5000
▁먹었	-5001
▁보관	-5002
▁부인	-5003
▁연말	-5004
▁용기	-5005
▁장인	-5006
▁주장	-5007
▁진다	-5008
▁차별	-5009
▁혼저	-5010
▁느라고	-5011
▁때꺼정	-5012
▁모든지	-5013
▁아버지	-5014
▁허리깽이	-5015
▁얹	-5016
놀이	-5017
▁겨우	-5018
▁동남	-5019
▁마심	-5020
▁봉게	-5021
▁서루	-5022
▁스파	-5023
▁올렸	-5024
▁참고	-5025
▁최선	-5026
▁허벅	-5027
▁가가꼬	-5028
▁배고프	-5029
▁어무니	-5030
▁기리타고	-5031
▁어머이랑	-5032
▁샌	-5033
어두	-5034
▁갱벤	-5035
▁견디	-5036
▁공격	-5037
▁다냐	-5038
▁드린	-5039
▁많으	-5040
▁비우	-5041
▁생물	-5042
▁스카	-5043
▁실내	-5044
▁일기	-5045
▁정시	-5046
▁조차	-5047
▁춘천	-5048
▁티켓	-5049
▁햄버	-5050
▁훨썩	-5051
▁힙합	-5052
▁된다믄	-5053
▁이라니	-5054
▁이어서	-5055
▁하는데유	-5056
▁맀	-5057
▁삽	-5058
▁줏	-5059
▁팅	-5060
시피	-5061
영상	-5062
▁고고	-5063
▁다마	-5064
▁다만	-5065
▁단기	-5066
▁도제	-5067
▁두세	-5068
▁복지	-5069
▁소루	-5070
▁악기	-5071
▁오랍	-5072
▁저축	-5073
▁즐겁	-5074
▁필라	-5075
▁해수	-5076
▁그래게	-5077
▁무서운	-5078
▁인가요	-5079
▁햄버거	-5080
▁듬	-5081
▁노동	-5082
▁데요	-5083
▁매련	-5084
▁심했	-5085
▁싸워	-5086
▁쌓여	-5087
▁옆집	-5088
▁유전	-5089
▁이이	-5090
▁저리	-5091
▁타입	-5092
▁튀김	-5093
▁트롯	-5094
▁괜잖을	-5095
▁도대체	-5096
▁사이트	-5097
▁십이월	-5098
▁아주망	-5099
▁지굼두	-5100
▁후라이	-5101
▁쌔빠지게	-5102
하시	-5103
▁감당	-5104
▁국수	-5105
▁대사	-5106
▁문재	-5107
▁배경	-5108
▁보멍	-5109
▁스님	-5110
▁와인	-5111
▁지절	-5112
▁진상	-5113
▁튜버	-5114
▁동영상	-5115
▁이라든가	-5116
▁하나하나	-5117
걸리	-5118
따나	-5119
학고	-5120
▁겅허	-5121
▁빠질	-5122
▁야자	-5123
▁온도	-5124
▁지리	-5125
▁초대	-5126
▁풍경	-5127
▁프랑	-5128
▁항공	-5129
▁금요일	-5130
▁무서웠	-5131
▁이지만	-5132
▁충부이	-5133
▁떴	-5134
▁뻘	-5135
▁뻥	-5136
▁찮	-5137
어서	-5138
여야	-5139
▁글렀	-5140
▁기타	-5141
▁김시	-5142
▁깜빡	-5143
▁삼촌	-5144
▁세일	-5145
▁솜씨	-5146
▁아뭇	-5147
▁알았	-5148
▁암마	-5149
▁오도	-5150
▁자제	-5151
▁질리	-5152
▁편어	-5153
▁해기	-5154
잖아예	-5155
▁겅하난	-5156
▁다거나	-5157
▁데려가	-5158
▁마인드	-5159
▁몰라도	-5160
▁손가락	-5161
▁사람들또	-5162
▁팽	-5163
니더	-5164
하믄	-5165
▁가입	-5166
▁강사	-5167
▁느니	-5168
▁대장	-5169
▁백신	-5170
▁사항	-5171
▁스릴	-5172
▁시선	-5173
▁지정	-5174
▁진실	-5175
▁추위	-5176
▁스테이크	-5177
▁촘	-5178
▁흡	-5179
러드	-5180
어졌	-5181
▁계셔	-5182
▁고걸	-5183
▁과연	-5184
▁똑바	-5185
▁변했	-5186
▁수라	-5187
▁으사	-5188
▁이짝	-5189
▁잘난	-5190
▁됩니까	-5191
▁먹으랜	-5192
▁이제사	-5193
▁른	-5194
괴기	-5195
어리	-5196
이서	-5197
▁구조	-5198
▁누이	-5199
▁다야	-5200
▁또래	-5201
▁만만	-5202
▁미터	-5203
▁사면	-5204
▁칭구	-5205
▁하간	-5206
▁말이가	-5207
▁편어게	-5208
▁옌	-5209
으로	-5210
▁기초	-5211
▁내게	-5212
▁동갑	-5213
▁된댄	-5214
▁만져	-5215
▁버릇	-5216
▁에피	-5217
▁옮기	-5218
▁종목	-5219
▁카카	-5220
▁그런가	-5221
▁그렇게	-5222
▁매니저	-5223
▁운동장	-5224
▁희안진	-5225
▁굿	-5226
▁꼰	-5227
▁썸	-5228
▁츳	-5229
성이	-5230
테스	-5231
▁것다	-5232
▁구마	-5233
▁규칙	-5234
▁남친	-5235
▁디지	-5236
▁바꿨	-5237
▁저으	-5238
▁쳐다	-5239
▁카다	-5240
▁한계	-5241
나신디	-5242
▁구만유	-5243
▁도망가	-5244
▁맞춰서	-5245
▁으로써	-5246
▁허니까	-5247
▁퉁	-5248
▁횟	-5249
고리	-5250
▁가유	-5251
▁댄스	-5252
▁롯데	-5253
▁목사	-5254
▁부작	-5255
▁붙잡	-5256
▁서두	-5257
▁약해	-5258
▁외롭	-5259
▁이마	-5260
▁주기	-5261
▁헨재	-5262
▁요상한	-5263
▁받아들이	-5264
▁립	-5265
하는	-5266
▁가려	-5267
▁관한	-5268
▁괴로	-5269
▁그짓	-5270
▁끝낭	-5271
▁맡겨	-5272
▁부서	-5273
▁뿌듯	-5274
▁사그	-5275
▁쟁이	-5276
▁적극	-5277
▁제작	-5278
▁포도	-5279
▁을려구	-5280
▁자사히	-5281
▁쪼꼬만	-5282
▁한마디	-5283
▁헜	-5284
산물	-5285
소드	-5286
하러	-5287
▁거부	-5288
▁긴데	-5289
▁노면	-5290
▁많다	-5291
▁말투	-5292
▁서부	-5293
▁수록	-5294
▁애교	-5295
▁양복	-5296
▁어실	-5297
▁유멩	-5298
▁이수	-5299
▁채널	-5300
▁파도	-5301
▁암것도	-5302
▁여동생	-5303
▁일자리	-5304
▁파스타	-5305
▁포인트	-5306
▁프랑스	-5307
▁겅해신디	-5308
▁벅	-5309
▁가자	-5310
▁마련	-5311
▁미세	-5312
▁쌓이	-5313
▁자율	-5314
▁재서	-5315
▁주구	-5316
▁줘도	-5317
▁질투	-5318
▁확진	-5319
▁후임	-5320
▁흔히	-5321
▁히야	-5322
▁시끄러	-5323
▁아세요	-5324
▁카카오	-5325
▁에피소드	-5326
▁쌌	-5327
▁쿨	-5328
▁고정	-5329
▁구찮	-5330
▁기집	-5331
▁꺼니	-5332
▁날씬	-5333
▁다네	-5334
▁동료	-5335
▁딸기	-5336
▁물가	-5337
▁바깥	-5338
▁생산	-5339
▁슈퍼	-5340
▁스페	-5341
▁일까	-5342
▁자매	-5343
▁지저	-5344
▁필기	-5345
▁가르켜	-5346
▁는다구	-5347
▁진고이	-5348
▁케이크	-5349
▁그니까는	-5350
▁우리도게	-5351
▁꾜	-5352
▁넉	-5353
던디	-5354
민국	-5355
베이	-5356
셍이	-5357
▁그닥	-5358
▁당뇨	-5359
▁드론	-5360
▁미워	-5361
▁오형	-5362
▁이곳	-5363
▁잘생	-5364
▁주벤	-5365
▁줘라	-5366
▁취하	-5367
▁해봐	-5368
겄는디	-5369
▁보이깐	-5370
▁샐러드	-5371
▁앓	-5372
하당	-5373
▁가야	-5374
▁갈게	-5375
▁나영	-5376
▁두려	-5377
▁들렁	-5378
▁모기	-5379
▁소릴	-5380
▁순위	-5381
▁신랭	-5382
▁양쪽	-5383
▁파리	-5384
▁하디	-5385
▁환장	-5386
부니까	-5387
▁모냥이	-5388
▁물고기	-5389
▁애기들	-5390
▁대한민국	-5391
▁찹	-5392
고잉	-5393
▁경헌	-5394
▁극복	-5395
▁냅두	-5396
▁놀랜	-5397
▁당아	-5398
▁대지	-5399
▁로망	-5400
▁사돈	-5401
▁싸울	-5402
▁언데	-5403
▁오랫	-5404
▁작은	-5405
▁전주	-5406
십니까	-5407
▁그동안	-5408
▁라던가	-5409
▁물어보	-5410
▁아끄매	-5411
▁언니네	-5412
▁이카니	-5413
▁곹	-5414
부모	-5415
▁거니	-5416
▁까요	-5417
▁당한	-5418
▁독일	-5419
▁사지	-5420
▁산디	-5421
▁실습	-5422
▁야간	-5423
▁얼라	-5424
▁완성	-5425
▁으다	-5426
▁으디	-5427
▁을꼬	-5428
▁피티	-5429
▁하맨	-5430
스크림	-5431
▁다녀오	-5432
▁막걸리	-5433
▁음시롱	-5434
▁해장님	-5435
▁우리는이	-5436
▁초등학생	-5437
▁필라테스	-5438
▁팡	-5439
▁겠다	-5440
▁골르	-5441
▁도양	-5442
▁드갈	-5443
▁맞차	-5444
▁발써	-5445
▁별거	-5446
▁북한	-5447
▁이삼	-5448
▁저장	-5449
▁정적	-5450
▁행정	-5451
▁도새기	-5452
▁맘대루	-5453
▁블로그	-5454
▁아방이	-5455
▁쭐어들	-5456
▁햄수다	-5457
▁가운	-5458
▁거던	-5459
▁꾸며	-5460
▁내렸	-5461
▁내비	-5462
▁노란	-5463
▁목강	-5464
▁민망	-5465
▁변호	-5466
▁부장	-5467
▁안심	-5468
▁재능	-5469
▁특징	-5470
▁파이	-5471
▁펜션	-5472
▁동남아	-5473
▁마참내	-5474
▁식으루	-5475
▁알아듣	-5476
▁저으기	-5477
▁피시방	-5478
▁쉰	-5479
갔다	-5480
터리	-5481
▁고려	-5482
▁과외	-5483
▁구분	-5484
▁구입	-5485
▁기획	-5486
▁내나	-5487
▁다기	-5488
▁때민	-5489
▁매우	-5490
▁못할	-5491
▁무거	-5492
▁시에	-5493
▁여쭤	-5494
▁입짝	-5495
▁잠잠	-5496
▁쪼만	-5497
▁초코	-5498
▁치고	-5499
▁가까운	-5500
▁가는디	-5501
▁당신으	-5502
▁벗어나	-5503
▁생각해	-5504
▁싸장님	-5505
▁일어난	-5506
▁주차장	-5507
▁고마워요	-5508
▁펼	-5509
구만	-5510
로리	-5511
버니	-5512
▁국밥	-5513
▁기관	-5514
▁끔찍	-5515
▁나도	-5516
▁다혈	-5517
▁대처	-5518
▁밍구	-5519
▁시러	-5520
▁싱야	-5521
▁싸운	-5522
▁요금	-5523
▁요소	-5524
▁울리	-5525
▁유일	-5526
▁장비	-5527
▁질러	-5528
▁간대이	-5529
▁아닌데	-5530
▁음료수	-5531
▁이라면	-5532
▁정해져	-5533
▁촉	-5534
련님	-5535
▁나난	-5536
▁만지	-5537
▁몸매	-5538
▁신비	-5539
▁아조	-5540
▁이으	-5541
▁자랐	-5542
▁자살	-5543
▁잡히	-5544
▁재혼	-5545
▁즐길	-5546
▁할꺼	-5547
하자믄	-5548
▁기달려	-5549
▁누군지	-5550
▁어려웠	-5551
▁이새는	-5552
▁호렝이	-5553
▁말하자믄	-5554
▁어머야라	-5555
▁있었는디	-5556
겡이	-5557
댕이	-5558
번에	-5559
▁드립	-5560
▁버터	-5561
▁볼링	-5562
▁신부	-5563
▁양반	-5564
▁영허	-5565
▁으미	-5566
▁일러	-5567
▁주목	-5568
▁주소	-5569
▁지민	-5570
▁하네	-5571
▁헹부	-5572
▁돌아다	-5573
▁음식점	-5574
가는	-5575
대요	-5576
일이	-5577
화물	-5578
▁그대	-5579
▁대개	-5580
▁맀을	-5581
▁소재	-5582
▁안나	-5583
▁오케	-5584
▁증상	-5585
▁햄서	-5586
▁헹펜	-5587
▁그래문	-5588
▁다혈질	-5589
▁레시피	-5590
▁사춘기	-5591
▁이상형	-5592
▁안타까운	-5593
▁오랫동안	-5594
▁션	-5595
▁그죠	-5596
▁대문	-5597
▁대즙	-5598
▁막히	-5599
▁사야	-5600
▁살살	-5601
▁업체	-5602
▁으외	-5603
▁인원	-5604
▁킬로	-5605
▁한복	-5606
▁가르쳐	-5607
▁공다지	-5608
▁께임이	-5609
▁늘어나	-5610
▁돌아왔	-5611
▁목걸이	-5612
▁무거운	-5613
▁날매	-5614
▁또한	-5615
▁먹여	-5616
▁수상	-5617
▁양보	-5618
▁접근	-5619
▁제라	-5620
▁지치	-5621
▁헷갈	-5622
엉으네	-5623
▁거게다	-5624
▁경해도	-5625
▁들어올	-5626
▁리스트	-5627
▁부작용	-5628
▁와가주	-5629
▁똔	-5630
▁윗	-5631
▁잎	-5632
내미	-5633
서요	-5634
▁가로	-5635
▁거려	-5636
▁거하	-5637
▁경력	-5638
▁굴러	-5639
▁규모	-5640
▁마침	-5641
▁신호	-5642
▁야단	-5643
▁양식	-5644
▁웬수	-5645
▁즈구	-5646
▁지니	-5647
▁추구	-5648
▁학창	-5649
▁갈라구	-5650
▁거그서	-5651
▁살민서	-5652
▁태어났	-5653
▁뎅	-5654
마씀	-5655
인지	-5656
▁갈치	-5657
▁금마	-5658
▁까다	-5659
▁놈이	-5660
▁들오	-5661
▁막장	-5662
▁메시	-5663
▁서런	-5664
▁애완	-5665
▁연주	-5666
▁월달	-5667
▁으나	-5668
▁절루	-5669
▁조개	-5670
▁충전	-5671
▁파란	-5672
▁하젠	-5673
▁호주	-5674
가지고	-5675
춧가루	-5676
하민서	-5677
▁꼬라지	-5678
▁데이터	-5679
▁온다구	-5680
▁장난감	-5681
▁줄라고	-5682
▁쬐끄만	-5683
▁#	-5684
금치	-5685
나게	-5686
으룬	-5687
▁가득	-5688
▁거실	-5689
▁기시	-5690
▁댕긴	-5691
▁만낭	-5692
▁만두	-5693
▁맛없	-5694
▁면역	-5695
▁배깥	-5696
▁복수	-5697
▁소름	-5698
▁시커	-5699
▁식물	-5700
▁왔다	-5701
▁장이	-5702
▁전세	-5703
▁지사	-5704
▁카이	-5705
▁파악	-5706
▁하주	-5707
▁후반	-5708
▁그냐면	-5709
▁봐래이	-5710
▁허지만	-5711
▁렴	-5712
▁맙	-5713
▁짖	-5714
그러	-5715
더러	-5716
드니	-5717
▁거북	-5718
▁고이	-5719
▁느무	-5720
▁래는	-5721
▁로봇	-5722
▁마탕	-5723
▁만한	-5724
▁연금	-5725
▁음청	-5726
▁의미	-5727
▁조각	-5728
▁청년	-5729
▁귀여운	-5730
▁그자락	-5731
▁대학원	-5732
▁받아들	-5733
▁실래요	-5734
▁옛날게	-5735
▁으믄서	-5736
▁이서야	-5737
▁전문가	-5738
▁프로젝	-5739
▁드라이브	-5740
▁뻬	-5741
▁펄	-5742
▁펑	-5743
덩이	-5744
▁걸엉	-5745
▁글씨	-5746
▁대상	-5747
▁드셨	-5748
▁디리	-5749
▁마두	-5750
▁마켓	-5751
▁무게	-5752
▁불고	-5753
▁셔두	-5754
▁시케	-5755
▁신뢰	-5756
▁올린	-5757
▁자니	-5758
▁전시	-5759
▁제안	-5760
▁탄수	-5761
▁하러	-5762
▁해당	-5763
▁화나	-5764
▁다가오	-5765
▁댕길심	-5766
▁아서요	-5767
▁주마는	-5768
▁궈	-5769
▁놀란	-5770
▁든다	-5771
▁비트	-5772
▁살리	-5773
▁순수	-5774
▁웃음	-5775
▁자빠	-5776
▁주먹	-5777
▁찮아	-5778
▁코드	-5779
▁관광객	-5780
▁콤퓨터	-5781
▁탄수화물	-5782
▁뉘	-5783
▁뽕	-5784
▁웡	-5785
▁탱	-5786
사램	-5787
서야	-5788
어도	-5789
이믄	-5790
▁내린	-5791
▁니두	-5792
▁당해	-5793
▁말랐	-5794
▁반갑	-5795
▁발목	-5796
▁싸게	-5797
▁오프	-5798
▁외식	-5799
▁으냐	-5800
▁이빨	-5801
▁팔재	-5802
▁펜지	-5803
▁홍콩	-5804
▁들드라	-5805
▁물어볼	-5806
▁비디오	-5807
▁할까요	-5808
▁대해그넹	-5809
▁린	-5810
▁잼	-5811
라우	-5812
사지	-5813
시로	-5814
이연	-5815
▁났었	-5816
▁두루	-5817
▁말해	-5818
▁매번	-5819
▁보름	-5820
▁엑스	-5821
▁연세	-5822
▁이연	-5823
▁죽여	-5824
▁집착	-5825
▁짬뽕	-5826
▁착각	-5827
▁참여	-5828
▁체중	-5829
▁통시	-5830
▁느석이	-5831
▁부끄러	-5832
▁야이네	-5833
▁특벨히	-5834
▁오도바이	-5835
▁오라버니	-5836
▁졈	-5837
▁감서	-5838
▁겉이	-5839
▁나구	-5840
▁냄비	-5841
▁누굴	-5842
▁든든	-5843
▁마신	-5844
▁못허	-5845
▁빡시	-5846
▁슬퍼	-5847
▁신중	-5848
▁전통	-5849
▁카니	-5850
▁통통	-5851
▁설거지	-5852
▁소고기	-5853
▁아부님	-5854
▁오놀두	-5855
▁놘	-5856
▁뎌	-5857
꼬락	-5858
▁갈려	-5859
▁구름	-5860
▁사내	-5861
▁상자	-5862
▁새복	-5863
▁성가	-5864
▁소소	-5865
▁입양	-5866
▁조언	-5867
▁하제	-5868
▁형수	-5869
▁혼나	-5870
▁생각난	-5871
▁여러분	-5872
▁요새는	-5873
▁월요일	-5874
▁중학생	-5875
▁룩	-5876
▁멤	-5877
▁썽	-5878
당게	-5879
조리	-5880
헌디	-5881
▁계실	-5882
▁내놔	-5883
▁누리	-5884
▁동시	-5885
▁리그	-5886
▁먼첨	-5887
▁블루	-5888
▁새박	-5889
▁센치	-5890
▁소통	-5891
▁앨범	-5892
▁없댄	-5893
▁영행	-5894
▁우승	-5895
▁이길	-5896
▁잔못	-5897
▁집어	-5898
▁척하	-5899
▁길거리	-5900
▁모르켜	-5901
▁부러워	-5902
▁서이가	-5903
▁알아봐	-5904
▁최소한	-5905
▁프로젝트	-5906
▁빅	-5907
덜이	-5908
버린	-5909
▁결말	-5910
▁관절	-5911
▁깨달	-5912
▁꺼려	-5913
▁당당	-5914
▁미루	-5915
▁불민	-5916
▁붕어	-5917
▁올림	-5918
▁자료	-5919
▁작정	-5920
▁정서	-5921
▁차지	-5922
▁출장	-5923
▁퇴원	-5924
▁가라앉	-5925
▁아사리	-5926
▁지저분	-5927
▁테스트	-5928
▁한동안	-5929
▁쓰잘데기	-5930
▁빽	-5931
패드	-5932
▁가깝	-5933
▁가재	-5934
▁교환	-5935
▁대만	-5936
▁라믄	-5937
▁비닐	-5938
▁실례	-5939
▁오징	-5940
▁정기	-5941
▁채우	-5942
▁기집애	-5943
▁댕겨야	-5944
▁어때요	-5945
▁우울증	-5946
▁준다고	-5947
▁아니믄은	-5948
▁아부지랑	-5949
▁하내기두	-5950
▁멧	-5951
게서	-5952
저기	-5953
▁개성	-5954
▁게매	-5955
▁겡영	-5956
▁구체	-5957
▁그린	-5958
▁넘겨	-5959
▁노시	-5960
▁다친	-5961
▁대형	-5962
▁디비	-5963
▁배구	-5964
▁사계	-5965
▁셔츠	-5966
▁실험	-5967
▁운명	-5968
▁이영	-5969
▁잠자	-5970
▁재비	-5971
▁주게	-5972
▁지안	-5973
▁질르	-5974
▁출신	-5975
▁털어	-5976
부터게	-5977
▁극정마	-5978
▁먹으믄	-5979
▁학상들	-5980
▁아이패드	-5981
▁하드라고	-5982
▁꿩	-5983
▁틱	-5984
낭그	-5985
년기	-5986
▁고갯	-5987
▁공개	-5988
▁나래	-5989
▁되켜	-5990
▁따루	-5991
▁뜨신	-5992
▁빌리	-5993
▁수치	-5994
▁씨방	-5995
▁아내	-5996
▁유기	-5997
▁이년	-5998
▁조만	-5999
▁주도	-6000
▁줄라	-6001
▁쳐서	-6002
▁똑바루	-6003
▁뭣하러	-6004
▁부지런	-6005
▁아쉬워	-6006
▁찾아오	-6007
▁꿉	-6008
▁쌂	-6009
▁옇	-6010
갸우	-6011
어요	-6012
▁강생	-6013
▁구가	-6014
▁구신	-6015
▁까불	-6016
▁나마	-6017
▁드루	-6018
▁마구	-6019
▁마저	-6020
▁미니	-6021
▁부턴	-6022
▁상새	-6023
▁원인	-6024
▁이슈	-6025
▁지랄	-6026
▁찐하	-6027
▁때미에	-6028
▁클래식	-6029
▁찼	-6030
꺼운	-6031
▁감수	-6032
▁검정	-6033
▁남매	-6034
▁도덕	-6035
▁똔똔	-6036
▁멸치	-6037
▁바끼	-6038
▁뻐스	-6039
▁쏘주	-6040
▁적용	-6041
▁접하	-6042
▁찝찝	-6043
▁채리	-6044
▁채소	-6045
▁취급	-6046
▁한약	-6047
▁괴롭히	-6048
▁그러제	-6049
▁미역국	-6050
▁언젠가	-6051
▁믹	-6052
다른	-6053
디이	-6054
▁감각	-6055
▁귀한	-6056
▁금메	-6057
▁들고	-6058
▁땐가	-6059
▁무순	-6060
▁빨랑	-6061
▁설정	-6062
▁손톱	-6063
▁애정	-6064
▁오줌	-6065
▁일종	-6066
▁자잔	-6067
▁제이	-6068
▁죄다	-6069
▁태우	-6070
▁관광지	-6071
▁내려와	-6072
▁똔똔이	-6073
▁며느리	-6074
▁사가꼬	-6075
▁시끄럽	-6076
▁싸가지	-6077
▁알바생	-6078
▁됬	-6079
▁릉	-6080
▁밧	-6081
▁읃	-6082
▁챔	-6083
내이	-6084
따구	-6085
친구	-6086
▁계정	-6087
▁고소	-6088
▁기르	-6089
▁기뻐	-6090
▁딸리	-6091
▁멋지	-6092
▁받앙	-6093
▁시가	-6094
▁올게	-6095
▁인공	-6096
▁저지	-6097
▁추리	-6098
▁고갯목	-6099
▁괜잖다	-6100
▁놨는데	-6101
▁누나야	-6102
▁보고서	-6103
▁봉다리	-6104
▁알러지	-6105
▁오른쪽	-6106
▁칭구는	-6107
▁해야제	-6108
▁여기저기	-6109
▁돕	-6110
갈비	-6111
믄은	-6112
에프	-6113
엔이	-6114
▁글러	-6115
▁까징	-6116
▁라니	-6117
▁망가	-6118
▁볼래	-6119
▁삼월	-6120
▁식솔	-6121
▁아껴	-6122
▁아아	-6123
▁외할	-6124
▁의료	-6125
▁잃어	-6126
▁줬었	-6127
▁찌개	-6128
▁춤추	-6129
▁태도	-6130
▁터졌	-6131
▁편집	-6132
▁표시	-6133
▁가만히	-6134
▁데련님	-6135
▁좋아했	-6136
▁씨잘데기	-6137
▁람	-6138
▁뽈	-6139
▁경상	-6140
▁몬딱	-6141
▁분양	-6142
▁오바	-6143
▁이노	-6144
▁잠깜	-6145
▁장갑	-6146
▁주름	-6147
▁지우	-6148
▁지워	-6149
▁처지	-6150
▁핸폰	-6151
해부난	-6152
▁내려왔	-6153
▁냉거지	-6154
▁오징어	-6155
▁요자게	-6156
▁으른이	-6157
▁자잔거	-6158
▁율	-6159
▁짭	-6160
풀이	-6161
▁감시	-6162
▁꽁짜	-6163
▁날리	-6164
▁디도	-6165
▁멤버	-6166
▁서리	-6167
▁설마	-6168
▁스킨	-6169
▁엘지	-6170
▁인구	-6171
▁잡혀	-6172
▁쿠다	-6173
▁편할	-6174
▁하랜	-6175
▁흐름	-6176
▁두레기	-6177
▁바껴서	-6178
▁승격이	-6179
▁어떻게	-6180
▁진짜이	-6181
▁그마만큼	-6182
▁잣	-6183
▁쾌	-6184
자랑	-6185
제이	-6186
▁가들	-6187
▁거길	-6188
▁낭비	-6189
▁돈이	-6190
▁드신	-6191
▁무꾸	-6192
▁부위	-6193
▁부치	-6194
▁의자	-6195
▁이뤄	-6196
▁입술	-6197
▁증거	-6198
▁케어	-6199
▁큰아	-6200
▁평일	-6201
▁회과	-6202
▁훔쳐	-6203
▁거이까	-6204
▁머릿속	-6205
▁생활비	-6206
▁세탁기	-6207
▁스페인	-6208
▁쓰러지	-6209
▁엊그저께	-6210
트리	-6211
▁간부	-6212
▁갠데	-6213
▁국제	-6214
▁너미	-6215
▁독감	-6216
▁먹이	-6217
▁방어	-6218
▁변한	-6219
▁사만	-6220
▁살암	-6221
▁알지	-6222
▁에휴	-6223
▁원체	-6224
▁의심	-6225
▁잖애	-6226
▁지시	-6227
▁초록	-6228
▁필리	-6229
▁고사리	-6230
▁실지루	-6231
▁아이템	-6232
▁올라왔	-6233
▁정확히	-6234
▁지들끼리	-6235
▁갇	-6236
▁앗	-6237
스토	-6238
▁가슭	-6239
▁교실	-6240
▁구성	-6241
▁냄시	-6242
▁뒷날	-6243
▁들렸	-6244
▁마감	-6245
▁만치	-6246
▁몰려	-6247
▁보태	-6248
▁섭취	-6249
▁심정	-6250
▁있다	-6251
▁장창	-6252
▁짝아	-6253
▁클럽	-6254
▁태양	-6255
▁패턴	-6256
▁혁명	-6257
▁가마이	-6258
▁귀여워	-6259
▁돼가꼬	-6260
▁스러웠	-6261
▁올라간	-6262
▁즌화하	-6263
▁칼국수	-6264
▁특별히	-6265
▁허벅지	-6266
▁때부터게	-6267
▁럈	-6268
▁뺑	-6269
▁큐	-6270
기름	-6271
김치	-6272
타구	-6273
▁결심	-6274
▁경비	-6275
▁꼼꼼	-6276
▁박물	-6277
▁새롭	-6278
▁소녀	-6279
▁소슬	-6280
▁스피	-6281
▁월드	-6282
▁이든	-6283
▁장새	-6284
▁정심	-6285
▁하니	-6286
▁헌다	-6287
▁현상	-6288
▁가르치	-6289
▁강냉이	-6290
▁생겨서	-6291
▁어떨까	-6292
▁어거지루	-6293
▁꾀	-6294
▁맏	-6295
돌아	-6296
아치	-6297
지는	-6298
▁경계	-6299
▁고놈	-6300
▁구랑	-6301
▁끌려	-6302
▁다머	-6303
▁독특	-6304
▁메리	-6305
▁뿌러	-6306
▁사구	-6307
▁식탁	-6308
▁실기	-6309
▁쓴다	-6310
▁어휴	-6311
▁열리	-6312
▁전달	-6313
▁추웠	-6314
▁하메	-6315
▁가이드	-6316
▁게난이	-6317
▁말씸이	-6318
▁방송국	-6319
▁쇼핑몰	-6320
▁어신거	-6321
▁에이형	-6322
▁완전히	-6323
▁이십만	-6324
▁집구석	-6325
▁평상시	-6326
▁해산물	-6327
▁이으쟁이	-6328
▁띵	-6329
▁숩	-6330
고사	-6331
뜨리	-6332
▁건들	-6333
▁곱창	-6334
▁교정	-6335
▁꼬닥	-6336
▁낙엽	-6337
▁도장	-6338
▁라민	-6339
▁맹금	-6340
▁보상	-6341
▁살까	-6342
▁설레	-6343
▁시나	-6344
▁약혼	-6345
▁양심	-6346
▁와사	-6347
▁저디	-6348
▁지러	-6349
▁지속	-6350
▁카트	-6351
▁태권	-6352
▁틴데	-6353
▁판타	-6354
▁혜택	-6355
재마는	-6356
▁박물관	-6357
▁소슬들	-6358
▁올림픽	-6359
▁을게요	-6360
▁지굼이	-6361
▁필리핀	-6362
▁고라재마는	-6363
▁모르겄는디	-6364
▁꿇	-6365
▁슴	-6366
국시	-6367
까스	-6368
러워	-6369
▁가젠	-6370
▁까라	-6371
▁도우	-6372
▁모바	-6373
▁배송	-6374
▁불법	-6375
▁아참	-6376
▁야외	-6377
▁오갈	-6378
▁올케	-6379
▁와중	-6380
▁원망	-6381
▁일월	-6382
▁종종	-6383
▁트러	-6384
▁편리	-6385
▁해불	-6386
▁해시	-6387
▁경허면	-6388
▁그거이	-6389
▁그래야	-6390
▁넘어갈	-6391
▁떠오르	-6392
▁맞수다	-6393
▁면허증	-6394
▁사계절	-6395
▁유산균	-6396
▁으르신	-6397
▁혹시나	-6398
▁그랬는디	-6399
▁곁	-6400
▁컷	-6401
서게	-6402
신고	-6403
신지	-6404
어가	-6405
▁게도	-6406
▁따가	-6407
▁버거	-6408
▁순서	-6409
▁신앙	-6410
▁아웃	-6411
▁열정	-6412
▁온천	-6413
▁주이	-6414
▁지낼	-6415
▁행수	-6416
▁허주	-6417
▁되크라	-6418
▁들으면	-6419
▁메이커	-6420
▁부드럽	-6421
▁서러지	-6422
▁앞으룬	-6423
▁에어컨	-6424
▁올라온	-6425
▁균	-6426
▁랍	-6427
▁잭	-6428
▁캡	-6429
애이	-6430
▁가덕	-6431
▁개선	-6432
▁겨란	-6433
▁고깃	-6434
▁곱닥	-6435
▁늘어	-6436
▁따래	-6437
▁무한	-6438
▁바른	-6439
▁사료	-6440
▁아사	-6441
▁어게	-6442
▁어하	-6443
▁엄지	-6444
▁여잔	-6445
▁왼쪽	-6446
▁잖나	-6447
▁통과	-6448
▁파트	-6449
▁가벼운	-6450
▁가져오	-6451
▁그리다	-6452
▁돈까스	-6453
▁사모님	-6454
▁스릴러	-6455
▁스키장	-6456
▁시켜야	-6457
▁어저께	-6458
▁이마트	-6459
▁자존심	-6460
▁짜장멘	-6461
▁테니스	-6462
▁아름다운	-6463
▁아이스크림	-6464
▁돗	-6465
▁씬	-6466
부텀	-6467
저나	-6468
주고	-6469
▁기가	-6470
▁멍청	-6471
▁범인	-6472
▁불리	-6473
▁불믄	-6474
▁빵빵	-6475
▁사오	-6476
▁성형	-6477
▁셋째	-6478
▁손목	-6479
▁수지	-6480
▁시우	-6481
▁엥간	-6482
▁오락	-6483
▁외향	-6484
▁위기	-6485
▁유니	-6486
▁일억	-6487
▁입학	-6488
▁존경	-6489
▁좋으	-6490
▁주부	-6491
▁츠녀	-6492
▁텐트	-6493
▁피로	-6494
▁하다	-6495
▁하필	-6496
▁가슴살	-6497
▁나왔었	-6498
▁스트레	-6499
▁와그넹	-6500
▁이대루	-6501
▁이십오	-6502
▁트러블	-6503
▁프라이	-6504
▁재수바리	-6505
▁뱉	-6506
▁빳	-6507
▁엮	-6508
▁풋	-6509
매이	-6510
▁교감	-6511
▁구구	-6512
▁기부	-6513
▁대니	-6514
▁대야	-6515
▁뜨거	-6516
▁민감	-6517
▁바뀔	-6518
▁반말	-6519
▁방이	-6520
▁사시	-6521
▁사양	-6522
▁수제	-6523
▁시머	-6524
▁야그	-6525
▁여사	-6526
▁장가	-6527
▁조기	-6528
▁질려	-6529
▁친했	-6530
▁타고	-6531
▁편히	-6532
▁가대이	-6533
▁겨론할	-6534
▁그마이	-6535
▁들어야	-6536
▁모바일	-6537
▁어야제	-6538
▁저느마	-6539
▁정시이	-6540
▁판타지	-6541
▁딩	-6542
▁칩	-6543
버스	-6544
준다	-6545
▁고속	-6546
▁그긋	-6547
▁꼬박	-6548
▁냉귀	-6549
▁다메	-6550
▁대유	-6551
▁든디	-6552
▁리조	-6553
▁망신	-6554
▁보건	-6555
▁보수	-6556
▁빨르	-6557
▁사소	-6558
▁소이	-6559
▁시니	-6560
▁외삼	-6561
▁으려	-6562
▁응급	-6563
▁지꺼	-6564
▁질질	-6565
▁쫓겨	-6566
▁카레	-6567
▁평균	-6568
▁한쪽	-6569
들이영	-6570
▁드레스	-6571
▁따러서	-6572
▁밀가루	-6573
▁스케줄	-6574
▁앞머리	-6575
▁올라와	-6576
▁자면은	-6577
▁한테서	-6578
▁가시는데	-6579
▁쎘	-6580
프트	-6581
허는	-6582
▁건설	-6583
▁걸레	-6584
▁고도	-6585
▁끝날	-6586
▁놔둬	-6587
▁당빠	-6588
▁드네	-6589
▁망하	-6590
▁사극	-6591
▁사위	-6592
▁쉬워	-6593
▁어선	-6594
▁오니	-6595
▁주시	-6596
▁지예	-6597
▁합쳐	-6598
▁해석	-6599
▁형태	-6600
▁껍데기	-6601
▁다행히	-6602
▁더구나	-6603
▁어떵해	-6604
▁움직여	-6605
▁이라기	-6606
▁찬찬히	-6607
▁한다믄	-6608
▁궤	-6609
대장	-6610
라서	-6611
싸움	-6612
움씨	-6613
으민	-6614
키지	-6615
▁개개	-6616
▁고래	-6617
▁공동	-6618
▁구이	-6619
▁나지	-6620
▁농새	-6621
▁대가	-6622
▁등급	-6623
▁밭이	-6624
▁배신	-6625
▁생강	-6626
▁설득	-6627
▁수면	-6628
▁야식	-6629
▁약국	-6630
▁오이	-6631
▁전복	-6632
▁조미	-6633
▁직사	-6634
▁친굴	-6635
▁하켄	-6636
▁형식	-6637
▁확률	-6638
▁환불	-6639
▁거짓말	-6640
▁다녀왔	-6641
▁대가리	-6642
▁러시아	-6643
▁아는디	-6644
▁에이비	-6645
▁울매나	-6646
▁자세히	-6647
▁흔들리	-6648
▁왔다갔다	-6649
▁득	-6650
▁핼	-6651
으멍	-6652
카부	-6653
▁간대	-6654
▁같애	-6655
▁계열	-6656
▁관념	-6657
▁구르	-6658
▁길르	-6659
▁나문	-6660
▁내현	-6661
▁눌르	-6662
▁다며	-6663
▁대우	-6664
▁드셔	-6665
▁망치	-6666
▁밀리	-6667
▁부여	-6668
▁생전	-6669
▁시여	-6670
▁싰는	-6671
▁아바	-6672
▁연수	-6673
▁웨이	-6674
▁자넨	-6675
▁전환	-6676
▁지점	-6677
▁행게	-6678
▁흐르	-6679
▁건데요	-6680
▁냉동실	-6681
▁아름답	-6682
▁한국인	-6683
딱지	-6684
▁가켄	-6685
▁국회	-6686
▁껌정	-6687
▁내부	-6688
▁내지	-6689
▁는단	-6690
▁달랐	-6691
▁도리	-6692
▁만내	-6693
▁버섯	-6694
▁번쯤	-6695
▁시각	-6696
▁쎄리	-6697
▁아일	-6698
▁엉망	-6699
▁연인	-6700
▁육수	-6701
▁이윤	-6702
▁전다	-6703
▁종합	-6704
▁차량	-6705
▁해녀	-6706
▁기다릴	-6707
▁내려온	-6708
▁드려요	-6709
▁생각하	-6710
▁이랬었	-6711
▁많아부난	-6712
▁릅	-6713
▁씅	-6714
▁즙	-6715
드레	-6716
룹다	-6717
부에	-6718
세지	-6719
해야	-6720
▁걸까	-6721
▁노후	-6722
▁니다	-6723
▁똥그	-6724
▁믿음	-6725
▁반가	-6726
▁밝혀	-6727
▁부애	-6728
▁영원	-6729
▁요청	-6730
▁으리	-6731
▁일굽	-6732
▁자내	-6733
▁잖니	-6734
▁조정	-6735
▁지붕	-6736
▁치과	-6737
▁터진	-6738
▁특성	-6739
▁가까워	-6740
▁니까요	-6741
▁던데요	-6742
▁미스터	-6743
▁심자랑	-6744
▁어려움	-6745
▁을수록	-6746
▁일본어	-6747
▁합디다	-6748
▁보니까네	-6749
▁셨잖아요	-6750
▁스트레칭	-6751
▁눕	-6752
▁듭	-6753
댕기	-6754
져야	-6755
▁가죽	-6756
▁거렁	-6757
▁근사	-6758
▁꺼지	-6759
▁끝났	-6760
▁남기	-6761
▁놔라	-6762
▁덕분	-6763
▁몰입	-6764
▁사귄	-6765
▁상견	-6766
▁상의	-6767
▁새러	-6768
▁안데	-6769
▁알리	-6770
▁여고	-6771
▁월세	-6772
▁으레	-6773
▁이선	-6774
▁이월	-6775
▁차례	-6776
▁천주	-6777
▁코인	-6778
▁쿠키	-6779
▁한때	-6780
▁혼났	-6781
▁갈려고	-6782
▁극정이	-6783
▁기럭지	-6784
▁꼬추장	-6785
▁배고파	-6786
▁에스티	-6787
▁을라꼬	-6788
▁주래기	-6789
▁힘든디	-6790
▁여보서요	-6791
▁하루죙일	-6792
▁껭	-6793
▁샥	-6794
▁엽	-6795
깨비	-6796
버려	-6797
번호	-6798
부리	-6799
사랑	-6800
새끼	-6801
해사	-6802
▁그재	-6803
▁기에	-6804
▁난대	-6805
▁단식	-6806
▁당기	-6807
▁떠났	-6808
▁맞나	-6809
▁모지	-6810
▁뱃살	-6811
▁수정	-6812
▁숨겨	-6813
▁신체	-6814
▁아그	-6815
▁아는	-6816
▁안하	-6817
▁예비	-6818
▁와따	-6819
▁울산	-6820
▁이태	-6821
▁잠들	-6822
▁재주	-6823
▁전원	-6824
▁하멘	-6825
▁혹은	-6826
▁가져와	-6827
▁갱년기	-6828
▁그렁이	-6829
▁다더라	-6830
▁덕부에	-6831
▁수요일	-6832
▁알아들	-6833
▁한다면	-6834
▁해부러	-6835
▁힘드나	-6836
▁사회생활	-6837
▁깁	-6838
▁깻	-6839
▁낄	-6840
▁쓱	-6841
까봐	-6842
따리	-6843
시냐	-6844
양한	-6845
인다	-6846
텡이	-6847
▁거대	-6848
▁검질	-6849
▁고지	-6850
▁고칠	-6851
▁구할	-6852
▁럈어	-6853
▁매치	-6854
▁보증	-6855
▁비염	-6856
▁성경	-6857
▁순대	-6858
▁승부	-6859
▁쌤이	-6860
▁아오	-6861
▁안쓰	-6862
▁야요	-6863
▁으내	-6864
▁이빠	-6865
▁저건	-6866
▁정책	-6867
▁지짜	-6868
▁카마	-6869
▁태국	-6870
▁트리	-6871
▁한심	-6872
▁휴학	-6873
▁겅헌디	-6874
▁날라가	-6875
▁는데도	-6876
▁아이대	-6877
▁이걸루	-6878
▁이었다	-6879
▁합시다	-6880
▁경핸	-6881
▁끌어	-6882
▁디가	-6883
▁뚜껑	-6884
▁모셔	-6885
▁밀어	-6886
▁방해	-6887
▁보예	-6888
▁사단	-6889
▁수광	-6890
▁시엄	-6891
▁시월	-6892
▁야제	-6893
▁우주	-6894
▁이분	-6895
▁징허	-6896
▁토끼	-6897
▁학습	-6898
▁했으	-6899
▁허랜	-6900
▁환상	-6901
▁갈게요	-6902
▁그느마	-6903
▁돌아올	-6904
▁따양한	-6905
▁상견례	-6906
▁시켜서	-6907
▁조용히	-6908
▁좋아할	-6909
▁햄스터	-6910
▁거렁뱅이	-6911
▁김치찌개	-6912
▁덧	-6913
▁츤	-6914
▁킥	-6915
갑다	-6916
료한	-6917
보라	-6918
서도	-6919
하니	-6920
한거	-6921
▁거울	-6922
▁경치	-6923
▁깊이	-6924
▁끼치	-6925
▁나고	-6926
▁나니	-6927
▁내시	-6928
▁넉넉	-6929
▁넘치	-6930
▁렌트	-6931
▁마블	-6932
▁바쁠	-6933
▁방탄	-6934
▁보람	-6935
▁분리	-6936
▁사전	-6937
▁서양	-6938
▁엘리	-6939
▁오빤	-6940
▁웨딩	-6941
▁잡다	-6942
▁장례	-6943
▁저쩌	-6944
▁즌쟁	-6945
▁지각	-6946
▁초기	-6947
▁파일	-6948
▁회살	-6949
▁회원	-6950
▁가격대	-6951
▁고깃집	-6952
▁다시금	-6953
▁라디오	-6954
▁막냉이	-6955
▁목욕탕	-6956
▁비빔밥	-6957
▁좌우명	-6958
▁지켜보	-6959
▁천주교	-6960
▁카는지	-6961
▁필료한	-6962
▁씁	-6963
▁펌	-6964
위치	-6965
▁격리	-6966
▁나야	-6967
▁날려	-6968
▁담날	-6969
▁당가	-6970
▁매한	-6971
▁멈추	-6972
▁뭐이	-6973
▁배드	-6974
▁범위	-6975
▁분이	-6976
▁비율	-6977
▁사태	-6978
▁아녜	-6979
▁앉아	-6980
▁언간	-6981
▁외우	-6982
▁운진	-6983
▁으꼬	-6984
▁이끌	-6985
▁이웃	-6986
▁이적	-6987
▁작성	-6988
▁전수	-6989
▁지장	-6990
▁창고	-6991
▁초콜	-6992
▁측면	-6993
▁그래나	-6994
▁넘어갔	-6995
▁달라졌	-6996
▁드는디	-6997
▁모른다	-6998
▁신다고	-6999
▁십니다	-7000
▁어려서	-7001
▁그나저나	-7002
▁매한가지	-7003
▁껜	-7004
▁룰	-7005
▁셈	-7006
▁앱	-7007
▁혐	-7008
노난	-7009
소설	-7010
운드	-7011
이었	-7012
하구	-7013
▁개문	-7014
▁귀경	-7015
▁낀데	-7016
▁딸려	-7017
▁라라	-7018
▁모재	-7019
▁무스	-7020
▁미련	-7021
▁바꾼	-7022
▁벗겨	-7023
▁보석	-7024
▁불행	-7025
▁빵꾸	-7026
▁색이	-7027
▁쌀쌀	-7028
▁언젠	-7029
▁연하	-7030
▁오뎅	-7031
▁유도	-7032
▁이득	-7033
▁장미	-7034
▁쫍은	-7035
▁천지	-7036
▁펀드	-7037
▁한글	-7038
▁후기	-7039
▁리조트	-7040
▁어찌고	-7041
▁얻어먹	-7042
▁올라강	-7043
▁요새간	-7044
▁친구영	-7045
▁커피숍	-7046
▁어서부난	-7047
▁맽	-7048
이고	-7049
작년	-7050
▁갈등	-7051
▁강해	-7052
▁개그	-7053
▁거랑	-7054
▁고백	-7055
▁그렸	-7056
▁내장	-7057
▁드럽	-7058
▁반성	-7059
▁방울	-7060
▁쉬물	-7061
▁스크	-7062
▁시합	-7063
▁오구	-7064
▁올레	-7065
▁우수	-7066
▁을걸	-7067
▁의원	-7068
▁참석	-7069
▁그치만	-7070
▁려구요	-7071
▁붕어빵	-7072
▁으까요	-7073
▁타이밍	-7074
▁특벨한	-7075
▁아이디어	-7076
▁몹	-7077
나다	-7078
르르	-7079
학년	-7080
▁감히	-7081
▁건축	-7082
▁교양	-7083
▁낙지	-7084
▁내면	-7085
▁더군	-7086
▁따우	-7087
▁무난	-7088
▁무너	-7089
▁본부	-7090
▁사름	-7091
▁아입	-7092
▁얼렁	-7093
▁위이	-7094
▁젓갈	-7095
▁제출	-7096
▁좌석	-7097
▁지주	-7098
▁쭐여	-7099
▁크로	-7100
해신디	-7101
▁그라제	-7102
▁달라진	-7103
▁들어감	-7104
▁아녜요	-7105
▁우짜노	-7106
▁즌화번호	-7107
▁한다거나	-7108
▁뷔	-7109
▁줨	-7110
먼지	-7111
스럽	-7112
욕장	-7113
저그	-7114
허니	-7115
▁간닥	-7116
▁국어	-7117
▁그랑	-7118
▁꼼짝	-7119
▁나는	-7120
▁내릴	-7121
▁내주	-7122
▁뉴욕	-7123
▁당관	-7124
▁변해	-7125
▁보당	-7126
▁보도	-7127
▁보장	-7128
▁볼일	-7129
▁살찌	-7130
▁십일	-7131
▁아끼	-7132
▁양지	-7133
▁용품	-7134
▁유형	-7135
▁짤르	-7136
▁탄탄	-7137
▁튀기	-7138
▁하체	-7139
▁고만히	-7140
▁깨깟이	-7141
▁다던데	-7142
▁다릏게	-7143
▁빠져나	-7144
▁아니라	-7145
▁약속으	-7146
▁인터뷰	-7147
▁지지바	-7148
▁어린이집	-7149
▁가만히그네	-7150
▁뻑	-7151
두리	-7152
싸게	-7153
크림	-7154
▁가개	-7155
▁그립	-7156
▁께요	-7157
▁나훈	-7158
▁눈빛	-7159
▁단다	-7160
▁도구	-7161
▁동서	-7162
▁동호	-7163
▁려니	-7164
▁마약	-7165
▁무식	-7166
▁반죽	-7167
▁부처	-7168
▁빼빼	-7169
▁사괘	-7170
▁석반	-7171
▁소풍	-7172
▁숫자	-7173
▁아고	-7174
▁아메	-7175
▁외워	-7176
▁이랜	-7177
▁준대	-7178
▁창가	-7179
▁케잌	-7180
▁표준	-7181
베이터	-7182
▁게론식	-7183
▁들어도	-7184
▁몰라서	-7185
▁뻐리고	-7186
▁옆이서	-7187
▁은다고	-7188
▁테이프	-7189
▁할바이	-7190
▁수학여행	-7191
▁싸게싸게	-7192
▁밉	-7193
▁섹	-7194
▁숯	-7195
구녕	-7196
드름	-7197
보면	-7198
▁갈켜	-7199
▁개가	-7200
▁겨실	-7201
▁께네	-7202
▁모레	-7203
▁백종	-7204
▁벌레	-7205
▁싱싱	-7206
▁쓸쓸	-7207
▁아씨	-7208
▁야는	-7209
▁야들	-7210
▁연속	-7211
▁연장	-7212
▁이대	-7213
▁인천	-7214
▁자가	-7215
▁자긴	-7216
▁장관	-7217
▁제공	-7218
▁짤리	-7219
▁크다	-7220
▁해리	-7221
▁흥분	-7222
▁겨론한	-7223
▁경상도	-7224
▁나훈아	-7225
▁느라구	-7226
▁단순히	-7227
▁보는디	-7228
▁아니연	-7229
▁안소설	-7230
▁이지마	-7231
▁일반인	-7232
▁잡아먹	-7233
▁줄어들	-7234
▁차말로	-7235
▁칼로리	-7236
▁헤어진	-7237
▁최대한잉	-7238
▁량	-7239
▁솥	-7240
▁얀	-7241
시장	-7242
챙이	-7243
▁가봔	-7244
▁가인	-7245
▁고른	-7246
▁과재	-7247
▁기끈	-7248
▁난예	-7249
▁단위	-7250
▁라기	-7251
▁못생	-7252
▁발음	-7253
▁봉투	-7254
▁비상	-7255
▁소년	-7256
▁수운	-7257
▁야네	-7258
▁연관	-7259
▁이봐	-7260
▁적성	-7261
▁주마	-7262
▁지발	-7263
▁질병	-7264
▁쫍아	-7265
▁카는	-7266
▁현명	-7267
▁회계	-7268
▁내려갔	-7269
▁되신디	-7270
▁머시여	-7271
▁볼게요	-7272
▁부딪치	-7273
▁빨간색	-7274
▁어데다	-7275
▁우리집	-7276
▁인자는	-7277
▁다면서요	-7278
▁들드라구	-7279
▁어머이이	-7280
▁이그저그	-7281
▁뽄	-7282
겄어	-7283
민턴	-7284
사고	-7285
었댄	-7286
자녀	-7287
▁강요	-7288
▁긍강	-7289
▁기존	-7290
▁남안	-7291
▁더우	-7292
▁더이	-7293
▁딱지	-7294
▁때마	-7295
▁또는	-7296
▁맞출	-7297
▁매년	-7298
▁뭐꼬	-7299
▁브라	-7300
▁사도	-7301
▁사상	-7302
▁소라	-7303
▁소속	-7304
▁손녀	-7305
▁손질	-7306
▁언능	-7307
▁열매	-7308
▁져야	-7309
▁조직	-7310
▁주지	-7311
▁죽음	-7312
▁줄여	-7313
▁중반	-7314
▁지킬	-7315
▁철학	-7316
▁최악	-7317
▁콧대	-7318
▁틀렸	-7319
▁팍팍	-7320
둥가리	-7321
스토랑	-7322
▁경기도	-7323
▁고마운	-7324
▁드려야	-7325
▁백종원	-7326
▁보일러	-7327
▁생각났	-7328
▁씨레기	-7329
▁야겠다	-7330
▁운젠가	-7331
▁헙디다	-7332
▁레스토랑	-7333
▁배드민턴	-7334
▁들어가가주구	-7335
▁걘	-7336
▁륵	-7337
▁몫	-7338
▁뺨	-7339
▁줭	-7340
▁촞	-7341
▁톰	-7342
방구	-7343
지를	-7344
한티	-7345
▁거연	-7346
▁고를	-7347
▁껀디	-7348
▁끄내	-7349
▁나강	-7350
▁냉면	-7351
▁더욱	-7352
▁도라	-7353
▁뜨뜻	-7354
▁망설	-7355
▁모았	-7356
▁무선	-7357
▁미스	-7358
▁밀려	-7359
▁분석	-7360
▁성분	-7361
▁수강	-7362
▁수고	-7363
▁수월	-7364
▁웃겼	-7365
▁워째	-7366
▁유독	-7367
▁입히	-7368
▁주스	-7369
▁지렁	-7370
▁차단	-7371
▁특정	-7372
▁팔리	-7373
▁팝송	-7374
▁한솜	-7375
▁해지	-7376
주만은	-7377
▁독새기	-7378
▁드니께	-7379
▁얼어진	-7380
▁일일이	-7381
▁좋아한	-7382
▁줄려고	-7383
▁짓거리	-7384
▁바이러스	-7385
▁오프라인	-7386
▁붉	-7387
▁텔	-7388
▁픽	-7389
갓집	-7390
다매	-7391
므는	-7392
은거	-7393
잡이	-7394
▁간이	-7395
▁강남	-7396
▁거름	-7397
▁그등	-7398
▁기쁘	-7399
▁너넨	-7400
▁다손	-7401
▁당일	-7402
▁뒤져	-7403
▁려나	-7404
▁많았	-7405
▁멋져	-7406
▁미드	-7407
▁미뤄	-7408
▁미운	-7409
▁바뻐	-7410
▁반반	-7411
▁새벡	-7412
▁색조	-7413
▁선거	-7414
▁소린	-7415
▁속초	-7416
▁신용	-7417
▁예배	-7418
▁예수	-7419
▁왕따	-7420
▁외부	-7421
▁은제	-7422
▁정장	-7423
▁줄이	-7424
▁징그	-7425
▁체계	-7426
▁커지	-7427
▁토론	-7428
▁허게	-7429
▁가르키	-7430
▁고넹이	-7431
▁고모부	-7432
▁그짓말	-7433
▁께임을	-7434
▁놨다가	-7435
▁다가가	-7436
▁동호회	-7437
▁백게서	-7438
▁아쉬움	-7439
▁아지매	-7440
▁유명헌	-7441
▁조만간	-7442
▁패키지	-7443
▁고등학고	-7444
▁돼지고기	-7445
▁꿍	-7446
▁싣	-7447
▁쩔	-7448
▁쳥	-7449
개서	-7450
겨서	-7451
다면	-7452
당초	-7453
렌지	-7454
리한	-7455
어질	-7456
을까	-7457
저래	-7458
지기	-7459
▁가두	-7460
▁구역	-7461
▁기침	-7462
▁긴가	-7463
▁다년	-7464
▁달렸	-7465
▁더부	-7466
▁더위	-7467
▁디저	-7468
▁멩이	-7469
▁소방	-7470
▁슬슬	-7471
▁시자	-7472
▁식초	-7473
▁실천	-7474
▁였었	-7475
▁으고	-7476
▁잠만	-7477
▁장단	-7478
▁졸라	-7479
▁지수	-7480
▁지진	-7481
▁직전	-7482
▁카지	-7483
▁호흡	-7484
▁가운데	-7485
▁갔다오	-7486
▁고내이	-7487
▁는군요	-7488
▁살아온	-7489
▁아주방	-7490
▁좋아햐	-7491
▁즐거운	-7492
▁헤어져	-7493
▁가만뎅이	-7494
▁미세먼지	-7495
▁생겨불고	-7496
▁쌉	-7497
▁젱	-7498
▁튕	-7499
겠노	-7500
말루	-7501
보이	-7502
시간	-7503
언니	-7504
이나	-7505
포터	-7506
▁갈색	-7507
▁갖춰	-7508
▁개봉	-7509
▁거다	-7510
▁거쪽	-7511
▁굉일	-7512
▁구했	-7513
▁껍질	-7514
▁꼬지	-7515
▁뚜렷	-7516
▁라산	-7517
▁보잰	-7518
▁비비	-7519
▁빡빡	-7520
▁살라	-7521
▁수가	-7522
▁수박	-7523
▁시굴	-7524
▁시야	-7525
▁왜사	-7526
▁잔뜩	-7527
▁제거	-7528
▁참치	-7529
▁처방	-7530
▁첫날	-7531
▁피디	-7532
▁하라	-7533
▁해변	-7534
▁해치	-7535
▁해필	-7536
▁가이도	-7537
▁경찰서	-7538
▁고등어	-7539
▁는디유	-7540
▁디저트	-7541
▁어이없	-7542
▁지나갔	-7543
▁티브이	-7544
▁흘러가	-7545
▁드립니다	-7546
▁시어머니	-7547
▁아닙니다	-7548
▁오갈단지	-7549
가서	-7550
마차	-7551
에서	-7552
으난	-7553
하지	-7554
▁갈지	-7555
▁구수	-7556
▁기생	-7557
▁깨지	-7558
▁날아	-7559
▁단속	-7560
▁대면	-7561
▁뎅기	-7562
▁뎅이	-7563
▁리뷰	-7564
▁마르	-7565
▁메모	-7566
▁모욕	-7567
▁벤소	-7568
▁볼려	-7569
▁상식	-7570
▁새기	-7571
▁서너	-7572
▁세기	-7573
▁수수	-7574
▁시난	-7575
▁실질	-7576
▁염려	-7577
▁영수	-7578
▁오염	-7579
▁이논	-7580
▁인성	-7581
▁잡수	-7582
▁잰작	-7583
▁저렇	-7584
▁조작	-7585
▁주난	-7586
▁지랑	-7587
▁찌지	-7588
▁초보	-7589
▁키스	-7590
▁해줄	-7591
▁했지	-7592
▁현지	-7593
▁형편	-7594
▁나타났	-7595
▁다면은	-7596
▁대맹이	-7597
▁모다는	-7598
▁볼라꼬	-7599
▁산다고	-7600
▁십일월	-7601
▁이래두	-7602
▁잘생긴	-7603
▁장모님	-7604
▁직사게	-7605
▁됭	-7606
▁템	-7607
낭구	-7608
냐면	-7609
도록	-7610
안티	-7611
파리	-7612
▁고아	-7613
▁꼬락	-7614
▁대책	-7615
▁매겼	-7616
▁모도	-7617
▁벌이	-7618
▁벤명	-7619
▁본데	-7620
▁비벼	-7621
▁비치	-7622
▁빵집	-7623
▁사방	-7624
▁사자	-7625
▁상한	-7626
▁수분	-7627
▁시시	-7628
▁싸인	-7629
▁의외	-7630
▁인턴	-7631
▁입구	-7632
▁자부	-7633
▁점장	-7634
▁치러	-7635
▁탈출	-7636
▁펼쳐	-7637
▁풀려	-7638
▁하시	-7639
▁한림	-7640
▁합의	-7641
테리어	-7642
▁마이크	-7643
▁머시매	-7644
▁물어본	-7645
▁볶음밥	-7646
▁어린아	-7647
▁엄청난	-7648
▁그러니께	-7649
▁포장마차	-7650
▁깰	-7651
▁꿰	-7652
▁쁘	-7653
▁츄	-7654
겄지	-7655
까지	-7656
▁고러	-7657
▁고수	-7658
▁고용	-7659
▁깻잎	-7660
▁남아	-7661
▁늫구	-7662
▁달린	-7663
▁동양	-7664
▁맛좋	-7665
▁병사	-7666
▁비서	-7667
▁살펴	-7668
▁서둘	-7669
▁서서	-7670
▁성비	-7671
▁안가	-7672
▁안방	-7673
▁열받	-7674
▁우스	-7675
▁이주	-7676
▁이탈	-7677
▁입시	-7678
▁재벌	-7679
▁진단	-7680
▁차원	-7681
▁컨셉	-7682
▁풀어	-7683
▁하리	-7684
▁허긴	-7685
▁호기	-7686
▁활성	-7687
▁가이는	-7688
▁갈아입	-7689
▁내려놓	-7690
▁달라붙	-7691
▁면역력	-7692
▁사나들	-7693
▁실갱이	-7694
▁알아주	-7695
▁어울릴	-7696
▁장난치	-7697
▁줄려구	-7698
▁집안일	-7699
▁어깨바지	-7700
▁녠	-7701
▁놋	-7702
▁딘	-7703
▁텃	-7704
건디	-7705
그넨	-7706
달리	-7707
은색	-7708
지가	-7709
질러	-7710
▁갑작	-7711
▁과하	-7712
▁내꺼	-7713
▁누르	-7714
▁느네	-7715
▁대매	-7716
▁때렸	-7717
▁떨리	-7718
▁멈춰	-7719
▁무기	-7720
▁불량	-7721
▁비워	-7722
▁뽀뽀	-7723
▁사난	-7724
▁사탕	-7725
▁상이	-7726
▁소굼	-7727
▁시디	-7728
▁시점	-7729
▁심사	-7730
▁아수	-7731
▁어다	-7732
▁원작	-7733
▁의무	-7734
▁저걸	-7735
▁접시	-7736
▁존중	-7737
▁주켄	-7738
▁청춘	-7739
▁총각	-7740
▁프린	-7741
부러지	-7742
▁나문지	-7743
▁누그랑	-7744
▁누워서	-7745
▁독서실	-7746
▁돌아보	-7747
▁똑같애	-7748
▁베란다	-7749
▁보여서	-7750
▁부끄럽	-7751
▁사라졌	-7752
▁아니랜	-7753
▁하드만	-7754
▁해서요	-7755
▁해져서	-7756
▁왓	-7757
나나	-7758
로우	-7759
볶음	-7760
빠진	-7761
지근	-7762
텐츠	-7763
▁가께	-7764
▁가작	-7765
▁경영	-7766
▁고시	-7767
▁그딴	-7768
▁남성	-7769
▁네잉	-7770
▁다듬	-7771
▁단가	-7772
▁덜이	-7773
▁런닝	-7774
▁로마	-7775
▁목장	-7776
▁벨일	-7777
▁보충	-7778
▁부사	-7779
▁비는	-7780
▁수사	-7781
▁순환	-7782
▁신입	-7783
▁실행	-7784
▁싶댄	-7785
▁안핸	-7786
▁않애	-7787
▁연출	-7788
▁원이	-7789
▁육군	-7790
▁이론	-7791
▁장래	-7792
▁주가	-7793
▁지께	-7794
▁진로	-7795
▁처벌	-7796
▁해고	-7797
▁현관	-7798
▁확신	-7799
▁근데도	-7800
▁면서도	-7801
▁스카이	-7802
▁이상하	-7803
▁재작년	-7804
▁중국어	-7805
▁찾아와	-7806
하시갸우	-7807
▁아이지마	-7808
▁얼매든지	-7809
▁에이비형	-7810
▁안경하시갸우	-7811
▁싯	-7812
▁칙	-7813
구운	-7814
꾸미	-7815
너스	-7816
보다	-7817
새이	-7818
서리	-7819
▁각각	-7820
▁강제	-7821
▁고파	-7822
▁기어	-7823
▁놓치	-7824
▁니트	-7825
▁말르	-7826
▁보기	-7827
▁봉께	-7828
▁부엌	-7829
▁뻔히	-7830
▁사리	-7831
▁상당	-7832
▁시부	-7833
▁아여	-7834
▁운재	-7835
▁유재	-7836
▁으찌	-7837
▁잡앙	-7838
▁준빌	-7839
▁쪼간	-7840
▁쪼그	-7841
▁희생	-7842
▁가이가	-7843
▁겅해야	-7844
▁고로케	-7845
▁그르다	-7846
▁다던가	-7847
▁마래이	-7848
▁보여요	-7849
▁왔잖아	-7850
▁으신지	-7851
▁지나치	-7852
▁교통사고	-7853
▁들드라고	-7854
▁인테리어	-7855
▁해수욕장	-7856
▁릿	-7857
▁쏴	-7858
마토	-7859
보드	-7860
부렀	-7861
젯밤	-7862
카락	-7863
▁가고	-7864
▁구녕	-7865
▁놓고	-7866
▁다지	-7867
▁달마	-7868
▁당구	-7869
▁당할	-7870
▁대접	-7871
▁도에	-7872
▁래도	-7873
▁마땅	-7874
▁만남	-7875
▁먹방	-7876
▁멘탈	-7877
▁모단	-7878
▁몰랑	-7879
▁벌리	-7880
▁생이	-7881
▁수단	-7882
▁써도	-7883
▁아팡	-7884
▁열차	-7885
▁예산	-7886
▁입대	-7887
▁잡숫	-7888
▁조명	-7889
▁족발	-7890
▁죽어	-7891
▁지낭	-7892
▁통신	-7893
▁투표	-7894
▁플랫	-7895
▁한정	-7896
▁했다	-7897
▁화분	-7898
대가리	-7899
하이까	-7900
▁그대로	-7901
▁그라면	-7902
▁그런다	-7903
▁나와요	-7904
▁난다고	-7905
▁따라오	-7906
▁메느리	-7907
▁사라져	-7908
▁어딘가	-7909
▁어젯밤	-7910
▁응급실	-7911
▁주고받	-7912
▁줄거리	-7913
▁챙겨야	-7914
▁할려면	-7915
이었는디	-7916
▁그긋덜이	-7917
▁머리카락	-7918
▁이라는데	-7919
▁튀어나왔	-7920
▁늠	-7921
▁숱	-7922
라게	-7923
수게	-7924
▁급허	-7925
▁눈앞	-7926
▁다정	-7927
▁단정	-7928
▁동해	-7929
▁랐싸	-7930
▁많댄	-7931
▁망했	-7932
▁매이	-7933
▁배기	-7934
▁삭제	-7935
▁실용	-7936
▁연령	-7937
▁오월	-7938
▁요맨	-7939
▁전활	-7940
▁절반	-7941
▁특수	-7942
▁풍부	-7943
▁한라	-7944
▁화가	-7945
▁흰색	-7946
▁아이지	-7947
▁와그넨	-7948
▁운재나	-7949
▁유산소	-7950
▁재밌언	-7951
▁훈련소	-7952
▁희한한	-7953
▁몰라신디	-7954
▁아프리카	-7955
▁꾹	-7956
▁낑	-7957
▁댐	-7958
▁쳔	-7959
고락	-7960
▁가보	-7961
▁괜차	-7962
▁극단	-7963
▁나왐	-7964
▁또이	-7965
▁마취	-7966
▁매주	-7967
▁바빴	-7968
▁번지	-7969
▁분다	-7970
▁빙떡	-7971
▁사망	-7972
▁쇠주	-7973
▁써먹	-7974
▁양배	-7975
▁얼맨	-7976
▁여도	-7977
▁입엉	-7978
▁장구	-7979
▁재워	-7980
▁주임	-7981
▁지마	-7982
▁짜잘	-7983
▁철저	-7984
▁터치	-7985
▁해병	-7986
등거리	-7987
▁경허멍	-7988
▁고뱅이	-7989
▁는다꼬	-7990
▁드래도	-7991
▁청소기	-7992
▁해보믄	-7993
▁아닙니까	-7994
▁아맹해도	-7995
▁토요일날	-7996
▁닳	-7997
▁융	-7998
▁칫	-7999
나신	-8000
로운	-8001
아방	-8002
하멍	-8003
▁거들	-8004
▁근가	-8005
▁논란	-8006
▁놔뒀	-8007
▁단장	-8008
▁독자	-8009
▁디레	-8010
▁맡기	-8011
▁먹젠	-8012
▁무니	-8013
▁무척	-8014
▁미팅	-8015
▁밤중	-8016
▁밥상	-8017
▁부쳐	-8018
▁붙들	-8019
▁사원	-8020
▁살안	-8021
▁생리	-8022
▁소독	-8023
▁스티	-8024
▁애쓰	-8025
▁우찌	-8026
▁일지	-8027
▁저쪽	-8028
▁정원	-8029
▁주랜	-8030
▁체형	-8031
▁투어	-8032
▁평화	-8033
▁허물	-8034
▁헌데	-8035
▁황당	-8036
▁근데이	-8037
▁날더러	-8038
▁들으문	-8039
▁미스타	-8040
▁우리는	-8041
▁우연히	-8042
▁움직일	-8043
▁페이지	-8044
▁호기심	-8045
▁회사기	-8046
▁매둥가리	-8047
▁어뜨케든	-8048
▁잊어버리	-8049
▁재미지게	-8050
▁뽁	-8051
▁쿵	-8052
웨이	-8053
▁강화	-8054
▁거제	-8055
▁고프	-8056
▁구룸	-8057
▁기우	-8058
▁내밀	-8059
▁떠난	-8060
▁마고	-8061
▁목통	-8062
▁배부	-8063
▁배불	-8064
▁불과	-8065
▁불어	-8066
▁상사	-8067
▁샌드	-8068
▁샥시	-8069
▁소득	-8070
▁심이	-8071
▁연상	-8072
▁위원	-8073
▁유용	-8074
▁육아	-8075
▁이겼	-8076
▁잘해	-8077
▁장모	-8078
▁제약	-8079
▁조합	-8080
▁주서	-8081
▁지적	-8082
▁진이	-8083
▁째끔	-8084
▁치사	-8085
▁타지	-8086
▁특유	-8087
▁해나	-8088
▁화내	-8089
▁거러지	-8090
▁고걸로	-8091
▁넘어지	-8092
▁랐싸요	-8093
▁마사지	-8094
▁무너지	-8095
▁서울서	-8096
▁요러케	-8097
▁허거든	-8098
▁똑부러지	-8099
▁사램들은	-8100
▁봠	-8101
▁뻣	-8102
▁씰	-8103
기는	-8104
지고	-8105
케팅	-8106
흥민	-8107
▁거냥	-8108
▁것이	-8109
▁공학	-8110
▁구멍	-8111
▁구박	-8112
▁꽁구	-8113
▁나사	-8114
▁나을	-8115
▁남이	-8116
▁놨다	-8117
▁두구	-8118
▁마농	-8119
▁맞네	-8120
▁바둑	-8121
▁반품	-8122
▁보지	-8123
▁성능	-8124
▁소유	-8125
▁식욕	-8126
▁써요	-8127
▁아르	-8128
▁올까	-8129
▁욕먹	-8130
▁인해	-8131
▁전반	-8132
▁전학	-8133
▁주워	-8134
▁중단	-8135
▁증가	-8136
▁지불	-8137
▁지쳐	-8138
▁혼내	-8139
▁휴양	-8140
▁그래다	-8141
▁뜨거운	-8142
▁로부터	-8143
▁마케팅	-8144
▁말씸드	-8145
▁본다고	-8146
▁손흥민	-8147
▁육지서	-8148
▁으셔서	-8149
▁잔모했	-8150
▁청소년	-8151
▁콩나물	-8152
▁피해자	-8153
▁먹어신디	-8154
▁상새나신	-8155
▁낡	-8156
▁춰	-8157
기도	-8158
기사	-8159
선상	-8160
수룩	-8161
커정	-8162
▁개미	-8163
▁끄름	-8164
▁끝냈	-8165
▁나드	-8166
▁놨던	-8167
▁다스	-8168
▁데리	-8169
▁래유	-8170
▁막연	-8171
▁뭉치	-8172
▁박혀	-8173
▁사냥	-8174
▁서버	-8175
▁성두	-8176
▁아를	-8177
▁오븐	-8178
▁입사	-8179
▁자란	-8180
▁작용	-8181
▁조상	-8182
▁쪄서	-8183
▁추세	-8184
▁허버	-8185
테이까	-8186
▁거따가	-8187
▁고마애	-8188
▁그릏다	-8189
▁다녀와	-8190
▁들으가	-8191
▁보조제	-8192
▁사신디	-8193
▁실커정	-8194
▁영수증	-8195
▁지끔도	-8196
▁청바지	-8197
▁모르쿠다	-8198
▁언니네이	-8199
▁이라던지	-8200
▁롸	-8201
▁킨	-8202
▁힌	-8203
갖고	-8204
린내	-8205
실거	-8206
와이	-8207
테일	-8208
파이	-8209
▁글케	-8210
▁꼬시	-8211
▁드시	-8212
▁바탕	-8213
▁뱃속	-8214
▁부렸	-8215
▁비리	-8216
▁빨끈	-8217
▁살당	-8218
▁상무	-8219
▁쌂아	-8220
▁아랫	-8221
▁영영	-8222
▁우체	-8223
▁웃움	-8224
▁유연	-8225
▁유통	-8226
▁이비	-8227
▁제외	-8228
▁제우	-8229
▁지송	-8230
▁질기	-8231
▁찬성	-8232
▁최종	-8233
▁학점	-8234
▁가야제	-8235
▁구먼유	-8236
▁다녔었	-8237
▁도깨비	-8238
▁드라이	-8239
▁메시지	-8240
▁변호사	-8241
▁볼라구	-8242
▁어울려	-8243
▁유명하	-8244
▁인가이	-8245
이라부난	-8246
▁그랬드니	-8247
▁돌아가셔	-8248
▁워드메서	-8249
▁있엉으네	-8250
▁/	-8251
▁력	-8252
▁샛	-8253
▁샴	-8254
▁숏	-8255
▁흩	-8256
따라	-8257
땡이	-8258
라는	-8259
미디	-8260
봐야	-8261
에도	-8262
전히	-8263
▁가그	-8264
▁가머	-8265
▁가문	-8266
▁간거	-8267
▁강도	-8268
▁게요	-8269
▁공공	-8270
▁괜츈	-8271
▁까이	-8272
▁꼬치	-8273
▁댕이	-8274
▁된지	-8275
▁들온	-8276
▁디즈	-8277
▁매트	-8278
▁바짝	-8279
▁반면	-8280
▁받쳐	-8281
▁복사	-8282
▁사귈	-8283
▁소모	-8284
▁싹싹	-8285
▁씅질	-8286
▁유난	-8287
▁음성	-8288
▁있제	-8289
▁장남	-8290
▁접수	-8291
▁최저	-8292
▁커버	-8293
▁펑펑	-8294
▁할께	-8295
▁할배	-8296
▁해연	-8297
레이드	-8298
▁갓인디	-8299
▁그른거	-8300
▁날매둥	-8301
▁느껴져	-8302
▁느껴졌	-8303
▁더랑께	-8304
▁라고요	-8305
▁미끄러	-8306
▁반굉일	-8307
▁아이다	-8308
▁오일장	-8309
▁워째문	-8310
▁정해진	-8311
▁중고차	-8312
▁지나간	-8313
▁쭈꾸미	-8314
▁코미디	-8315
▁학상이	-8316
▁한데요	-8317
▁마탕가지	-8318
▁사람이여	-8319
▁어거지로	-8320
▁굼	-8321
▁깼	-8322
▁뱈	-8323
▁쨍	-8324
래도	-8325
부인	-8326
제품	-8327
▁가매	-8328
▁가위	-8329
▁간섭	-8330
▁개와	-8331
▁거덜	-8332
▁거슬	-8333
▁겡찰	-8334
▁계좌	-8335
▁고냥	-8336
▁구라	-8337
▁기쁨	-8338
▁기절	-8339
▁꼬매	-8340
▁끌리	-8341
▁낯선	-8342
▁대본	-8343
▁댄다	-8344
▁떡국	-8345
▁마직	-8346
▁만취	-8347
▁말두	-8348
▁매콤	-8349
▁멕여	-8350
▁모였	-8351
▁발쌔	-8352
▁불이	-8353
▁빌라	-8354
▁사달	-8355
▁산지	-8356
▁성실	-8357
▁숟갈	-8358
▁아옵	-8359
▁알암	-8360
▁앞서	-8361
▁오마	-8362
▁의도	-8363
▁이우	-8364
▁제시	-8365
▁주머	-8366
▁차선	-8367
▁처제	-8368
▁캤었	-8369
▁패스	-8370
▁협박	-8371
▁호감	-8372
▁휘가	-8373
개보면	-8374
▁게메이	-8375
▁나이키	-8376
▁둘러보	-8377
▁바까야	-8378
▁살아왔	-8379
▁아파요	-8380
▁저번주	-8381
▁주무시	-8382
▁캐나다	-8383
▁큰소리	-8384
▁하당께	-8385
▁해야죠	-8386
어가주구	-8387
▁더라고이	-8388
▁맨들고이	-8389
▁생가개보면	-8390
▁뛸	-8391
▁뮬	-8392
▁웂	-8393
▁캉	-8394
그이	-8395
꺼풀	-8396
드마	-8397
뿌리	-8398
숭아	-8399
시네	-8400
인가	-8401
지름	-8402
처이	-8403
▁관객	-8404
▁구천	-8405
▁굴리	-8406
▁글믄	-8407
▁기상	-8408
▁내구	-8409
▁단골	-8410
▁닭발	-8411
▁당분	-8412
▁데기	-8413
▁데렌	-8414
▁동화	-8415
▁로워	-8416
▁리더	-8417
▁망고	-8418
▁먹잰	-8419
▁몸이	-8420
▁무심	-8421
▁바디	-8422
▁변경	-8423
▁별나	-8424
▁십쇼	-8425
▁썰매	-8426
▁애견	-8427
▁의하	-8428
▁장만	-8429
▁장식	-8430
▁재고	-8431
▁전연	-8432
▁접종	-8433
▁접촉	-8434
▁정의	-8435
▁조교	-8436
▁죽일	-8437
▁편견	-8438
▁해안	-8439
▁혈관	-8440
▁효율	-8441
▁그디가	-8442
▁그런께	-8443
▁그만쿰	-8444
▁바까서	-8445
▁색다른	-8446
▁앵간한	-8447
▁언니야	-8448
▁오놀이	-8449
▁유브이	-8450
▁은근히	-8451
▁조영이	-8452
▁천처이	-8453
▁헤어질	-8454
▁겨론하면	-8455
▁아메리카	-8456
▁슥	-8457
디션	-8458
랑이	-8459
말로	-8460
반찬	-8461
신히	-8462
트롤	-8463
▁구리	-8464
▁그곳	-8465
▁긍가	-8466
▁당첨	-8467
▁대끼	-8468
▁대세	-8469
▁동백	-8470
▁돼도	-8471
▁따시	-8472
▁멜론	-8473
▁모인	-8474
▁몰러	-8475
▁뱈에	-8476
▁보까	-8477
▁비자	-8478
▁사셨	-8479
▁살다	-8480
▁상추	-8481
▁소매	-8482
▁수건	-8483
▁시럽	-8484
▁시한	-8485
▁쓰여	-8486
▁왔댄	-8487
▁왕자	-8488
▁요령	-8489
▁용도	-8490
▁전에	-8491
▁진즉	-8492
▁취득	-8493
▁코치	-8494
▁트렌	-8495
▁파크	-8496
▁팔아	-8497
▁풍선	-8498
▁피지	-8499
▁합리	-8500
▁해소	-8501
▁현질	-8502
▁형사	-8503
라고이	-8504
이라두	-8505
▁나간다	-8506
▁막둥이	-8507
▁무지기	-8508
▁사우나	-8509
▁시금치	-8510
▁신다구	-8511
▁양배추	-8512
▁엄마영	-8513
▁영원히	-8514
▁우염한	-8515
▁을마나	-8516
▁이걸로	-8517
▁이어지	-8518
▁하거든	-8519
▁경해부난	-8520
▁그나따나	-8521
▁좋아하는디	-8522
▁캄	-8523
십이	-8524
아나	-8525
향이	-8526
▁감추	-8527
▁갔댄	-8528
▁고단	-8529
▁고딩	-8530
▁곤치	-8531
▁금지	-8532
▁낚수	-8533
▁날개	-8534
▁내고	-8535
▁동문	-8536
▁말랑	-8537
▁맞치	-8538
▁매너	-8539
▁맥히	-8540
▁먹구	-8541
▁못핸	-8542
▁뭐고	-8543
▁반팔	-8544
▁발톱	-8545
▁벌금	-8546
▁상했	-8547
▁수행	-8548
▁쓸모	-8549
▁여주	-8550
▁잡채	-8551
▁제법	-8552
▁존거	-8553
▁집값	-8554
▁차장	-8555
▁치민	-8556
▁할꼬	-8557
▁헌거	-8558
▁형성	-8559
라우마	-8560
봐신디	-8561
▁고고마	-8562
▁대해선	-8563
▁대핵교	-8564
▁도저히	-8565
▁마누라	-8566
▁말아사	-8567
▁모른디	-8568
▁소나이	-8569
▁쌍둥이	-8570
▁여신디	-8571
▁오케이	-8572
▁장단점	-8573
▁짤라서	-8574
▁트라우마	-8575
▁럭	-8576
▁붐	-8577
같이	-8578
공일	-8579
내리	-8580
따가	-8581
서방	-8582
을라	-8583
지다	-8584
키다	-8585
하난	-8586
▁갑다	-8587
▁구미	-8588
▁그레	-8589
▁그새	-8590
▁기후	-8591
▁까칠	-8592
▁난두	-8593
▁닝게	-8594
▁더블	-8595
▁두렵	-8596
▁막혀	-8597
▁모리	-8598
▁모은	-8599
▁보냉	-8600
▁뻔뻔	-8601
▁셨었	-8602
▁순진	-8603
▁안다	-8604
▁없어	-8605
▁여적	-8606
▁연어	-8607
▁염증	-8608
▁영웅	-8609
▁오직	-8610
▁으모	-8611
▁이문	-8612
▁입력	-8613
▁입혀	-8614
▁전신	-8615
▁제정	-8616
▁주저	-8617
▁줄께	-8618
▁쳐야	-8619
▁통증	-8620
▁팔뚝	-8621
▁한방	-8622
▁해물	-8623
▁횟집	-8624
▁건조기	-8625
▁나아가	-8626
▁내시경	-8627
▁너갱이	-8628
▁놀이터	-8629
▁누군데	-8630
▁달구리	-8631
▁뛰어나	-8632
▁살아나	-8633
▁숟가락	-8634
▁안녕히	-8635
▁여개다	-8636
▁올게요	-8637
▁워낙에	-8638
▁으실까	-8639
▁을매나	-8640
▁입으믄	-8641
▁지집아	-8642
▁컨트롤	-8643
▁태어난	-8644
▁한국어	-8645
▁화요일	-8646
▁드릴께요	-8647
▁뭐라고이	-8648
▁시어멍이	-8649
▁처음엔이	-8650
▁엘리베이터	-8651
▁댈	-8652
▁뒁	-8653
▁픈	-8654
것다	-8655
꾸기	-8656
어든	-8657
윽을	-8658
이즈	-8659
자기	-8660
절루	-8661
허난	-8662
▁가래	-8663
▁갖다	-8664
▁거드	-8665
▁게나	-8666
▁공인	-8667
▁구운	-8668
▁꺼꿀	-8669
▁꼬마	-8670
▁나기	-8671
▁나유	-8672
▁노출	-8673
▁달이	-8674
▁대여	-8675
▁더가	-8676
▁따져	-8677
▁뜨겁	-8678
▁랜드	-8679
▁모질	-8680
▁문신	-8681
▁미칠	-8682
▁방구	-8683
▁버련	-8684
▁사가	-8685
▁사여	-8686
▁생신	-8687
▁세수	-8688
▁수원	-8689
▁시무	-8690
▁실실	-8691
▁야근	-8692
▁영한	-8693
▁유부	-8694
▁육만	-8695
▁입금	-8696
▁장어	-8697
▁장학	-8698
▁점프	-8699
▁조화	-8700
▁질구	-8701
▁찜질	-8702
▁차렸	-8703
▁캐서	-8704
▁콩질	-8705
▁쿠팡	-8706
▁피파	-8707
▁한끄	-8708
▁한자	-8709
▁회산	-8710
▁게윽을	-8711
▁디즈니	-8712
▁무릎고	-8713
▁문제점	-8714
▁바이올	-8715
▁베이스	-8716
▁보기느	-8717
▁예자가	-8718
▁은그이	-8719
▁읍디다	-8720
▁일어낭	-8721
▁플라스	-8722
▁꼬춧가루	-8723
▁때마다이	-8724
▁샌드위치	-8725
▁아방안티	-8726
▁으셨어요	-8727
▁이서부난	-8728
▁쪼매이만	-8729
▁한끄번에	-8730
▁꺽	-8731
▁꼈	-8732
▁넝	-8733
▁솨	-8734
그리	-8735
든데	-8736
부댁	-8737
사자	-8738
이난	-8739
재주	-8740
▁가불	-8741
▁간판	-8742
▁갈쳐	-8743
▁공통	-8744
▁구루	-8745
▁깜장	-8746
▁내성	-8747
▁냐는	-8748
▁넘쳐	-8749
▁노는	-8750
▁는께	-8751
▁다큐	-8752
▁독하	-8753
▁머신	-8754
▁바구	-8755
▁번거	-8756
▁부루	-8757
▁부상	-8758
▁불려	-8759
▁뷔페	-8760
▁사노	-8761
▁사와	-8762
▁상그	-8763
▁세련	-8764
▁수명	-8765
▁수습	-8766
▁시크	-8767
▁식감	-8768
▁안개	-8769
▁압박	-8770
▁옥상	-8771
▁요래	-8772
▁우도	-8773
▁응답	-8774
▁인삼	-8775
▁인수	-8776
▁정직	-8777
▁죽언	-8778
▁청약	-8779
▁출연	-8780
▁컬러	-8781
▁팔자	-8782
▁포즈	-8783
▁해군	-8784
▁해피	-8785
▁홈치	-8786
▁후드	-8787
라부난	-8788
▁관해서	-8789
▁껌정색	-8790
▁돌려주	-8791
▁돌아갈	-8792
▁예자들	-8793
▁올리브	-8794
▁운전병	-8795
▁즉어두	-8796
▁찾아왔	-8797
▁컨디션	-8798
▁햄더라	-8799
▁많드라고	-8800
▁플라스틱	-8801
▁무릎고벵이	-8802
▁죙	-8803
▁횡	-8804
각시	-8805
꺼비	-8806
띠기	-8807
배우	-8808
봅서	-8809
의자	-8810
▁간헐	-8811
▁개고	-8812
▁게울	-8813
▁겹치	-8814
▁고루	-8815
▁공식	-8816
▁기질	-8817
▁노려	-8818
▁누님	-8819
▁다물	-8820
▁동그	-8821
▁들긴	-8822
▁먹엄	-8823
▁메밀	-8824
▁박수	-8825
▁별론	-8826
▁복상	-8827
▁복장	-8828
▁불쾌	-8829
▁삐삐	-8830
▁사연	-8831
▁산소	-8832
▁상해	-8833
▁선선	-8834
▁심상	-8835
▁아랑	-8836
▁않아	-8837
▁어치	-8838
▁예고	-8839
▁요쪽	-8840
▁요쯤	-8841
▁으메	-8842
▁작곡	-8843
▁재재	-8844
▁전투	-8845
▁정학	-8846
▁즈이	-8847
▁집사	-8848
▁착상	-8849
▁첨에	-8850
▁체인	-8851
▁허무	-8852
▁혼처	-8853
▁나타난	-8854
▁낭반이	-8855
▁딸래미	-8856
▁멩게로	-8857
▁바나나	-8858
▁뻐꾸기	-8859
▁아짐부	-8860
▁오민서	-8861
▁이적때	-8862
▁재미난	-8863
▁집어넣	-8864
▁추천혀	-8865
▁파이브	-8866
▁오라부댁	-8867
▁솟	-8868
▁잽	-8869
▁쫘	-8870
▁쿰	-8871
갈그	-8872
게티	-8873
더만	-8874
돌이	-8875
보리	-8876
시럽	-8877
주얼	-8878
짐치	-8879
▁가든	-8880
▁가봥	-8881
▁걸으	-8882
▁검찰	-8883
▁골치	-8884
▁관람	-8885
▁교대	-8886
▁군산	-8887
▁기장	-8888
▁끓였	-8889
▁나나	-8890
▁는대	-8891
▁데다	-8892
▁뜨개	-8893
▁라마	-8894
▁레드	-8895
▁마커	-8896
▁매출	-8897
▁못난	-8898
▁배차	-8899
▁배치	-8900
▁벗어	-8901
▁보살	-8902
▁본사	-8903
▁봉지	-8904
▁빠마	-8905
▁빼놓	-8906
▁빼먹	-8907
▁사례	-8908
▁사운	-8909
▁설계	-8910
▁설렁	-8911
▁스위	-8912
▁스펙	-8913
▁시게	-8914
▁아네	-8915
▁어만	-8916
▁억지	-8917
▁엔가	-8918
▁열려	-8919
▁온몸	-8920
▁우동	-8921
▁자러	-8922
▁절약	-8923
▁정류	-8924
▁진료	-8925
▁타격	-8926
▁터질	-8927
▁파워	-8928
▁할거	-8929
▁해장	-8930
▁형아	-8931
▁호떡	-8932
▁호수	-8933
▁휴식	-8934
▁경해난	-8935
▁그라머	-8936
▁그만뒀	-8937
▁서둘러	-8938
▁셔야죠	-8939
▁습니더	-8940
▁아야제	-8941
▁안해동	-8942
▁주머니	-8943
▁줄래요	-8944
▁머이라구	-8945
▁바이올린	-8946
▁정도로이	-8947
▁렸	-8948
▁윽	-8949
끄므	-8950
는게	-8951
래방	-8952
레르	-8953
리스	-8954
엑스	-8955
응께	-8956
잣집	-8957
▁가전	-8958
▁고리	-8959
▁니야	-8960
▁데뷔	-8961
▁돌렸	-8962
▁때난	-8963
▁리모	-8964
▁말쌈	-8965
▁목돈	-8966
▁발령	-8967
▁비즈	-8968
▁상위	-8969
▁샴푸	-8970
▁서빙	-8971
▁서핑	-8972
▁스승	-8973
▁시비	-8974
▁약이	-8975
▁없다	-8976
▁여라	-8977
▁예측	-8978
▁우아	-8979
▁이놈	-8980
▁이정	-8981
▁이하	-8982
▁자산	-8983
▁절차	-8984
▁정년	-8985
▁지혜	-8986
▁창피	-8987
▁챙길	-8988
▁출산	-8989
▁치미	-8990
▁친군	-8991
▁했노	-8992
▁화상	-8993
▁화학	-8994
▁화해	-8995
▁겨론을	-8996
▁경허고	-8997
▁내보내	-8998
▁돌아온	-8999
▁될랑가	-9000
▁로래방	-9001
▁모처럼	-9002
▁목도리	-9003
▁비끄므	-9004
▁살아난	-9005
▁살아남	-9006
▁시집가	-9007
▁알레르	-9008
▁어린애	-9009
▁오는디	-9010
▁요양원	-9011
▁유재석	-9012
▁있주게	-9013
▁몰라부난	-9014
▁야야라이	-9015
▁비끄므리한	-9016
▁오라버이가	-9017
가스	-9018
시민	-9019
제기	-9020
▁가다	-9021
▁건거	-9022
▁겁내	-9023
▁고랐	-9024
▁고쪽	-9025
▁근로	-9026
▁기아	-9027
▁꺼져	-9028
▁내불	-9029
▁니기	-9030
▁되사	-9031
▁뒤지	-9032
▁많네	-9033
▁무언	-9034
▁민족	-9035
▁바위	-9036
▁반영	-9037
▁보말	-9038
▁시라	-9039
▁심그	-9040
▁엄악	-9041
▁유머	-9042
▁으멘	-9043
▁이소	-9044
▁이응	-9045
▁이치	-9046
▁일당	-9047
▁지라	-9048
▁지옥	-9049
▁지출	-9050
▁차릴	-9051
▁참가	-9052
▁취했	-9053
▁쿠폰	-9054
▁하매	-9055
▁한숨	-9056
▁화난	-9057
러워서	-9058
▁동상이	-9059
▁메이플	-9060
▁목요일	-9061
▁부택이	-9062
▁브레이	-9063
▁운동화	-9064
▁이십사	-9065
▁적당히	-9066
▁즐거움	-9067
▁한마두	-9068
▁에이에스	-9069
▁이탈리아	-9070
▁트레이닝	-9071
▁뎁	-9072
금사	-9073
버섯	-9074
오라	-9075
월드	-9076
지도	-9077
짼지	-9078
▁가터	-9079
▁견딜	-9080
▁기한	-9081
▁깝깝	-9082
▁꺼라	-9083
▁끼워	-9084
▁나대	-9085
▁뚜껍	-9086
▁로써	-9087
▁마마	-9088
▁매형	-9089
▁몰아	-9090
▁뭔디	-9091
▁반전	-9092
▁발러	-9093
▁버르	-9094
▁비참	-9095
▁실프	-9096
▁않나	-9097
▁울려	-9098
▁유자	-9099
▁저금	-9100
▁전북	-9101
▁줘두	-9102
▁찐한	-9103
▁차가	-9104
▁통제	-9105
▁후딱	-9106
▁흔하	-9107
▁경허믄	-9108
▁더군요	-9109
▁데려다	-9110
▁데려오	-9111
▁뚜꺼운	-9112
▁모십이	-9113
▁배워야	-9114
▁부잣집	-9115
▁생각했	-9116
▁소용없	-9117
▁손바닥	-9118
▁요리사	-9119
▁우짼지	-9120
▁유전자	-9121
▁하잖여	-9122
▁해시난	-9123
▁그러드라	-9124
▁머이하는	-9125
▁스트레스가	-9126
▁셰	-9127
▁쩜	-9128
▁쭌	-9129
▁찻	-9130
▁콕	-9131
▁쿼	-9132
국장	-9133
땍이	-9134
래미	-9135
물러	-9136
수고	-9137
이크	-9138
▁검토	-9139
▁고사	-9140
▁관두	-9141
▁국국	-9142
▁궤기	-9143
▁기온	-9144
▁기울	-9145
▁기이	-9146
▁깔아	-9147
▁내라	-9148
▁냉정	-9149
▁노랑	-9150
▁농약	-9151
▁대강	-9152
▁돌봐	-9153
▁동전	-9154
▁드간	-9155
▁때여	-9156
▁래서	-9157
▁메인	-9158
▁모밀	-9159
▁무뚝	-9160
▁뭐행	-9161
▁반짝	-9162
▁법이	-9163
▁산께	-9164
▁소위	-9165
▁시이	-9166
▁싸구	-9167
▁어뗘	-9168
▁엔진	-9169
▁여지	-9170
▁연탄	-9171
▁우와	-9172
▁임대	-9173
▁잔말	-9174
▁조끔	-9175
▁주라	-9176
▁취한	-9177
▁통영	-9178
▁하곤	-9179
카부댄	-9180
▁가부난	-9181
▁기생충	-9182
▁드라두	-9183
▁배우자	-9184
▁사생활	-9185
▁신기하	-9186
▁쌍꺼풀	-9187
▁여개가	-9188
▁월드컵	-9189
▁은애이	-9190
▁잊어먹	-9191
▁장마철	-9192
▁지켜야	-9193
▁찾아볼	-9194
▁청국장	-9195
▁크리스	-9196
▁키보드	-9197
▁하와이	-9198
▁해보고	-9199
▁고등핵교	-9200
▁그렇드라	-9201
▁아입니다	-9202
▁왜냐면은	-9203
▁굉	-9204
▁꿨	-9205
▁삥	-9206
▁쯧	-9207
그릇	-9208
때기	-9209
미리	-9210
어드	-9211
엄마	-9212
천지	-9213
하기	-9214
▁가메	-9215
▁갈리	-9216
▁걸치	-9217
▁고간	-9218
▁공중	-9219
▁권리	-9220
▁글루	-9221
▁기나	-9222
▁냅둬	-9223
▁냉이	-9224
▁놔도	-9225
▁다쳐	-9226
▁달랑	-9227
▁대민	-9228
▁더럽	-9229
▁도세	-9230
▁동일	-9231
▁들릴	-9232
▁디이	-9233
▁뚝딱	-9234
▁맹질	-9235
▁멜로	-9236
▁명언	-9237
▁몇몇	-9238
▁뭐랜	-9239
▁버텨	-9240
▁복학	-9241
▁봅써	-9242
▁비니	-9243
▁빨개	-9244
▁사인	-9245
▁살찐	-9246
▁섞여	-9247
▁설사	-9248
▁세부	-9249
▁소야	-9250
▁손자	-9251
▁싶노	-9252
▁썰어	-9253
▁아즈	-9254
▁애국	-9255
▁얌전	-9256
▁언론	-9257
▁여가	-9258
▁영노	-9259
▁욕구	-9260
▁유아	-9261
▁이익	-9262
▁이차	-9263
▁인문	-9264
▁인스	-9265
▁임영	-9266
▁자래	-9267
▁재방	-9268
▁정답	-9269
▁정비	-9270
▁진공	-9271
▁천상	-9272
▁체격	-9273
▁풀렸	-9274
▁허니	-9275
▁흡수	-9276
가지구	-9277
▁나와야	-9278
▁누그나	-9279
▁닭갈비	-9280
▁디스크	-9281
▁똑땍이	-9282
▁라는데	-9283
▁맛있언	-9284
▁무조끈	-9285
▁보호자	-9286
▁사램과	-9287
▁상품권	-9288
▁스타트	-9289
▁싫어하	-9290
▁얘기햐	-9291
▁어울린	-9292
▁없으문	-9293
▁움석을	-9294
▁즐거웠	-9295
▁했어도	-9296
▁했었잖	-9297
▁사램들두	-9298
▁오라버이랑	-9299
▁돔	-9300
▁벳	-9301
가난	-9302
꼬박	-9303
벌레	-9304
스름	-9305
허여	-9306
▁감명	-9307
▁견뎌	-9308
▁공복	-9309
▁귀하	-9310
▁그닷	-9311
▁꿈꾸	-9312
▁나뉘	-9313
▁너라	-9314
▁농협	-9315
▁달랜	-9316
▁돌앙	-9317
▁되노	-9318
▁두리	-9319
▁뒤통	-9320
▁드실	-9321
▁라드	-9322
▁라떼	-9323
▁머니	-9324
▁모당	-9325
▁뭐시	-9326
▁민간	-9327
▁보면	-9328
▁보세	-9329
▁부품	-9330
▁분류	-9331
▁손발	-9332
▁수당	-9333
▁수저	-9334
▁숙박	-9335
▁쌓인	-9336
▁아울	-9337
▁아트	-9338
▁양치	-9339
▁여길	-9340
▁외박	-9341
▁용어	-9342
▁익히	-9343
▁일식	-9344
▁잉께	-9345
▁잔떡	-9346
▁적절	-9347
▁중식	-9348
▁집단	-9349
▁찬물	-9350
▁찹쌀	-9351
▁치가	-9352
▁탈색	-9353
▁탕수	-9354
▁편찮	-9355
▁폭풍	-9356
▁프라	-9357
▁해마	-9358
▁허운	-9359
▁혼인	-9360
▁홍삼	-9361
으니까	-9362
▁넘어졌	-9363
▁단다이	-9364
▁마주치	-9365
▁무뚝뚝	-9366
▁무지하	-9367
▁밑반찬	-9368
▁사랭이	-9369
▁살아갈	-9370
▁새각시	-9371
▁습디다	-9372
▁알바비	-9373
▁엉덩이	-9374
▁여동상	-9375
▁외국어	-9376
▁으려고	-9377
▁쪼그만	-9378
▁꼬박꼬박	-9379
▁된장찌개	-9380
▁트레이너	-9381
▁해나신디	-9382
▁눔	-9383
▁떄	-9384
▁벙	-9385
▁뾰	-9386
글지	-9387
긴다	-9388
나서	-9389
당예	-9390
스틱	-9391
▁가신	-9392
▁가잰	-9393
▁감염	-9394
▁경장	-9395
▁구월	-9396
▁그먼	-9397
▁깡패	-9398
▁끓일	-9399
▁냄겨	-9400
▁늘리	-9401
▁동원	-9402
▁따구	-9403
▁떠서	-9404
▁무덤	-9405
▁박보	-9406
▁병장	-9407
▁본격	-9408
▁부댄	-9409
▁부츠	-9410
▁세종	-9411
▁소지	-9412
▁소형	-9413
▁써두	-9414
▁아판	-9415
▁야인	-9416
▁어래	-9417
▁어메	-9418
▁여인	-9419
▁온갖	-9420
▁외동	-9421
▁원룸	-9422
▁으응	-9423
▁은혜	-9424
▁의리	-9425
▁이견	-9426
▁이승	-9427
▁인두	-9428
▁일리	-9429
▁입어	-9430
▁제기	-9431
▁조들	-9432
▁주관	-9433
▁지레	-9434
▁지배	-9435
▁질환	-9436
▁천장	-9437
▁최신	-9438
▁커필	-9439
▁키가	-9440
▁피워	-9441
▁하트	-9442
▁곹은거	-9443
▁그매이	-9444
▁났잖아	-9445
▁달래이	-9446
▁마음속	-9447
▁맞는디	-9448
▁벵원에	-9449
▁봅시다	-9450
▁부러운	-9451
▁불고기	-9452
▁서울대	-9453
▁성님도	-9454
▁아픈디	-9455
▁임영웅	-9456
▁장거리	-9457
▁장례식	-9458
▁조미료	-9459
▁진다고	-9460
▁타이어	-9461
▁한대는	-9462
▁해병대	-9463
▁그러드만	-9464
▁몰라도이	-9465
▁아방이영	-9466
▁어떠세요	-9467
▁해부니까	-9468
▁깅	-9469
▁샷	-9470
▁쫀	-9471
▁쫑	-9472
▁챠	-9473
느냐	-9474
동원	-9475
르몬	-9476
리티	-9477
모습	-9478
무시	-9479
믄서	-9480
바다	-9481
봐도	-9482
하루	-9483
▁강조	-9484
▁걸립	-9485
▁게을	-9486
▁계급	-9487
▁고선	-9488
▁골앙	-9489
▁군디	-9490
▁규정	-9491
▁까만	-9492
▁깨닫	-9493
▁깨우	-9494
▁네꾸	-9495
▁놨두	-9496
▁느려	-9497
▁니는	-9498
▁닮댄	-9499
▁돌이	-9500
▁뒤러	-9501
▁디스	-9502
▁렌즈	-9503
▁롱도	-9504
▁마랑	-9505
▁부검	-9506
▁분홍	-9507
▁빌딩	-9508
▁사대	-9509
▁상승	-9510
▁성숙	-9511
▁성취	-9512
▁세븐	-9513
▁소극	-9514
▁소장	-9515
▁속옷	-9516
▁손수	-9517
▁악세	-9518
▁안에	-9519
▁야달	-9520
▁얼러	-9521
▁음주	-9522
▁이중	-9523
▁잉게	-9524
▁자켓	-9525
▁정체	-9526
▁주전	-9527
▁줸이	-9528
▁질까	-9529
▁쭉쭉	-9530
▁천사	-9531
▁트위	-9532
▁포항	-9533
▁행운	-9534
▁후보	-9535
아버지	-9536
▁간다는	-9537
▁갑시다	-9538
▁걸어서	-9539
▁귀빠진	-9540
▁그런데	-9541
▁까챙이	-9542
▁나아지	-9543
▁다이아	-9544
▁달려가	-9545
▁드가서	-9546
▁면서두	-9547
▁무거워	-9548
▁벌어지	-9549
▁산다는	-9550
▁생일날	-9551
▁손재주	-9552
▁어멍네	-9553
▁여저히	-9554
▁요망진	-9555
▁용의자	-9556
▁이기도	-9557
▁전화기	-9558
▁짜장면	-9559
▁해신가	-9560
▁호르몬	-9561
▁그때부텀	-9562
▁네꾸다이	-9563
▁떨어져서	-9564
▁아부지두	-9565
▁한다니까	-9566
▁갯	-9567
▁왁	-9568
가잉	-9569
루운	-9570
바탕	-9571
백이	-9572
벌이	-9573
불호	-9574
붓가	-9575
으이	-9576
카이	-9577
▁가나	-9578
▁가먼	-9579
▁간댄	-9580
▁간덴	-9581
▁간병	-9582
▁간편	-9583
▁걸요	-9584
▁깨워	-9585
▁나빴	-9586
▁남주	-9587
▁너거	-9588
▁농장	-9589
▁다름	-9590
▁달콤	-9591
▁당이	-9592
▁독한	-9593
▁돌릴	-9594
▁동거	-9595
▁드럼	-9596
▁레벨	-9597
▁레슨	-9598
▁로션	-9599
▁막막	-9600
▁말린	-9601
▁머라	-9602
▁몰개	-9603
▁무르	-9604
▁문어	-9605
▁보물	-9606
▁복귀	-9607
▁부도	-9608
▁부주	-9609
▁불렁	-9610
▁사믄	-9611
▁사민	-9612
▁성산	-9613
▁수비	-9614
▁수육	-9615
▁수확	-9616
▁신게	-9617
▁여심	-9618
▁연도	-9619
▁외제	-9620
▁요전	-9621
▁위생	-9622
▁의학	-9623
▁자르	-9624
▁자지	-9625
▁잖냐	-9626
▁재우	-9627
▁저이	-9628
▁전망	-9629
▁접때	-9630
▁찔러	-9631
▁청주	-9632
▁츰이	-9633
▁카고	-9634
▁통일	-9635
▁편했	-9636
▁가자구	-9637
▁게스트	-9638
▁고속도	-9639
▁과학자	-9640
▁껌은색	-9641
▁다고요	-9642
▁다더니	-9643
▁달라질	-9644
▁당사자	-9645
▁라면은	-9646
▁말인디	-9647
▁보리밥	-9648
▁부러웠	-9649
▁사무님	-9650
▁시어매	-9651
▁아마도	-9652
▁알아볼	-9653
▁어떵할	-9654
▁오래비	-9655
▁째끄만	-9656
▁토마토	-9657
▁해붓가	-9658
▁호불호	-9659
▁계십니까	-9660
▁돌아다녀	-9661
▁해리포터	-9662
▁해보고졍	-9663
▁귓	-9664
▁윈	-9665
▁퀴	-9666
▁훑	-9667
데로	-9668
들여	-9669
의원	-9670
타리	-9671
해요	-9672
▁가랜	-9673
▁가셔	-9674
▁금융	-9675
▁기카	-9676
▁냄기	-9677
▁도마	-9678
▁뛰뛰	-9679
▁래면	-9680
▁맞춘	-9681
▁매지	-9682
▁먹당	-9683
▁문장	-9684
▁뮤직	-9685
▁방영	-9686
▁방치	-9687
▁버텀	-9688
▁벌렁	-9689
▁분기	-9690
▁비틀	-9691
▁서든	-9692
▁성과	-9693
▁스터	-9694
▁야경	-9695
▁억질	-9696
▁옷장	-9697
▁욕실	-9698
▁원서	-9699
▁위반	-9700
▁으르	-9701
▁이뻤	-9702
▁인격	-9703
▁인종	-9704
▁일제	-9705
▁임시	-9706
▁장수	-9707
▁재난	-9708
▁정작	-9709
▁제철	-9710
▁준댄	-9711
▁지목	-9712
▁징하	-9713
▁짝을	-9714
▁쪽팔	-9715
▁찌르	-9716
▁찌질	-9717
▁차트	-9718
▁찬차	-9719
▁참이	-9720
▁챙견	-9721
▁처녀	-9722
▁치아	-9723
▁팔월	-9724
▁페시	-9725
▁편혀	-9726
▁행위	-9727
▁향신	-9728
▁헌댄	-9729
▁흔한	-9730
어부난	-9731
▁가차운	-9732
▁거우다	-9733
▁그러까	-9734
▁남동상	-9735
▁누그야	-9736
▁두려워	-9737
▁볼까요	-9738
▁소비자	-9739
▁신세계	-9740
▁쓰러져	-9741
▁얌저이	-9742
▁이응감	-9743
▁젊은이	-9744
▁탕수육	-9745
▁프리미	-9746
▁할께요	-9747
▁힘든데	-9748
▁나온다고	-9749
▁들으가구	-9750
▁마이너스	-9751
▁브레이크	-9752
▁빠져나가	-9753
▁시아부지	-9754
▁아닌가요	-9755
▁초등학고	-9756
▁허운데기	-9757
▁1	-9758
▁끙	-9759
▁맷	-9760
두부	-9761
마리	-9762
발리	-9763
빵빵	-9764
이랑	-9765
이언	-9766
친다	-9767
한댄	-9768
한데	-9769
▁가본	-9770
▁거두	-9771
▁걸쳐	-9772
▁교류	-9773
▁기프	-9774
▁까리	-9775
▁꼽슬	-9776
▁너야	-9777
▁녹차	-9778
▁느린	-9779
▁다간	-9780
▁더울	-9781
▁돌보	-9782
▁동반	-9783
▁등장	-9784
▁때릴	-9785
▁마스	-9786
▁맞안	-9787
▁명령	-9788
▁물으	-9789
▁물회	-9790
▁미깡	-9791
▁백마	-9792
▁보안	-9793
▁비쌌	-9794
▁비유	-9795
▁사마	-9796
▁사모	-9797
▁살민	-9798
▁샀었	-9799
▁센스	-9800
▁송이	-9801
▁수시	-9802
▁숨기	-9803
▁시력	-9804
▁실려	-9805
▁실테	-9806
▁없었	-9807
▁였을	-9808
▁영광	-9809
▁와두	-9810
▁완결	-9811
▁워터	-9812
▁잊혀	-9813
▁작동	-9814
▁재판	-9815
▁전략	-9816
▁전지	-9817
▁정거	-9818
▁조립	-9819
▁진두	-9820
▁충청	-9821
▁파인	-9822
▁푸대	-9823
▁필름	-9824
▁휴지	-9825
▁흘려	-9826
▁그믄은	-9827
▁냄살이	-9828
▁넘어간	-9829
▁드라만	-9830
▁드러운	-9831
▁무언가	-9832
▁버려야	-9833
▁베스트	-9834
▁사라진	-9835
▁오피스	-9836
▁외삼춘	-9837
▁이십이	-9838
▁줄라구	-9839
▁책임지	-9840
▁추운데	-9841
▁케이블	-9842
▁트위터	-9843
▁학부모	-9844
▁할망들	-9845
▁뛰뛰빵빵	-9846
▁라니까요	-9847
▁주무세요	-9848
▁아메리카노	-9849
▁듀	-9850
▁얽	-9851
▁텀	-9852
가다	-9853
구마	-9854
까진	-9855
눈썹	-9856
라기	-9857
럼프	-9858
매기	-9859
메기	-9860
서이	-9861
애비	-9862
▁간절	-9863
▁게시	-9864
▁겠어	-9865
▁고쳤	-9866
▁골고	-9867
▁균형	-9868
▁그렜	-9869
▁기네	-9870
▁꽂혀	-9871
▁꽃다	-9872
▁나예	-9873
▁난개	-9874
▁남잔	-9875
▁내세	-9876
▁누웠	-9877
▁동작	-9878
▁때이	-9879
▁리스	-9880
▁막힌	-9881
▁말간	-9882
▁버전	-9883
▁베풀	-9884
▁불빛	-9885
▁수십	-9886
▁스쿠	-9887
▁시카	-9888
▁신분	-9889
▁쏟아	-9890
▁애껴	-9891
▁여권	-9892
▁예뻤	-9893
▁오다	-9894
▁온대	-9895
▁와봐	-9896
▁용건	-9897
▁우시	-9898
▁울음	-9899
▁위안	-9900
▁위장	-9901
▁육체	-9902
▁인강	-9903
▁일시	-9904
▁있이	-9905
▁자본	-9906
▁자원	-9907
▁잠옷	-9908
▁젠부	-9909
▁조이	-9910
▁지상	-9911
▁지이	-9912
▁진작	-9913
▁짤랐	-9914
▁채팅	-9915
▁취해	-9916
▁츳날	-9917
▁푸른	-9918
▁해운	-9919
▁핸들	-9920
▁힘내	-9921
데이트	-9922
수다게	-9923
▁갈수룩	-9924
▁구루마	-9925
▁다니깐	-9926
▁대놓고	-9927
▁덩어리	-9928
▁드러내	-9929
▁라이트	-9930
▁마따나	-9931
▁망가지	-9932
▁물려받	-9933
▁바가지	-9934
▁소개팅	-9935
▁스피커	-9936
▁아울렛	-9937
▁어두운	-9938
▁여드름	-9939
▁오디션	-9940
▁읍니까	-9941
▁이서난	-9942
▁헷갈리	-9943
▁헷수고	-9944
▁고춧가루	-9945
▁들으면서	-9946
▁늑	-9947
▁폈	-9948
▁휩	-9949
구먼	-9950
돗개	-9951
랭은	-9952
비슷	-9953
았댄	-9954
펜네	-9955
했댄	-9956
회전	-9957
▁까짐	-9958
▁깔려	-9959
▁나면	-9960
▁낭중	-9961
▁노리	-9962
▁드물	-9963
▁란다	-9964
▁매점	-9965
▁면세	-9966
▁몸뚱	-9967
▁무릅	-9968
▁발랐	-9969
▁비켜	-9970
▁비판	-9971
▁사신	-9972
▁살릴	-9973
▁상점	-9974
▁서점	-9975
▁시사	-9976
▁실컷	-9977
▁안쪽	-9978
▁언덕	-9979
▁여건	-9980
▁우예	-9981
▁우정	-9982
▁유혹	-9983
▁이랴	-9984
▁임이	-9985
▁자자	-9986
▁저울	-9987
▁좋긴	-9988
▁지고	-9989
▁채식	-9990
▁푸드	-9991
▁향기	-9992
▁화토	-9993
▁강생이	-9994
▁고벵이	-9995
▁그르치	-9996
▁글타구	-9997
▁더니만	-9998
▁더라면	-9999
▁돌아간	-10000
▁되겄다	-10001
▁마옴을	-10002
▁먹어봔	-10003
▁모자라	-10004
▁반공일	-10005
▁배고픈	-10006
▁어두워	-10007
▁으신가	-10008
▁정학히	-10009
▁증말이	-10010
▁진돗개	-10011
▁징그럽	-10012
▁털어놓	-10013
▁할수록	-10014
▁향신료	-10015
▁알레르기	-10016
▁에서부터	-10017
▁자체가이	-10018
▁괸	-10019
▁뗘	-10020
▁럼	-10021
꿉다	-10022
다녔	-10023
답시	-10024
렘이	-10025
맨치	-10026
미터	-10027
붙이	-10028
연히	-10029
▁가드	-10030
▁경고	-10031
▁고뿔	-10032
▁기왕	-10033
▁내복	-10034
▁늘려	-10035
▁답장	-10036
▁더냐	-10037
▁두껍	-10038
▁둬야	-10039
▁문대	-10040
▁뭐영	-10041
▁미인	-10042
▁발레	-10043
▁밥맛	-10044
▁불평	-10045
▁사월	-10046
▁산타	-10047
▁새싹	-10048
▁서브	-10049
▁설문	-10050
▁소송	-10051
▁시체	-10052
▁식전	-10053
▁썼었	-10054
▁어둡	-10055
▁엔딩	-10056
▁여럿	-10057
▁연봉	-10058
▁영감	-10059
▁오를	-10060
▁우려	-10061
▁위쪽	-10062
▁잡힌	-10063
▁재질	-10064
▁저딴	-10065
▁참으	-10066
▁천국	-10067
▁청양	-10068
▁체하	-10069
▁츰엔	-10070
▁파스	-10071
▁폭발	-10072
▁합병	-10073
▁해본	-10074
▁허나	-10075
▁흐리	-10076
니대이	-10077
였는디	-10078
이이까	-10079
▁가리키	-10080
▁가벼워	-10081
▁갈라믄	-10082
▁경기장	-10083
▁그글지	-10084
▁내부러	-10085
▁모르클	-10086
▁물어봔	-10087
▁복숭아	-10088
▁사랭은	-10089
▁속눈썹	-10090
▁신천지	-10091
▁양아치	-10092
▁어쩌구	-10093
▁우체국	-10094
▁으려면	-10095
▁이학년	-10096
▁일으키	-10097
▁자야가	-10098
▁재없이	-10099
▁지넹이	-10100
▁초록색	-10101
▁갈라면은	-10102
▁다니까요	-10103
▁사람이영	-10104
▁아부지가	-10105
▁아파트이	-10106
▁영해신디	-10107
▁그글지마나	-10108
▁퓨	-10109
걸음	-10110
디가	-10111
락산	-10112
보고	-10113
사주	-10114
퇴근	-10115
포트	-10116
한텐	-10117
▁가부	-10118
▁거야	-10119
▁관점	-10120
▁괘안	-10121
▁괜한	-10122
▁괴물	-10123
▁금합	-10124
▁끊기	-10125
▁네모	-10126
▁노하	-10127
▁닮안	-10128
▁담가	-10129
▁담백	-10130
▁담양	-10131
▁딸내	-10132
▁래미	-10133
▁리터	-10134
▁만구	-10135
▁모구	-10136
▁모니	-10137
▁무이	-10138
▁비난	-10139
▁뺄라	-10140
▁생존	-10141
▁손실	-10142
▁승진	-10143
▁신상	-10144
▁싱글	-10145
▁오드	-10146
▁와도	-10147
▁우러	-10148
▁일구	-10149
▁잡지	-10150
▁전개	-10151
▁져요	-10152
▁조근	-10153
▁짤렸	-10154
▁첫눈	-10155
▁코너	-10156
▁토하	-10157
▁통계	-10158
▁투명	-10159
▁해구	-10160
▁해볼	-10161
▁해봔	-10162
▁허단	-10163
▁혼수	-10164
▁회관	-10165
니데이	-10166
스러운	-10167
어머이	-10168
▁갑대이	-10169
▁갔다왔	-10170
▁건드리	-10171
▁고마웠	-10172
▁그리워	-10173
▁났거든	-10174
▁라이브	-10175
▁매달리	-10176
▁못하켄	-10177
▁배터리	-10178
▁생기믄	-10179
▁손고락	-10180
▁스크린	-10181
▁오렌지	-10182
▁온쥉일	-10183
▁으데로	-10184
▁으라는	-10185
▁이가이	-10186
▁있당예	-10187
▁학생회	-10188
▁안타까워	-10189
▁인두꺼비	-10190
▁찾아가꼬	-10191
▁하루하루	-10192
▁한다던가	-10193
▁혹시라두	-10194
▁제주도도이	-10195
▁주목등거리	-10196
▁똣	-10197
▁웁	-10198
님이	-10199
더기	-10200
른다	-10201
면이	-10202
본께	-10203
어마	-10204
으러	-10205
▁감싸	-10206
▁과실	-10207
▁권력	-10208
▁급여	-10209
▁난증	-10210
▁노물	-10211
▁논문	-10212
▁담궈	-10213
▁대두	-10214
▁또똣	-10215
▁만이	-10216
▁무늬	-10217
▁무로	-10218
▁물품	-10219
▁민주	-10220
▁반납	-10221
▁벨그	-10222
▁불면	-10223
▁비누	-10224
▁비료	-10225
▁사니	-10226
▁숯불	-10227
▁식기	-10228
▁실감	-10229
▁아다	-10230
▁앉혀	-10231
▁양이	-10232
▁업그	-10233
▁엔간	-10234
▁열렸	-10235
▁외가	-10236
▁은퇴	-10237
▁이외	-10238
▁인난	-10239
▁잠바	-10240
▁장민	-10241
▁제부	-10242
▁지면	-10243
▁집세	-10244
▁짱구	-10245
▁찡자	-10246
▁칠만	-10247
▁터미	-10248
▁툭툭	-10249
▁허전	-10250
▁화났	-10251
보다이	-10252
지마잉	-10253
▁거시기	-10254
▁겅허믄	-10255
▁괜찮댄	-10256
▁그따구	-10257
▁또이또	-10258
▁만화방	-10259
▁바쁜디	-10260
▁반가워	-10261
▁산다구	-10262
▁시누이	-10263
▁아까운	-10264
▁알아본	-10265
▁야이가	-10266
▁어려우	-10267
▁언니영	-10268
▁자신감	-10269
▁출퇴근	-10270
▁그럼에도	-10271
▁기달려야	-10272
▁소나이라	-10273
▁않지마잉	-10274
▁없으이까	-10275
▁업그레이드	-10276
▁깬	-10277
▁뜩	-10278
▁휙	-10279
거덩	-10280
겄제	-10281
게이	-10282
린데	-10283
버릴	-10284
수수	-10285
으라	-10286
줘야	-10287
지능	-10288
하민	-10289
▁각오	-10290
▁거마	-10291
▁고란	-10292
▁구독	-10293
▁그쟈	-10294
▁기보	-10295
▁기저	-10296
▁기적	-10297
▁껭이	-10298
▁날까	-10299
▁느긋	-10300
▁단디	-10301
▁드노	-10302
▁라나	-10303
▁말렸	-10304
▁먹지	-10305
▁명장	-10306
▁뭘러	-10307
▁발언	-10308
▁번쩍	-10309
▁보완	-10310
▁뽂음	-10311
▁선뜻	-10312
▁소파	-10313
▁수선	-10314
▁승리	-10315
▁실물	-10316
▁아자	-10317
▁에버	-10318
▁영역	-10319
▁영혼	-10320
▁용량	-10321
▁이었	-10322
▁인증	-10323
▁전도	-10324
▁조연	-10325
▁주에	-10326
▁중성	-10327
▁증명	-10328
▁짐작	-10329
▁차운	-10330
▁천재	-10331
▁커트	-10332
▁한강	-10333
▁함서	-10334
▁호강	-10335
▁휴게	-10336
짜바리	-10337
▁가운디	-10338
▁고치장	-10339
▁괜차녀	-10340
▁그래유	-10341
▁기달렸	-10342
▁기별이	-10343
▁답니다	-10344
▁돌아와	-10345
▁먹으래	-10346
▁발바닥	-10347
▁사타구	-10348
▁스위스	-10349
▁아무거	-10350
▁운동회	-10351
▁유렘이	-10352
▁정류장	-10353
▁지나갈	-10354
▁찌지개	-10355
▁체육관	-10356
▁친해졌	-10357
▁파란색	-10358
▁한국사	-10359
▁햄신게	-10360
▁또이또이	-10361
▁생각했으	-10362
▁악세사리	-10363
▁인공지능	-10364
▁들어오신디	-10365
▁럽	-10366
▁벡	-10367
▁훅	-10368
게임	-10369
네미	-10370
대문	-10371
데리	-10372
보기	-10373
보믄	-10374
셔츠	-10375
소년	-10376
수기	-10377
자구	-10378
항께	-10379
했다	-10380
▁강박	-10381
▁기쁜	-10382
▁껴입	-10383
▁낮잠	-10384
▁내야	-10385
▁내향	-10386
▁노민	-10387
▁놀랍	-10388
▁는걸	-10389
▁대나	-10390
▁동성	-10391
▁드림	-10392
▁따듬	-10393
▁마날	-10394
▁마비	-10395
▁맛나	-10396
▁모을	-10397
▁문구	-10398
▁바쿠	-10399
▁변기	-10400
▁부추	-10401
▁분가	-10402
▁비지	-10403
▁빼고	-10404
▁사사	-10405
▁섭하	-10406
▁소음	-10407
▁숩게	-10408
▁스프	-10409
▁시티	-10410
▁신구	-10411
▁실현	-10412
▁쌍커	-10413
▁아동	-10414
▁안사	-10415
▁앞뒤	-10416
▁애도	-10417
▁억양	-10418
▁여시	-10419
▁예보	-10420
▁오즘	-10421
▁이과	-10422
▁이눔	-10423
▁이병	-10424
▁이집	-10425
▁일자	-10426
▁짜식	-10427
▁쩍어	-10428
▁쪼개	-10429
▁쪼끼	-10430
▁청구	-10431
▁초라	-10432
▁초장	-10433
▁친다	-10434
▁캐슬	-10435
▁튀겨	-10436
▁틀림	-10437
▁파랑	-10438
▁하모	-10439
▁헤드	-10440
▁환영	-10441
▁기념일	-10442
▁나부난	-10443
▁더래도	-10444
▁되도록	-10445
▁되부난	-10446
▁두려움	-10447
▁빠발리	-10448
▁아덜을	-10449
▁우째다	-10450
▁이신게	-10451
▁잡아가	-10452
▁장학금	-10453
▁전단지	-10454
▁쫓아가	-10455
▁찢어지	-10456
▁책임감	-10457
▁추운디	-10458
▁할락산	-10459
▁했었었	-10460
덩짜바리	-10461
▁국회의원	-10462
▁나서는이	-10463
▁사람서야	-10464
▁암만해도	-10465
▁어마어마	-10466
▁업데이트	-10467
▁으니까네	-10468
▁좋아한다	-10469
▁지만서도	-10470
▁해여주고	-10471
▁곶	-10472
▁록	-10473
▁퀄	-10474
▁턴	-10475
머님	-10476
무이	-10477
보내	-10478
습관	-10479
으랜	-10480
인게	-10481
인고	-10482
치다	-10483
코인	-10484
▁가는	-10485
▁객관	-10486
▁고운	-10487
▁괸당	-10488
▁굉장	-10489
▁교훈	-10490
▁구예	-10491
▁기횔	-10492
▁놈들	-10493
▁누웡	-10494
▁대추	-10495
▁더웠	-10496
▁되루	-10497
▁될꼬	-10498
▁들락	-10499
▁따고	-10500
▁랑게	-10501
▁마세	-10502
▁맞췄	-10503
▁모음	-10504
▁묵을	-10505
▁뭘까	-10506
▁반항	-10507
▁배움	-10508
▁버틸	-10509
▁번개	-10510
▁법원	-10511
▁보스	-10512
▁부는	-10513
▁비추	-10514
▁빳는	-10515
▁새해	-10516
▁생소	-10517
▁서유	-10518
▁선게	-10519
▁섬세	-10520
▁소홀	-10521
▁수련	-10522
▁순정	-10523
▁순천	-10524
▁스캔	-10525
▁식빵	-10526
▁신사	-10527
▁쌔끼	-10528
▁써라	-10529
▁아실	-10530
▁아토	-10531
▁알뜰	-10532
▁어특	-10533
▁여태	-10534
▁영구	-10535
▁왕복	-10536
▁우이	-10537
▁으며	-10538
▁의존	-10539
▁이별	-10540
▁인께	-10541
▁있긴	-10542
▁잡혔	-10543
▁장판	-10544
▁전형	-10545
▁죽였	-10546
▁지겡	-10547
▁지겨	-10548
▁진주	-10549
▁찌기	-10550
▁칼슘	-10551
▁코딩	-10552
▁항시	-10553
▁해실	-10554
▁현빈	-10555
▁혼란	-10556
▁화재	-10557
▁효도	-10558
가주고	-10559
린다고	-10560
▁고쳐야	-10561
▁돈가스	-10562
▁마시구	-10563
▁마카롱	-10564
▁불러야	-10565
▁뿌러지	-10566
▁사이다	-10567
▁새애기	-10568
▁설렁탕	-10569
▁속상한	-10570
▁식습관	-10571
▁안다고	-10572
▁알려져	-10573
▁애기씨	-10574
▁여버리	-10575
▁이모부	-10576
▁재기가	-10577
▁졸업식	-10578
▁주민서	-10579
▁참기름	-10580
▁퀄리티	-10581
▁클래스	-10582
▁겨론해서	-10583
▁머스마랑	-10584
▁몸뚱아리	-10585
▁무서워하	-10586
▁비트코인	-10587
▁후라이팬	-10588
▁뜸	-10589
강지	-10590
느라	-10591
도치	-10592
말고	-10593
멩이	-10594
무지	-10595
브리	-10596
아꼬	-10597
우면	-10598
자네	-10599
즈막	-10600
지르	-10601
▁간격	-10602
▁고랑	-10603
▁고야	-10604
▁고전	-10605
▁규제	-10606
▁기반	-10607
▁꺼냈	-10608
▁나제	-10609
▁데나	-10610
▁도쿄	-10611
▁드르	-10612
▁들엄	-10613
▁땅콩	-10614
▁떠날	-10615
▁뜨끈	-10616
▁러브	-10617
▁마크	-10618
▁몰리	-10619
▁밥통	-10620
▁배낭	-10621
▁보약	-10622
▁브로	-10623
▁비오	-10624
▁비중	-10625
▁세끼	-10626
▁세웠	-10627
▁순한	-10628
▁스민	-10629
▁슬펐	-10630
▁신간	-10631
▁신이	-10632
▁싸서	-10633
▁아스	-10634
▁아픔	-10635
▁악마	-10636
▁어스	-10637
▁엿날	-10638
▁영장	-10639
▁오로	-10640
▁옮겼	-10641
▁유채	-10642
▁이율	-10643
▁인날	-10644
▁인력	-10645
▁전용	-10646
▁정당	-10647
▁정했	-10648
▁주연	-10649
▁지선	-10650
▁질이	-10651
▁차마	-10652
▁추적	-10653
▁축복	-10654
▁출석	-10655
▁코믹	-10656
▁팔찌	-10657
▁패드	-10658
▁피드	-10659
▁하수	-10660
▁후추	-10661
거나잉	-10662
어그넹	-10663
▁갈까요	-10664
▁그래도	-10665
▁그러구	-10666
▁그리고	-10667
▁넘어오	-10668
▁느냐구	-10669
▁대체로	-10670
▁돌아서	-10671
▁립스틱	-10672
▁만내러	-10673
▁맛좋아	-10674
▁물놀이	-10675
▁브라운	-10676
▁살암신	-10677
▁어멍도	-10678
▁운전자	-10679
▁이라대	-10680
▁준다는	-10681
▁트렌드	-10682
▁할라면	-10683
▁해사주	-10684
▁스케이트	-10685
▁스파게티	-10686
▁제주도서	-10687
▁큰아벙이	-10688
▁생각하거든예	-10689
▁깃	-10690
▁촛	-10691
▁훼	-10692
기가	-10693
무니	-10694
서니	-10695
양이	-10696
지않	-10697
침개	-10698
▁가모	-10699
▁가짜	-10700
▁건드	-10701
▁고망	-10702
▁관찰	-10703
▁교과	-10704
▁그짜	-10705
▁근래	-10706
▁낮추	-10707
▁내사	-10708
▁노형	-10709
▁높여	-10710
▁놨었	-10711
▁는진	-10712
▁데릴	-10713
▁도랑	-10714
▁동쪽	-10715
▁되돌	-10716
▁들마	-10717
▁뛰쳐	-10718
▁라곤	-10719
▁로또	-10720
▁명의	-10721
▁모실	-10722
▁몹시	-10723
▁무용	-10724
▁방지	-10725
▁백수	-10726
▁변비	-10727
▁별명	-10728
▁보랜	-10729
▁보시	-10730
▁보트	-10731
▁부디	-10732
▁부에	-10733
▁분노	-10734
▁블라	-10735
▁빠이	-10736
▁삐지	-10737
▁사교	-10738
▁선전	-10739
▁성의	-10740
▁아꼬	-10741
▁안게	-10742
▁약물	-10743
▁어수	-10744
▁역활	-10745
▁예식	-10746
▁오사	-10747
▁올지	-10748
▁우기	-10749
▁원했	-10750
▁유익	-10751
▁잘행	-10752
▁졌어	-10753
▁줄일	-10754
▁중등	-10755
▁즉흥	-10756
▁증이	-10757
▁진대	-10758
▁진통	-10759
▁집집	-10760
▁채고	-10761
▁치르	-10762
▁타인	-10763
▁퍼져	-10764
▁한꺼	-10765
▁합치	-10766
▁확장	-10767
달어두	-10768
십시오	-10769
▁가운테	-10770
▁가져갔	-10771
▁간다이	-10772
▁간호새	-10773
▁그거영	-10774
▁끝네미	-10775
▁끼어들	-10776
▁느껴질	-10777
▁다마는	-10778
▁돌려서	-10779
▁모니터	-10780
▁보호사	-10781
▁서부터	-10782
▁스러울	-10783
▁쓸라고	-10784
▁알아지	-10785
▁어딘지	-10786
▁제정신	-10787
▁피부과	-10788
▁한나씩	-10789
▁해운대	-10790
▁괜찮은디	-10791
▁배우고이	-10792
▁이래저래	-10793
▁이루어지	-10794
▁증말이야	-10795
▁한꺼번에	-10796
▁할라면은	-10797
낭기	-10798
라미	-10799
러이	-10800
새임	-10801
스팅	-10802
어른	-10803
운서	-10804
투맨	-10805
▁간혹	-10806
▁강력	-10807
▁거네	-10808
▁경도	-10809
▁근본	-10810
▁끓영	-10811
▁끙끙	-10812
▁낭말	-10813
▁단맛	-10814
▁당췌	-10815
▁들깨	-10816
▁따기	-10817
▁따님	-10818
▁때우	-10819
▁뜬금	-10820
▁런던	-10821
▁마나	-10822
▁모태	-10823
▁미끄	-10824
▁버즈	-10825
▁번이	-10826
▁보카	-10827
▁복이	-10828
▁붙였	-10829
▁비러	-10830
▁비웃	-10831
▁사막	-10832
▁사유	-10833
▁산대	-10834
▁산시	-10835
▁성게	-10836
▁세이	-10837
▁스튜	-10838
▁아측	-10839
▁아펐	-10840
▁아후	-10841
▁악화	-10842
▁약수	-10843
▁어망	-10844
▁오브	-10845
▁옮길	-10846
▁우태	-10847
▁으마	-10848
▁이층	-10849
▁일세	-10850
▁자릴	-10851
▁잔디	-10852
▁정권	-10853
▁준단	-10854
▁중대	-10855
▁지실	-10856
▁챔피	-10857
▁천마	-10858
▁출시	-10859
▁틀어	-10860
▁헹수	-10861
▁홍어	-10862
▁흑인	-10863
▁가차이	-10864
▁귀걸이	-10865
▁그만둬	-10866
▁다녀올	-10867
▁떠올르	-10868
▁뜨구운	-10869
▁말인고	-10870
▁뭐냐믄	-10871
▁소라리	-10872
▁스케일	-10873
▁신가요	-10874
▁아무런	-10875
▁아시는	-10876
▁아토피	-10877
▁애기덜	-10878
▁어래이	-10879
▁연락처	-10880
▁우리영	-10881
▁집들이	-10882
▁초콜릿	-10883
▁충청도	-10884
▁친해질	-10885
▁크다란	-10886
▁태권도	-10887
▁테이까	-10888
▁토깽이	-10889
▁하얀색	-10890
▁할부지	-10891
▁햄신고	-10892
해가주구	-10893
▁겅하니까	-10894
▁까시뎅이	-10895
▁들어와서	-10896
▁비슷비슷	-10897
▁잃어버렸	-10898
▁잣달어두	-10899
▁지목시리	-10900
▁닐	-10901
▁앰	-10902
꾸나	-10903
달랜	-10904
르트	-10905
어멍	-10906
자너	-10907
텐데	-10908
하여	-10909
▁거영	-10910
▁거칠	-10911
▁관장	-10912
▁기견	-10913
▁논리	-10914
▁놓여	-10915
▁늦잠	-10916
▁대파	-10917
▁도중	-10918
▁동글	-10919
▁둘레	-10920
▁들렀	-10921
▁땡길	-10922
▁리듬	-10923
▁마빡	-10924
▁말루	-10925
▁맞이	-10926
▁매기	-10927
▁먹노	-10928
▁먹대	-10929
▁무역	-10930
▁바깠	-10931
▁바대	-10932
▁발휘	-10933
▁보롬	-10934
▁삐뚤	-10935
▁사표	-10936
▁산이	-10937
▁살젠	-10938
▁새겨	-10939
▁세차	-10940
▁섹시	-10941
▁손잡	-10942
▁수집	-10943
▁스킬	-10944
▁슬픔	-10945
▁신어	-10946
▁실까	-10947
▁실적	-10948
▁써져	-10949
▁아반	-10950
▁엇댄	-10951
▁여븐	-10952
▁였잖	-10953
▁요요	-10954
▁은재	-10955
▁이력	-10956
▁익혀	-10957
▁있나	-10958
▁자요	-10959
▁조끄	-10960
▁죽인	-10961
▁지겹	-10962
▁착해	-10963
▁충동	-10964
▁카운	-10965
▁토롯	-10966
▁퍼지	-10967
▁포켓	-10968
▁피할	-10969
▁해내	-10970
▁핼미	-10971
▁화사	-10972
으니께	-10973
▁거드미	-10974
▁거짓부	-10975
▁공기업	-10976
▁괴로워	-10977
▁그래픽	-10978
▁그만둔	-10979
▁댕겨서	-10980
▁돌아갔	-10981
▁동창회	-10982
▁맨투맨	-10983
▁부셍이	-10984
▁서서히	-10985
▁시부모	-10986
▁아까워	-10987
▁아픈데	-10988
▁어떵행	-10989
▁이백만	-10990
▁이지아	-10991
▁재기야	-10992
▁팔로우	-10993
▁포스터	-10994
▁하주게	-10995
▁해라꼬	-10996
▁걸립니까	-10997
▁산시금치	-10998
▁아나운서	-10999
▁어떵하당	-11000
▁여븐뎅이	-11001
▁이라면은	-11002
▁하내기만	-11003
▁생각해본께	-11004
▁맬	-11005
계탕	-11006
께서	-11007
다문	-11008
로워	-11009
박질	-11010
소연	-11011
슬라	-11012
장판	-11013
▁강아	-11014
▁개리	-11015
▁겹쳐	-11016
▁골랐	-11017
▁골암	-11018
▁공급	-11019
▁교체	-11020
▁그눔	-11021
▁긴디	-11022
▁까딱	-11023
▁꼰대	-11024
▁나쁠	-11025
▁넘겼	-11026
▁놀려	-11027
▁달기	-11028
▁대놓	-11029
▁대들	-11030
▁도박	-11031
▁떤져	-11032
▁레저	-11033
▁몸살	-11034
▁바우	-11035
▁박이	-11036
▁보급	-11037
▁부야	-11038
▁빡쎄	-11039
▁뿌라	-11040
▁소그	-11041
▁소변	-11042
▁스토	-11043
▁십자	-11044
▁쌓였	-11045
▁썩이	-11046
▁쑤시	-11047
▁씨름	-11048
▁아드	-11049
▁알겐	-11050
▁알람	-11051
▁야죠	-11052
▁양히	-11053
▁어그	-11054
▁여우	-11055
▁연재	-11056
▁요인	-11057
▁이냐	-11058
▁이억	-11059
▁일등	-11060
▁자두	-11061
▁자상	-11062
▁장치	-11063
▁전설	-11064
▁접해	-11065
▁조회	-11066
▁줄기	-11067
▁짠하	-11068
▁쪼맨	-11069
▁쫌만	-11070
▁찍엉	-11071
▁창업	-11072
▁출세	-11073
▁충돌	-11074
▁카데	-11075
▁킹덤	-11076
▁타워	-11077
▁탈모	-11078
▁팥죽	-11079
▁패러	-11080
▁편입	-11081
▁학자	-11082
▁핵심	-11083
▁허용	-11084
▁환기	-11085
뚱하다	-11086
▁감낭그	-11087
▁게다가	-11088
▁구미호	-11089
▁노하우	-11090
▁는구만	-11091
▁댕겨오	-11092
▁등록금	-11093
▁따라와	-11094
▁똥그랗	-11095
▁모갱이	-11096
▁몰르구	-11097
▁박보검	-11098
▁배부르	-11099
▁벵원이	-11100
▁부담감	-11101
▁삼계탕	-11102
▁소세지	-11103
▁신랭이	-11104
▁심허게	-11105
▁써야지	-11106
▁오사카	-11107
▁요맨큼	-11108
▁이라다	-11109
▁이래라	-11110
▁이쁜디	-11111
▁이아이	-11112
▁진즉에	-11113
▁큰언니	-11114
▁누그세요	-11115
▁머시마들	-11116
▁살아신디	-11117
▁양복떼기	-11118
▁어린아이	-11119
▁언니야도	-11120
▁에스에프	-11121
▁우짜꿉다	-11122
▁하드라구	-11123
▁룬	-11124
겄냐	-11125
겄네	-11126
런스	-11127
방이	-11128
버님	-11129
불믄	-11130
불지	-11131
사야	-11132
아찌	-11133
우티	-11134
지간	-11135
카드	-11136
투룩	-11137
하네	-11138
호박	-11139
▁가제	-11140
▁간직	-11141
▁갖추	-11142
▁거죽	-11143
▁거치	-11144
▁게씬	-11145
▁게으	-11146
▁고가	-11147
▁공군	-11148
▁공짜	-11149
▁구찌	-11150
▁국사	-11151
▁꼬랑	-11152
▁꼬셔	-11153
▁나멘	-11154
▁내놨	-11155
▁달개	-11156
▁담겨	-11157
▁담구	-11158
▁답다	-11159
▁도독	-11160
▁많긴	-11161
▁명확	-11162
▁버튼	-11163
▁벅스	-11164
▁병행	-11165
▁본디	-11166
▁부릴	-11167
▁부시	-11168
▁뻔한	-11169
▁산거	-11170
▁산후	-11171
▁수염	-11172
▁스탠	-11173
▁신거	-11174
▁심란	-11175
▁싶다	-11176
▁씨씨	-11177
▁암수	-11178
▁애월	-11179
▁양산	-11180
▁어미	-11181
▁언급	-11182
▁연설	-11183
▁예단	-11184
▁우왕	-11185
▁우편	-11186
▁울언	-11187
▁위축	-11188
▁이등	-11189
▁이종	-11190
▁장롱	-11191
▁쟁여	-11192
▁제자	-11193
▁조우	-11194
▁조치	-11195
▁줍서	-11196
▁창의	-11197
▁추진	-11198
▁치울	-11199
▁콧물	-11200
▁크루	-11201
▁폐쇄	-11202
▁하여	-11203
▁한거	-11204
▁호나	-11205
▁환갑	-11206
에는이	-11207
▁까다롭	-11208
▁꾸워서	-11209
▁난다구	-11210
▁납득이	-11211
▁누구여	-11212
▁담당자	-11213
▁멀리서	-11214
▁배불러	-11215
▁보니깐	-11216
▁사램아	-11217
▁속우티	-11218
▁수수료	-11219
▁시청자	-11220
▁아꼬운	-11221
▁어디여	-11222
▁어지럽	-11223
▁언젠간	-11224
▁이디도	-11225
▁이라믄	-11226
▁중이여	-11227
▁태어날	-11228
▁테슬라	-11229
▁하기사	-11230
▁하크라	-11231
▁할려는	-11232
▁가전제품	-11233
▁기억나나	-11234
▁쓰레기통	-11235
▁아시당초	-11236
▁오라벙이	-11237
▁오피스텔	-11238
▁으리까리	-11239
▁좋아가꼬	-11240
▁찾아다니	-11241
▁프리미엄	-11242
▁합니데이	-11243
▁생각보다이	-11244
▁지굼이라두	-11245
▁룻	-11246
▁웰	-11247
▁첩	-11248
글락	-11249
넘기	-11250
두루	-11251
마다	-11252
무르	-11253
뿐히	-11254
에는	-11255
우리	-11256
장이	-11257
절기	-11258
턴트	-11259
톡스	-11260
튀김	-11261
▁간간	-11262
▁갈구	-11263
▁같혀	-11264
▁건전	-11265
▁곱곱	-11266
▁궁합	-11267
▁그늘	-11268
▁그럭	-11269
▁그루	-11270
▁나매	-11271
▁난게	-11272
▁내색	-11273
▁낸다	-11274
▁노나	-11275
▁놀당	-11276
▁는군	-11277
▁다나	-11278
▁단편	-11279
▁땜시	-11280
▁막창	-11281
▁말짝	-11282
▁말짱	-11283
▁망한	-11284
▁매직	-11285
▁맽기	-11286
▁면도	-11287
▁모집	-11288
▁모하	-11289
▁물이	-11290
▁바글	-11291
▁바삭	-11292
▁번갈	-11293
▁번역	-11294
▁보래	-11295
▁불런	-11296
▁삼각	-11297
▁생생	-11298
▁설날	-11299
▁수목	-11300
▁순하	-11301
▁스팀	-11302
▁실업	-11303
▁알라	-11304
▁어학	-11305
▁엄두	-11306
▁에라	-11307
▁연필	-11308
▁열린	-11309
▁오셔	-11310
▁우물	-11311
▁원두	-11312
▁원비	-11313
▁이글	-11314
▁인심	-11315
▁자국	-11316
▁자영	-11317
▁장손	-11318
▁재활	-11319
▁잽히	-11320
▁저개	-11321
▁점이	-11322
▁주러	-11323
▁주새	-11324
▁징말	-11325
▁천천	-11326
▁쳐도	-11327
▁칠월	-11328
▁코메	-11329
▁팝콘	-11330
▁페북	-11331
▁표지	-11332
▁해놘	-11333
▁화투	-11334
▁히어	-11335
탱이가	-11336
▁가네들	-11337
▁가져왔	-11338
▁나이트	-11339
▁드러나	-11340
▁디자이	-11341
▁뛰어난	-11342
▁뜰어지	-11343
▁마옴두	-11344
▁보따리	-11345
▁사실상	-11346
▁아반떼	-11347
▁아시가	-11348
▁애새끼	-11349
▁옥수수	-11350
▁요번엔	-11351
▁을라면	-11352
▁자구요	-11353
▁자식이	-11354
▁전시회	-11355
▁조끄띠	-11356
▁쪼꼼씩	-11357
▁취해서	-11358
▁콜라겐	-11359
▁터미널	-11360
▁텔레비	-11361
▁퇴직금	-11362
▁플러스	-11363
▁보니깐에	-11364
▁비즈니스	-11365
▁사램들을	-11366
▁스러워서	-11367
▁어저께도	-11368
▁뀌	-11369
▁쌕	-11370
가믄	-11371
기념	-11372
길래	-11373
난다	-11374
누우	-11375
러레	-11376
빼기	-11377
어내	-11378
에요	-11379
으런	-11380
저리	-11381
팽이	-11382
▁가디	-11383
▁가째	-11384
▁거꾸	-11385
▁공구	-11386
▁굳작	-11387
▁글서	-11388
▁글시	-11389
▁깜깜	-11390
▁난데	-11391
▁낭만	-11392
▁넘께	-11393
▁단이	-11394
▁당직	-11395
▁당허	-11396
▁동산	-11397
▁두어	-11398
▁라매	-11399
▁란가	-11400
▁마동	-11401
▁마셩	-11402
▁말썽	-11403
▁망할	-11404
▁맞춤	-11405
▁명작	-11406
▁모의	-11407
▁무군	-11408
▁묻혀	-11409
▁바뿌	-11410
▁박지	-11411
▁밥두	-11412
▁복싱	-11413
▁본단	-11414
▁빛나	-11415
▁빤짝	-11416
▁삐졌	-11417
▁사놓	-11418
▁사물	-11419
▁상세	-11420
▁새삼	-11421
▁샘플	-11422
▁스푼	-11423
▁시트	-11424
▁시행	-11425
▁씁쓸	-11426
▁안대	-11427
▁안부	-11428
▁요론	-11429
▁워크	-11430
▁워킹	-11431
▁원한	-11432
▁의상	-11433
▁임재	-11434
▁입덧	-11435
▁저만	-11436
▁저분	-11437
▁정착	-11438
▁제워	-11439
▁지게	-11440
▁쩌거	-11441
▁착허	-11442
▁챙겼	-11443
▁체멘	-11444
▁초마	-11445
▁촉촉	-11446
▁코피	-11447
▁퀴즈	-11448
▁파괴	-11449
▁포르	-11450
▁하래	-11451
▁해민	-11452
▁햇볕	-11453
▁헌지	-11454
▁후원	-11455
▁흘르	-11456
아부지	-11457
하는디	-11458
해가꼬	-11459
▁갈려구	-11460
▁골라서	-11461
▁그기에	-11462
▁나으에	-11463
▁니라고	-11464
▁다니당	-11465
▁된당께	-11466
▁로구나	-11467
▁발개서	-11468
▁버린다	-11469
▁솔짝이	-11470
▁심그름	-11471
▁안쓰럽	-11472
▁어떤지	-11473
▁어신게	-11474
▁완저히	-11475
▁운제나	-11476
▁자영업	-11477
▁주방장	-11478
▁챔피언	-11479
▁챙겨서	-11480
▁천천히	-11481
▁초콜렛	-11482
▁트럼프	-11483
▁했으면	-11484
▁궁금해사	-11485
▁글더라고	-11486
▁몰랐는디	-11487
▁사램이라	-11488
▁상관없이	-11489
▁에이아이	-11490
▁오빠도이	-11491
▁외할머니	-11492
▁카카오톡	-11493
▁프로그래	-11494
▁어그뚱하다	-11495
▁쨌	-11496
▁텅	-11497
▁펠	-11498
도잉	-11499
사진	-11500
얘기	-11501
어치	-11502
쟈게	-11503
체능	-11504
피아	-11505
▁거만	-11506
▁거멍	-11507
▁고스	-11508
▁고슴	-11509
▁광경	-11510
▁교시	-11511
▁꾸리	-11512
▁났져	-11513
▁다오	-11514
▁닥치	-11515
▁담그	-11516
▁담아	-11517
▁도민	-11518
▁동구	-11519
▁뒤쪽	-11520
▁들르	-11521
▁띄워	-11522
▁맡길	-11523
▁맥북	-11524
▁맹심	-11525
▁못살	-11526
▁방면	-11527
▁방안	-11528
▁분식	-11529
▁불가	-11530
▁불닭	-11531
▁비쌀	-11532
▁뺏기	-11533
▁서예	-11534
▁서쪽	-11535
▁소망	-11536
▁시들	-11537
▁시켱	-11538
▁신대	-11539
▁싫댄	-11540
▁심부	-11541
▁아빤	-11542
▁알제	-11543
▁예게	-11544
▁오부	-11545
▁온나	-11546
▁완화	-11547
▁원만	-11548
▁이쁠	-11549
▁이순	-11550
▁인하	-11551
▁일치	-11552
▁자다	-11553
▁저사	-11554
▁주먼	-11555
▁지녁	-11556
▁진열	-11557
▁착용	-11558
▁천안	-11559
▁천하	-11560
▁체리	-11561
▁체얌	-11562
▁타령	-11563
▁파라	-11564
▁팔려	-11565
▁하관	-11566
▁확고	-11567
▁확보	-11568
▁활기	-11569
▁흉터	-11570
라지게	-11571
아부난	-11572
었으문	-11573
▁나눠져	-11574
▁낭거지	-11575
▁노가다	-11576
▁댕겨도	-11577
▁데도롱	-11578
▁데려왔	-11579
▁떨어뜨	-11580
▁멜로디	-11581
▁무쟈게	-11582
▁아래이	-11583
▁여앵을	-11584
▁예즌에	-11585
▁예체능	-11586
▁이까장	-11587
▁자취방	-11588
▁종아리	-11589
▁직장인	-11590
▁찾아본	-11591
▁클라이	-11592
▁해노난	-11593
▁헐라고	-11594
▁호나에	-11595
▁개고락지	-11596
▁댕길심이	-11597
▁들어가문	-11598
▁디자이너	-11599
▁많잖아예	-11600
▁맛있드라	-11601
▁빠져가꼬	-11602
▁스타트업	-11603
▁에버랜드	-11604
▁여보세요	-11605
▁이라부난	-11606
▁잊어버렸	-11607
▁뿜	-11608
꺼워	-11609
꼬지	-11610
꾸락	-11611
수가	-11612
아들	-11613
알바	-11614
의사	-11615
짜리	-11616
하문	-11617
▁가졍	-11618
▁갔언	-11619
▁강했	-11620
▁개터	-11621
▁걸었	-11622
▁공익	-11623
▁교도	-11624
▁그름	-11625
▁그릴	-11626
▁그시	-11627
▁날카	-11628
▁남산	-11629
▁내도	-11630
▁논께	-11631
▁니나	-11632
▁당번	-11633
▁대굴	-11634
▁더나	-11635
▁동삼	-11636
▁둥글	-11637
▁때린	-11638
▁막혔	-11639
▁면회	-11640
▁모디	-11641
▁무과	-11642
▁바껸	-11643
▁바늘	-11644
▁방과	-11645
▁배틀	-11646
▁법률	-11647
▁본대	-11648
▁봐줄	-11649
▁브리	-11650
▁성함	-11651
▁수태	-11652
▁시위	-11653
▁식비	-11654
▁실이	-11655
▁실화	-11656
▁싱가	-11657
▁안된	-11658
▁에겐	-11659
▁에미	-11660
▁여운	-11661
▁연동	-11662
▁올바	-11663
▁웅장	-11664
▁육회	-11665
▁으지	-11666
▁이며	-11667
▁이을	-11668
▁인맥	-11669
▁일찌	-11670
▁잘나	-11671
▁정이	-11672
▁제수	-11673
▁졌었	-11674
▁조림	-11675
▁중점	-11676
▁지독	-11677
▁지분	-11678
▁지성	-11679
▁지친	-11680
▁찔리	-11681
▁채용	-11682
▁칫솔	-11683
▁큰성	-11684
▁타일	-11685
▁탄다	-11686
▁트이	-11687
▁피가	-11688
▁하룻	-11689
▁하사	-11690
▁하하	-11691
▁학번	-11692
▁호리	-11693
▁호적	-11694
▁횟수	-11695
▁효자	-11696
▁후유	-11697
이라도	-11698
▁가보난	-11699
▁가져다	-11700
▁간다고	-11701
▁고랐네	-11702
▁고무줄	-11703
▁곹으민	-11704
▁글거든	-11705
▁꽃다발	-11706
▁내려갈	-11707
▁다잖아	-11708
▁도망갔	-11709
▁마즈막	-11710
▁메세지	-11711
▁몰랐었	-11712
▁보험료	-11713
▁비싼데	-11714
▁시간대	-11715
▁아덜눔	-11716
▁아방도	-11717
▁아수운	-11718
▁애펜네	-11719
▁어쩌다	-11720
▁어쩐가	-11721
▁엄청나	-11722
▁외삼촌	-11723
▁움직임	-11724
▁음식물	-11725
▁이천만	-11726
▁찬바람	-11727
▁키운다	-11728
▁한다기	-11729
▁환절기	-11730
▁그래야지	-11731
▁미리미리	-11732
▁부끄러운	-11733
▁오부뎅이	-11734
▁팔뚝서리	-11735
▁할로라두	-11736
▁응덩짜바리	-11737
▁곽	-11738
▁셜	-11739
고라	-11740
도우	-11741
드시	-11742
러치	-11743
르륵	-11744
몬드	-11745
빠지	-11746
소문	-11747
운전	-11748
▁가망	-11749
▁갈랑	-11750
▁거보	-11751
▁건네	-11752
▁건져	-11753
▁공고	-11754
▁관상	-11755
▁구덕	-11756
▁기주	-11757
▁깨운	-11758
▁끓인	-11759
▁너이	-11760
▁노무	-11761
▁다념	-11762
▁다방	-11763
▁도루	-11764
▁뚝뚝	-11765
▁라다	-11766
▁레몬	-11767
▁막이	-11768
▁만도	-11769
▁말년	-11770
▁말제	-11771
▁망쳤	-11772
▁매두	-11773
▁먹을	-11774
▁멩함	-11775
▁목록	-11776
▁못써	-11777
▁방황	-11778
▁버치	-11779
▁볼꼬	-11780
▁부두	-11781
▁뻣뻣	-11782
▁산모	-11783
▁살앙	-11784
▁살피	-11785
▁상징	-11786
▁상쾌	-11787
▁섞인	-11788
▁선정	-11789
▁손맛	-11790
▁수요	-11791
▁스런	-11792
▁싱거	-11793
▁압력	-11794
▁여이	-11795
▁열흘	-11796
▁오냐	-11797
▁온난	-11798
▁온단	-11799
▁올개	-11800
▁우쨈	-11801
▁워라	-11802
▁이가	-11803
▁이참	-11804
▁잔나	-11805
▁절이	-11806
▁정자	-11807
▁종로	-11808
▁중도	-11809
▁지능	-11810
▁쪽지	-11811
▁차갑	-11812
▁출판	-11813
▁커져	-11814
▁쿠션	-11815
▁크라	-11816
▁항구	-11817
▁핵개	-11818
▁황금	-11819
글거리	-11820
라이더	-11821
해그네	-11822
▁감자탕	-11823
▁거뿐히	-11824
▁그럴까	-11825
▁그리스	-11826
▁그저께	-11827
▁나는이	-11828
▁내려올	-11829
▁내비두	-11830
▁는다면	-11831
▁는디야	-11832
▁동물원	-11833
▁된장국	-11834
▁떨어젼	-11835
▁많그든	-11836
▁매누리	-11837
▁바이트	-11838
▁바지씨	-11839
▁발가락	-11840
▁발꼬락	-11841
▁보건소	-11842
▁부러야	-11843
▁비니루	-11844
▁살펴보	-11845
▁수시로	-11846
▁아리랑	-11847
▁아시아	-11848
▁알려진	-11849
▁엊그제	-11850
▁오락실	-11851
▁와신디	-11852
▁운제든	-11853
▁움석이	-11854
▁이빠리	-11855
▁진공이	-11856
▁쭐여서	-11857
▁코메디	-11858
▁키웠었	-11859
▁할래요	-11860
▁화이트	-11861
▁모냥인데	-11862
▁안되고이	-11863
▁얼탱이가	-11864
▁없으믄은	-11865
▁쫓아다니	-11866
▁해줘사야	-11867
▁깽	-11868
▁붑	-11869
▁획	-11870
거렸	-11871
게는	-11872
겠어	-11873
구락	-11874
냐고	-11875
년생	-11876
라나	-11877
루이	-11878
모스	-11879
습기	-11880
악산	-11881
재이	-11882
주랜	-11883
지션	-11884
투스	-11885
하댄	-11886
▁갑상	-11887
▁거렸	-11888
▁게장	-11889
▁경로	-11890
▁경차	-11891
▁공갈	-11892
▁관중	-11893
▁금전	-11894
▁기특	-11895
▁깁스	-11896
▁깨끼	-11897
▁깨나	-11898
▁껴서	-11899
▁꽁치	-11900
▁남쪽	-11901
▁내마	-11902
▁널널	-11903
▁답변	-11904
▁당진	-11905
▁동내	-11906
▁되가	-11907
▁뒤늦	-11908
▁들을	-11909
▁리얼	-11910
▁매음	-11911
▁매체	-11912
▁몽골	-11913
▁무례	-11914
▁무안	-11915
▁밍크	-11916
▁박아	-11917
▁반도	-11918
▁벤츠	-11919
▁본능	-11920
▁부라	-11921
▁부풀	-11922
▁뷰티	-11923
▁빠젼	-11924
▁빡센	-11925
▁뿌시	-11926
▁사보	-11927
▁사형	-11928
▁산골	-11929
▁산댄	-11930
▁새콤	-11931
▁세운	-11932
▁슬기	-11933
▁시켠	-11934
▁신라	-11935
▁싸므	-11936
▁씌워	-11937
▁악착	-11938
▁안보	-11939
▁양육	-11940
▁어드	-11941
▁어택	-11942
▁엠티	-11943
▁예매	-11944
▁오세	-11945
▁왜그	-11946
▁요법	-11947
▁일방	-11948
▁절기	-11949
▁정선	-11950
▁젤리	-11951
▁종식	-11952
▁중년	-11953
▁지슬	-11954
▁직구	-11955
▁짜꾸	-11956
▁충고	-11957
▁친가	-11958
▁타구	-11959
▁트레	-11960
▁판사	-11961
▁편식	-11962
▁포토	-11963
▁한옥	-11964
▁해낼	-11965
▁혀야	-11966
▁협회	-11967
▁회색	-11968
할머니	-11969
▁가부러	-11970
▁게시리	-11971
▁공연장	-11972
▁근데두	-11973
▁꼭대기	-11974
▁두드리	-11975
▁때려치	-11976
▁라면서	-11977
▁말이다	-11978
▁모가지	-11979
▁분이라	-11980
▁빡세게	-11981
▁사나이	-11982
▁세계관	-11983
▁세탁소	-11984
▁속상해	-11985
▁스티커	-11986
▁쏟아지	-11987
▁아이언	-11988
▁웨이브	-11989
▁을려면	-11990
▁있드라	-11991
▁제주돈	-11992
▁주머이	-11993
▁지렁물	-11994
▁콘텐츠	-11995
▁톰배기	-11996
▁티셔츠	-11997
▁흰머리	-11998
▁바리스타	-11999
▁보드게임	-12000
▁시아버이	-12001
▁싸이월드	-12002
▁안해시믄	-12003
▁애들은이	-12004
▁예자친구	-12005
▁요즘엔이	-12006
▁힘들주게	-12007
▁발개서부텀	-12008
▁늬	-12009
▁삿	-12010
가요	-12011
꾸라	-12012
댓말	-12013
루룩	-12014
리다	-12015
만한	-12016
시롬	-12017
엉쿠	-12018
은예	-12019
치레	-12020
▁가랑	-12021
▁거린	-12022
▁견이	-12023
▁고인	-12024
▁곱드	-12025
▁구선	-12026
▁국산	-12027
▁군것	-12028
▁근역	-12029
▁기말	-12030
▁기뻤	-12031
▁까네	-12032
▁까묵	-12033
▁끊임	-12034
▁나시	-12035
▁나허	-12036
▁남어	-12037
▁내키	-12038
▁느껸	-12039
▁다투	-12040
▁당면	-12041
▁더듬	-12042
▁두근	-12043
▁딴지	-12044
▁래문	-12045
▁로우	-12046
▁마루	-12047
▁말마	-12048
▁무인	-12049
▁밤낮	-12050
▁백낮	-12051
▁버쳐	-12052
▁버킷	-12053
▁벌려	-12054
▁본전	-12055
▁부니	-12056
▁부스	-12057
▁부채	-12058
▁수용	-12059
▁수출	-12060
▁스노	-12061
▁싸다	-12062
▁아로	-12063
▁액정	-12064
▁앤데	-12065
▁어둔	-12066
▁어염	-12067
▁엘랑	-12068
▁염소	-12069
▁염치	-12070
▁요건	-12071
▁요게	-12072
▁우습	-12073
▁운디	-12074
▁원금	-12075
▁위대	-12076
▁은다	-12077
▁을매	-12078
▁자박	-12079
▁작전	-12080
▁저약	-12081
▁적혀	-12082
▁전대	-12083
▁족족	-12084
▁주유	-12085
▁지문	-12086
▁지침	-12087
▁쪼끄	-12088
▁체감	-12089
▁체조	-12090
▁침착	-12091
▁텃밭	-12092
▁편도	-12093
▁하미	-12094
▁한녁	-12095
▁함박	-12096
▁허세	-12097
▁허야	-12098
▁회수	-12099
▁휩쓸	-12100
가젱이	-12101
이라구	-12102
▁걸린다	-12103
▁겅해난	-12104
▁게따가	-12105
▁경한건	-12106
▁내려간	-12107
▁다애이	-12108
▁두꺼운	-12109
▁디테일	-12110
▁먹는디	-12111
▁바꿔야	-12112
▁밥그릇	-12113
▁쓰러졌	-12114
▁씨엉쿠	-12115
▁아닌지	-12116
▁아무케	-12117
▁아프댄	-12118
▁야구장	-12119
▁얘기여	-12120
▁우울해	-12121
▁워느새	-12122
▁을라믄	-12123
▁이병헌	-12124
▁이태원	-12125
▁입으문	-12126
▁재미진	-12127
▁재밌었	-12128
▁정신줄	-12129
▁존댓말	-12130
▁지지배	-12131
▁차이점	-12132
▁콩질굼	-12133
▁툭하면	-12134
▁프린터	-12135
▁해준다	-12136
▁후유증	-12137
글락하게	-12138
▁결혼식장	-12139
▁귀빠진날	-12140
▁돌아가실	-12141
▁들으니께	-12142
▁말짝시롬	-12143
▁월요일날	-12144
▁으로부터	-12145
▁제라지게	-12146
▁곱드글락하게	-12147
▁름	-12148
▁왈	-12149
거려	-12150
과수	-12151
국은	-12152
그륵	-12153
내려	-12154
는다	-12155
다녀	-12156
데레	-12157
라니	-12158
루다	-12159
불곡	-12160
사구	-12161
세이	-12162
스키	-12163
잽이	-12164
전드	-12165
태기	-12166
풍기	-12167
▁각서	-12168
▁거랜	-12169
▁거창	-12170
▁금리	-12171
▁기꽈	-12172
▁기두	-12173
▁깨져	-12174
▁나불	-12175
▁난릴	-12176
▁남사	-12177
▁낯설	-12178
▁내신	-12179
▁내이	-12180
▁달까	-12181
▁대녔	-12182
▁덜렁	-12183
▁동지	-12184
▁되네	-12185
▁들키	-12186
▁등등	-12187
▁따끔	-12188
▁딸구	-12189
▁때기	-12190
▁랬지	-12191
▁막판	-12192
▁모닝	-12193
▁묘사	-12194
▁미소	-12195
▁방역	-12196
▁배끼	-12197
▁벽돌	-12198
▁별일	-12199
▁보네	-12200
▁부어	-12201
▁붙인	-12202
▁블록	-12203
▁비법	-12204
▁상업	-12205
▁상할	-12206
▁세포	-12207
▁소못	-12208
▁시그	-12209
▁시동	-12210
▁시려	-12211
▁쓰시	-12212
▁아셨	-12213
▁안겨	-12214
▁안마	-12215
▁알령	-12216
▁앞두	-12217
▁애시	-12218
▁애착	-12219
▁없나	-12220
▁오키	-12221
▁온통	-12222
▁이레	-12223
▁일병	-12224
▁임원	-12225
▁입수	-12226
▁자아	-12227
▁작두	-12228
▁저릿	-12229
▁전교	-12230
▁정형	-12231
▁제재	-12232
▁조요	-12233
▁조종	-12234
▁주주	-12235
▁주황	-12236
▁준께	-12237
▁중매	-12238
▁직이	-12239
▁쨍쨍	-12240
▁쫄깃	-12241
▁찍히	-12242
▁차비	-12243
▁처박	-12244
▁천둥	-12245
▁천연	-12246
▁체지	-12247
▁초가	-12248
▁치웠	-12249
▁칼치	-12250
▁칼칼	-12251
▁큰딸	-12252
▁클릭	-12253
▁타자	-12254
▁통닭	-12255
▁퇴끼	-12256
▁특색	-12257
▁프랜	-12258
▁하카	-12259
▁학부	-12260
▁함덕	-12261
▁해양	-12262
▁호칭	-12263
▁홈페	-12264
▁화낼	-12265
▁휴직	-12266
기념일	-12267
로이드	-12268
바가지	-12269
테이션	-12270
▁갑상선	-12271
▁개그맨	-12272
▁국과수	-12273
▁나아졌	-12274
▁남한티	-12275
▁낯바닥	-12276
▁느껴지	-12277
▁니하고	-12278
▁다닌다	-12279
▁돌방구	-12280
▁먹어난	-12281
▁무서울	-12282
▁변호새	-12283
▁부사장	-12284
▁신겡쓰	-12285
▁에따가	-12286
▁오래가	-12287
▁유리창	-12288
▁이만쿰	-12289
▁이실거	-12290
▁일수록	-12291
▁입으루	-12292
▁자니까	-12293
▁정신없	-12294
▁진다구	-12295
▁집사람	-12296
▁집이라	-12297
▁짝사랑	-12298
▁쪼끄매	-12299
▁친해져	-12300
▁크로스	-12301
▁파는디	-12302
▁하드마	-12303
▁호끔씩	-12304
▁다마내기	-12305
▁들으면은	-12306
▁매누리가	-12307
▁부드러운	-12308
▁블루투스	-12309
▁영화배우	-12310
▁으니까요	-12311
▁인스턴트	-12312
▁일단은이	-12313
▁있어신디	-12314
▁쪼끔이라	-12315
▁합니다만	-12316
▁했으니께	-12317
▁홈페이지	-12318
▁똑부러지니	-12319
▁많으니까네	-12320
▁오라바이두	-12321
▁봇	-12322
▁씽	-12323
거니	-12324
느님	-12325
다닥	-12326
다수	-12327
대지	-12328
러리	-12329
레인	-12330
무사	-12331
서는	-12332
오빠	-12333
용차	-12334
절이	-12335
치는	-12336
허영	-12337
▁갑네	-12338
▁개운	-12339
▁겡솔	-12340
▁국립	-12341
▁굴려	-12342
▁그던	-12343
▁그중	-12344
▁김선	-12345
▁깨졌	-12346
▁꽂히	-12347
▁꾸물	-12348
▁끝장	-12349
▁나란	-12350
▁나았	-12351
▁너그	-12352
▁놓쳤	-12353
▁다곤	-12354
▁동선	-12355
▁드름	-12356
▁따끈	-12357
▁로드	-12358
▁마중	-12359
▁막힐	-12360
▁말래	-12361
▁매냥	-12362
▁명예	-12363
▁밝히	-12364
▁밤이	-12365
▁벌떡	-12366
▁벌어	-12367
▁비개	-12368
▁빠삭	-12369
▁빵법	-12370
▁뿔리	-12371
▁산수	-12372
▁서기	-12373
▁세예	-12374
▁습기	-12375
▁식스	-12376
▁식용	-12377
▁식혜	-12378
▁실비	-12379
▁아꼽	-12380
▁아신	-12381
▁안디	-12382
▁암말	-12383
▁앞세	-12384
▁애지	-12385
▁야랑	-12386
▁야물	-12387
▁약점	-12388
▁어긋	-12389
▁얼룩	-12390
▁여왕	-12391
▁영탁	-12392
▁오더	-12393
▁옵션	-12394
▁외투	-12395
▁요일	-12396
▁우영	-12397
▁워메	-12398
▁위협	-12399
▁이날	-12400
▁이내	-12401
▁이프	-12402
▁일생	-12403
▁전철	-12404
▁정한	-12405
▁좋제	-12406
▁주년	-12407
▁줄줄	-12408
▁지울	-12409
▁진도	-12410
▁진동	-12411
▁짤러	-12412
▁차린	-12413
▁체제	-12414
▁총무	-12415
▁치기	-12416
▁폭탄	-12417
▁피캐	-12418
▁학벌	-12419
▁헤매	-12420
▁협상	-12421
▁황사	-12422
와이면	-12423
이니께	-12424
해그넹	-12425
▁게을러	-12426
▁그다가	-12427
▁내버려	-12428
▁다가왔	-12429
▁더워서	-12430
▁데이타	-12431
▁둘이가	-12432
▁들려서	-12433
▁뛰어가	-12434
▁레전드	-12435
▁멋대루	-12436
▁면세점	-12437
▁문화재	-12438
▁버려라	-12439
▁부재집	-12440
▁부조리	-12441
▁색시장	-12442
▁생긴다	-12443
▁술자리	-12444
▁아니가	-12445
▁아파하	-12446
▁어서져	-12447
▁여행사	-12448
▁영깽이	-12449
▁오세사	-12450
▁읍니다	-12451
▁이빠이	-12452
▁있수과	-12453
▁잔모된	-12454
▁즐거워	-12455
▁지절로	-12456
▁집중력	-12457
▁찾아갔	-12458
▁촌스럽	-12459
▁카운터	-12460
▁케이티	-12461
▁타고난	-12462
▁텐데요	-12463
▁파트너	-12464
▁피엑스	-12465
▁하이고	-12466
▁내려와서	-12467
▁들어간다	-12468
▁들었당게	-12469
▁받아들일	-12470
▁어데가서	-12471
▁어멍아방	-12472
▁이걸로이	-12473
▁할아바이	-12474
▁궂	-12475
▁촤	-12476
▁칵	-12477
고게	-12478
구지	-12479
들예	-12480
부턴	-12481
접살	-12482
해여	-12483
▁걸령	-12484
▁경하	-12485
▁고문	-12486
▁골드	-12487
▁골이	-12488
▁공산	-12489
▁국화	-12490
▁그깟	-12491
▁그야	-12492
▁글로	-12493
▁기게	-12494
▁기엄	-12495
▁김수	-12496
▁김영	-12497
▁깨진	-12498
▁꺼꾸	-12499
▁꽁꽁	-12500
▁끄성	-12501
▁나눌	-12502
▁나르	-12503
▁나옵	-12504
▁낫다	-12505
▁낭게	-12506
▁너네	-12507
▁노화	-12508
▁단초	-12509
▁대변	-12510
▁동사	-12511
▁동적	-12512
▁등교	-12513
▁따듯	-12514
▁딸린	-12515
▁땅값	-12516
▁떨려	-12517
▁레지	-12518
▁매워	-12519
▁먹히	-12520
▁무쳐	-12521
▁무침	-12522
▁물류	-12523
▁뭘로	-12524
▁바서	-12525
▁바치	-12526
▁반이	-12527
▁벌벌	-12528
▁벨트	-12529
▁병이	-12530
▁부네	-12531
▁사준	-12532
▁산악	-12533
▁서민	-12534
▁선보	-12535
▁선입	-12536
▁선진	-12537
▁성년	-12538
▁세미	-12539
▁세세	-12540
▁수산	-12541
▁쉬울	-12542
▁스코	-12543
▁시세	-12544
▁시중	-12545
▁신서	-12546
▁싱겁	-12547
▁쓰난	-12548
▁아으	-12549
▁안허	-12550
▁양석	-12551
▁어질	-12552
▁엑소	-12553
▁영도	-12554
▁우야	-12555
▁의경	-12556
▁이색	-12557
▁이스	-12558
▁일고	-12559
▁장그	-12560
▁장시	-12561
▁적합	-12562
▁접할	-12563
▁죄인	-12564
▁지경	-12565
▁참외	-12566
▁처남	-12567
▁초창	-12568
▁추정	-12569
▁충실	-12570
▁친근	-12571
▁폭포	-12572
▁풍기	-12573
▁하문	-12574
▁한우	-12575
▁할튼	-12576
▁행방	-12577
▁행보	-12578
▁허신	-12579
▁화목	-12580
▁가져야	-12581
▁가주고	-12582
▁개개이	-12583
▁걸려요	-12584
▁겨울철	-12585
▁계신데	-12586
▁고추장	-12587
▁관심사	-12588
▁괘안타	-12589
▁군것질	-12590
▁그랬던	-12591
▁그르믄	-12592
▁늘어지	-12593
▁더구만	-12594
▁딸내미	-12595
▁망설이	-12596
▁매운탕	-12597
▁몰른다	-12598
▁못생겼	-12599
▁보여준	-12600
▁부딪히	-12601
▁삼접살	-12602
▁생각을	-12603
▁선새임	-12604
▁야이는	-12605
▁어쨌든	-12606
▁온다는	-12607
▁외갓집	-12608
▁유기농	-12609
▁이래야	-12610
▁이사장	-12611
▁제주어	-12612
▁조그만	-12613
▁주저앉	-12614
▁쪼가리	-12615
▁쫓겨나	-12616
▁캐리어	-12617
▁컨텐츠	-12618
▁해마두	-12619
▁했어야	-12620
▁호래이	-12621
▁바껴가꼬	-12622
▁싶어그넹	-12623
▁알바생들	-12624
▁떳	-12625
▁렜	-12626
▁튿	-12627
고생	-12628
꺼리	-12629
디어	-12630
랑게	-12631
무소	-12632
바글	-12633
식간	-12634
야금	-12635
어이	-12636
은에	-12637
읎이	-12638
이신	-12639
저개	-12640
치마	-12641
테주	-12642
하대	-12643
허멍	-12644
▁개도	-12645
▁개서	-12646
▁과감	-12647
▁과수	-12648
▁광안	-12649
▁구로	-12650
▁구별	-12651
▁금강	-12652
▁기력	-12653
▁끝낼	-12654
▁난로	-12655
▁눈썰	-12656
▁니꺼	-12657
▁대꾸	-12658
▁도입	-12659
▁돌잔	-12660
▁동이	-12661
▁따숩	-12662
▁떨지	-12663
▁락한	-12664
▁려던	-12665
▁망해	-12666
▁메주	-12667
▁모험	-12668
▁무디	-12669
▁무렵	-12670
▁무치	-12671
▁문과	-12672
▁믹스	-12673
▁바게	-12674
▁받드	-12675
▁뱅기	-12676
▁보쌈	-12677
▁보직	-12678
▁복권	-12679
▁복합	-12680
▁본래	-12681
▁본받	-12682
▁봐예	-12683
▁삼국	-12684
▁색감	-12685
▁색상	-12686
▁서랍	-12687
▁소대	-12688
▁소질	-12689
▁수녀	-12690
▁스이	-12691
▁승미	-12692
▁승차	-12693
▁시렁	-12694
▁식히	-12695
▁쏘곱	-12696
▁쏠쏠	-12697
▁안봔	-12698
▁어땐	-12699
▁없앨	-12700
▁엑셀	-12701
▁여겨	-12702
▁열나	-12703
▁오반	-12704
▁와랑	-12705
▁외숙	-12706
▁유월	-12707
▁의류	-12708
▁이식	-12709
▁인건	-12710
▁일출	-12711
▁일회	-12712
▁임금	-12713
▁임용	-12714
▁장국	-12715
▁저닉	-12716
▁조마	-12717
▁죄책	-12718
▁지급	-12719
▁지비	-12720
▁짐승	-12721
▁집합	-12722
▁책갈	-12723
▁초음	-12724
▁최초	-12725
▁캐치	-12726
▁판다	-12727
▁평수	-12728
▁풀릴	-12729
▁프레	-12730
▁핏줄	-12731
▁하군	-12732
▁할리	-12733
▁항목	-12734
▁해동	-12735
▁해선	-12736
▁했져	-12737
▁확정	-12738
▁후이	-12739
더라구	-12740
소년단	-12741
▁간호학	-12742
▁갈아타	-12743
▁강해서	-12744
▁거북이	-12745
▁건드려	-12746
▁국국물	-12747
▁나타날	-12748
▁더블유	-12749
▁돼야지	-12750
▁또라이	-12751
▁뛰쳐나	-12752
▁로맨틱	-12753
▁마동석	-12754
▁메리트	-12755
▁몰아가	-12756
▁박서방	-12757
▁반드시	-12758
▁범죄자	-12759
▁빌려서	-12760
▁뿌럭지	-12761
▁성님네	-12762
▁소괴기	-12763
▁수제비	-12764
▁순식간	-12765
▁스터디	-12766
▁스파이	-12767
▁씨래기	-12768
▁아이모	-12769
▁아짐마	-12770
▁아침밥	-12771
▁오로지	-12772
▁올라올	-12773
▁울타리	-12774
▁유니폼	-12775
▁육지들	-12776
▁을래요	-12777
▁의해서	-12778
▁잘해는	-12779
▁전기차	-12780
▁줄게요	-12781
▁즌쟁이	-12782
▁즌화할	-12783
▁찜질방	-12784
▁찾으러	-12785
▁책임질	-12786
▁편이가	-12787
▁표준어	-12788
▁하느님	-12789
▁한다매	-12790
▁할까봐	-12791
▁해가멍	-12792
▁해보카	-12793
▁해신게	-12794
▁행님이	-12795
▁디자인이	-12796
▁바글바글	-12797
▁보인다구	-12798
▁으니까는	-12799
▁으십니까	-12800
▁이상하케	-12801
▁제주돈말	-12802
▁코스모스	-12803
▁할려면은	-12804
▁되도록이믄	-12805
▁방탄소년단	-12806
▁생각하그든	-12807
▁카트라이더	-12808
▁하내기라두	-12809
▁끗	-12810
▁료	-12811
▁욜	-12812
구멍	-12813
덜은	-12814
덴지	-12815
도양	-12816
리지	-12817
마둥	-12818
말라	-12819
망이	-12820
무실	-12821
부는	-12822
불로	-12823
세기	-12824
으넹	-12825
이주	-12826
저찌	-12827
정민	-12828
조이	-12829
줍서	-12830
테인	-12831
텐도	-12832
하랜	-12833
▁가세	-12834
▁갈기	-12835
▁거릴	-12836
▁공대	-12837
▁괜찬	-12838
▁구려	-12839
▁그로	-12840
▁기죽	-12841
▁꼴프	-12842
▁나뭇	-12843
▁나인	-12844
▁나주	-12845
▁남원	-12846
▁납작	-12847
▁내두	-12848
▁내민	-12849
▁놔요	-12850
▁뉴질	-12851
▁단단	-12852
▁더더	-12853
▁동굴	-12854
▁동동	-12855
▁뒤처	-12856
▁듬직	-12857
▁디엠	-12858
▁따나	-12859
▁매실	-12860
▁머린	-12861
▁물린	-12862
▁뭉쳐	-12863
▁민원	-12864
▁민폐	-12865
▁방콕	-12866
▁배출	-12867
▁베개	-12868
▁볼께	-12869
▁부린	-12870
▁붙엉	-12871
▁비결	-12872
▁빙수	-12873
▁뽑아	-12874
▁사발	-12875
▁사치	-12876
▁살대	-12877
▁상영	-12878
▁선가	-12879
▁설러	-12880
▁수동	-12881
▁수험	-12882
▁시술	-12883
▁쑤셔	-12884
▁아낄	-12885
▁아레	-12886
▁안동	-12887
▁안먹	-12888
▁엔짜	-12889
▁여잉	-12890
▁여중	-12891
▁예금	-12892
▁예쁠	-12893
▁원주	-12894
▁유발	-12895
▁인마	-12896
▁저질	-12897
▁저하	-12898
▁전남	-12899
▁전방	-12900
▁점검	-12901
▁점차	-12902
▁정문	-12903
▁제게	-12904
▁주요	-12905
▁줄려	-12906
▁집대	-12907
▁쩍게	-12908
▁철수	-12909
▁치대	-12910
▁칠판	-12911
▁커야	-12912
▁쿼트	-12913
▁테크	-12914
▁폭폭	-12915
▁폴더	-12916
▁풍습	-12917
▁하얘	-12918
▁하우	-12919
▁한달	-12920
▁해놔	-12921
▁해팔	-12922
▁향하	-12923
▁허다	-12924
▁헐라	-12925
▁헤미	-12926
▁호두	-12927
▁흥행	-12928
고양이	-12929
레인지	-12930
부인과	-12931
으먼은	-12932
▁가심이	-12933
▁결론식	-12934
▁그께네	-12935
▁넘으믄	-12936
▁노란색	-12937
▁놔신디	-12938
▁눈싸움	-12939
▁느꼈었	-12940
▁는구먼	-12941
▁는데예	-12942
▁닌텐도	-12943
▁달달이	-12944
▁들어난	-12945
▁따라갔	-12946
▁땡겨서	-12947
▁런닝맨	-12948
▁몰르고	-12949
▁박금사	-12950
▁밸런스	-12951
▁비린내	-12952
▁스타킹	-12953
▁승향이	-12954
▁실제로	-12955
▁싸돌아	-12956
▁알려준	-12957
▁알아사	-12958
▁엘에이	-12959
▁엥간히	-12960
▁오리지	-12961
▁워덴지	-12962
▁웨이트	-12963
▁유부남	-12964
▁이녁이	-12965
▁이런디	-12966
▁이태리	-12967
▁일굽시	-12968
▁자부심	-12969
▁적어도	-12970
▁제수씨	-12971
▁중등과	-12972
▁즌화해	-12973
▁짤라야	-12974
▁찾아봐	-12975
▁체지방	-12976
▁해장국	-12977
▁헹펜이	-12978
더라고예	-12979
▁겅허니까	-12980
▁경우는이	-12981
▁그라운드	-12982
▁말씸드려	-12983
▁물어보믄	-12984
▁산부인과	-12985
▁살아부난	-12986
▁색시장사	-12987
▁여개저개	-12988
▁하잖아예	-12989
▁괄	-12990
▁냇	-12991
▁텡	-12992
갈이	-12993
드릴	-12994
들어	-12995
레치	-12996
마개	-12997
블고	-12998
블릿	-12999
와랑	-13000
외과	-13001
조림	-13002
진이	-13003
츤히	-13004
테롤	-13005
환경	-13006
▁가계	-13007
▁가띡	-13008
▁갈거	-13009
▁감상	-13010
▁감옥	-13011
▁감탄	-13012
▁강지	-13013
▁거가	-13014
▁건고	-13015
▁고물	-13016
▁고약	-13017
▁곡석	-13018
▁광장	-13019
▁구슬	-13020
▁권유	-13021
▁기만	-13022
▁끄트	-13023
▁끈기	-13024
▁내쫓	-13025
▁냥반	-13026
▁눈깔	-13027
▁다래	-13028
▁다문	-13029
▁다크	-13030
▁단독	-13031
▁도꾸	-13032
▁독도	-13033
▁돈두	-13034
▁뒷바	-13035
▁라메	-13036
▁리메	-13037
▁리민	-13038
▁먹통	-13039
▁멕였	-13040
▁멩절	-13041
▁모드	-13042
▁모순	-13043
▁못혀	-13044
▁무산	-13045
▁문득	-13046
▁문새	-13047
▁바티	-13048
▁배정	-13049
▁버들	-13050
▁베르	-13051
▁본지	-13052
▁볼테	-13053
▁부비	-13054
▁뻔하	-13055
▁사골	-13056
▁사십	-13057
▁상병	-13058
▁세울	-13059
▁손대	-13060
▁쇼파	-13061
▁수두	-13062
▁시루	-13063
▁싫증	-13064
▁싱크	-13065
▁알약	-13066
▁알코	-13067
▁앞이	-13068
▁야아	-13069
▁왔나	-13070
▁외도	-13071
▁요란	-13072
▁요원	-13073
▁원고	-13074
▁위자	-13075
▁입지	-13076
▁장담	-13077
▁장벽	-13078
▁전라	-13079
▁전적	-13080
▁절로	-13081
▁절제	-13082
▁졌다	-13083
▁조그	-13084
▁조지	-13085
▁졸려	-13086
▁줄지	-13087
▁중개	-13088
▁지간	-13089
▁지긋	-13090
▁지양	-13091
▁쩍은	-13092
▁찌구	-13093
▁채울	-13094
▁챙경	-13095
▁처가	-13096
▁처분	-13097
▁체스	-13098
▁큰데	-13099
▁큰디	-13100
▁테러	-13101
▁폭식	-13102
▁풍성	-13103
▁프피	-13104
▁하릿	-13105
▁하면	-13106
▁한눈	-13107
▁해바	-13108
▁허가	-13109
▁험한	-13110
▁후진	-13111
라이딩	-13112
에스잉	-13113
트리스	-13114
▁가다난	-13115
▁갑니다	-13116
▁거라믄	-13117
▁고러케	-13118
▁그르키	-13119
▁꼬리기	-13120
▁난리여	-13121
▁다녀요	-13122
▁당분간	-13123
▁드래곤	-13124
▁뜻대로	-13125
▁라로이	-13126
▁라이프	-13127
▁마음먹	-13128
▁먹었댄	-13129
▁모여서	-13130
▁바래다	-13131
▁받으야	-13132
▁밧데리	-13133
▁본다는	-13134
▁볼수록	-13135
▁봐부난	-13136
▁분홍색	-13137
▁삔또가	-13138
▁생활관	-13139
▁승용차	-13140
▁싸레기	-13141
▁아이까	-13142
▁어버이	-13143
▁얼만데	-13144
▁에스엔	-13145
▁오에스	-13146
▁워낙이	-13147
▁이수과	-13148
▁있는디	-13149
▁죄책감	-13150
▁짜석이	-13151
▁초창기	-13152
▁츤츤히	-13153
▁친해진	-13154
▁캐스팅	-13155
▁캐주얼	-13156
▁타고나	-13157
▁테이크	-13158
▁해불고	-13159
▁혹예나	-13160
▁구석구석	-13161
▁그렇다문	-13162
▁기다려요	-13163
▁남자친구	-13164
▁된다니까	-13165
▁받아신디	-13166
▁생기고이	-13167
▁속상해서	-13168
▁시끄러워	-13169
▁아들내미	-13170
▁앉아그네	-13171
▁애시당초	-13172
▁와랑와랑	-13173
▁우리집이	-13174
▁있어아꼬	-13175
▁색시장사은	-13176
▁에스엔에스잉	-13177
▁잿	-13178
▁툴	-13179
가짐	-13180
니아	-13181
더이	-13182
도전	-13183
라당	-13184
레미	-13185
베리	-13186
사가	-13187
시스	-13188
아웃	-13189
어보	-13190
유럽	-13191
즐이	-13192
퉁이	-13193
팡이	-13194
하신	-13195
해지	-13196
▁가릴	-13197
▁감이	-13198
▁강호	-13199
▁같씹	-13200
▁고비	-13201
▁구글	-13202
▁구상	-13203
▁그럽	-13204
▁그물	-13205
▁긍깐	-13206
▁깡통	-13207
▁나선	-13208
▁나세	-13209
▁납치	-13210
▁농고	-13211
▁놓쳐	-13212
▁놔주	-13213
▁다소	-13214
▁다짐	-13215
▁달아	-13216
▁대량	-13217
▁또지	-13218
▁마티	-13219
▁먹읍	-13220
▁메가	-13221
▁명심	-13222
▁모금	-13223
▁모물	-13224
▁모슬	-13225
▁못나	-13226
▁무수	-13227
▁문서	-13228
▁묻히	-13229
▁박힌	-13230
▁배변	-13231
▁보존	-13232
▁보채	-13233
▁복용	-13234
▁볼게	-13235
▁생즌	-13236
▁성악	-13237
▁센타	-13238
▁소박	-13239
▁숙성	-13240
▁숙이	-13241
▁시네	-13242
▁쌕쌕	-13243
▁쌤들	-13244
▁아초	-13245
▁안구	-13246
▁약밥	-13247
▁얼리	-13248
▁얼추	-13249
▁영리	-13250
▁오나	-13251
▁왔언	-13252
▁왔음	-13253
▁운행	-13254
▁원치	-13255
▁원칙	-13256
▁융통	-13257
▁의문	-13258
▁이땅	-13259
▁이재	-13260
▁인치	-13261
▁일행	-13262
▁자갈	-13263
▁자궁	-13264
▁점잖	-13265
▁조폭	-13266
▁종료	-13267
▁주체	-13268
▁준거	-13269
▁중문	-13270
▁지는	-13271
▁창지	-13272
▁충족	-13273
▁치수	-13274
▁침체	-13275
▁탄력	-13276
▁탄산	-13277
▁탈이	-13278
▁털털	-13279
▁펄펄	-13280
▁펭상	-13281
▁포크	-13282
▁품질	-13283
▁하내	-13284
▁학대	-13285
▁한짝	-13286
▁해비	-13287
▁핵꾜	-13288
▁허자	-13289
▁허진	-13290
▁휴일	-13291
도리탕	-13292
선상님	-13293
적거리	-13294
▁강동원	-13295
▁계즐이	-13296
▁고구매	-13297
▁고아원	-13298
▁곧는거	-13299
▁괜시리	-13300
▁그러면	-13301
▁기념품	-13302
▁긴장감	-13303
▁나으두	-13304
▁냄새나	-13305
▁노동자	-13306
▁느껴진	-13307
▁다든가	-13308
▁다이소	-13309
▁뜨거워	-13310
▁맛있댄	-13311
▁메레치	-13312
▁무사히	-13313
▁물어봤	-13314
▁미용사	-13315
▁사거리	-13316
▁새까리	-13317
▁성님이	-13318
▁소리여	-13319
▁스시로	-13320
▁시커멍	-13321
▁싶은디	-13322
▁아주멍	-13323
▁알바도	-13324
▁야들아	-13325
▁어떵사	-13326
▁어쩌고	-13327
▁움직인	-13328
▁유난히	-13329
▁일부러	-13330
▁재미나	-13331
▁재방송	-13332
▁젓가락	-13333
▁지나믄	-13334
▁지랭이	-13335
▁지원금	-13336
▁집대레	-13337
▁초음파	-13338
▁태블릿	-13339
▁투자자	-13340
▁페인트	-13341
▁하니까	-13342
▁하릿밤	-13343
▁한대요	-13344
▁함불로	-13345
▁해봐야	-13346
▁했으니	-13347
▁했주게	-13348
▁가띡이나	-13349
▁같씹니더	-13350
▁그르니까	-13351
▁뉴질랜드	-13352
▁닭도리탕	-13353
▁더라니까	-13354
▁따라다니	-13355
▁모의고사	-13356
▁무서워가	-13357
▁무한도전	-13358
▁색깔이가	-13359
▁어떤지를	-13360
▁어른들예	-13361
▁장인으런	-13362
▁재기재기	-13363
▁한다던지	-13364
▁들어가신디	-13365
▁알았으이까	-13366
▁렀	-13367
▁톱	-13368
간디	-13369
기구	-13370
대사	-13371
랙스	-13372
렐라	-13373
생각	-13374
었지	-13375
예요	-13376
졌던	-13377
커트	-13378
하맨	-13379
한테	-13380
▁가긴	-13381
▁갇혀	-13382
▁같아	-13383
▁거듭	-13384
▁게게	-13385
▁경매	-13386
▁경사	-13387
▁고와	-13388
▁공평	-13389
▁길구	-13390
▁까탈	-13391
▁꼬이	-13392
▁꾸마	-13393
▁끄집	-13394
▁나루	-13395
▁낙서	-13396
▁난방	-13397
▁남겼	-13398
▁내창	-13399
▁눈길	-13400
▁단련	-13401
▁단축	-13402
▁달력	-13403
▁담긴	-13404
▁대정	-13405
▁데드	-13406
▁드문	-13407
▁듬뿍	-13408
▁라네	-13409
▁망라	-13410
▁머그	-13411
▁모일	-13412
▁물렸	-13413
▁미식	-13414
▁미신	-13415
▁밀코	-13416
▁바랬	-13417
▁범벅	-13418
▁베려	-13419
▁보편	-13420
▁부수	-13421
▁부실	-13422
▁블리	-13423
▁빈걸	-13424
▁뾰족	-13425
▁사격	-13426
▁생계	-13427
▁석이	-13428
▁수중	-13429
▁스쳐	-13430
▁스틱	-13431
▁슬리	-13432
▁슬쩍	-13433
▁시애	-13434
▁식개	-13435
▁신박	-13436
▁신장	-13437
▁심할	-13438
▁싶언	-13439
▁쓰레	-13440
▁쓰봉	-13441
▁씨끄	-13442
▁씨앗	-13443
▁아께	-13444
▁안치	-13445
▁여친	-13446
▁오페	-13447
▁올련	-13448
▁완료	-13449
▁왐마	-13450
▁왕할	-13451
▁외면	-13452
▁용납	-13453
▁워디	-13454
▁유모	-13455
▁유진	-13456
▁으란	-13457
▁응시	-13458
▁응용	-13459
▁이망	-13460
▁이슬	-13461
▁인내	-13462
▁일르	-13463
▁일만	-13464
▁일차	-13465
▁자막	-13466
▁자수	-13467
▁잔다	-13468
▁재즈	-13469
▁절간	-13470
▁정반	-13471
▁제때	-13472
▁조끼	-13473
▁중소	-13474
▁증권	-13475
▁지으	-13476
▁지킨	-13477
▁진입	-13478
▁짜구	-13479
▁쩌쪽	-13480
▁쬐깐	-13481
▁차녀	-13482
▁창원	-13483
▁체온	-13484
▁초과	-13485
▁측정	-13486
▁캠프	-13487
▁타가	-13488
▁탈락	-13489
▁퇴사	-13490
▁투패	-13491
▁튜브	-13492
▁파업	-13493
▁파전	-13494
▁파혼	-13495
▁학비	-13496
▁항암	-13497
▁허옇	-13498
▁허허	-13499
▁헤엄	-13500
▁화제	-13501
▁확확	-13502
▁활력	-13503
▁활짝	-13504
▁회화	-13505
▁휘둘	-13506
▁히트	-13507
디다게	-13508
려면은	-13509
릅니다	-13510
▁가생이	-13511
▁갈께요	-13512
▁거슬리	-13513
▁거짓불	-13514
▁것이여	-13515
▁고뿌리	-13516
▁과수원	-13517
▁귀여웠	-13518
▁기름기	-13519
▁꿀알바	-13520
▁나갔었	-13521
▁나타내	-13522
▁다던지	-13523
▁더러워	-13524
▁마셔야	-13525
▁맞조이	-13526
▁메이드	-13527
▁못생긴	-13528
▁못지않	-13529
▁물괴기	-13530
▁버려서	-13531
▁버버리	-13532
▁보여주	-13533
▁뽂음밥	-13534
▁사이코	-13535
▁수목원	-13536
▁신문지	-13537
▁쌀국수	-13538
▁아구찜	-13539
▁아까바	-13540
▁아옵시	-13541
▁아픈지	-13542
▁않으믄	-13543
▁약혼식	-13544
▁영허난	-13545
▁예식장	-13546
▁웃움이	-13547
▁위원회	-13548
▁으래이	-13549
▁이동욱	-13550
▁이얘기	-13551
▁인건비	-13552
▁인해가	-13553
▁일거리	-13554
▁일어서	-13555
▁입장이	-13556
▁있었나	-13557
▁장그택	-13558
▁중성화	-13559
▁지인들	-13560
▁쪼끔만	-13561
▁쭐어든	-13562
▁찬차이	-13563
▁처갓집	-13564
▁쳐다봐	-13565
▁콜레스	-13566
▁타이트	-13567
▁태워다	-13568
▁틀림없	-13569
▁프로필	-13570
▁해진다	-13571
▁헷갈려	-13572
▁휴양지	-13573
드라고요	-13574
▁겅해그네	-13575
▁겠다라는	-13576
▁골앙은에	-13577
▁많드라구	-13578
▁말씸하시	-13579
▁배우가이	-13580
▁빨리빨리	-13581
▁시직살이	-13582
▁쏘곱더레	-13583
▁씨끄루이	-13584
▁아이언맨	-13585
▁알았디야	-13586
▁왜그냐면	-13587
▁결혼기념일	-13588
▁콜레스테롤	-13589
▁꼉	-13590
▁룹	-13591
▁쁠	-13592
구이	-13593
꺼라	-13594
날드	-13595
다섯	-13596
더거	-13597
디서	-13598
란드	-13599
룹게	-13600
리닝	-13601
막이	-13602
빠리	-13603
어주	-13604
이는	-13605
자국	-13606
자식	-13607
장구	-13608
저만	-13609
조마	-13610
허도	-13611
▁가찹	-13612
▁각재	-13613
▁갈피	-13614
▁개방	-13615
▁갱찰	-13616
▁결코	-13617
▁곤밥	-13618
▁구절	-13619
▁금새	-13620
▁까마	-13621
▁나보	-13622
▁나조	-13623
▁내서	-13624
▁널리	-13625
▁논의	-13626
▁능가	-13627
▁대대	-13628
▁대략	-13629
▁도울	-13630
▁되주	-13631
▁들린	-13632
▁띠기	-13633
▁라야	-13634
▁마사	-13635
▁맥도	-13636
▁맨치	-13637
▁머물	-13638
▁명상	-13639
▁몽땅	-13640
▁묵어	-13641
▁물들	-13642
▁민박	-13643
▁박박	-13644
▁백숙	-13645
▁벌라	-13646
▁변할	-13647
▁부류	-13648
▁불쑥	-13649
▁붙일	-13650
▁비씨	-13651
▁뽂아	-13652
▁새닥	-13653
▁서구	-13654
▁서명	-13655
▁서툴	-13656
▁세심	-13657
▁세제	-13658
▁속담	-13659
▁속하	-13660
▁수실	-13661
▁스나	-13662
▁스쿨	-13663
▁식성	-13664
▁아장	-13665
▁안아	-13666
▁엄격	-13667
▁엠피	-13668
▁역전	-13669
▁연비	-13670
▁오류	-13671
▁오켄	-13672
▁올른	-13673
▁외울	-13674
▁요케	-13675
▁우애	-13676
▁원정	-13677
▁유대	-13678
▁은애	-13679
▁이맘	-13680
▁이원	-13681
▁이직	-13682
▁이효	-13683
▁자손	-13684
▁자시	-13685
▁잠수	-13686
▁저께	-13687
▁저랬	-13688
▁적정	-13689
▁조율	-13690
▁종가	-13691
▁증세	-13692
▁직설	-13693
▁진학	-13694
▁짤릴	-13695
▁쪼깐	-13696
▁찾앙	-13697
▁청정	-13698
▁치약	-13699
▁카부	-13700
▁캐시	-13701
▁커리	-13702
▁코디	-13703
▁클라	-13704
▁큼직	-13705
▁키는	-13706
▁타투	-13707
▁타협	-13708
▁탱이	-13709
▁퉁퉁	-13710
▁특기	-13711
▁팀원	-13712
▁파출	-13713
▁푸들	-13714
▁해준	-13715
▁허우	-13716
▁효소	-13717
다보니	-13718
덩어리	-13719
셨으문	-13720
▁가부런	-13721
▁거마씨	-13722
▁걸어야	-13723
▁고라도	-13724
▁구르무	-13725
▁그든요	-13726
▁그라데	-13727
▁기여히	-13728
▁끓여서	-13729
▁나온단	-13730
▁누우두	-13731
▁느껴서	-13732
▁다니멍	-13733
▁드나들	-13734
▁들어줄	-13735
▁라서요	-13736
▁말아먹	-13737
▁먹으난	-13738
▁모다게	-13739
▁목구녕	-13740
▁무서우	-13741
▁무신일	-13742
▁반지기	-13743
▁보라색	-13744
▁부어서	-13745
▁부턴가	-13746
▁삐아리	-13747
▁서두르	-13748
▁소내기	-13749
▁순두부	-13750
▁스쿠버	-13751
▁쌍대이	-13752
▁여개는	-13753
▁연속극	-13754
▁외숙모	-13755
▁으외로	-13756
▁이라는	-13757
▁인데두	-13758
▁일이다	-13759
▁잔모이	-13760
▁잡허도	-13761
▁재기두	-13762
▁전지현	-13763
▁정해서	-13764
▁즌화두	-13765
▁지굼은	-13766
▁쩌거도	-13767
▁탁배기	-13768
▁태버린	-13769
▁포켓몬	-13770
▁할텐데	-13771
▁걸음내기	-13772
▁내리다지	-13773
▁다녀신디	-13774
▁돌아다녔	-13775
▁들어온다	-13776
▁맥도날드	-13777
▁아름다움	-13778
▁아시갸우	-13779
▁안해부난	-13780
▁알아신디	-13781
▁어염드래	-13782
▁와이파이	-13783
▁장인어른	-13784
▁조마조마	-13785
▁할머이랑	-13786
▁아주멍이가	-13787
▁닉	-13788
▁땁	-13789
▁켰	-13790
▁툰	-13791
겠나	-13792
교통	-13793
구니	-13794
깅스	-13795
꼬리	-13796
란트	-13797
모로	-13798
부로	-13799
서로	-13800
스테	-13801
에따	-13802
저쩌	-13803
주기	-13804
커라	-13805
티브	-13806
항게	-13807
▁갈만	-13808
▁감소	-13809
▁개차	-13810
▁갠가	-13811
▁갬성	-13812
▁겅했	-13813
▁결석	-13814
▁결승	-13815
▁경유	-13816
▁고로	-13817
▁곧고	-13818
▁골으	-13819
▁공방	-13820
▁과대	-13821
▁구울	-13822
▁글치	-13823
▁기복	-13824
▁꼬막	-13825
▁꼬불	-13826
▁나리	-13827
▁난감	-13828
▁낮짠	-13829
▁노을	-13830
▁농촌	-13831
▁누난	-13832
▁다칠	-13833
▁더덕	-13834
▁도매	-13835
▁동경	-13836
▁따위	-13837
▁마쳤	-13838
▁말릴	-13839
▁말지	-13840
▁맛난	-13841
▁맡겼	-13842
▁메일	-13843
▁멕시	-13844
▁목줄	-13845
▁무때	-13846
▁물도	-13847
▁물외	-13848
▁물통	-13849
▁뭔갈	-13850
▁밥값	-13851
▁밲에	-13852
▁벌엉	-13853
▁베기	-13854
▁벤치	-13855
▁벼락	-13856
▁병신	-13857
▁병실	-13858
▁보신	-13859
▁부하	-13860
▁불꽃	-13861
▁빅뱅	-13862
▁빌엉	-13863
▁빼내	-13864
▁사각	-13865
▁산도	-13866
▁산만	-13867
▁선반	-13868
▁성품	-13869
▁소뭇	-13870
▁소신	-13871
▁손상	-13872
▁수돗	-13873
▁수러	-13874
▁심플	-13875
▁썰렁	-13876
▁아와	-13877
▁앤경	-13878
▁야생	-13879
▁오가	-13880
▁옥돔	-13881
▁왕국	-13882
▁이발	-13883
▁이벨	-13884
▁이오	-13885
▁일화	-13886
▁잉까	-13887
▁자나	-13888
▁자대	-13889
▁자도	-13890
▁자루	-13891
▁자민	-13892
▁잠꾸	-13893
▁전차	-13894
▁정규	-13895
▁집행	-13896
▁징징	-13897
▁짜이	-13898
▁쩌그	-13899
▁쪽에	-13900
▁쪽파	-13901
▁차근	-13902
▁체포	-13903
▁카라	-13904
▁탁탁	-13905
▁토할	-13906
▁투기	-13907
▁투덜	-13908
▁튀긴	-13909
▁퍽퍽	-13910
▁품이	-13911
▁한판	-13912
▁홍수	-13913
▁화살	-13914
▁훔친	-13915
▁휘떡	-13916
덜이랑	-13917
바구니	-13918
부침개	-13919
아이피	-13920
졈신게	-13921
▁가디건	-13922
▁가로수	-13923
▁가르킬	-13924
▁가져온	-13925
▁갈라지	-13926
▁갑니까	-13927
▁갤국은	-13928
▁계셔서	-13929
▁고라사	-13930
▁구해야	-13931
▁그거여	-13932
▁그그만	-13933
▁그투룩	-13934
▁기름진	-13935
▁깨끗이	-13936
▁깨어나	-13937
▁나으가	-13938
▁날라오	-13939
▁달라져	-13940
▁대굴빡	-13941
▁데스크	-13942
▁드러워	-13943
▁딴따라	-13944
▁뛰어들	-13945
▁레깅스	-13946
▁루테인	-13947
▁머릿결	-13948
▁먹으러	-13949
▁목표를	-13950
▁물건짝	-13951
▁미술관	-13952
▁미워하	-13953
▁밀갈그	-13954
▁바껴야	-13955
▁바뻐서	-13956
▁비싼디	-13957
▁새진이	-13958
▁수영복	-13959
▁쉐이크	-13960
▁시나매	-13961
▁쌩머리	-13962
▁써마이	-13963
▁아자씨	-13964
▁어게인	-13965
▁어지끼	-13966
▁옆구리	-13967
▁요만큼	-13968
▁이쁘제	-13969
▁인지라	-13970
▁일본인	-13971
▁잡아당	-13972
▁줄넘기	-13973
▁징그러	-13974
▁쪽팔리	-13975
▁고슴도치	-13976
▁구석탱이	-13977
▁두루두루	-13978
▁따라그넹	-13979
▁많았부난	-13980
▁무때놓고	-13981
▁받앙으네	-13982
▁부끄러워	-13983
▁시아버지	-13984
▁으르신들	-13985
▁이만저만	-13986
▁중간고사	-13987
▁클라이밍	-13988
▁튀어나오	-13989
▁감자부침개	-13990
▁많아가주구	-13991
▁브이아이피	-13992
▁살아부니까	-13993
▁프로그래머	-13994
▁밋	-13995
가방	-13996
간장	-13997
다나	-13998
다르	-13999
수리	-14000
아척	-14001
여시	-14002
이니	-14003
장창	-14004
지지	-14005
코드	-14006
▁감안	-14007
▁개화	-14008
▁거거	-14009
▁견적	-14010
▁계발	-14011
▁공이	-14012
▁공책	-14013
▁관하	-14014
▁광대	-14015
▁구맬	-14016
▁국장	-14017
▁군고	-14018
▁그체	-14019
▁급격	-14020
▁기면	-14021
▁길가	-14022
▁나설	-14023
▁난처	-14024
▁낮춰	-14025
▁내만	-14026
▁녹화	-14027
▁놀랄	-14028
▁누룽	-14029
▁느들	-14030
▁늘상	-14031
▁니리	-14032
▁다뤄	-14033
▁단합	-14034
▁대금	-14035
▁대마	-14036
▁데쳐	-14037
▁돈독	-14038
▁되믄	-14039
▁두유	-14040
▁둬요	-14041
▁들올	-14042
▁따먹	-14043
▁따운	-14044
▁맙써	-14045
▁머지	-14046
▁멘도	-14047
▁무구	-14048
▁무당	-14049
▁무도	-14050
▁무라	-14051
▁무래	-14052
▁무얼	-14053
▁물놀	-14054
▁미션	-14055
▁민트	-14056
▁밥솥	-14057
▁별도	-14058
▁보육	-14059
▁복도	-14060
▁불른	-14061
▁빌린	-14062
▁사네	-14063
▁생김	-14064
▁세력	-14065
▁셔도	-14066
▁수세	-14067
▁스텔	-14068
▁시식	-14069
▁시큰	-14070
▁시퍼	-14071
▁신자	-14072
▁실거	-14073
▁싸납	-14074
▁쓸려	-14075
▁아디	-14076
▁알맞	-14077
▁액수	-14078
▁액젓	-14079
▁얼려	-14080
▁여여	-14081
▁외관	-14082
▁요행	-14083
▁울릉	-14084
▁웃는	-14085
▁위선	-14086
▁유료	-14087
▁으랴	-14088
▁이세	-14089
▁인쇄	-14090
▁인용	-14091
▁일주	-14092
▁자불	-14093
▁절망	-14094
▁정석	-14095
▁정정	-14096
▁조꿈	-14097
▁족구	-14098
▁졸리	-14099
▁좁쌀	-14100
▁주간	-14101
▁지껄	-14102
▁지연	-14103
▁지켰	-14104
▁질가	-14105
▁질색	-14106
▁징상	-14107
▁찍힌	-14108
▁철판	-14109
▁촌이	-14110
▁치유	-14111
▁코코	-14112
▁태평	-14113
▁터널	-14114
▁팡팡	-14115
▁퍼붓	-14116
▁펭귄	-14117
▁풀러	-14118
▁하단	-14119
▁해났	-14120
▁해대	-14121
▁홀로	-14122
▁홍대	-14123
▁화질	-14124
▁회전	-14125
개다리	-14126
레이션	-14127
송꼬락	-14128
우다게	-14129
이까네	-14130
지부지	-14131
▁가까우	-14132
▁가려서	-14133
▁골프장	-14134
▁교도소	-14135
▁넘어져	-14136
▁노니까	-14137
▁는답시	-14138
▁다이빙	-14139
▁달려들	-14140
▁달리기	-14141
▁대나무	-14142
▁더래두	-14143
▁동상두	-14144
▁드레야	-14145
▁또똣한	-14146
▁메러치	-14147
▁목적지	-14148
▁바게트	-14149
▁방송사	-14150
▁빠져서	-14151
▁빼떼기	-14152
▁사겼었	-14153
▁사방데	-14154
▁살아났	-14155
▁속상했	-14156
▁시원찮	-14157
▁심리학	-14158
▁애완견	-14159
▁양념장	-14160
▁어린땐	-14161
▁에게서	-14162
▁여전히	-14163
▁영양소	-14164
▁예동상	-14165
▁오늘날	-14166
▁와부난	-14167
▁위자료	-14168
▁이력서	-14169
▁이실때	-14170
▁자꾸나	-14171
▁지도자	-14172
▁지신디	-14173
▁진통제	-14174
▁쫄로리	-14175
▁카부덴	-14176
▁큰누우	-14177
▁하룻밤	-14178
▁항아리	-14179
▁행수님	-14180
▁허기사	-14181
▁호리이	-14182
▁휴게소	-14183
▁다이어리	-14184
▁뛰어다니	-14185
▁모른다고	-14186
▁바퀴벌레	-14187
▁받아들여	-14188
▁사람인디	-14189
▁사램들과	-14190
▁어려운디	-14191
▁어신거라	-14192
▁오글거리	-14193
▁좋으크라	-14194
▁킬로미터	-14195
▁하당보난	-14196
▁새끼송꼬락	-14197
▁스타일이여	-14198
▁친구들이영	-14199
▁둰	-14200
갈기	-14201
꽂이	-14202
네이	-14203
느므	-14204
덕지	-14205
렁크	-14206
무새	-14207
므로	-14208
새에	-14209
어탕	-14210
없는	-14211
었어	-14212
으래	-14213
주난	-14214
주리	-14215
쨰서	-14216
쫄깃	-14217
퍼스	-14218
해라	-14219
했져	-14220
헌테	-14221
▁가직	-14222
▁강물	-14223
▁개똥	-14224
▁고픈	-14225
▁골반	-14226
▁공지	-14227
▁구간	-14228
▁구기	-14229
▁기니	-14230
▁기엽	-14231
▁기피	-14232
▁김호	-14233
▁껀데	-14234
▁께로	-14235
▁꼭꼭	-14236
▁꾸덕	-14237
▁낭이	-14238
▁노랠	-14239
▁놓친	-14240
▁니케	-14241
▁달릴	-14242
▁대글	-14243
▁대령	-14244
▁대인	-14245
▁대청	-14246
▁돌령	-14247
▁동아	-14248
▁돼두	-14249
▁뒤우	-14250
▁뒤틀	-14251
▁따를	-14252
▁땐디	-14253
▁땡겼	-14254
▁떼기	-14255
▁또랑	-14256
▁똘똘	-14257
▁뚫리	-14258
▁라먼	-14259
▁라며	-14260
▁루트	-14261
▁마큼	-14262
▁말레	-14263
▁먹일	-14264
▁명소	-14265
▁모앙	-14266
▁묶여	-14267
▁뮬러	-14268
▁발끝	-14269
▁발리	-14270
▁벌초	-14271
▁베락	-14272
▁보맨	-14273
▁분장	-14274
▁비롯	-14275
▁빌렸	-14276
▁빼돌	-14277
▁사슴	-14278
▁살래	-14279
▁살쪄	-14280
▁섬유	-14281
▁소품	-14282
▁습하	-14283
▁승마	-14284
▁식상	-14285
▁식장	-14286
▁신화	-14287
▁쌩쌩	-14288
▁쎄미	-14289
▁쓰다	-14290
▁알켜	-14291
▁애써	-14292
▁애용	-14293
▁어필	-14294
▁얼큰	-14295
▁영이	-14296
▁옌필	-14297
▁오기	-14298
▁오당	-14299
▁오신	-14300
▁왕창	-14301
▁외곽	-14302
▁외지	-14303
▁왼갖	-14304
▁용인	-14305
▁우터	-14306
▁유방	-14307
▁으세	-14308
▁음매	-14309
▁의대	-14310
▁이룬	-14311
▁이룰	-14312
▁이브	-14313
▁이언	-14314
▁인고	-14315
▁자당	-14316
▁작작	-14317
▁장염	-14318
▁전동	-14319
▁제왕	-14320
▁종부	-14321
▁종손	-14322
▁중순	-14323
▁지날	-14324
▁짤려	-14325
▁짤린	-14326
▁쳐두	-14327
▁출출	-14328
▁치이	-14329
▁키즈	-14330
▁타운	-14331
▁텐션	-14332
▁토스	-14333
▁토트	-14334
▁포트	-14335
▁햇살	-14336
▁허문	-14337
▁헐렁	-14338
▁헤지	-14339
▁협조	-14340
▁호빵	-14341
▁호의	-14342
▁화끈	-14343
▁효능	-14344
▁흡연	-14345
는거라	-14346
멘터리	-14347
모님이	-14348
▁가져갈	-14349
▁개구리	-14350
▁갠시리	-14351
▁거꾸루	-14352
▁게난게	-14353
▁겡향이	-14354
▁겨울옷	-14355
▁고스톱	-14356
▁그눔어	-14357
▁그랑게	-14358
▁근갑다	-14359
▁기능사	-14360
▁까운데	-14361
▁날아가	-14362
▁낼려고	-14363
▁네다섯	-14364
▁니라구	-14365
▁다녀야	-14366
▁더운데	-14367
▁도라지	-14368
▁든다고	-14369
▁들러도	-14370
▁딱제이	-14371
▁라는디	-14372
▁마셔요	-14373
▁마우스	-14374
▁마음껀	-14375
▁마이클	-14376
▁많으난	-14377
▁매가리	-14378
▁매달려	-14379
▁먹었제	-14380
▁사세요	-14381
▁소프트	-14382
▁시꾸라	-14383
▁신데요	-14384
▁아부진	-14385
▁알려줘	-14386
▁알바느	-14387
▁어리석	-14388
▁여개두	-14389
▁예나랑	-14390
▁외로움	-14391
▁우쨰서	-14392
▁우회전	-14393
▁웨이팅	-14394
▁을라나	-14395
▁이거이	-14396
▁이순신	-14397
▁이효리	-14398
▁전기세	-14399
▁정거장	-14400
▁주물러	-14401
▁즈네두	-14402
▁직장으	-14403
▁찢어져	-14404
▁추리닝	-14405
▁추어탕	-14406
▁츄리닝	-14407
▁카든데	-14408
▁큰오빠	-14409
▁트렁크	-14410
▁할머님	-14411
▁항공사	-14412
▁호는게	-14413
▁호랑이	-14414
▁호랭이	-14415
▁혼동안	-14416
오라바이	-14417
▁가거나잉	-14418
▁걸어다니	-14419
▁걸음걸이	-14420
▁는답시구	-14421
▁돌아댕겼	-14422
▁돌아댕길	-14423
▁뜰어지구	-14424
▁물어보난	-14425
▁빠진다고	-14426
▁생가가는	-14427
▁스튜디오	-14428
▁싶었는디	-14429
▁싸모님이	-14430
▁아니우다	-14431
▁아주마이	-14432
▁애덜이랑	-14433
▁어마무시	-14434
▁어울린다	-14435
▁얼구리에	-14436
▁운제든지	-14437
▁이라는디	-14438
▁중간새에	-14439
▁지나가당	-14440
▁지네끼리	-14441
▁쫄깃쫄깃	-14442
▁해야겠다	-14443
▁다큐멘터리	-14444
▁지네들끼리	-14445
▁편이어가주구	-14446
▁꼿	-14447
▁렉	-14448
▁림	-14449
▁볕	-14450
▁웠	-14451
감자	-14452
겨울	-14453
기이	-14454
니이	-14455
데미	-14456
라들	-14457
방울	-14458
스티	-14459
업원	-14460
여도	-14461
전이	-14462
제잉	-14463
짠지	-14464
타이	-14465
하제	-14466
▁가닥	-14467
▁가새	-14468
▁갈꼬	-14469
▁강주	-14470
▁개두	-14471
▁개혁	-14472
▁갱신	-14473
▁거둬	-14474
▁거르	-14475
▁걸노	-14476
▁겅헐	-14477
▁게영	-14478
▁겠지	-14479
▁결재	-14480
▁고여	-14481
▁공모	-14482
▁공정	-14483
▁과개	-14484
▁교가	-14485
▁구속	-14486
▁구한	-14487
▁글라	-14488
▁글램	-14489
▁금이	-14490
▁기수	-14491
▁까봐	-14492
▁꾸밀	-14493
▁나비	-14494
▁내령	-14495
▁노골	-14496
▁노라	-14497
▁노랜	-14498
▁도수	-14499
▁	-14500
이	-14501
가	-14502
그	-14503
.	-14504
는	-14505
아	-14506
하	-14507
어	-14508
고	-14509
지	-14510
거	-14511
나	-14512
다	-14513
에	-14514
게	-14515
라	-14516
서	-14517
도	-14518
구	-14519
기	-14520
은	-14521
을	-14522
니	-14523
사	-14524
?	-14525
있	-14526
해	-14527
한	-14528
리	-14529
들	-14530
쫌	-14531
디	-14532
제	-14533
데	-14534
요	-14535
시	-14536
꼬	-14537
주	-14538
를	-14539
인	-14540
내	-14541
보	-14542
안	-14543
야	-14544
우	-14545
자	-14546
로	-14547
대	-14548
마	-14549
으	-14550
까	-14551
만	-14552
느	-14553
래	-14554
두	-14555
여	-14556
런	-14557
께	-14558
일	-14559
같	-14560
말	-14561
오	-14562
근	-14563
부	-14564
때	-14565
면	-14566
되	-14567
무	-14568
수	-14569
난	-14570
생	-14571
케	-14572
간	-14573
신	-14574
드	-14575
막	-14576
러	-14577
네	-14578
저	-14579
뭐	-14580
었	-14581
것	-14582
좋	-14583
예	-14584
많	-14585
너	-14586
했	-14587
먹	-14588
믄	-14589
더	-14590
진	-14591
애	-14592
할	-14593
또	-14594
상	-14595
르	-14596
정	-14597
스	-14598
장	-14599
머	-14600
각	-14601
없	-14602
잘	-14603
전	-14604
유	-14605
랑	-14606
긍	-14607
의	-14608
바	-14609
짜	-14610
람	-14611
모	-14612
든	-14613
~	-14614
려	-14615
건	-14616
냥	-14617
좀	-14618
금	-14619
허	-14620
비	-14621
치	-14622
영	-14623
날	-14624
번	-14625
집	-14626
개	-14627
원	-14628
미	-14629
약	-14630
잖	-14631
동	-14632
걸	-14633
잉	-14634
냐	-14635
알	-14636
민	-14637
른	-14638
던	-14639
못	-14640
소	-14641
겠	-14642
살	-14643
물	-14644
음	-14645
않	-14646
재	-14647
화	-14648
경	-14649
당	-14650
루	-14651
적	-14652
세	-14653
문	-14654
와	-14655
매	-14656
레	-14657
중	-14658
실	-14659
노	-14660
운	-14661
따	-14662
학	-14663
분	-14664
단	-14665
식	-14666
엄	-14667
싶	-14668
행	-14669
방	-14670
왜	-14671
겨	-14672
언	-14673
봐	-14674
성	-14675
테	-14676
히	-14677
트	-14678
차	-14679
카	-14680
았	-14681
계	-14682
긴	-14683
타	-14684
얘	-14685
교	-14686
조	-14687
불	-14688
심	-14689
싸	-14690
선	-14691
남	-14692
친	-14693
님	-14694
십	-14695
새	-14696
연	-14697
맞	-14698
워	-14699
양	-14700
달	-14701
빠	-14702
램	-14703
입	-14704
공	-14705
갔	-14706
배	-14707
쪼	-14708
속	-14709
누	-14710
버	-14711
터	-14712
과	-14713
돈	-14714
얼	-14715
받	-14716
편	-14717
글	-14718
갖	-14719
국	-14720
올	-14721
본	-14722
강	-14723
끔	-14724
직	-14725
갈	-14726
혼	-14727
울	-14728
년	-14729
겅	-14730
봤	-14731
처	-14732
질	-14733
된	-14734
먼	-14735
줄	-14736
키	-14737
작	-14738
증	-14739
관	-14740
산	-14741
피	-14742
멍	-14743
돼	-14744
져	-14745
티	-14746
맨	-14747
왔	-14748
놀	-14749
반	-14750
감	-14751
혀	-14752
회	-14753
청	-14754
몰	-14755
딱	-14756
발	-14757
맛	-14758
뭔	-14759
씨	-14760
렇	-14761
명	-14762
위	-14763
크	-14764
추	-14765
삼	-14766
참	-14767
돌	-14768
쓰	-14769
름	-14770
통	-14771
럼	-14772
습	-14773
점	-14774
덜	-14775
길	-14776
호	-14777
랬	-14778
용	-14779
격	-14780
힘	-14781
담	-14782
체	-14783
결	-14784
온	-14785
끼	-14786
린	-14787
프	-14788
응	-14789
코	-14790
억	-14791
메	-14792
파	-14793
랜	-14794
석	-14795
눈	-14796
겄	-14797
될	-14798
녀	-14799
태	-14800
임	-14801
즘	-14802
헌	-14803
완	-14804
별	-14805
짝	-14806
볼	-14807
절	-14808
밥	-14809
준	-14810
놓	-14811
천	-14812
손	-14813
뜨	-14814
닮	-14815
댄	-14816
꾸	-14817
됐	-14818
란	-14819
업	-14820
잡	-14821
백	-14822
굼	-14823
댕	-14824
외	-14825
망	-14826
등	-14827
엔	-14828
죽	-14829
곡	-14830
형	-14831
빨	-14832
줘	-14833
큰	-14834
핸	-14835
몇	-14836
죠	-14837
후	-14838
릏	-14839
셨	-14840
였	-14841
목	-14842
암	-14843
꺼	-14844
씩	-14845
락	-14846
팔	-14847
군	-14848
쪽	-14849
술	-14850
껴	-14851
론	-14852
열	-14853
괜	-14854
떤	-14855
늘	-14856
릴	-14857
움	-14858
박	-14859
복	-14860
렸	-14861
겁	-14862
육	-14863
닌	-14864
찾	-14865
앞	-14866
초	-14867
력	-14868
젠	-14869
써	-14870
싫	-14871
월	-14872
났	-14873
브	-14874
땜	-14875
겐	-14876
둘	-14877
끝	-14878
찮	-14879
포	-14880
벌	-14881
옷	-14882
활	-14883
졌	-14884
솔	-14885
항	-14886
잔	-14887
찌	-14888
필	-14889
몸	-14890
역	-14891
슨	-14892
취	-14893
토	-14894
혹	-14895
험	-14896
깐	-14897
종	-14898
병	-14899
갑	-14900
책	-14901
떠	-14902
딴	-14903
넘	-14904
쳐	-14905
냉	-14906
커	-14907
골	-14908
색	-14909
설	-14910
족	-14911
째	-14912
잠	-14913
귀	-14914
밌	-14915
즌	-14916
튼	-14917
딸	-14918
찍	-14919
켜	-14920
즈	-14921
칠	-14922
극	-14923
깨	-14924
왕	-14925
겡	-14926
합	-14927
밖	-14928
최	-14929
김	-14930
현	-14931
듣	-14932
순	-14933
출	-14934
걔	-14935
품	-14936
투	-14937
셔	-14938
꼭	-14939
텨	-14940
떵	-14941
굴	-14942
변	-14943
걍	-14944
럴	-14945
떨	-14946
찬	-14947
급	-14948
뒤	-14949
렁	-14950
함	-14951
쉬	-14952
옛	-14953
씸	-14954
법	-14955
넹	-14956
쁘	-14957
웃	-14958
앙	-14959
닥	-14960
특	-14961
럽	-14962
뭘	-14963
엉	-14964
채	-14965
독	-14966
침	-14967
접	-14968
평	-14969
확	-14970
쩌	-14971
플	-14972
낌	-14973
표	-14974
낭	-14975
능	-14976
놈	-14977
놔	-14978
넣	-14979
끄	-14980
빼	-14981
향	-14982
희	-14983
악	-14984
똑	-14985
앉	-14986
택	-14987
*	-14988
줬	-14989
황	-14990
겼	-14991
챙	-14992
록	-14993
맘	-14994
밤	-14995
판	-14996
창	-14997
댜	-14998
묵	-14999
틀	-15000
풀	-15001
옴	-15002
곳	-15003
송	-15004
논	-15005
겉	-15006
짓	-15007
햄	-15008
웠	-15009
련	-15010
짐	-15011
답	-15012
붙	-15013
충	-15014
슬	-15015
땐	-15016
베	-15017
옆	-15018
료	-15019
폰	-15020
패	-15021
페	-15022
싱	-15023
욕	-15024
떡	-15025
림	-15026
며	-15027
환	-15028
헤	-15029
쉽	-15030
랐	-15031
블	-15032
쁜	-15033
캐	-15034
축	-15035
밀	-15036
착	-15037
승	-15038
광	-15039
쎄	-15040
쇼	-15041
뿌	-15042
텐	-15043
섯	-15044
견	-15045
갱	-15046
맹	-15047
멘	-15048
검	-15049
늦	-15050
펜	-15051
꿈	-15052
휴	-15053
퍼	-15054
궁	-15055
놨	-15056
류	-15057
쿠	-15058
깔	-15059
탕	-15060
곤	-15061
핑	-15062
믿	-15063
빵	-15064
큼	-15065
쌤	-15066
봉	-15067
탄	-15068
쓸	-15069
롱	-15070
농	-15071
철	-15072
숙	-15073
녁	-15074
멀	-15075
읽	-15076
빡	-15077
엣	-15078
령	-15079
캤	-15080
섭	-15081
듯	-15082
염	-15083
봔	-15084
씀	-15085
젊	-15086
봄	-15087
둥	-15088
풍	-15089
괴	-15090
션	-15091
벨	-15092
낼	-15093
덴	-15094
죄	-15095
탁	-15096
넌	-15097
헐	-15098
뛰	-15099
걱	-15100
익	-15101
샀	-15102
닐	-15103
쯤	-15104
룩	-15105
꼼	-15106
존	-15107
꽃	-15108
척	-15109
멋	-15110
똥	-15111
벵	-15112
덕	-15113
높	-15114
권	-15115
북	-15116
혔	-15117
클	-15118
뻐	-15119
렀	-15120
핵	-15121
끊	-15122
낳	-15123
픈	-15124
곱	-15125
쟁	-15126
몬	-15127
깜	-15128
맥	-15129
싼	-15130
슴	-15131
빌	-15132
탈	-15133
꼈	-15134
땅	-15135
츠	-15136
졸	-15137
밑	-15138
꽈	-15139
낙	-15140
팀	-15141
덩	-15142
넷	-15143
잰	-15144
즐	-15145
냈	-15146
촌	-15147
징	-15148
칭	-15149
퇴	-15150
갸	-15151
뜻	-15152
쳤	-15153
냑	-15154
첫	-15155
낸	-15156
렵	-15157
범	-15158
낮	-15159
숨	-15160
끌	-15161
첨	-15162
밭	-15163
냄	-15164
쩔	-15165
푸	-15166
뜬	-15167
뿐	-15168
델	-15169
땡	-15170
잊	-15171
쪄	-15172
롤	-15173
떼	-15174
므	-15175
컴	-15176
널	-15177
멩	-15178
킨	-15179
춘	-15180
춰	-15181
벤	-15182
홍	-15183
값	-15184
딩	-15185
액	-15186
념	-15187
짤	-15188
량	-15189
벽	-15190
끓	-15191
찰	-15192
샹	-15193
닭	-15194
싹	-15195
립	-15196
콩	-15197
낫	-15198
쭈	-15199
혈	-15200
삐	-15201
획	-15202
굳	-15203
득	-15204
쌀	-15205
쌍	-15206
쌔	-15207
곧	-15208
센	-15209
폭	-15210
롭	-15211
칼	-15212
흔	-15213
효	-15214
뻔	-15215
털	-15216
쭐	-15217
읎	-15218
앵	-15219
뎅	-15220
걷	-15221
씬	-15222
슷	-15223
띠	-15224
갓	-15225
뽑	-15226
깝	-15227
눌	-15228
훈	-15229
얻	-15230
츰	-15231
층	-15232
뉴	-15233
럭	-15234
슈	-15235
끈	-15236
흥	-15237
켄	-15238
릿	-15239
훨	-15240
튀	-15241
튜	-15242
빈	-15243
꼴	-15244
꿀	-15245
삶	-15246
썼	-15247
줌	-15248
콤	-15249
뚜	-15250
벗	-15251
랭	-15252
짧	-15253
쌓	-15254
링	-15255
쨌	-15256
맡	-15257
쓴	-15258
볶	-15259
젱	-15260
꿔	-15261
총	-15262
둔	-15263
햐	-15264
웬	-15265
킬	-15266
썩	-15267
흘	-15268
맙	-15269
닷	-15270
댁	-15271
쬐	-15272
졍	-15273
릉	-15274
깡	-15275
웹	-15276
켔	-15277
묻	-15278
녹	-15279
례	-15280
렌	-15281
껀	-15282
릭	-15283
톡	-15284
맴	-15285
쩍	-15286
팅	-15287
퓨	-15288
텔	-15289
툰	-15290
렉	-15291
좌	-15292
칙	-15293
뭣	-15294
쭉	-15295
찐	-15296
샌	-15297
릇	-15298
씻	-15299
녔	-15300
엠	-15301
객	-15302
셋	-15303
깊	-15304
콘	-15305
늫	-15306
떻	-15307
둬	-15308
랄	-15309
붕	-15310
잇	-15311
땀	-15312
괘	-15313
즉	-15314
뒷	-15315
빛	-15316
넓	-15317
벼	-15318
컨	-15319
압	-15320
뚱	-15321
뵈	-15322
휘	-15323
납	-15324
엘	-15325
흐	-15326
넨	-15327
쇠	-15328
곰	-15329
랴	-15330
꽤	-15331
팬	-15332
멕	-15333
늙	-15334
쥐	-15335
뜩	-15336
규	-15337
웅	-15338
밲	-15339
쩡	-15340
삭	-15341
잃	-15342
븐	-15343
춤	-15344
헬	-15345
뽀	-15346
썰	-15347
롬	-15348
옥	-15349
딘	-15350
젤	-15351
샤	-15352
앤	-15353
뿔	-15354
꽁	-15355
젼	-15356
뚝	-15357
엽	-15358
턴	-15359
빙	-15360
닫	-15361
율	-15362
콜	-15363
굽	-15364
폐	-15365
춥	-15366
녕	-15367
닝	-15368
짱	-15369
뀌	-15370
샘	-15371
쏘	-15372
쫓	-15373
찔	-15374
딜	-15375
뱅	-15376
뭇	-15377
낀	-15378
밝	-15379
몽	-15380
힌	-15381
읍	-15382
벅	-15383
혜	-15384
껌	-15385
겹	-15386
쟤	-15387
쩐	-15388
홀	-15389
갠	-15390
쫄	-15391
협	-15392
컬	-15393
컸	-15394
-	-15395
욱	-15396
쥬	-15397
옮	-15398
덟	-15399
렴	-15400
홈	-15401
힐	-15402
긋	-15403
웨	-15404
섬	-15405
측	-15406
헹	-15407
콰	-15408
뇨	-15409
켓	-15410
듬	-15411
텀	-15412
뒀	-15413
홉	-15414
겔	-15415
껍	-15416
꾼	-15417
롯	-15418
팍	-15419
끗	-15420
꼽	-15421
짠	-15422
켰	-15423
킹	-15424
윤	-15425
팡	-15426
닦	-15427
햇	-15428
뼈	-15429
눠	-15430
룸	-15431
빤	-15432
봅	-15433
똘	-15434
폴	-15435
겟	-15436
찜	-15437
균	-15438
밍	-15439
낚	-15440
뜯	-15441
륵	-15442
딨	-15443
랍	-15444
엇	-15445
껏	-15446
갚	-15447
뤄	-15448
쌩	-15449
젓	-15450
탱	-15451
뮤	-15452
찝	-15453
낯	-15454
깎	-15455
캔	-15456
젖	-15457
둑	-15458
앴	-15459
덤	-15460
겍	-15461
룹	-15462
됩	-15463
헝	-15464
겪	-15465
솜	-15466
껄	-15467
펴	-15468
꽂	-15469
삘	-15470
섞	-15471
푹	-15472
녜	-15473
옵	-15474
템	-15475
쌈	-15476
왠	-15477
잤	-15478
흰	-15479
맻	-15480
왐	-15481
쥉	-15482
꽉	-15483
덮	-15484
률	-15485
캠	-15486
낄	-15487
댔	-15488
깽	-15489
잎	-15490
뭉	-15491
밟	-15492
붓	-15493
틴	-15494
쐬	-15495
탔	-15496
줍	-15497
숩	-15498
핀	-15499
쫍	-15500
갬	-15501
씹	-15502
죙	-15503
닿	-15504
옹	-15505
뷰	-15506
숫	-15507
숭	-15508
릎	-15509
냅	-15510
뺏	-15511
푼	-15512
띃	-15513
칸	-15514
퀴	-15515
쨋	-15516
탑	-15517
틱	-15518
귤	-15519
랫	-15520
쑥	-15521
엑	-15522
훌	-15523
쟈	-15524
갤	-15525
슥	-15526
좁	-15527
짼	-15528
묶	-15529
삔	-15530
얇	-15531
덥	-15532
멈	-15533
턱	-15534
멜	-15535
렝	-15536
얀	-15537
봥	-15538
릅	-15539
촉	-15540
룬	-15541
돋	-15542
벙	-15543
빚	-15544
줜	-15545
깃	-15546
컵	-15547
웡	-15548
묘	-15549
뇌	-15550
짬	-15551
퉁	-15552
멫	-15553
밴	-15554
쫙	-15555
퍽	-15556
뒈	-15557
헷	-15558
놩	-15559
큐	-15560
톱	-15561
쾌	-15562
뚫	-15563
읊	-15564
틈	-15565
흑	-15566
끕	-15567
댓	-15568
눔	-15569
뜰	-15570
겸	-15571
쏙	-15572
굶	-15573
쁠	-15574
쏠	-15575
핏	-15576
흉	-15577
픽	-15578
뱃	-15579
쎈	-15580
궈	-15581
즙	-15582
깥	-15583
빗	-15584
툭	-15585
팩	-15586
찢	-15587
팠	-15588
뺄	-15589
톤	-15590
짚	-15591
긁	-15592
뽕	-15593
흡	-15594
셀	-15595
꽝	-15596
띄	-15597
딪	-15598
콧	-15599
헙	-15600
썹	-15601
섰	-15602
뀐	-15603
넉	-15604
깍	-15605
엿	-15606
엥	-15607
왼	-15608
됨	-15609
볍	-15610
뽂	-15611
쵸	-15612
혁	-15613
똔	-15614
뺀	-15615
랙	-15616
,	-15617
꼐	-15618
팝	-15619
펑	-15620
땄	-15621
얌	-15622
펭	-15623
랩	-15624
탐	-15625
싰	-15626
팽	-15627
흙	-15628
쑤	-15629
헛	-15630
맑	-15631
헉	-15632
엎	-15633
뎌	-15634
폼	-15635
놘	-15636
찡	-15637
뺐	-15638
갯	-15639
쏟	-15640
꿨	-15641
멸	-15642
쩜	-15643
굉	-15644
꿉	-15645
썬	-15646
앨	-15647
쿨	-15648
헨	-15649
깟	-15650
됀	-15651
잣	-15652
쌌	-15653
앗	-15654
렛	-15655
벚	-15656
줸	-15657
컷	-15658
팥	-15659
탓	-15660
륭	-15661
옌	-15662
꺾	-15663
칫	-15664
뱀	-15665
밸	-15666
뵙	-15667
졈	-15668
힙	-15669
훔	-15670
쿰	-15671
썪	-15672
촐	-15673
펀	-15674
뗑	-15675
돗	-15676
샵	-15677
닙	-15678
땠	-15679
쪘	-15680
꾜	-15681
맵	-15682
핫	-15683
맺	-15684
솥	-15685
썽	-15686
숲	-15687
땃	-15688
뉘	-15689
믹	-15690
갰	-15691
빔	-15692
삽	-15693
룰	-15694
봇	-15695
팟	-15696
뻘	-15697
쉐	-15698
엊	-15699
촬	-15700
뢰	-15701
얄	-15702
꼰	-15703
녠	-15704
샐	-15705
쩨	-15706
찹	-15707
줏	-15708
쉴	-15709
셍	-15710
촘	-15711
굵	-15712
펄	-15713
얜	-15714
흠	-15715
맀	-15716
딲	-15717
략	-15718
뻗	-15719
옇	-15720
얹	-15721
뻤	-15722
옳	-15723
뻥	-15724
씌	-15725
꿍	-15726
숟	-15727
늠	-15728
벡	-15729
굿	-15730
뷔	-15731
쇄	-15732
뻬	-15733
듭	-15734
빅	-15735
첩	-15736
춧	-15737
융	-15738
팁	-15739
뻑	-15740
앓	-15741
썸	-15742
윗	-15743
윽	-15744
짖	-15745
쓱	-15746
떴	-15747
쿵	-15748
랗	-15749
빽	-15750
츳	-15751
덧	-15752
뗘	-15753
젝	-15754
껜	-15755
빴	-15756
띵	-15757
횟	-15758
껑	-15759
닉	-15760
헜	-15761
멧	-15762
뺑	-15763
곹	-15764
똣	-15765
귄	-15766
쉰	-15767
쭤	-15768
텡	-15769
쳔	-15770
풋	-15771
펼	-15772
츤	-15773
뱉	-15774
렷	-15775
멤	-15776
젯	-15777
꾀	-15778
셉	-15779
#	-15780
껭	-15781
펐	-15782
깅	-15783
잼	-15784
렬	-15785
찼	-15786
밧	-15787
셈	-15788
늬	-15789
돕	-15790
됭	-15791
눕	-15792
뽈	-15793
싯	-15794
꿩	-15795
됬	-15796
빳	-15797
쳥	-15798
뻣	-15799
짭	-15800
췄	-15801
칩	-15802
쌂	-15803
밉	-15804
핼	-15805
룻	-15806
륜	-15807
읃	-15808
쨍	-15809
챔	-15810
꾹	-15811
윈	-15812
캉	-15813
콕	-15814
픔	-15815
궤	-15816
맣	-15817
잽	-15818
슭	-15819
펌	-15820
갇	-15821
왁	-15822
줭	-15823
뀔	-15824
럈	-15825
잭	-15826
캡	-15827
깁	-15828
맏	-15829
쁨	-15830
앱	-15831
꿇	-15832
끙	-15833
렘	-15834
혐	-15835
곁	-15836
몫	-15837
숍	-15838
숱	-15839
낑	-15840
왓	-15841
촤	-15842
섹	-15843
엮	-15844
톰	-15845
껸	-15846
댈	-15847
렜	-15848
괄	-15849
랠	-15850
맬	-15851
쎘	-15852
캄	-15853
돔	-15854
럿	-15855
킥	-15856
삿	-15857
씁	-15858
씅	-15859
줨	-15860
깻	-15861
샥	-15862
뚤	-15863
볕	-15864
츄	-15865
툴	-15866
샛	-15867
맽	-15868
벳	-15869
웁	-15870
쫀	-15871
몹	-15872
웂	-15873
잌	-15874
쿼	-15875
뽄	-15876
붉	-15877
쌉	-15878
쯧	-15879
숯	-15880
펙	-15881
걘	-15882
댐	-15883
룡	-15884
뺨	-15885
촞	-15886
툼	-15887
곽	-15888
닳	-15889
깰	-15890
뒁	-15891
싣	-15892
롸	-15893
솟	-15894
튕	-15895
꿰	-15896
쌕	-15897
톨	-15898
씰	-15899
췌	-15900
놋	-15901
솨	-15902
엌	-15903
텃	-15904
뽁	-15905
셩	-15906
잿	-15907
찻	-15908
츈	-15909
탠	-15910
땍	-15911
쏴	-15912
쫑	-15913
둡	-15914
륙	-15915
뮬	-15916
꺽	-15917
넝	-15918
켠	-15919
텅	-15920
눅	-15921
둠	-15922
뜸	-15923
봠	-15924
셜	-15925
깠	-15926
꼿	-15927
낡	-15928
뛸	-15929
맷	-15930
쨈	-15931
렐	-15932
쫘	-15933
/	-15934
귈	-15935
깼	-15936
샴	-15937
숏	-15938
흩	-15939
뱈	-15940
붐	-15941
깄	-15942
넬	-15943
슘	-15944
띡	-15945
샷	-15946
셰	-15947
켱	-15948
횡	-15949
펠	-15950
윙	-15951
늑	-15952
떳	-15953
틸	-15954
땁	-15955
삥	-15956
웰	-15957
컥	-15958
컹	-15959
궂	-15960
뎁	-15961
튿	-15962
뾰	-15963
왈	-15964
쭌	-15965
1	-15966
듀	-15967
밋	-15968
칵	-15969
횔	-15970
휙	-15971
깬	-15972
떄	-15973
룽	-15974
욜	-15975
씽	-15976
앰	-15977
챠	-15978
폈	-15979
훑	-15980
귓	-15981
꼉	-15982
얽	-15983
쨰	-15984
둰	-15985
뿍	-15986
킷	-15987
붑	-15988
촛	-15989
퀄	-15990
훼	-15991
냇	-15992
쿄	-15993
훅	-15994
휩	-15995
곶	-15996
괸	-15997
뿜	-15998
