<pad>	0
<s>	0
</s>	0
<unk>	0
<jj>	0
<jd>	0
<gs>	0
<cc>	0
<kw>	0
▁이	-0
▁그	-1
▁가	-2
▁.	-3
▁는	-4
▁아	-5
▁하	-6
▁어	-7
▁거	-8
▁고	-9
▁에	-10
▁나	-11
▁을	-12
▁다	-13
▁지	-14
▁은	-15
▁도	-16
▁?	-17
▁있	-18
▁쫌	-19
▁게	-20
▁한	-21
▁해	-22
▁사	-23
▁들	-24
▁구	-25
▁를	-26
▁보	-27
▁라	-28
▁내	-29
▁안	-30
▁꼬	-31
▁으	-32
▁인	-33
▁느	-34
▁기	-35
▁시	-36
▁같	-37
▁니	-38
▁되	-39
▁여	-40
▁근	-41
▁주	-42
▁야	-43
▁우	-44
▁대	-45
▁두	-46
▁만	-47
▁오	-48
▁말	-49
▁뭐	-50
▁막	-51
▁서	-52
▁좋	-53
▁자	-54
▁일	-55
▁마	-56
▁많	-57
▁때	-58
▁생	-59
▁그런	-60
▁너	-61
▁저	-62
▁이제	-63
▁것	-64
▁난	-65
▁네	-66
▁했	-67
▁수	-68
▁먹	-69
▁더	-70
▁면	-71
▁드	-72
▁할	-73
▁또	-74
▁애	-75
▁었	-76
▁부	-77
▁예	-78
▁우리	-79
▁없	-80
▁는디	-81
▁잘	-82
▁로	-83
▁요	-84
▁진	-85
▁제	-86
▁그래	-87
▁긍	-88
▁신	-89
▁~	-90
▁께	-91
▁많이	-92
▁이케	-93
▁생각	-94
▁좀	-95
▁아니	-96
▁에서	-97
▁무	-98
▁믄	-99
▁그냥	-100
▁근데	-101
▁데	-102
▁바	-103
▁알	-104
▁는데	-105
▁의	-106
▁허	-107
▁겠	-108
▁아이	-109
▁모	-110
▁잖	-111
▁진짜	-112
▁않	-113
▁사람	-114
▁못	-115
▁던	-116
▁집	-117
▁살	-118
▁영	-119
▁약	-120
▁정	-121
▁건	-122
▁디	-123
▁드라	-124
▁인제	-125
▁번	-126
▁전	-127
▁이런	-128
▁잉	-129
▁노	-130
▁적	-131
▁으로	-132
▁까	-133
▁싶	-134
▁가주	-135
▁머	-136
▁왜	-137
▁엄	-138
▁걸	-139
▁너무	-140
▁경	-141
▁그서	-142
▁따	-143
▁비	-144
▁개	-145
▁약간	-146
▁가지	-147
▁언	-148
▁았	-149
▁봐	-150
▁소	-151
▁얘	-152
▁당	-153
▁상	-154
▁냐	-155
▁랑	-156
▁중	-157
▁간	-158
▁재	-159
▁원	-160
▁스	-161
▁그거	-162
▁세	-163
▁와	-164
▁십	-165
▁날	-166
▁잖아	-167
▁맞	-168
▁남	-169
▁친	-170
▁그러	-171
▁근디	-172
▁레	-173
▁거든	-174
▁미	-175
▁불	-176
▁쪼	-177
▁유	-178
▁해서	-179
▁조	-180
▁라우	-181
▁동	-182
▁긴	-183
▁갖	-184
▁싸	-185
▁램	-186
▁물	-187
▁차	-188
▁얼	-189
▁받	-190
▁님	-191
▁지금	-192
▁성	-193
▁계	-194
▁입	-195
▁음	-196
▁겅	-197
▁니께	-198
▁누	-199
▁돈	-200
▁봤	-201
▁된	-202
▁그때	-203
▁장	-204
▁학	-205
▁공	-206
▁카	-207
▁돼	-208
▁한테	-209
▁얘기	-210
▁갔	-211
▁달	-212
▁글	-213
▁겨	-214
▁올	-215
▁더라	-216
▁래	-217
▁러	-218
▁배	-219
▁줄	-220
▁라고	-221
▁선	-222
▁운	-223
▁놀	-224
▁긍까	-225
▁그게	-226
▁긍께	-227
▁케	-228
▁맨	-229
▁친구	-230
▁매	-231
▁분	-232
▁몰	-233
▁이르	-234
▁뭔	-235
▁해야	-236
▁연	-237
▁편	-238
▁갈	-239
▁딱	-240
▁본	-241
▁민	-242
▁신디	-243
▁맛	-244
▁처	-245
▁실	-246
▁같이	-247
▁단	-248
▁엄마	-249
▁삼	-250
▁이게	-251
▁쓰	-252
▁과	-253
▁든	-254
▁치	-255
▁버	-256
▁힘	-257
▁다가	-258
▁문	-259
▁들어	-260
▁참	-261
▁타	-262
▁긍게	-263
▁이거	-264
▁루	-265
▁강	-266
▁식	-267
▁돌	-268
▁새	-269
▁키	-270
니까	-271
▁시간	-272
▁혀	-273
▁방	-274
▁증	-275
▁덜	-276
▁어서	-277
▁반	-278
▁겄	-279
▁되게	-280
▁이나	-281
▁될	-282
▁까지	-283
▁혼	-284
▁양	-285
▁년	-286
▁행	-287
▁눈	-288
▁먼	-289
▁추	-290
▁인자	-291
▁감	-292
▁그렇	-293
▁응	-294
▁면은	-295
▁지만	-296
▁이까	-297
▁하나	-298
니다	-299
▁완	-300
▁관	-301
▁닮	-302
▁헌	-303
▁멍	-304
▁왔	-305
▁됐	-306
▁보다	-307
▁결	-308
▁으믄	-309
▁뭔가	-310
▁볼	-311
▁코	-312
▁그랬	-313
▁피	-314
▁이랑	-315
▁인데	-316
▁습	-317
▁굼	-318
▁그른	-319
▁요즘	-320
▁다고	-321
▁손	-322
▁심	-323
▁댄	-324
▁모르	-325
▁다른	-326
▁작	-327
▁엔	-328
▁위	-329
▁쪼끔	-330
▁놓	-331
▁교	-332
▁발	-333
▁큰	-334
▁몇	-335
▁해도	-336
▁핸	-337
▁드라고	-338
▁빨	-339
▁댕	-340
▁그럼	-341
▁어머	-342
▁니까	-343
▁그라	-344
▁화	-345
▁씩	-346
▁담	-347
▁드라구	-348
▁별	-349
▁줘	-350
▁이르케	-351
▁무신	-352
▁으문	-353
▁괜	-354
▁밥	-355
▁크	-356
▁빠	-357
▁백	-358
▁엄청	-359
▁질	-360
▁직	-361
▁죠	-362
▁잡	-363
▁계속	-364
▁죽	-365
▁팔	-366
▁믄은	-367
▁언니	-368
▁암	-369
▁산	-370
▁길	-371
▁명	-372
▁라꼬	-373
▁메	-374
▁나가	-375
▁라는	-376
▁증말	-377
▁회	-378
▁따른	-379
▁나오	-380
▁준	-381
▁마이	-382
▁찾	-383
▁정도	-384
▁어디	-385
▁랜	-386
▁열	-387
▁싫	-388
▁꺼	-389
▁앞	-390
▁호	-391
▁기억	-392
▁부터	-393
▁거기	-394
▁짜	-395
▁보이	-396
▁그릏	-397
▁땜	-398
▁라구	-399
▁세요	-400
▁어떤	-401
▁씨	-402
▁각	-403
▁한다	-404
▁아요	-405
▁속	-406
▁끝	-407
▁겐	-408
▁영화	-409
▁외	-410
▁워	-411
▁다시	-412
▁그리	-413
▁였	-414
▁둘	-415
▁겁	-416
▁애기	-417
해서	-418
▁온	-419
▁셨	-420
▁다구	-421
▁점	-422
▁힘들	-423
▁어뜨	-424
▁운동	-425
▁옷	-426
▁아부	-427
▁몸	-428
▁솔	-429
▁람	-430
▁껴	-431
▁더라고	-432
▁통	-433
▁은디	-434
▁어뜨케	-435
▁혹	-436
▁어요	-437
▁끼	-438
▁아들	-439
▁짝	-440
▁그걸	-441
▁소리	-442
▁파	-443
▁금	-444
▁넘	-445
▁저기	-446
▁완전	-447
▁가꼬	-448
▁나이	-449
▁천	-450
▁아주	-451
▁후	-452
▁필	-453
▁재밌	-454
▁테	-455
▁리	-456
▁맨날	-457
▁써	-458
▁는지	-459
▁형	-460
▁목	-461
▁너머	-462
▁다는	-463
▁딸	-464
▁학교	-465
▁아부지	-466
▁항	-467
▁냉	-468
▁군	-469
▁잠	-470
▁초	-471
▁사실	-472
▁티	-473
▁밖	-474
▁맛있	-475
▁정말	-476
▁혹시	-477
▁국	-478
▁벌	-479
▁거나	-480
▁최	-481
▁잔	-482
▁제일	-483
▁즌	-484
▁여개	-485
▁래이	-486
▁괜찮	-487
▁겡	-488
▁처음	-489
▁취	-490
▁걔	-491
▁남자	-492
▁아가	-493
▁으이	-494
▁예요	-495
▁쪽	-496
▁이래	-497
▁여행	-498
▁커	-499
▁경우	-500
▁듣	-501
▁노래	-502
▁어야	-503
▁꼭	-504
▁으면	-505
▁텨	-506
▁려	-507
▁면서	-508
▁트	-509
▁술	-510
▁공부	-511
▁걍	-512
▁곡	-513
▁인디	-514
▁일단	-515
▁져	-516
▁인가	-517
▁육	-518
▁만나	-519
▁어머이	-520
▁아직	-521
▁떵	-522
▁겁나	-523
▁어멍	-524
▁은데	-525
▁김	-526
▁으루	-527
▁갑	-528
▁들어가	-529
▁무슨	-530
▁간디	-531
▁아빠	-532
▁옛	-533
▁돌아	-534
▁구나	-535
▁아닌	-536
▁댕기	-537
▁해요	-538
▁뒤	-539
▁란	-540
▁절	-541
▁근까	-542
▁자기	-543
▁책	-544
▁씸	-545
▁찌	-546
▁습니다	-547
▁몰르	-548
▁움	-549
▁뭘	-550
▁종	-551
▁골	-552
▁병	-553
▁깨	-554
▁옛날	-555
▁떠	-556
▁머리	-557
▁이상	-558
▁여자	-559
▁어데	-560
▁왜냐	-561
▁귀	-562
▁오늘	-563
▁거의	-564
▁올라	-565
▁엉	-566
▁결혼	-567
▁요새	-568
▁브	-569
▁느낌	-570
▁자녀	-571
▁했었	-572
▁스타	-573
▁특	-574
▁울	-575
▁만들	-576
▁프	-577
▁제주	-578
▁믄서	-579
▁시작	-580
▁떨	-581
▁여기	-582
▁체	-583
▁히	-584
▁넣	-585
▁원래	-586
▁부분	-587
▁웃	-588
▁*	-589
▁이러	-590
▁박	-591
▁청	-592
▁줬	-593
▁토	-594
▁빼	-595
▁그까	-596
▁필요	-597
▁함	-598
▁별로	-599
▁왕	-600
학교	-601
▁넹	-602
▁놔	-603
▁합	-604
▁즌화	-605
▁한데	-606
▁순	-607
▁된다	-608
▁맘	-609
▁극	-610
▁아무	-611
▁몰라	-612
▁앙	-613
▁챙	-614
▁등	-615
▁칠	-616
▁평	-617
▁오빠	-618
▁항상	-619
▁그건	-620
▁성격	-621
▁나와	-622
▁빨리	-623
▁찍	-624
▁그리구	-625
▁옴	-626
▁본께	-627
▁겉	-628
▁앉	-629
▁론	-630
▁똑	-631
▁하난	-632
매나	-633
▁재미	-634
▁포	-635
▁댜	-636
▁선물	-637
▁드라마	-638
라고	-639
▁났	-640
▁햄	-641
▁어태	-642
▁설	-643
▁혼자	-644
▁오래	-645
▁논	-646
▁옆	-647
▁와서	-648
▁꾸	-649
▁아예	-650
▁다니	-651
▁밤	-652
▁현	-653
▁확	-654
▁나라	-655
▁고거	-656
▁대해서	-657
▁문제	-658
▁묵	-659
▁얼매나	-660
▁음식	-661
▁겨울	-662
▁망	-663
▁아까	-664
▁쪼금	-665
▁그르	-666
▁붙	-667
▁곳	-668
▁쉬	-669
▁생활	-670
▁당신	-671
▁월	-672
▁그럴	-673
▁헌티	-674
▁에요	-675
▁어느	-676
▁누가	-677
▁놈	-678
▁임	-679
▁수다	-680
▁복	-681
▁태	-682
▁풀	-683
▁낭	-684
▁하민	-685
▁역	-686
▁으이까	-687
▁헤	-688
바이	-689
▁캐	-690
▁그기	-691
▁거든요	-692
▁셔	-693
▁째	-694
▁아유	-695
▁그믄	-696
▁고게	-697
▁회사	-698
▁한디	-699
다고	-700
▁예자	-701
▁고잉	-702
▁용	-703
▁베	-704
▁짓	-705
▁채	-706
▁다음	-707
▁으니	-708
▁싱	-709
▁보내	-710
▁게임	-711
▁어유	-712
▁이라	-713
▁난중	-714
▁땐	-715
▁여러	-716
▁나왔	-717
▁부모	-718
▁처럼	-719
▁마다	-720
▁사진	-721
▁가족	-722
▁여름	-723
▁이딴	-724
▁에다	-725
▁라도	-726
▁전화	-727
▁다이	-728
▁즈	-729
▁자석	-730
▁동안	-731
▁스타일	-732
▁출	-733
▁쇼	-734
▁극정	-735
▁이젠	-736
▁건데	-737
▁관심	-738
세요	-739
▁내려	-740
▁더라구	-741
▁건강	-742
▁꿈	-743
▁늦	-744
▁떨어	-745
▁펜	-746
▁민시	-747
▁조금	-748
▁네요	-749
▁쩌	-750
▁따라	-751
▁보여	-752
▁사랑	-753
▁딴	-754
▁틀	-755
▁잖여	-756
▁이렇	-757
▁지나	-758
▁며	-759
▁갱	-760
▁믿	-761
▁젠	-762
▁가이	-763
▁맹	-764
▁부러	-765
▁마음	-766
▁인지	-767
▁찬	-768
▁터	-769
▁우린	-770
▁대로	-771
▁쌤	-772
▁운제	-773
▁아냐	-774
▁멘	-775
▁아프	-776
▁당께	-777
▁색	-778
▁라면	-779
▁뿌	-780
▁아방	-781
▁검	-782
▁아야	-783
▁서울	-784
▁을까	-785
▁끄	-786
▁충	-787
▁잖아요	-788
▁준비	-789
▁걸로	-790
▁나온	-791
▁지끔	-792
▁패	-793
▁기양	-794
▁왜냐믄	-795
▁변	-796
▁바이	-797
▁프로	-798
▁투	-799
▁중요	-800
▁봐야	-801
▁대한	-802
▁뜨	-803
▁내기	-804
▁오라	-805
▁얼마	-806
▁런	-807
▁고것	-808
▁읽	-809
▁에게	-810
▁궁	-811
▁좋아	-812
▁짐	-813
▁갑자	-814
▁쎄	-815
▁자주	-816
▁얼굴	-817
▁이건	-818
▁그래두	-819
▁엣	-820
▁멀	-821
▁배우	-822
▁만약	-823
▁시상	-824
▁택	-825
▁코로	-826
▁활	-827
▁라서	-828
▁쳐	-829
▁캤	-830
▁독	-831
▁구만	-832
▁욕	-833
▁그릏게	-834
▁어도	-835
▁봔	-836
▁으니께	-837
▁건디	-838
▁래두	-839
▁민서	-840
▁이번	-841
▁슬	-842
▁젊	-843
▁기분	-844
▁고기	-845
▁없이	-846
▁상황	-847
▁축	-848
▁이름	-849
▁고등	-850
▁코로나	-851
▁상구	-852
▁닥	-853
▁봄	-854
▁자꾸	-855
▁쉽	-856
▁넌	-857
▁하곡	-858
▁시켜	-859
▁샀	-860
▁쓸	-861
▁하루	-862
▁더니	-863
▁농	-864
▁표	-865
▁텐	-866
▁찾아	-867
▁제주도	-868
▁챙겨	-869
▁환	-870
▁한번	-871
▁끼리	-872
다구	-873
▁지대	-874
▁한국	-875
▁놨	-876
▁바로	-877
▁서로	-878
▁블	-879
▁보통	-880
▁누구	-881
▁어려	-882
▁걱	-883
▁암튼	-884
▁쿠	-885
▁짜리	-886
▁걱정	-887
▁멋	-888
▁빠지	-889
▁는가	-890
▁운전	-891
거리	-892
▁소리기	-893
▁먼저	-894
▁동상	-895
▁승	-896
▁높	-897
▁벵	-898
다는	-899
▁혼재	-900
▁뛰	-901
▁접	-902
▁덴	-903
▁헐	-904
▁아파	-905
▁끔	-906
▁이렇게	-907
▁병원	-908
▁자체	-909
어나	-910
▁아마	-911
▁자격	-912
▁끊	-913
▁괴	-914
▁가장	-915
▁낳	-916
▁억	-917
▁하구	-918
▁쯤	-919
▁미안	-920
▁습니까	-921
▁늘	-922
▁시키	-923
▁똑같	-924
▁언제	-925
려고	-926
▁밀	-927
▁생기	-928
▁마시	-929
▁다꼬	-930
▁학년	-931
▁버리	-932
▁당시	-933
▁빡	-934
▁일본	-935
▁에스	-936
▁암만	-937
▁듯	-938
▁기다	-939
▁졌	-940
▁핵	-941
▁석	-942
▁비싸	-943
▁급	-944
▁구유	-945
▁물론	-946
▁법	-947
▁판	-948
▁다이어	-949
▁가져	-950
▁까장	-951
▁연락	-952
▁중간	-953
▁아서	-954
▁똥	-955
▁키우	-956
▁하고	-957
▁깜	-958
▁머이	-959
▁까정	-960
▁에이	-961
▁스트	-962
레스	-963
▁밑	-964
▁봉	-965
▁모든	-966
▁시험	-967
▁빵	-968
▁할머	-969
▁다이어트	-970
▁꽈	-971
▁죄	-972
▁롱	-973
▁켜	-974
▁최근	-975
▁요잉	-976
▁이미	-977
▁해두	-978
▁잰	-979
면은	-980
▁드리	-981
▁돼서	-982
▁디야	-983
▁이해	-984
▁즐	-985
▁돌아가	-986
▁졸	-987
▁사이	-988
▁빨라	-989
▁애서	-990
▁벨	-991
▁신경	-992
▁광	-993
▁힘든	-994
▁드만	-995
▁무사	-996
▁잘못	-997
▁논다	-998
▁요번	-999
▁착	-1000
▁선생	-1001
▁인대	-1002
▁자격증	-1003
▁궁금	-1004
▁어마	-1005
▁룩	-1006
▁팀	-1007
▁갸	-1008
▁자신	-1009
▁들어오	-1010
▁아바이	-1011
▁맥	-1012
▁빌	-1013
▁줘야	-1014
▁떡	-1015
▁나요	-1016
실히	-1017
▁노력	-1018
▁우타	-1019
▁어릴	-1020
▁어제	-1021
려구	-1022
▁아침	-1023
▁정신	-1024
▁생겼	-1025
▁답	-1026
▁으면은	-1027
▁거리	-1028
▁고민	-1029
▁첫	-1030
▁저녁	-1031
라구	-1032
▁그치	-1033
▁넘어	-1034
▁누우	-1035
▁추천	-1036
▁휴	-1037
▁요리	-1038
▁클	-1039
▁스럽	-1040
▁꽃	-1041
▁몬	-1042
▁이카	-1043
▁유명	-1044
▁대학	-1045
▁땅	-1046
▁혔	-1047
▁이쁘	-1048
▁침	-1049
▁음악	-1050
▁냄	-1051
▁주변	-1052
▁가끔	-1053
▁드냐	-1054
▁그만	-1055
▁화장	-1056
▁차이	-1057
▁저희	-1058
▁스트레스	-1059
▁락	-1060
▁다녀	-1061
▁에다가	-1062
▁잊	-1063
▁글고	-1064
▁아라	-1065
▁내리	-1066
▁보먼	-1067
▁말씀	-1068
▁불편	-1069
▁낮	-1070
잖아	-1071
▁응께	-1072
▁알아	-1073
▁퍼	-1074
▁살짝	-1075
▁한티	-1076
▁지내	-1077
▁철	-1078
▁고마	-1079
▁가격	-1080
▁동네	-1081
▁보민	-1082
▁깔	-1083
▁하이	-1084
▁이유	-1085
▁니깐	-1086
▁달라	-1087
▁하르	-1088
▁경험	-1089
▁려고	-1090
▁관리	-1091
▁대이	-1092
▁으먼	-1093
▁신기	-1094
▁인생	-1095
▁올라가	-1096
게요	-1097
▁샹	-1098
▁핸드	-1099
버이	-1100
▁끓	-1101
▁이야	-1102
▁가을	-1103
▁어떠	-1104
▁므	-1105
▁느끼	-1106
▁둥	-1107
▁거지	-1108
▁뿐	-1109
▁컴	-1110
▁군대	-1111
▁다섯	-1112
▁어두	-1113
▁어쩔	-1114
▁날씨	-1115
▁밖에	-1116
▁저게	-1117
▁도와	-1118
▁르	-1119
▁어린	-1120
▁취미	-1121
▁낫	-1122
▁땡	-1123
▁아인	-1124
▁해라	-1125
▁사장	-1126
▁텐데	-1127
▁희	-1128
▁내용	-1129
▁좋아하	-1130
▁아문	-1131
▁할망	-1132
▁굳	-1133
▁잠깐	-1134
▁저거	-1135
▁플	-1136
▁존	-1137
▁편하	-1138
▁일찍	-1139
▁학실히	-1140
▁래요	-1141
▁커피	-1142
▁짤	-1143
▁조석	-1144
▁카민	-1145
▁가시	-1146
▁는다	-1147
▁사고	-1148
▁염	-1149
▁그든	-1150
▁악	-1151
▁할머이	-1152
▁그려	-1153
▁다리	-1154
▁건지	-1155
▁방법	-1156
▁쪄	-1157
▁탄	-1158
▁어렸	-1159
▁연애	-1160
▁갑자기	-1161
▁내일	-1162
▁냑	-1163
▁드릴	-1164
▁조심	-1165
▁곧	-1166
▁그것	-1167
▁걸랑	-1168
▁창	-1169
▁남편	-1170
▁데이	-1171
▁핸드폰	-1172
▁낼	-1173
▁쇼핑	-1174
▁그런디	-1175
▁자네	-1176
▁끌	-1177
▁쌔	-1178
▁특히	-1179
▁홍	-1180
▁던데	-1181
▁맨치	-1182
▁절대	-1183
▁칭	-1184
▁그네	-1185
▁자꼬	-1186
▁롤	-1187
▁글면	-1188
▁냐구	-1189
▁돼요	-1190
▁마카	-1191
▁업	-1192
▁티비	-1193
▁으시	-1194
▁읎	-1195
▁어렵	-1196
▁어예	-1197
▁퇴	-1198
▁이걸	-1199
▁밭	-1200
▁맨치로	-1201
▁신랑	-1202
▁애요	-1203
▁라두	-1204
▁안티	-1205
▁냐고	-1206
▁무서	-1207
▁쭐	-1208
▁알려	-1209
▁떼	-1210
▁겅행	-1211
▁첨	-1212
▁굴	-1213
▁쪼매	-1214
▁걷	-1215
▁집안	-1216
▁왜서	-1217
▁김치	-1218
▁자리	-1219
▁그러고	-1220
▁렁	-1221
▁시민	-1222
▁봐요	-1223
▁만화	-1224
▁외국	-1225
▁행복	-1226
▁몰랐	-1227
▁델	-1228
▁숨	-1229
▁앵	-1230
▁모습	-1231
▁결국	-1232
▁탈	-1233
▁직장	-1234
▁합니다	-1235
▁미국	-1236
▁권	-1237
▁동생	-1238
▁뽑	-1239
▁멘치	-1240
까요	-1241
▁스러	-1242
▁아따	-1243
▁푸	-1244
▁들으	-1245
▁느껴	-1246
▁신가	-1247
▁맨들	-1248
▁상관	-1249
▁삐	-1250
▁페	-1251
▁직접	-1252
▁곤	-1253
▁건가	-1254
▁보대	-1255
▁었었	-1256
▁알바	-1257
▁슨	-1258
▁뻔	-1259
▁다르	-1260
▁얻	-1261
▁어짜	-1262
▁걸리	-1263
▁든지	-1264
▁야지	-1265
아지	-1266
▁학원	-1267
요일	-1268
▁이기	-1269
▁선수	-1270
▁사회	-1271
▁해가	-1272
▁고등학교	-1273
▁칼	-1274
▁도록	-1275
▁불러	-1276
▁구요	-1277
▁아픈	-1278
▁개인	-1279
스마	-1280
▁인터	-1281
▁동물	-1282
▁상태	-1283
소리	-1284
▁징	-1285
▁비슷	-1286
▁무리	-1287
▁활동	-1288
▁는데요	-1289
▁찌기	-1290
▁훨	-1291
▁비싼	-1292
▁인저	-1293
▁으니까	-1294
▁도움	-1295
▁계획	-1296
▁바람	-1297
▁그러니까	-1298
▁삶	-1299
▁수업	-1300
▁생긴	-1301
▁아하	-1302
▁으신	-1303
▁헤어	-1304
▁다닐	-1305
▁폭	-1306
▁어쩌	-1307
▁요것	-1308
▁기냥	-1309
▁숙	-1310
▁움씨	-1311
▁장난	-1312
▁츰	-1313
▁잖아유	-1314
▁그지	-1315
▁곱	-1316
▁주식	-1317
▁꼴	-1318
가지	-1319
▁겅해	-1320
▁카페	-1321
▁털	-1322
▁가르	-1323
는데	-1324
▁벤	-1325
▁이라두	-1326
▁짧	-1327
▁올리	-1328
▁상대	-1329
▁탁	-1330
▁빠져	-1331
▁거게	-1332
▁띠	-1333
▁난리	-1334
▁순간	-1335
▁굳이	-1336
▁사용	-1337
▁눌	-1338
▁벗	-1339
▁새로	-1340
▁개월	-1341
▁따로	-1342
▁갓	-1343
▁썼	-1344
▁해부	-1345
▁쌓	-1346
▁그날	-1347
▁인간	-1348
▁쪼꼼	-1349
▁만났	-1350
▁익	-1351
▁튀	-1352
▁움직	-1353
▁나쁜	-1354
▁이것	-1355
구나	-1356
▁쓴	-1357
▁물건	-1358
▁상간	-1359
▁햐	-1360
▁분위	-1361
▁어뜬	-1362
▁냥	-1363
▁능	-1364
▁향	-1365
▁듯이	-1366
▁웬	-1367
▁분위기	-1368
▁생각나	-1369
▁약속	-1370
▁즘	-1371
▁어울	-1372
▁튼	-1373
▁시장	-1374
▁맡	-1375
▁지역	-1376
▁중국	-1377
▁콩	-1378
▁만큼	-1379
▁가수	-1380
▁으까	-1381
▁뎅	-1382
▁그라고	-1383
▁값	-1384
▁척	-1385
대로	-1386
▁나올	-1387
▁견	-1388
▁주일	-1389
▁이야기	-1390
▁흔	-1391
▁얘길	-1392
▁여섯	-1393
▁입니다	-1394
▁졍	-1395
▁효	-1396
▁입장	-1397
▁정리	-1398
▁웹	-1399
▁괜히	-1400
▁대신	-1401
▁이랬	-1402
▁불르	-1403
▁켔	-1404
▁고양	-1405
▁데유	-1406
▁살아	-1407
▁던디	-1408
▁싹	-1409
▁젱	-1410
▁멩	-1411
▁요거	-1412
▁대학교	-1413
▁수술	-1414
▁으세요	-1415
▁뚜	-1416
▁쬐	-1417
▁나갔	-1418
▁바꼈	-1419
▁시대	-1420
▁녹	-1421
▁버스	-1422
▁인터넷	-1423
스트	-1424
▁느냐	-1425
▁맴	-1426
▁주인	-1427
▁금방	-1428
▁맞춰	-1429
▁종류	-1430
▁따가	-1431
▁나름	-1432
▁영어	-1433
▁고상	-1434
▁가게	-1435
▁중학교	-1436
▁뭣	-1437
▁묻	-1438
▁닭	-1439
▁누나	-1440
▁아지	-1441
▁강아지	-1442
▁멋있	-1443
▁새끼	-1444
▁아님	-1445
▁교수	-1446
▁허여	-1447
▁점점	-1448
▁껀	-1449
▁아니믄	-1450
▁깡	-1451
▁다면	-1452
▁널	-1453
▁풍	-1454
▁할마	-1455
▁깐	-1456
▁생일	-1457
▁버니	-1458
▁씻	-1459
▁무섭	-1460
▁생겨	-1461
▁갔었	-1462
▁교회	-1463
▁방송	-1464
▁상가	-1465
▁쌀	-1466
▁으러	-1467
▁아닌디	-1468
▁경허	-1469
▁마지	-1470
▁장히	-1471
▁선상	-1472
▁못하	-1473
▁인사	-1474
▁그른데	-1475
▁촌	-1476
▁탕	-1477
▁데기	-1478
▁작년	-1479
스크	-1480
▁솔치	-1481
▁썩	-1482
▁추억	-1483
▁고생	-1484
▁케이	-1485
▁층	-1486
▁아싸	-1487
▁다행	-1488
▁부담	-1489
▁싸우	-1490
▁은께	-1491
▁총	-1492
▁사나	-1493
▁혈	-1494
▁거그	-1495
▁아쉬	-1496
▁워낙	-1497
▁흘	-1498
려서	-1499
▁근강	-1500
▁부산	-1501
▁오랜	-1502
▁초등	-1503
▁늫	-1504
▁겅허	-1505
▁괴기	-1506
▁길래	-1507
▁웹툰	-1508
▁떨어지	-1509
▁무시	-1510
▁아싸리	-1511
레이	-1512
▁버렸	-1513
▁아우	-1514
▁올해	-1515
▁고런	-1516
▁식구	-1517
▁얼만	-1518
▁으머	-1519
퓨터	-1520
▁식당	-1521
▁뒷	-1522
▁드렁	-1523
▁봐서	-1524
▁댕겨	-1525
▁딱히	-1526
▁매일	-1527
▁봐도	-1528
▁른	-1529
▁간다	-1530
▁자연	-1531
▁할까	-1532
▁슈	-1533
▁기본	-1534
▁깊	-1535
▁수영	-1536
▁가느	-1537
▁가능	-1538
▁여그	-1539
▁하영	-1540
▁자식	-1541
▁교육	-1542
▁빈	-1543
▁할라	-1544
▁사무	-1545
▁기달	-1546
▁연예	-1547
▁마리	-1548
▁이럴	-1549
▁재기	-1550
▁일어나	-1551
▁땀	-1552
▁축구	-1553
▁걸러	-1554
▁도로	-1555
▁허고	-1556
▁찐	-1557
▁할라고	-1558
▁바다	-1559
▁감정	-1560
▁셋	-1561
▁예쁘	-1562
▁령	-1563
▁만든	-1564
▁불나	-1565
▁색깔	-1566
▁센	-1567
▁겅하	-1568
▁공연	-1569
▁그면	-1570
▁대단	-1571
랜드	-1572
렉스	-1573
▁일반	-1574
▁젱이	-1575
▁넓	-1576
▁마지막	-1577
▁당장	-1578
▁으민	-1579
▁주로	-1580
▁경해	-1581
▁가요	-1582
▁아매	-1583
▁해외	-1584
▁고양이	-1585
▁청소	-1586
▁고서	-1587
▁도대	-1588
▁아이머	-1589
▁이모	-1590
▁저래	-1591
▁고맙	-1592
▁관련	-1593
▁피부	-1594
▁뜻	-1595
▁보험	-1596
▁사업	-1597
▁냄새	-1598
▁이까네	-1599
▁가꾸	-1600
▁기대	-1601
▁미리	-1602
▁관계	-1603
▁투자	-1604
▁고라	-1605
▁따러	-1606
▁어라	-1607
▁학생	-1608
▁오라버이	-1609
▁계절	-1610
▁된대	-1611
▁큼	-1612
부터	-1613
▁덕	-1614
▁흥	-1615
▁그카	-1616
▁카드	-1617
▁아녀	-1618
▁직업	-1619
다가	-1620
▁라든	-1621
▁지난	-1622
▁드가	-1623
▁언닌	-1624
▁꽤	-1625
▁모른	-1626
▁자고	-1627
▁키워	-1628
▁할로	-1629
▁재미있	-1630
▁켄	-1631
▁드니	-1632
▁저런	-1633
▁지네	-1634
▁뵈	-1635
▁대화	-1636
마는	-1637
▁만난	-1638
▁유행	-1639
▁송	-1640
▁콤	-1641
튜브	-1642
▁올려	-1643
▁피곤	-1644
▁가방	-1645
▁느그	-1646
▁최고	-1647
▁떤	-1648
▁드라구요	-1649
▁닌	-1650
▁의사	-1651
▁멕	-1652
▁지그	-1653
▁녀	-1654
▁잇	-1655
▁졸업	-1656
▁늙	-1657
▁나쁘	-1658
▁머시	-1659
▁감사	-1660
▁끝나	-1661
▁나갈	-1662
▁세상	-1663
▁지유	-1664
▁짜증	-1665
워서	-1666
▁거래	-1667
▁고람	-1668
▁아쉽	-1669
▁랭	-1670
▁시기	-1671
▁연예인	-1672
▁습니	-1673
▁신발	-1674
▁기회	-1675
▁꼼	-1676
▁이후	-1677
쟁이	-1678
▁혀서	-1679
▁밲	-1680
▁요런	-1681
▁후회	-1682
플렉스	-1683
래두	-1684
▁바지	-1685
▁깜짝	-1686
▁괘	-1687
▁허리	-1688
▁잃	-1689
▁바꾸	-1690
▁벌써	-1691
▁아르	-1692
▁프로그	-1693
▁데려	-1694
▁봐라	-1695
▁어른	-1696
▁유튜브	-1697
▁아래	-1698
▁죄송	-1699
▁인나	-1700
▁책임	-1701
▁해야지	-1702
▁경제	-1703
▁뭔지	-1704
▁사건	-1705
▁훈	-1706
▁선택	-1707
▁쌍	-1708
▁황	-1709
▁대루	-1710
▁아파트	-1711
▁뉴	-1712
▁본인	-1713
▁봤었	-1714
▁하머	-1715
▁흐	-1716
▁헬	-1717
▁주말	-1718
▁아이돌	-1719
▁냐믄	-1720
▁서방	-1721
▁어떡	-1722
▁가마	-1723
▁우쨌	-1724
▁전이	-1725
▁어야지	-1726
▁여서	-1727
▁이따	-1728
▁즈그	-1729
▁위험	-1730
▁행동	-1731
▁하이튼	-1732
▁부족	-1733
▁뎅이	-1734
▁다녔	-1735
▁요샌	-1736
디다	-1737
▁어때	-1738
▁낸	-1739
▁무지	-1740
▁설명	-1741
▁더라구요	-1742
▁쥐	-1743
▁누군	-1744
▁넘어가	-1745
▁귀찮	-1746
▁내년	-1747
▁표현	-1748
▁현실	-1749
▁끈	-1750
▁겁나게	-1751
▁계시	-1752
▁그나	-1753
▁하도	-1754
▁어짜피	-1755
▁그렁	-1756
▁배워	-1757
▁콘	-1758
▁직원	-1759
▁컴퓨터	-1760
▁게신	-1761
▁쭉	-1762
시오	-1763
▁막상	-1764
▁이사	-1765
수록	-1766
▁여보	-1767
▁이무	-1768
▁훨씬	-1769
▁는구나	-1770
아리	-1771
▁부르	-1772
▁이릏	-1773
▁가난	-1774
▁일어	-1775
▁사라	-1776
▁소개	-1777
▁하당	-1778
▁멍이	-1779
▁후지	-1780
▁닷	-1781
▁연습	-1782
▁오히	-1783
▁오히려	-1784
▁가치	-1785
▁모아	-1786
▁몰래	-1787
▁젼	-1788
▁도시	-1789
▁했잖아	-1790
▁고치	-1791
▁나무	-1792
▁결정	-1793
▁영상	-1794
▁범	-1795
▁으난	-1796
▁프로그램	-1797
▁섭	-1798
▁쇠	-1799
▁춥	-1800
▁한대	-1801
▁머스마	-1802
▁안타	-1803
▁엘	-1804
▁그분	-1805
▁당연	-1806
▁붕	-1807
▁출근	-1808
▁좌	-1809
▁주문	-1810
▁나신	-1811
▁가리	-1812
▁밲이	-1813
▁아이씨	-1814
라이	-1815
▁련	-1816
▁답답	-1817
▁멀리	-1818
▁세계	-1819
▁아닌가	-1820
▁우덜	-1821
▁얼구	-1822
부분	-1823
▁더레	-1824
▁메이	-1825
▁팬	-1826
▁랑가	-1827
▁썰	-1828
▁휘	-1829
▁다양	-1830
▁지나가	-1831
▁젤	-1832
재기	-1833
▁바꿔	-1834
▁넷	-1835
바이트	-1836
▁그녀	-1837
▁눈물	-1838
▁아도	-1839
▁예쁜	-1840
▁일곱	-1841
▁쏘	-1842
▁드래	-1843
▁만날	-1844
▁밝	-1845
▁한다꼬	-1846
▁앤	-1847
▁마대	-1848
▁그림	-1849
다니	-1850
▁가정	-1851
▁거덩	-1852
▁검사	-1853
▁그니	-1854
▁대하	-1855
▁걸려	-1856
▁반대	-1857
▁아무래두	-1858
▁아르바이트	-1859
고기	-1860
▁구리	-1861
▁곰	-1862
▁자구	-1863
▁한다고	-1864
▁이혼	-1865
▁자동	-1866
▁정두	-1867
▁시골	-1868
▁장사	-1869
▁그쪽	-1870
▁먼전	-1871
▁가만	-1872
▁문화	-1873
▁연기	-1874
▁갈라	-1875
▁그깐	-1876
▁치킨	-1877
▁낙	-1878
▁가까	-1879
▁호텔	-1880
▁엠	-1881
레기	-1882
▁가심	-1883
▁시집	-1884
▁쟤	-1885
▁나타	-1886
▁바라	-1887
▁어떻	-1888
▁아짐	-1889
▁십시오	-1890
▁꽁	-1891
▁선배	-1892
▁집서	-1893
▁신고	-1894
▁껌	-1895
▁라이	-1896
▁어찌	-1897
▁한참	-1898
▁회장	-1899
▁기다리	-1900
▁북	-1901
가리	-1902
▁돌려	-1903
▁둘째	-1904
▁지요	-1905
▁굽	-1906
▁넨	-1907
▁확인	-1908
▁갠	-1909
▁작가	-1910
▁족	-1911
마나	-1912
▁고르	-1913
▁주제	-1914
▁생각혀	-1915
▁기사	-1916
▁샘	-1917
▁이쁜	-1918
▁이용	-1919
▁쫓	-1920
▁바뀌	-1921
▁별러	-1922
▁해결	-1923
던가	-1924
▁도대처	-1925
▁컸	-1926
▁버려	-1927
▁승격	-1928
▁대부분	-1929
▁-	-1930
▁댁	-1931
▁결과	-1932
▁에선	-1933
▁해유	-1934
▁춤	-1935
▁어매	-1936
▁예전	-1937
▁종교	-1938
▁고유	-1939
▁실수	-1940
▁점심	-1941
▁옮	-1942
▁던지	-1943
▁될지	-1944
▁하르방	-1945
▁싼	-1946
▁씀	-1947
▁국민	-1948
▁제품	-1949
▁큰일	-1950
▁백만	-1951
▁롬	-1952
져서	-1953
▁굼은	-1954
▁심하	-1955
▁냐면	-1956
▁버린	-1957
▁았었	-1958
▁꿀	-1959
▁말꼬	-1960
▁육지	-1961
▁전부	-1962
▁쥬	-1963
▁가진	-1964
▁아두	-1965
▁친정	-1966
▁번호	-1967
▁시절	-1968
▁뻐	-1969
▁고고	-1970
▁여유	-1971
▁우선	-1972
▁인기	-1973
▁갑재기	-1974
▁어울리	-1975
▁홈	-1976
▁라예	-1977
▁수과	-1978
▁시난	-1979
▁점슴	-1980
▁브랜드	-1981
▁느꼈	-1982
▁떠나	-1983
▁일루	-1984
▁스포	-1985
▁아쭈	-1986
▁뽀	-1987
학생	-1988
▁께서	-1989
▁빠빠	-1990
▁자유	-1991
▁환경	-1992
▁훈련	-1993
▁그랬었	-1994
▁읍	-1995
▁여덟	-1996
▁헬스	-1997
토리	-1998
▁소설	-1999
▁들어갔	-2000
▁기름	-2001
▁부렀	-2002
▁추워	-2003
▁쭈	-2004
▁헹	-2005
▁눈치	-2006
▁려구	-2007
▁아인데	-2008
▁비행	-2009
▁시원	-2010
▁샤	-2011
▁군요	-2012
말로	-2013
▁정보	-2014
▁친해	-2015
▁목소리	-2016
▁스포츠	-2017
▁닫	-2018
▁구경	-2019
▁바쁘	-2020
▁엄니	-2021
▁시리	-2022
▁조용	-2023
▁평상	-2024
▁마스크	-2025
▁핑	-2026
▁식사	-2027
▁전문	-2028
▁가먼	-2029
▁드렸	-2030
▁바당	-2031
▁잖아예	-2032
▁경기	-2033
▁써서	-2034
▁까진	-2035
▁속상	-2036
▁아휴	-2037
▁아구	-2038
▁쩍	-2039
▁어부	-2040
▁부리	-2041
▁나간	-2042
▁뿔	-2043
▁지켜	-2044
▁혼대	-2045
▁걸어	-2046
▁워느	-2047
▁머시기	-2048
▁콰	-2049
▁을까요	-2050
▁그저	-2051
▁컨	-2052
▁놀이	-2053
▁학상	-2054
▁켔는데	-2055
▁월급	-2056
▁특별	-2057
▁글구	-2058
▁도망	-2059
▁스스	-2060
▁아닐	-2061
▁끓여	-2062
▁때문	-2063
▁모임	-2064
▁발라	-2065
▁배달	-2066
▁고만	-2067
▁더라도	-2068
▁찔	-2069
▁제발	-2070
▁찾아가	-2071
▁움직이	-2072
▁겔	-2073
▁아홉	-2074
▁든데	-2075
▁일부	-2076
▁한다는	-2077
▁거이	-2078
▁기계	-2079
▁분명	-2080
▁역사	-2081
▁워드	-2082
▁한나	-2083
▁함께	-2084
▁역시	-2085
▁콤플렉스	-2086
▁놀래	-2087
▁주위	-2088
▁쫄	-2089
▁어여	-2090
▁맛집	-2091
▁작품	-2092
▁한께	-2093
▁추운	-2094
▁름	-2095
▁줄게	-2096
▁허영	-2097
▁규	-2098
▁납	-2099
▁븐	-2100
러지	-2101
▁기간	-2102
▁지원	-2103
▁인재	-2104
▁스스로	-2105
▁정해	-2106
▁알아보	-2107
▁불안	-2108
▁야구	-2109
▁자마	-2110
거지	-2111
▁들어간	-2112
▁할려구	-2113
▁도착	-2114
▁산책	-2115
▁할려	-2116
▁날라	-2117
▁능력	-2118
▁대요	-2119
▁물어	-2120
▁액	-2121
다리	-2122
▁즌에	-2123
▁닦	-2124
▁집중	-2125
▁허난	-2126
▁햇	-2127
▁짠	-2128
▁내금	-2129
▁바램	-2130
▁포기	-2131
▁간호	-2132
▁시방	-2133
▁택시	-2134
▁볶	-2135
버지	-2136
▁근처	-2137
▁관광	-2138
▁지방	-2139
▁목표	-2140
▁인정	-2141
▁쩡	-2142
어지	-2143
▁편한	-2144
▁평소	-2145
▁할지	-2146
머리	-2147
▁드려	-2148
▁거서	-2149
▁라지	-2150
▁빡세	-2151
▁지도	-2152
▁괜잖	-2153
▁볼까	-2154
▁심히	-2155
▁한두	-2156
▁입니까	-2157
▁찾아보	-2158
▁경찰	-2159
▁모여	-2160
▁둔	-2161
▁가민	-2162
▁당근	-2163
▁던가	-2164
▁보단	-2165
▁빌려	-2166
▁욕심	-2167
▁피해	-2168
야지	-2169
▁다잉	-2170
▁으면서	-2171
▁어깨	-2172
▁해니	-2173
린다	-2174
▁성공	-2175
▁다니까	-2176
▁라고유	-2177
▁봅	-2178
▁거우	-2179
▁효과	-2180
▁내금새	-2181
▁위해서	-2182
▁근무	-2183
▁된께	-2184
▁며칠	-2185
▁마세요	-2186
▁겟	-2187
▁냈	-2188
▁홀	-2189
거나	-2190
던지	-2191
▁담배	-2192
▁놀랬	-2193
▁억수	-2194
▁장르	-2195
▁스토리	-2196
▁든가	-2197
▁이뻐	-2198
▁섬	-2199
▁어려운	-2200
▁웅	-2201
▁짱	-2202
▁으셨	-2203
댕기	-2204
▁바리	-2205
▁새벽	-2206
▁친한	-2207
▁할매	-2208
▁내려가	-2209
▁새로운	-2210
▁레미	-2211
▁보냈	-2212
▁불쌍	-2213
▁은지	-2214
▁월마나	-2215
▁들리	-2216
▁실지	-2217
▁자랑	-2218
▁만족	-2219
▁모양	-2220
▁영향	-2221
▁유지	-2222
▁충격	-2223
▁애유	-2224
▁계산	-2225
▁소문	-2226
▁이루	-2227
▁낚	-2228
▁주인공	-2229
▁냉장	-2230
▁자세	-2231
▁야이	-2232
▁최대	-2233
무원	-2234
▁나눠	-2235
▁직히	-2236
▁지만은	-2237
▁금사	-2238
▁어딨	-2239
▁간나	-2240
▁아시	-2241
▁면허	-2242
▁스물	-2243
▁기술	-2244
▁페이	-2245
▁을라	-2246
▁당게	-2247
▁만내	-2248
▁손님	-2249
▁이녁	-2250
▁즉	-2251
▁힘드	-2252
▁감자	-2253
▁달르	-2254
▁모이	-2255
▁어째	-2256
▁우다	-2257
▁저것	-2258
▁허지	-2259
▁품	-2260
자리	-2261
▁느라	-2262
▁유투	-2263
▁크리	-2264
▁들어와	-2265
▁무서워	-2266
▁갚	-2267
▁위주	-2268
라인	-2269
▁드러	-2270
▁오랜만	-2271
▁글쎄	-2272
▁댕겼	-2273
▁땡기	-2274
▁마트	-2275
▁통화	-2276
▁한가	-2277
▁그니까	-2278
▁지마는	-2279
▁습관	-2280
으면	-2281
▁과정	-2282
▁성적	-2283
▁저번	-2284
▁정확	-2285
▁줘서	-2286
▁롭	-2287
동안	-2288
▁질문	-2289
▁과일	-2290
▁서이	-2291
▁때메	-2292
▁마주	-2293
▁예약	-2294
▁쬐끔	-2295
▁퇴근	-2296
▁안주	-2297
▁반찬	-2298
▁깎	-2299
▁랄	-2300
▁폰	-2301
▁폴	-2302
▁네이	-2303
▁챙기	-2304
▁허구	-2305
▁기억나	-2306
▁낯	-2307
▁더만	-2308
▁문지	-2309
▁보리	-2310
▁셔서	-2311
▁올라오	-2312
▁뉴스	-2313
▁용돈	-2314
▁전기	-2315
▁똘	-2316
▁빠졌	-2317
▁치료	-2318
▁틀리	-2319
▁비행기	-2320
▁뜯	-2321
▁건물	-2322
▁디도	-2323
▁자동차	-2324
마트	-2325
▁팀장	-2326
▁상상	-2327
▁위해	-2328
▁인상	-2329
▁하드	-2330
▁자마자	-2331
▁겍	-2332
▁가슴	-2333
▁기도	-2334
▁애미	-2335
▁덩	-2336
▁됩	-2337
▁가사	-2338
▁떨어져	-2339
▁뼈	-2340
▁아줌	-2341
▁음매	-2342
▁겪	-2343
▁젖	-2344
▁폐	-2345
▁헝	-2346
▁보고	-2347
▁어니	-2348
더라	-2349
사리	-2350
▁다매	-2351
▁허민	-2352
▁다시피	-2353
▁스러운	-2354
▁렌	-2355
▁고집	-2356
▁영양	-2357
▁해다	-2358
▁대충	-2359
▁모다	-2360
▁스무	-2361
▁모시	-2362
▁으라	-2363
▁하지	-2364
▁들어왔	-2365
▁할마시	-2366
▁따뜻	-2367
▁막내	-2368
▁특이	-2369
▁몽	-2370
▁야기	-2371
▁달려	-2372
▁편안	-2373
▁할래	-2374
▁아줌마	-2375
▁앴	-2376
▁깨끗	-2377
▁대해	-2378
▁문젠	-2379
▁준다	-2380
▁둬	-2381
▁신지	-2382
▁삘	-2383
▁웨	-2384
▁삭	-2385
▁겍이	-2386
▁고모	-2387
▁디자	-2388
▁니까는	-2389
▁마찬	-2390
▁사정	-2391
▁조근	-2392
▁섞	-2393
▁쌩	-2394
▁노트	-2395
▁농사	-2396
▁오후	-2397
▁흔들	-2398
▁솜	-2399
동생	-2400
▁그땐	-2401
▁돼지	-2402
▁게서	-2403
▁선호	-2404
▁양념	-2405
▁공감	-2406
▁그케	-2407
▁우울	-2408
▁지지	-2409
▁헌디	-2410
▁어리	-2411
▁전혀	-2412
▁당하	-2413
▁벽	-2414
▁누리	-2415
▁발전	-2416
▁옥	-2417
스터	-2418
▁맥주	-2419
▁바빠	-2420
▁이만	-2421
▁문리	-2422
▁보일	-2423
▁어잉	-2424
▁입맛	-2425
▁마누	-2426
▁전체	-2427
▁드라고요	-2428
▁뱅	-2429
▁상체	-2430
▁영하	-2431
▁웃기	-2432
▁주민	-2433
▁캐릭	-2434
▁꼽	-2435
▁자라	-2436
▁하날	-2437
▁라니까	-2438
▁최대한	-2439
▁한다구	-2440
▁뮤	-2441
▁실은	-2442
▁장면	-2443
▁짤라	-2444
▁돌아댕기	-2445
▁꾼	-2446
▁대구	-2447
▁취업	-2448
▁매력	-2449
▁유치	-2450
▁왠	-2451
▁경행	-2452
▁평생	-2453
▁하튼	-2454
▁냉장고	-2455
▁맻	-2456
레비	-2457
어들	-2458
▁바닥	-2459
▁사귀	-2460
▁이틀	-2461
▁출발	-2462
▁공무원	-2463
▁할마이	-2464
▁왐	-2465
▁쥉	-2466
▁될까	-2467
▁수학	-2468
▁어고	-2469
▁주차	-2470
▁더라고요	-2471
끄러	-2472
▁어가	-2473
▁지키	-2474
▁꽉	-2475
▁잤	-2476
▁아버이	-2477
▁캠	-2478
▁난다	-2479
▁따지	-2480
▁올래	-2481
▁을지	-2482
▁그래요	-2483
▁해영	-2484
▁쳤	-2485
▁려면	-2486
▁즈네	-2487
▁마찬가지	-2488
▁단지	-2489
▁된장	-2490
▁바루	-2491
▁신청	-2492
▁안정	-2493
▁한단	-2494
▁못했	-2495
▁의미	-2496
▁장점	-2497
▁격	-2498
▁서부	-2499
▁짐치	-2500
▁쳐다	-2501
▁충분	-2502
▁고대로	-2503
▁놔두	-2504
▁배고	-2505
▁된다구	-2506
▁감동	-2507
▁방학	-2508
그넹	-2509
▁감독	-2510
▁기준	-2511
▁사기	-2512
▁상품	-2513
▁지하	-2514
▁편의	-2515
가락	-2516
▁근육	-2517
▁달리	-2518
▁돌리	-2519
▁싸움	-2520
▁콜	-2521
▁꾸준	-2522
▁끝내	-2523
▁더러	-2524
▁초반	-2525
▁아이고	-2526
▁꽂	-2527
▁렇	-2528
▁나서	-2529
▁우째	-2530
▁체력	-2531
▁따라가	-2532
▁캐릭터	-2533
냉이	-2534
심히	-2535
▁긍꼬	-2536
▁마을	-2537
▁웃긴	-2538
▁이새	-2539
▁취향	-2540
▁쫍	-2541
동산	-2542
▁보인	-2543
▁사겼	-2544
▁예민	-2545
▁오만	-2546
▁휴대	-2547
▁츠	-2548
▁희한	-2549
▁딘	-2550
▁쐬	-2551
▁국물	-2552
▁진행	-2553
▁포장	-2554
▁갬	-2555
▁뚱	-2556
▁찰	-2557
▁캔	-2558
▁서운	-2559
▁아깝	-2560
▁연결	-2561
▁상관없	-2562
▁계신	-2563
▁구하	-2564
▁맞아	-2565
▁맞추	-2566
▁매장	-2567
▁유럽	-2568
▁키웠	-2569
▁죙	-2570
래이	-2571
▁고자	-2572
▁빙	-2573
화점	-2574
▁드레	-2575
▁라니	-2576
▁아칙	-2577
▁차려	-2578
▁벼	-2579
▁쉬운	-2580
▁어뜩	-2581
▁예뻐	-2582
▁탔	-2583
▁개구	-2584
▁기구	-2585
▁배웠	-2586
▁달구	-2587
▁자락	-2588
▁긍까는	-2589
▁뺏	-2590
▁무릎	-2591
▁외려	-2592
▁응게	-2593
랑께	-2594
▁부텀	-2595
▁전자	-2596
▁정치	-2597
▁덮	-2598
▁걸렸	-2599
▁야채	-2600
▁한지	-2601
▁밟	-2602
▁흰	-2603
▁가유	-2604
▁소심	-2605
▁푹	-2606
서트	-2607
▁승질	-2608
▁떨어졌	-2609
▁대답	-2610
▁못한	-2611
▁실력	-2612
▁애매	-2613
▁으이구	-2614
▁협	-2615
▁누워	-2616
▁쥉일	-2617
▁보호	-2618
▁은행	-2619
▁아가씨	-2620
이프	-2621
▁단계	-2622
▁마실	-2623
▁붙여	-2624
▁아리	-2625
▁백화점	-2626
▁사무실	-2627
▁껍	-2628
▁닿	-2629
▁줌	-2630
▁측	-2631
▁구두	-2632
▁지름	-2633
▁토막	-2634
▁디자인	-2635
머니	-2636
▁그란	-2637
▁나왕	-2638
▁빠진	-2639
▁사우	-2640
▁얼릉	-2641
▁역할	-2642
▁아인가	-2643
▁콘서트	-2644
▁써야	-2645
▁위하	-2646
▁천만	-2647
▁쨋	-2648
테크	-2649
▁단점	-2650
▁디게	-2651
▁때려	-2652
▁심해	-2653
▁줘요	-2654
▁동아리	-2655
▁가구	-2656
▁다닌	-2657
▁랜지	-2658
▁처리	-2659
▁씹	-2660
▁쟈	-2661
▁다라	-2662
▁마셔	-2663
▁바까	-2664
▁잊어	-2665
▁재테크	-2666
▁시즌	-2667
▁완저	-2668
▁타이	-2669
▁볼라고	-2670
▁한잔	-2671
▁한텐	-2672
▁기달리	-2673
▁상대방	-2674
▁갤	-2675
▁묶	-2676
부러	-2677
시다	-2678
▁동세	-2679
▁므는	-2680
▁스키	-2681
▁얼른	-2682
▁와야	-2683
▁요기	-2684
우스	-2685
▁그놈	-2686
▁기부	-2687
▁친하	-2688
▁패딩	-2689
▁휴대폰	-2690
▁삔	-2691
▁이때	-2692
▁데이트	-2693
▁할려고	-2694
▁옵	-2695
▁짼	-2696
▁마는	-2697
▁어딜	-2698
▁이불	-2699
▁이자	-2700
▁카톡	-2701
▁해사	-2702
▁계란	-2703
▁먼가	-2704
▁빨간	-2705
▁그나마	-2706
▁느이	-2707
▁비밀	-2708
▁비스	-2709
▁소금	-2710
▁귀여	-2711
▁깔끔	-2712
▁댕길	-2713
▁부대	-2714
▁시켰	-2715
▁꺼내	-2716
▁매운	-2717
▁어띃	-2718
▁해졌	-2719
▁영화관	-2720
▁뭉	-2721
▁얇	-2722
벌나	-2723
▁대차	-2724
▁여적	-2725
▁이란	-2726
▁이어	-2727
▁저러	-2728
▁터지	-2729
▁허벌나	-2730
▁줍	-2731
아들	-2732
▁생가	-2733
▁부동산	-2734
▁편의점	-2735
▁기능	-2736
▁비교	-2737
▁세대	-2738
▁아기	-2739
▁심한	-2740
아가	-2741
▁김장	-2742
▁꺼정	-2743
▁외모	-2744
▁쟁이	-2745
▁피아	-2746
▁열심히	-2747
▁좁	-2748
▁우유	-2749
멩히	-2750
▁봐두	-2751
▁에유	-2752
▁자전	-2753
▁휴가	-2754
▁분멩히	-2755
▁국가	-2756
▁뛰어	-2757
▁시킬	-2758
▁연구	-2759
스마스	-2760
▁크리스마스	-2761
▁훌	-2762
▁냅	-2763
▁봥	-2764
볶이	-2765
▁감기	-2766
▁골라	-2767
▁현재	-2768
▁돌아오	-2769
▁화장실	-2770
▁농구	-2771
▁마치	-2772
▁모자	-2773
▁부부	-2774
▁임신	-2775
▁뜬	-2776
▁랴	-2777
▁거짓	-2778
▁놀라	-2779
▁소식	-2780
▁드라도	-2781
▁아구구	-2782
▁테레비	-2783
▁숩	-2784
▁보였	-2785
▁재료	-2786
▁겅행그넹	-2787
▁도전	-2788
▁면접	-2789
▁사개	-2790
▁혈액	-2791
▁역부러	-2792
▁무조	-2793
▁복잡	-2794
▁챙피	-2795
▁떡볶이	-2796
▁줜	-2797
▁빚	-2798
▁등산	-2799
▁명품	-2800
▁미친	-2801
▁심심	-2802
▁으래	-2803
▁이른	-2804
▁져서	-2805
▁환자	-2806
▁공기	-2807
▁상처	-2808
▁커서	-2809
▁행사	-2810
▁자전거	-2811
▁랬	-2812
▁기업	-2813
▁삼성	-2814
▁에어	-2815
▁흥미	-2816
▁누군가	-2817
▁아이구	-2818
▁웡	-2819
▁팍	-2820
깽이	-2821
▁보문	-2822
▁비용	-2823
▁연극	-2824
▁슥	-2825
▁고쳐	-2826
▁구워	-2827
▁마라	-2828
▁어떨	-2829
래요	-2830
▁강원	-2831
▁아뇨	-2832
▁일상	-2833
스타	-2834
▁모두	-2835
▁삼춘	-2836
▁오메	-2837
▁으멍	-2838
▁겁니다	-2839
거운	-2840
▁어는	-2841
▁어사	-2842
▁된다는	-2843
▁멫	-2844
▁작업	-2845
▁제사	-2846
▁해져	-2847
▁똑같이	-2848
▁아쉬운	-2849
▁광주	-2850
▁종이	-2851
▁노래방	-2852
▁십니까	-2853
▁붓	-2854
▁기별	-2855
▁대전	-2856
▁수준	-2857
▁오새	-2858
▁된다고	-2859
▁아름	-2860
▁댔	-2861
▁글제	-2862
▁다신	-2863
▁맹글	-2864
▁코스	-2865
▁형제	-2866
▁귤	-2867
▁껄	-2868
여행	-2869
▁노난	-2870
▁라게	-2871
▁치마	-2872
▁는데유	-2873
바구	-2874
▁국내	-2875
▁들어갈	-2876
▁을라고	-2877
▁뒈	-2878
▁압	-2879
가루	-2880
▁교통	-2881
▁군데	-2882
▁미치	-2883
▁부럽	-2884
▁서요	-2885
▁이리	-2886
▁쭐이	-2887
▁합격	-2888
▁헷	-2889
통령	-2890
▁버릴	-2891
▁사과	-2892
▁미용	-2893
▁뿌리	-2894
▁살림	-2895
▁실망	-2896
▁한창	-2897
▁적당	-2898
▁냐면은	-2899
▁놩	-2900
▁고대	-2901
▁모를	-2902
▁음석	-2903
▁라구요	-2904
▁과장	-2905
▁변화	-2906
▁심각	-2907
▁장소	-2908
▁편지	-2909
▁찜	-2910
▁계약	-2911
▁바쁜	-2912
▁적응	-2913
▁회의	-2914
▁어려워	-2915
▁칸	-2916
▁귀엽	-2917
▁배울	-2918
▁오리	-2919
▁하늘	-2920
▁락지	-2921
▁시어	-2922
▁심들	-2923
▁얘긴	-2924
▁걸린	-2925
▁검색	-2926
▁오른	-2927
▁대통령	-2928
▁피아노	-2929
▁간단	-2930
▁메누	-2931
▁어우	-2932
▁즐기	-2933
▁착한	-2934
▁가시나	-2935
▁밴	-2936
▁결론	-2937
▁변하	-2938
▁억수로	-2939
▁짬	-2940
▁쩐	-2941
▁단순	-2942
▁안행	-2943
▁오라방	-2944
▁공간	-2945
▁느낀	-2946
▁발르	-2947
▁소비	-2948
▁여거	-2949
▁룸	-2950
▁아척	-2951
▁우짜	-2952
▁이민	-2953
▁조영	-2954
▁허락	-2955
▁탱	-2956
▁간지	-2957
▁세워	-2958
▁온다	-2959
▁조절	-2960
▁가져가	-2961
▁덥	-2962
▁각사	-2963
▁붙이	-2964
▁축제	-2965
▁아이폰	-2966
▁멜	-2967
▁탑	-2968
릭스	-2969
지컬	-2970
▁개발	-2971
▁읊	-2972
이트	-2973
▁구들	-2974
▁못해	-2975
▁보낸	-2976
▁인식	-2977
▁랐	-2978
비스	-2979
▁언나	-2980
▁돋	-2981
▁멈	-2982
▁찝	-2983
▁톡	-2984
투리	-2985
▁박스	-2986
▁아나	-2987
▁자극	-2988
▁사이즈	-2989
이크	-2990
▁그릇	-2991
▁로서	-2992
▁오민	-2993
▁조사	-2994
▁아야지	-2995
▁힐	-2996
▁공불	-2997
▁넷플	-2998
▁노인	-2999
▁배운	-3000
▁아버	-3001
▁넷플릭스	-3002
▁굶	-3003
▁윤	-3004
▁쫙	-3005
▁국시	-3006
▁대표	-3007
▁점수	-3008
▁나타나	-3009
끄만	-3010
▁신데	-3011
▁왔었	-3012
▁착하	-3013
▁하긴	-3014
무리	-3015
▁광고	-3016
▁아적	-3017
▁지구	-3018
▁끕	-3019
이션	-3020
▁심지	-3021
▁여게	-3022
▁녜	-3023
▁따르	-3024
▁부탁	-3025
▁기다려	-3026
▁이미지	-3027
▁뚫	-3028
▁펴	-3029
▁까먹	-3030
▁만드	-3031
▁반려	-3032
▁애비	-3033
▁노트북	-3034
▁헤어지	-3035
▁옹	-3036
▁공원	-3037
▁빨래	-3038
▁쓰레기	-3039
▁간식	-3040
▁대리	-3041
▁삘이	-3042
▁시청	-3043
▁여성	-3044
▁체육	-3045
▁키울	-3046
▁골프	-3047
▁꺼리	-3048
▁미래	-3049
▁조건	-3050
▁학기	-3051
▁긋	-3052
▁느마	-3053
▁대회	-3054
▁때리	-3055
▁매달	-3056
▁몬하	-3057
께요	-3058
없이	-3059
▁동니	-3060
▁들여	-3061
▁중한	-3062
▁즐겨	-3063
▁패션	-3064
▁릏	-3065
▁턱	-3066
렝이	-3067
▁마수	-3068
▁목적	-3069
아버지	-3070
▁스마트	-3071
▁린	-3072
▁날짜	-3073
▁대러	-3074
▁라머	-3075
▁시킨	-3076
▁재산	-3077
▁비해서	-3078
▁세월	-3079
▁어지	-3080
▁여야	-3081
▁오디	-3082
▁웬만	-3083
▁어머님	-3084
▁겸	-3085
▁팡	-3086
▁나머	-3087
▁메뉴	-3088
▁재수	-3089
▁꾸준히	-3090
▁이라든	-3091
▁킬	-3092
바닥	-3093
▁을라구	-3094
▁드릴게요	-3095
▁고는	-3096
▁공장	-3097
▁산다	-3098
▁저렴	-3099
▁할게요	-3100
▁긴장	-3101
▁달래	-3102
▁서비스	-3103
▁뚝	-3104
▁엑	-3105
▁서름	-3106
▁안경	-3107
▁입원	-3108
▁받아들	-3109
▁찢	-3110
▁흉	-3111
▁흑	-3112
▁공항	-3113
▁구매	-3114
▁시도	-3115
▁아재	-3116
▁은근	-3117
▁인물	-3118
에스	-3119
▁기러	-3120
▁수능	-3121
▁안녕	-3122
▁익숙	-3123
▁잖소	-3124
▁쎈	-3125
걸이	-3126
▁거개	-3127
▁상하	-3128
▁뺄	-3129
▁강께	-3130
▁다지	-3131
▁당황	-3132
▁마냥	-3133
▁억울	-3134
▁긁	-3135
▁럴	-3136
▁기차	-3137
▁성인	-3138
▁유산	-3139
▁추가	-3140
▁태어	-3141
▁해진	-3142
▁허기	-3143
▁뮤지컬	-3144
▁안타까	-3145
▁화장품	-3146
▁무이	-3147
▁오르	-3148
▁외로	-3149
▁전공	-3150
▁살아가	-3151
▁빤	-3152
▁고장	-3153
▁반응	-3154
▁시댁	-3155
▁의지	-3156
▁류	-3157
라도	-3158
라지	-3159
▁뭔데	-3160
▁아퍼	-3161
▁통해	-3162
▁그런가	-3163
▁매이	-3164
▁은가	-3165
▁확실	-3166
▁안타깝	-3167
▁실패	-3168
▁으라고	-3169
▁롯	-3170
으니	-3171
▁가가	-3172
▁대간	-3173
▁하대	-3174
▁간호사	-3175
▁콧	-3176
랑가	-3177
메라	-3178
▁뒈져	-3179
▁손지	-3180
▁신혼	-3181
▁이시	-3182
▁침대	-3183
▁기여	-3184
▁대체	-3185
▁배추	-3186
▁부딪	-3187
▁비타	-3188
▁음료	-3189
▁코트	-3190
▁풀리	-3191
▁고마워	-3192
▁과학	-3193
▁괴롭	-3194
▁서른	-3195
▁소스	-3196
▁껏	-3197
▁쏙	-3198
▁나부	-3199
▁에려	-3200
▁왠지	-3201
▁뇌	-3202
▁랑께	-3203
▁마씨	-3204
▁취직	-3205
▁국민학교	-3206
▁퍽	-3207
▁모대	-3208
▁무작	-3209
▁불렀	-3210
▁셔야	-3211
▁짜르	-3212
▁결혼식	-3213
▁비타민	-3214
▁고구	-3215
▁단풍	-3216
▁들려	-3217
▁방금	-3218
▁이따가	-3219
▁할머니	-3220
▁젓	-3221
이브	-3222
▁거라	-3223
▁돼야	-3224
▁라인	-3225
▁지갑	-3226
▁처먹	-3227
▁분명히	-3228
▁사투리	-3229
▁헙	-3230
▁낭구	-3231
▁내내	-3232
▁만일	-3233
▁생선	-3234
▁소용	-3235
▁식단	-3236
▁식품	-3237
▁죙일	-3238
▁왼	-3239
디오	-3240
▁내가	-3241
▁데우	-3242
▁똑똑	-3243
▁정돈	-3244
▁정상	-3245
▁그랑께	-3246
와서	-3247
▁간대	-3248
▁간장	-3249
▁먼서	-3250
▁바꿀	-3251
▁제도	-3252
▁뭇	-3253
▁뽂	-3254
▁엥	-3255
▁푼	-3256
▁가볍	-3257
▁나빠	-3258
▁말이	-3259
▁방향	-3260
▁주마	-3261
▁중고	-3262
▁토익	-3263
▁그면서	-3264
▁빗	-3265
▁빛	-3266
▁기기	-3267
▁시가	-3268
▁신문	-3269
▁애플	-3270
▁어신	-3271
▁염색	-3272
▁의견	-3273
▁편해	-3274
▁피자	-3275
▁어띃게	-3276
래기	-3277
피스	-3278
▁설탕	-3279
▁어시	-3280
▁자는	-3281
▁합니까	-3282
대루	-3283
▁서귀	-3284
▁신다	-3285
▁원하	-3286
▁위한	-3287
▁형부	-3288
▁나머지	-3289
▁무조건	-3290
▁짚	-3291
▁각자	-3292
▁허드	-3293
▁그륵	-3294
▁드나	-3295
▁부지	-3296
▁성향	-3297
▁시내	-3298
▁으네	-3299
▁그램	-3300
▁낚시	-3301
▁바퀴	-3302
▁신거	-3303
▁암시	-3304
▁내려오	-3305
▁카메라	-3306
▁띄	-3307
머이	-3308
▁바뀐	-3309
▁새루	-3310
▁아저	-3311
▁웃겨	-3312
▁취소	-3313
▁할인	-3314
▁벙	-3315
▁혜	-3316
너지	-3317
▁가당	-3318
▁걸릴	-3319
▁단어	-3320
▁스케	-3321
▁의식	-3322
▁는다고	-3323
▁라던지	-3324
▁헌다구	-3325
▁그간	-3326
▁맹그	-3327
▁요만	-3328
▁용서	-3329
▁택배	-3330
▁현금	-3331
▁온라인	-3332
생활	-3333
▁공사	-3334
▁나모	-3335
▁숙소	-3336
▁애니	-3337
▁첫째	-3338
▁표정	-3339
▁꿔	-3340
▁밍	-3341
▁뱃	-3342
▁팩	-3343
▁세금	-3344
▁인연	-3345
▁자취	-3346
▁키운	-3347
▁파티	-3348
▁하마	-3349
▁,	-3350
아이	-3351
▁개념	-3352
▁거주	-3353
▁기록	-3354
▁동기	-3355
▁위치	-3356
▁유리	-3357
▁추미	-3358
▁치우	-3359
▁할루	-3360
▁소화	-3361
▁텐디	-3362
▁는다는	-3363
▁겹	-3364
▁릿	-3365
▁쌈	-3366
▁쟁	-3367
▁보조	-3368
▁을래	-3369
▁주사	-3370
▁호박	-3371
▁활용	-3372
▁어머니	-3373
▁쏠	-3374
▁이연	-3375
▁죽이	-3376
▁치매	-3377
▁서귀포	-3378
▁팝	-3379
▁감성	-3380
▁그쵸	-3381
▁녀석	-3382
▁대출	-3383
▁머슴	-3384
▁상다	-3385
▁자존	-3386
▁허연	-3387
▁강원도	-3388
▁아저씨	-3389
▁틈	-3390
▁거진	-3391
▁느리	-3392
▁만니	-3393
▁어쩐	-3394
▁그러먼	-3395
▁은데요	-3396
▁됨	-3397
▁땄	-3398
▁뺀	-3399
▁엇	-3400
▁즙	-3401
▁기지	-3402
▁분야	-3403
▁섭섭	-3404
▁터져	-3405
▁간다구	-3406
▁여적지	-3407
▁꽝	-3408
▁낀	-3409
나무	-3410
▁다믄	-3411
▁쑥	-3412
▁핏	-3413
나리	-3414
▁놔야	-3415
▁니랑	-3416
▁사요	-3417
▁안전	-3418
▁체크	-3419
뿌래이	-3420
▁고냉이	-3421
▁아버님	-3422
▁차말로	-3423
▁거지뿌래이	-3424
▁건너	-3425
▁멩게	-3426
▁쓰리	-3427
▁허곡	-3428
▁그면은	-3429
▁싰	-3430
▁깽이	-3431
▁보낼	-3432
▁생길	-3433
▁어이	-3434
▁임마	-3435
▁통장	-3436
▁당연히	-3437
끄럽	-3438
둥이	-3439
▁게끔	-3440
▁딱딱	-3441
▁마니	-3442
▁해신	-3443
▁화면	-3444
▁이바구	-3445
▁링	-3446
려면	-3447
▁말라	-3448
▁카구	-3449
▁춘	-3450
▁펭	-3451
▁둘러	-3452
▁불구	-3453
▁사촌	-3454
▁속도	-3455
▁요가	-3456
▁우산	-3457
▁캠핑	-3458
▁는대	-3459
▁마당	-3460
▁시거	-3461
▁오토	-3462
▁이럼	-3463
▁특벨	-3464
▁심지어	-3465
▁여행지	-3466
▁건조	-3467
▁네예	-3468
▁멕이	-3469
▁세탁	-3470
▁이성	-3471
▁재민	-3472
▁릴	-3473
▁라믄	-3474
▁로운	-3475
▁미쳐	-3476
▁수구	-3477
▁흘러	-3478
▁스러워	-3479
▁욱	-3480
▁거긴	-3481
▁거등	-3482
▁새우	-3483
▁시누	-3484
▁이근	-3485
▁햇빛	-3486
▁벅	-3487
▁숫	-3488
▁컵	-3489
어져	-3490
▁가졌	-3491
▁마셨	-3492
▁미역	-3493
▁베이	-3494
▁서류	-3495
▁었잖	-3496
▁치즈	-3497
▁할게	-3498
▁다면서	-3499
▁우해서	-3500
▁으라구	-3501
겹살	-3502
▁강하	-3503
▁됐었	-3504
▁싸웠	-3505
▁와요	-3506
▁삼겹살	-3507
▁재미없	-3508
▁엿	-3509
▁갈비	-3510
▁개안	-3511
▁공포	-3512
▁난이	-3513
▁신나	-3514
▁어르	-3515
▁어색	-3516
▁하먼	-3517
▁태어나	-3518
▁꼐	-3519
▁놘	-3520
러스	-3521
▁근지	-3522
▁더래	-3523
▁마늘	-3524
▁잠시	-3525
▁크기	-3526
▁가까이	-3527
▁끓이	-3528
▁독립	-3529
▁뒤집	-3530
▁마참	-3531
▁브렀	-3532
▁아팠	-3533
▁올제	-3534
▁워치	-3535
저께	-3536
▁솔직	-3537
▁여대	-3538
▁요구	-3539
▁이여	-3540
▁판단	-3541
▁쏟	-3542
▁바닷	-3543
▁볼라	-3544
▁상담	-3545
▁오름	-3546
▁고구마	-3547
▁뺐	-3548
▁헛	-3549
▁과거	-3550
▁벨로	-3551
▁프리	-3552
▁즌에는	-3553
▁하우스	-3554
▁굉	-3555
▁심장	-3556
▁잖어	-3557
▁크림	-3558
▁와이프	-3559
▁토요일	-3560
▁다서	-3561
▁방식	-3562
▁시계	-3563
▁존나	-3564
여서	-3565
▁가그	-3566
▁까닭	-3567
▁데끼	-3568
▁들이	-3569
▁발표	-3570
▁지루	-3571
▁칭찬	-3572
▁속상하	-3573
▁댓	-3574
▁뒀	-3575
▁가라	-3576
▁만취	-3577
▁발견	-3578
▁살려	-3579
▁됀	-3580
무게	-3581
▁경향	-3582
▁기운	-3583
▁렇구	-3584
▁전하	-3585
▁짜장	-3586
▁태풍	-3587
▁냐구요	-3588
▁몸무게	-3589
▁묘	-3590
▁고추	-3591
▁구겡	-3592
▁브이	-3593
▁스테	-3594
▁아즉	-3595
▁으셔	-3596
▁이동	-3597
▁장기	-3598
▁따라서	-3599
▁좋아허	-3600
▁가루	-3601
▁금액	-3602
▁남대	-3603
▁라기	-3604
▁존재	-3605
▁주무	-3606
▁썬	-3607
▁갔다	-3608
▁느매	-3609
▁무니	-3610
▁문자	-3611
▁으실	-3612
▁해놨	-3613
▁어린이	-3614
▁을려고	-3615
▁객	-3616
▁줸	-3617
▁헉	-3618
▁거낭	-3619
▁긍정	-3620
▁로맨	-3621
▁겁니까	-3622
▁올라갔	-3623
▁인데요	-3624
▁쳐다보	-3625
▁하나님	-3626
▁맑	-3627
▁엎	-3628
진다	-3629
▁가운	-3630
▁틀려	-3631
▁다구요	-3632
▁마무리	-3633
▁혈액형	-3634
▁뜰	-3635
▁벚	-3636
데기	-3637
▁각시	-3638
▁냉동	-3639
▁목욕	-3640
▁쓰이	-3641
▁예능	-3642
▁겅해부	-3643
▁나와서	-3644
▁쑤	-3645
▁강의	-3646
▁거유	-3647
▁본다	-3648
▁에프	-3649
▁이은	-3650
▁일요일	-3651
▁계기	-3652
▁꼬락	-3653
▁보드	-3654
▁부자	-3655
▁정부	-3656
▁지냈	-3657
▁차리	-3658
▁하두	-3659
▁랩	-3660
찌개	-3661
▁거대	-3662
▁군인	-3663
▁다요	-3664
▁다운	-3665
▁제목	-3666
▁치워	-3667
▁그른지	-3668
▁들어온	-3669
▁맘대로	-3670
▁덤	-3671
▁탓	-3672
▁핀	-3673
▁가질	-3674
▁굼이	-3675
▁수게	-3676
▁언젠	-3677
▁갈라고	-3678
▁될까요	-3679
▁그룹	-3680
▁기숙	-3681
▁대기	-3682
▁대중	-3683
▁봉사	-3684
▁인형	-3685
▁판매	-3686
▁툭	-3687
▁공유	-3688
▁내보	-3689
▁맨드	-3690
▁부재	-3691
▁새꼬	-3692
▁어딘	-3693
▁주만	-3694
▁훌륭	-3695
▁걸어가	-3696
▁몰라도	-3697
▁으로서	-3698
벤트	-3699
센트	-3700
▁가차	-3701
▁반복	-3702
▁아뭇	-3703
▁오해	-3704
▁올르	-3705
▁체질	-3706
▁초딩	-3707
▁그러믄	-3708
▁이벤트	-3709
지마	-3710
▁과목	-3711
▁구해	-3712
▁오전	-3713
▁전쟁	-3714
▁네이버	-3715
▁지하철	-3716
▁냑에	-3717
▁맞대	-3718
▁수입	-3719
▁해예	-3720
▁도시락	-3721
▁먹거리	-3722
▁한대이	-3723
▁꺾	-3724
▁킹	-3725
▁된단	-3726
▁무튼	-3727
▁양신	-3728
▁해난	-3729
▁허당	-3730
▁희망	-3731
▁누거	-3732
▁슬프	-3733
▁옮겨	-3734
▁참말로	-3735
▁페이스	-3736
▁헨	-3737
신디	-3738
▁걸음	-3739
▁고요	-3740
▁렝이	-3741
▁명절	-3742
▁모으	-3743
▁사둔	-3744
▁산업	-3745
▁이겨	-3746
▁라던가	-3747
▁카더라	-3748
▁힙	-3749
래미	-3750
▁그람	-3751
▁달달	-3752
▁심리	-3753
▁그란디	-3754
▁라든가	-3755
▁어르신	-3756
▁졈	-3757
▁동창	-3758
▁배기	-3759
▁사주	-3760
▁으론	-3761
▁일정	-3762
▁종일	-3763
▁흘리	-3764
▁겅허난	-3765
▁그만두	-3766
▁왜냐면	-3767
▁이럼서	-3768
▁이은애	-3769
▁줘야지	-3770
▁곤란	-3771
▁그랴	-3772
▁꼐속	-3773
▁나래	-3774
▁매니	-3775
▁베리	-3776
▁성장	-3777
▁운영	-3778
▁이쪽	-3779
▁자게	-3780
▁자면	-3781
▁장마	-3782
▁해장	-3783
▁옌	-3784
▁훔	-3785
▁고객	-3786
▁굼두	-3787
▁다를	-3788
▁기숙사	-3789
▁실지로	-3790
이월	-3791
▁괜춘	-3792
▁귀신	-3793
▁단체	-3794
▁당했	-3795
▁도서	-3796
▁비해	-3797
▁이이	-3798
▁지났	-3799
▁아주머이	-3800
▁썪	-3801
▁갈래	-3802
▁검진	-3803
▁며는	-3804
▁반장	-3805
▁채워	-3806
▁축하	-3807
▁시리즈	-3808
▁할라믄	-3809
국수	-3810
▁갈아	-3811
▁느낄	-3812
▁신세	-3813
▁편이	-3814
▁라든지	-3815
▁으먼서	-3816
▁오토바이	-3817
▁깍	-3818
▁쿰	-3819
▁고통	-3820
▁그제	-3821
▁센터	-3822
▁숙제	-3823
▁업무	-3824
▁요로	-3825
▁하과	-3826
▁현장	-3827
▁그니깐	-3828
▁뗑	-3829
갱이	-3830
▁개코	-3831
▁눈썹	-3832
▁레이	-3833
▁배려	-3834
▁벚꽃	-3835
▁부드	-3836
▁소중	-3837
▁엄만	-3838
▁예상	-3839
▁제대	-3840
▁트로	-3841
▁밸	-3842
▁찡	-3843
▁잘라	-3844
▁좌우	-3845
▁체험	-3846
▁혈압	-3847
▁거래이	-3848
▁퍼센트	-3849
▁틴	-3850
▁흙	-3851
어먹	-3852
▁거시	-3853
▁걸루	-3854
▁계단	-3855
▁놔서	-3856
▁선임	-3857
▁성당	-3858
▁이추	-3859
▁주행	-3860
▁틀린	-3861
▁들으믄	-3862
▁겅해부난	-3863
▁담임	-3864
▁레기	-3865
▁소나	-3866
▁줄까	-3867
▁친척	-3868
▁한닥	-3869
▁탐	-3870
▁기리	-3871
▁김밥	-3872
▁꾸미	-3873
▁다냐	-3874
▁무대	-3875
▁물려	-3876
▁빠르	-3877
▁즐거	-3878
▁힐링	-3879
▁남동생	-3880
▁아름다	-3881
▁유치원	-3882
▁꾜	-3883
▁튜	-3884
▁험	-3885
구리	-3886
▁내놓	-3887
▁바래	-3888
▁베트	-3889
▁정성	-3890
▁지냑	-3891
▁얌	-3892
▁등록	-3893
▁미술	-3894
▁예의	-3895
▁와라	-3896
▁장가	-3897
▁중독	-3898
▁하얀	-3899
▁계세요	-3900
▁다니께	-3901
▁핫	-3902
니께	-3903
▁구석	-3904
▁나물	-3905
▁등치	-3906
▁바르	-3907
▁약하	-3908
▁언재	-3909
▁여수	-3910
▁통하	-3911
▁냉이	-3912
▁다마	-3913
▁러지	-3914
▁비대	-3915
▁오죽	-3916
▁올랐	-3917
▁이탄	-3918
▁잔치	-3919
▁진심	-3920
▁차분	-3921
▁돌아다니	-3922
▁섰	-3923
▁팥	-3924
구석	-3925
▁경쟁	-3926
▁고예	-3927
▁느희	-3928
▁더운	-3929
▁부정	-3930
▁성질	-3931
▁어쨌	-3932
▁원랜	-3933
▁잔잔	-3934
▁조카	-3935
▁그렁께	-3936
▁베트남	-3937
▁충분히	-3938
▁강한	-3939
▁구마	-3940
▁급하	-3941
▁눌러	-3942
▁다치	-3943
▁오픈	-3944
▁차서	-3945
▁평가	-3946
▁딸래미	-3947
▁물어봐	-3948
▁통해서	-3949
▁맵	-3950
▁촐	-3951
▁고무	-3952
▁놀랐	-3953
▁무료	-3954
▁응원	-3955
▁학과	-3956
▁네유	-3957
▁녹음	-3958
▁단백	-3959
▁수도	-3960
▁원장	-3961
▁진짜루	-3962
▁슴	-3963
더니	-3964
아먹	-3965
저것	-3966
▁과제	-3967
▁급한	-3968
▁담보	-3969
▁대박	-3970
▁성제	-3971
▁액션	-3972
▁창문	-3973
▁해질	-3974
▁트로트	-3975
▁이것저것	-3976
나라	-3977
바지	-3978
▁가벼	-3979
▁감재	-3980
▁없애	-3981
▁요양	-3982
▁친절	-3983
▁갯	-3984
모님	-3985
인트	-3986
▁끝난	-3987
▁나아	-3988
▁만지	-3989
▁모래	-3990
▁슬픈	-3991
▁일기	-3992
▁장깐	-3993
▁주의	-3994
▁피하	-3995
▁됩니다	-3996
▁드세요	-3997
▁츰부터	-3998
▁꿉	-3999
▁맺	-4000
▁션	-4001
▁감저	-4002
▁겨를	-4003
▁려는	-4004
▁별루	-4005
▁여긴	-4006
▁조리	-4007
▁씬	-4008
▁그덩	-4009
▁래문	-4010
▁무엇	-4011
▁실장	-4012
▁애인	-4013
▁웬일	-4014
▁전예	-4015
▁는데두	-4016
▁원피스	-4017
에는	-4018
▁가스	-4019
▁생견	-4020
▁생명	-4021
▁어땠	-4022
▁커플	-4023
▁다는데	-4024
▁메이크	-4025
▁발라드	-4026
▁해다가	-4027
▁뵙	-4028
▁엊	-4029
주의	-4030
▁과자	-4031
▁극장	-4032
▁글자	-4033
▁기자	-4034
▁드린	-4035
▁마심	-4036
▁모델	-4037
▁소원	-4038
▁손주	-4039
▁시러	-4040
▁애라	-4041
▁영국	-4042
▁오매	-4043
▁뤄	-4044
▁릅	-4045
▁뱀	-4046
▁촬	-4047
▁겡우	-4048
▁고개	-4049
▁고급	-4050
▁높이	-4051
▁들러	-4052
▁마인	-4053
▁밤새	-4054
▁범죄	-4055
▁불민	-4056
▁시스	-4057
▁패기	-4058
▁갈수록	-4059
▁일어났	-4060
▁케이스	-4061
▁갰	-4062
데이	-4063
▁경주	-4064
▁기념	-4065
▁껴서	-4066
▁소주	-4067
▁요서	-4068
▁진지	-4069
▁추석	-4070
▁아닐까	-4071
▁이탄지	-4072
▁숭	-4073
버렸	-4074
▁근께	-4075
▁는겨	-4076
▁보담	-4077
▁우에	-4078
▁적금	-4079
▁지기	-4080
▁쫓아	-4081
▁촬영	-4082
▁포함	-4083
▁메이크업	-4084
▁럭	-4085
▁앨	-4086
니스	-4087
시아	-4088
▁나누	-4089
▁농담	-4090
▁다야	-4091
▁마두	-4092
▁질루	-4093
▁최소	-4094
▁건가요	-4095
▁나온다	-4096
▁지난번	-4097
▁해외여행	-4098
▁말러	-4099
▁완벽	-4100
▁유학	-4101
▁의심	-4102
▁테이	-4103
▁녠	-4104
▁쉴	-4105
대기	-4106
로그	-4107
▁가개	-4108
▁갈까	-4109
▁대는	-4110
▁오지	-4111
▁그르구	-4112
▁톤	-4113
라스	-4114
란다	-4115
어진	-4116
▁달러	-4117
▁목숨	-4118
▁미쳤	-4119
▁바보	-4120
▁부른	-4121
▁어따	-4122
▁쪼까	-4123
▁타임	-4124
▁스마트폰	-4125
▁팟	-4126
바람	-4127
▁더거	-4128
▁도둑	-4129
▁뚱뚱	-4130
▁랄까	-4131
▁마디	-4132
▁반재	-4133
▁활발	-4134
▁도서관	-4135
▁어데로	-4136
▁강릉	-4137
▁거절	-4138
▁므은	-4139
▁아플	-4140
▁카만	-4141
▁한마	-4142
▁단백질	-4143
▁달라지	-4144
▁로맨스	-4145
▁확실히	-4146
▁페이스북	-4147
▁샐	-4148
▁쪘	-4149
▁혁	-4150
브이	-4151
▁계곡	-4152
▁말려	-4153
▁먼지	-4154
▁핑계	-4155
▁회식	-4156
메이션	-4157
▁영양제	-4158
▁셀	-4159
▁숲	-4160
▁쉐	-4161
▁쩨	-4162
▁펀	-4163
라두	-4164
▁강생	-4165
▁문학	-4166
▁부려	-4167
▁손해	-4168
▁양기	-4169
▁어성	-4170
▁예정	-4171
▁요상	-4172
▁우연	-4173
▁을려	-4174
▁조선	-4175
▁지인	-4176
▁클래	-4177
▁그라믄	-4178
▁멸	-4179
▁찮	-4180
라우	-4181
▁말허	-4182
▁반지	-4183
▁사춘	-4184
▁수리	-4185
▁쓰러	-4186
▁아닙	-4187
▁요고	-4188
▁주방	-4189
▁주택	-4190
▁추우	-4191
▁트럭	-4192
▁홍보	-4193
▁할아버지	-4194
▁룹	-4195
리카	-4196
▁박사	-4197
▁이왕	-4198
▁지리	-4199
▁퇴직	-4200
▁파마	-4201
▁핑크	-4202
▁소래기	-4203
▁시스템	-4204
▁준다구	-4205
▁드릴까요	-4206
▁기독	-4207
▁다루	-4208
▁단발	-4209
▁두부	-4210
▁땡겨	-4211
▁목포	-4212
▁밴드	-4213
▁실제	-4214
▁약한	-4215
▁요러	-4216
▁정하	-4217
▁허벅	-4218
▁너무나	-4219
▁애니메이션	-4220
▁깟	-4221
▁얜	-4222
▁담당	-4223
▁마요	-4224
▁뻐리	-4225
▁야제	-4226
▁완정	-4227
▁자야	-4228
▁중심	-4229
▁태워	-4230
▁평범	-4231
▁몰라요	-4232
▁으니깐	-4233
▁이어폰	-4234
겠다	-4235
▁도제	-4236
▁마흔	-4237
▁만두	-4238
▁멋진	-4239
▁세우	-4240
▁올릴	-4241
▁장애	-4242
▁전역	-4243
▁지식	-4244
▁하켄	-4245
▁볼려고	-4246
▁굵	-4247
▁뷰	-4248
▁고향	-4249
▁구서	-4250
▁말리	-4251
▁해시	-4252
▁카만히	-4253
▁딲	-4254
너무	-4255
▁겠다	-4256
▁벙이	-4257
▁봔데	-4258
▁잔인	-4259
▁해수	-4260
▁회복	-4261
▁떨어질	-4262
▁봐야지	-4263
▁트레이	-4264
▁그니까는	-4265
▁너무너무	-4266
▁발달	-4267
▁빠른	-4268
▁시급	-4269
▁우떻	-4270
▁으르	-4271
▁찐하	-4272
▁참말	-4273
▁책상	-4274
▁줏	-4275
▁교사	-4276
▁교장	-4277
▁구먼	-4278
▁다게	-4279
▁따구	-4280
▁세트	-4281
▁야라	-4282
▁사라지	-4283
▁인해서	-4284
▁플레이	-4285
▁헤어졌	-4286
▁퉁	-4287
▁거민	-4288
▁그이	-4289
▁물질	-4290
▁뿌려	-4291
▁영업	-4292
▁오버	-4293
▁오일	-4294
▁정지	-4295
▁지르	-4296
▁케익	-4297
▁가치관	-4298
▁그라민	-4299
▁바닷가	-4300
▁수영장	-4301
▁옳	-4302
▁흠	-4303
리아	-4304
▁나중	-4305
▁너희	-4306
▁놀러	-4307
▁더워	-4308
▁때로	-4309
▁래는	-4310
▁방문	-4311
▁볶음	-4312
▁살인	-4313
▁양말	-4314
▁자금	-4315
▁추울	-4316
▁허시	-4317
▁그래서	-4318
▁기다렸	-4319
▁미용실	-4320
▁어려울	-4321
▁을랑가	-4322
▁렴	-4323
▁뻗	-4324
▁얄	-4325
쳐서	-4326
▁것다	-4327
▁까페	-4328
▁다쳤	-4329
▁불교	-4330
▁불만	-4331
▁비하	-4332
▁애끼	-4333
▁애초	-4334
▁야야	-4335
▁지를	-4336
▁진정	-4337
▁쿠다	-4338
▁무서운	-4339
▁이라부	-4340
▁컴플렉스	-4341
▁샵	-4342
▁펑	-4343
한다	-4344
▁가네	-4345
▁국수	-4346
▁독서	-4347
▁은애	-4348
▁즐겁	-4349
▁튼튼	-4350
▁기독교	-4351
▁떨어진	-4352
▁아이디	-4353
▁외국인	-4354
▁폼	-4355
▁가실	-4356
▁골목	-4357
▁넘기	-4358
▁따땃	-4359
▁미워	-4360
▁부인	-4361
▁양파	-4362
▁예술	-4363
▁줄래	-4364
▁한라	-4365
▁희안	-4366
▁더라두	-4367
▁만화책	-4368
군요	-4369
던데	-4370
드려	-4371
▁납득	-4372
▁대비	-4373
▁마른	-4374
▁미터	-4375
▁사당	-4376
▁신선	-4377
▁진다	-4378
▁후배	-4379
▁잔소리	-4380
▁꼰	-4381
▁듬	-4382
럭시	-4383
▁가부	-4384
▁결제	-4385
▁던져	-4386
▁비형	-4387
▁서리	-4388
▁저그	-4389
▁중앙	-4390
▁지낸	-4391
▁한식	-4392
▁향수	-4393
▁갤럭시	-4394
▁데려가	-4395
▁고등학생	-4396
▁촘	-4397
리어	-4398
오르	-4399
▁가입	-4400
▁겅헌	-4401
▁노니	-4402
▁부를	-4403
▁술집	-4404
▁초밥	-4405
▁허젠	-4406
▁느라고	-4407
▁아버지	-4408
▁아쉬웠	-4409
▁눔	-4410
▁률	-4411
▁남겨	-4412
▁블랙	-4413
▁시국	-4414
▁언어	-4415
▁와인	-4416
▁절루	-4417
▁제한	-4418
▁현대	-4419
▁일어날	-4420
▁테이블	-4421
치기	-4422
▁거하	-4423
▁굉일	-4424
▁실러	-4425
▁전날	-4426
▁지민	-4427
▁탁구	-4428
▁메나리	-4429
▁볼려구	-4430
▁아이유	-4431
▁할라구	-4432
▁삽	-4433
▁팅	-4434
▁근게	-4435
▁노릇	-4436
▁단다	-4437
▁댓글	-4438
▁물리	-4439
▁버티	-4440
▁샤워	-4441
▁솜씨	-4442
▁얼음	-4443
▁예방	-4444
▁유기	-4445
▁준대	-4446
▁한편	-4447
▁닝	-4448
▁날래	-4449
▁발생	-4450
▁설치	-4451
▁시설	-4452
▁실거	-4453
▁바라보	-4454
▁보인다	-4455
▁손가락	-4456
▁십이월	-4457
▁아이스	-4458
▁에너지	-4459
▁근거	-4460
▁길러	-4461
▁노면	-4462
▁다만	-4463
▁두려	-4464
▁암것	-4465
▁오난	-4466
▁화려	-4467
▁는다구	-4468
▁절대루	-4469
▁셍	-4470
▁계셨	-4471
▁교복	-4472
▁근력	-4473
▁만만	-4474
▁무겁	-4475
▁물러	-4476
▁미세	-4477
▁서루	-4478
▁앞전	-4479
▁야자	-4480
▁외출	-4481
▁콜라	-4482
▁필수	-4483
▁해기	-4484
▁가르체	-4485
▁튀어나	-4486
▁씌	-4487
▁팁	-4488
▁공주	-4489
▁급식	-4490
▁동의	-4491
▁멀쩡	-4492
▁수익	-4493
▁식게	-4494
▁실내	-4495
▁어재	-4496
▁엊그	-4497
▁용기	-4498
▁위로	-4499
▁트롯	-4500
▁폭력	-4501
▁도대체	-4502
▁어서요	-4503
▁올라갈	-4504
▁했잖아요	-4505
▁맀	-4506
▁뻘	-4507
▁숟	-4508
처럼	-4509
▁고걸	-4510
▁과외	-4511
▁남녀	-4512
▁봉게	-4513
▁비빔	-4514
▁살민	-4515
▁수록	-4516
▁어쩜	-4517
▁오랍	-4518
▁이전	-4519
▁전국	-4520
▁줘도	-4521
▁차별	-4522
▁아주망	-4523
▁즌화하	-4524
▁쪼끄만	-4525
▁이라든지	-4526
랭이	-4527
버리	-4528
으네	-4529
▁강사	-4530
▁견디	-4531
▁떠들	-4532
▁맛없	-4533
▁연말	-4534
▁지절	-4535
▁가까운	-4536
▁굼부터	-4537
▁도망가	-4538
▁헌다는	-4539
▁릉	-4540
▁벡	-4541
▁얹	-4542
▁컬	-4543
▁가려	-4544
▁겨우	-4545
▁두세	-4546
▁들오	-4547
▁로봇	-4548
▁올렸	-4549
▁유전	-4550
▁저축	-4551
▁최선	-4552
▁충부	-4553
▁튜버	-4554
▁피시	-4555
▁배고프	-4556
▁뻬	-4557
면서	-4558
배기	-4559
▁공격	-4560
▁단기	-4561
▁동남	-4562
▁빠질	-4563
▁으룬	-4564
▁정시	-4565
▁주장	-4566
▁튀김	-4567
▁힙합	-4568
▁구만유	-4569
▁사이트	-4570
▁샌	-4571
버거	-4572
▁그대	-4573
▁글씨	-4574
▁대사	-4575
▁떠올	-4576
▁만져	-4577
▁머릿	-4578
▁복지	-4579
▁소루	-4580
▁아모	-4581
▁악기	-4582
▁겅하난	-4583
▁을려구	-4584
▁햄버거	-4585
나물	-4586
영상	-4587
▁댕이	-4588
▁문재	-4589
▁스카	-4590
▁싸워	-4591
▁애두	-4592
▁옆집	-4593
▁정식	-4594
▁춘천	-4595
▁타입	-4596
▁그래이	-4597
▁다거나	-4598
▁마인드	-4599
▁굿	-4600
▁쿨	-4601
▁감당	-4602
▁그두	-4603
▁노동	-4604
▁또한	-4605
▁매련	-4606
▁배경	-4607
▁스님	-4608
▁스파	-4609
▁자제	-4610
▁장인	-4611
▁진상	-4612
▁프랑	-4613
▁필라	-4614
▁할꺼	-4615
▁항공	-4616
▁동영상	-4617
▁딜	-4618
▁계셔	-4619
▁과연	-4620
▁기타	-4621
▁누이	-4622
▁다기	-4623
▁사항	-4624
▁생물	-4625
▁심했	-4626
▁초대	-4627
▁티켓	-4628
▁풍경	-4629
▁히야	-4630
▁무서웠	-4631
▁생각난	-4632
▁스테이크	-4633
▁떴	-4634
러운	-4635
▁거마	-4636
▁고정	-4637
▁글렀	-4638
▁긴데	-4639
▁김시	-4640
▁깜빡	-4641
▁느니	-4642
▁두꺼	-4643
▁똑바	-4644
▁쌓여	-4645
▁안내	-4646
▁온도	-4647
▁인도	-4648
▁저리	-4649
▁진실	-4650
▁츰에	-4651
▁이라도	-4652
▁뻥	-4653
▁팽	-4654
도리	-4655
▁거던	-4656
▁기라	-4657
▁대장	-4658
▁래도	-4659
▁래서	-4660
▁로망	-4661
▁보관	-4662
▁비티	-4663
▁수고	-4664
▁스릴	-4665
▁시마	-4666
▁시선	-4667
▁시여	-4668
▁잘난	-4669
▁저으	-4670
▁지두	-4671
▁질리	-4672
▁추위	-4673
▁편어	-4674
▁그래고	-4675
▁여동생	-4676
▁전라도	-4677
▁궈	-4678
▁흡	-4679
느리	-4680
하나	-4681
▁구조	-4682
▁기초	-4683
▁백신	-4684
▁변했	-4685
▁이마	-4686
▁일까	-4687
▁카카	-4688
▁금요일	-4689
▁됩니까	-4690
▁운동장	-4691
▁케이크	-4692
▁썸	-4693
▁츳	-4694
러드	-4695
▁골르	-4696
▁까요	-4697
▁또래	-4698
▁몰란	-4699
▁의자	-4700
▁찌개	-4701
▁후임	-4702
▁대학생	-4703
▁애기씨	-4704
럭지	-4705
▁날씬	-4706
▁남친	-4707
▁동갑	-4708
▁라마	-4709
▁비우	-4710
▁자율	-4711
▁종목	-4712
▁하주	-4713
▁해주	-4714
▁맞춰서	-4715
▁매니저	-4716
▁시끄러	-4717
▁인가요	-4718
▁하나하나	-4719
▁규칙	-4720
▁그담	-4721
▁댄스	-4722
▁목사	-4723
▁바꿨	-4724
▁사히	-4725
▁에피	-4726
▁일으	-4727
▁적극	-4728
▁한계	-4729
▁댕겨야	-4730
▁요상한	-4731
▁으로써	-4732
▁좋아해	-4733
▁립	-4734
▁횟	-4735
테스	-4736
혀서	-4737
▁가로	-4738
▁디지	-4739
▁버터	-4740
▁뿌듯	-4741
▁사돈	-4742
▁세일	-4743
▁약해	-4744
▁옮기	-4745
▁외롭	-4746
▁을꼬	-4747
▁질투	-4748
▁혼나	-4749
▁일자리	-4750
▁받아들이	-4751
드리	-4752
▁게시	-4753
▁꼬리	-4754
▁맡겨	-4755
▁버릇	-4756
▁부서	-4757
▁부작	-4758
▁붙잡	-4759
▁산디	-4760
▁소릴	-4761
▁씨방	-4762
▁제작	-4763
▁프랑스	-4764
▁쌌	-4765
▁헜	-4766
산물	-4767
소드	-4768
▁가재	-4769
▁거부	-4770
▁관한	-4771
▁괴로	-4772
▁기집	-4773
▁롯데	-4774
▁바깥	-4775
▁슈퍼	-4776
▁애교	-4777
▁양복	-4778
▁요망	-4779
▁이곳	-4780
▁자매	-4781
▁지저	-4782
▁채널	-4783
▁확진	-4784
▁꼬라지	-4785
▁아세요	-4786
▁암것도	-4787
▁주차장	-4788
▁포인트	-4789
▁겅해신디	-4790
▁앓	-4791
간다	-4792
어리	-4793
▁내게	-4794
▁놀랜	-4795
▁마련	-4796
▁말투	-4797
▁삼촌	-4798
▁야요	-4799
▁오형	-4800
▁전주	-4801
▁줘라	-4802
▁지정	-4803
▁취하	-4804
▁필기	-4805
▁흔히	-4806
▁가르켜	-4807
▁그렇게	-4808
▁줄라고	-4809
▁즌화두	-4810
▁에피소드	-4811
▁구찮	-4812
▁다네	-4813
▁동료	-4814
▁생산	-4815
▁쌓이	-4816
▁영허	-4817
▁음시	-4818
▁지예	-4819
▁파스타	-4820
▁넉	-4821
▁당뇨	-4822
▁딸기	-4823
▁부장	-4824
▁새기	-4825
▁순위	-4826
▁스페	-4827
▁에미	-4828
▁쪼꼬	-4829
▁해줘	-4830
▁기달려	-4831
▁샐러드	-4832
▁한동안	-4833
▁곹	-4834
걸리	-4835
놀이	-4836
피우	-4837
▁독일	-4838
▁야간	-4839
▁양쪽	-4840
▁장비	-4841
▁재혼	-4842
▁제이	-4843
▁화나	-4844
▁환장	-4845
십니까	-4846
▁막걸리	-4847
▁물고기	-4848
그만	-4849
민국	-4850
▁극복	-4851
▁까리	-4852
▁드론	-4853
▁번이	-4854
▁부턴	-4855
▁실습	-4856
▁얼라	-4857
▁오랫	-4858
▁질러	-4859
▁다녀오	-4860
▁블로그	-4861
▁음시롱	-4862
▁카카오	-4863
▁초등학생	-4864
▁썽	-4865
까리	-4866
따나	-4867
부모	-4868
▁내비	-4869
▁냅두	-4870
▁사신	-4871
▁신부	-4872
▁싸울	-4873
▁아사	-4874
▁와사	-4875
▁완성	-4876
▁요금	-4877
▁파리	-4878
▁대한민국	-4879
▁껜	-4880
담배	-4881
▁각이	-4882
▁거니	-4883
▁그닥	-4884
▁꾸며	-4885
▁못할	-4886
▁무꾸	-4887
▁민망	-4888
▁별거	-4889
▁북한	-4890
▁으냐	-4891
▁주기	-4892
▁행정	-4893
▁동남아	-4894
▁쪼꼬만	-4895
▁필라테스	-4896
▁늠	-4897
▁윽	-4898
내미	-4899
▁내렸	-4900
▁노란	-4901
▁도양	-4902
▁두루	-4903
▁드립	-4904
▁매우	-4905
▁자이	-4906
▁재능	-4907
▁조차	-4908
▁죽여	-4909
▁지치	-4910
▁쳐서	-4911
▁특징	-4912
▁펜션	-4913
▁피티	-4914
잖아요	-4915
▁대가리	-4916
▁알아듣	-4917
▁저으기	-4918
▁피시방	-4919
▁쉰	-4920
▁갈게	-4921
▁고려	-4922
▁구분	-4923
▁구입	-4924
▁국밥	-4925
▁기획	-4926
▁댕긴	-4927
▁레시	-4928
▁모기	-4929
▁물가	-4930
▁변호	-4931
▁여쭤	-4932
▁잠잠	-4933
▁잡히	-4934
▁초코	-4935
▁귀여운	-4936
▁그동안	-4937
▁벗어나	-4938
▁으믄서	-4939
▁음료수	-4940
▁고마워요	-4941
▁딩	-4942
▁맙	-4943
▁쳔	-4944
▁펼	-4945
▁경헌	-4946
▁그죠	-4947
▁끔찍	-4948
▁나마	-4949
▁노무	-4950
▁다혈	-4951
▁만치	-4952
▁만한	-4953
▁신비	-4954
▁싸운	-4955
▁안심	-4956
▁야단	-4957
▁양반	-4958
▁요소	-4959
▁유일	-4960
▁자랐	-4961
▁자살	-4962
▁저장	-4963
▁즐길	-4964
▁찮아	-4965
▁피우	-4966
▁아닌데	-4967
▁음식점	-4968
▁정해져	-4969
▁기관	-4970
▁께네	-4971
▁놀리	-4972
▁당한	-4973
▁몸매	-4974
▁셔두	-4975
▁수상	-4976
▁아조	-4977
▁누군지	-4978
▁돌아다	-4979
▁사춘기	-4980
▁어려웠	-4981
▁뽕	-4982
사람	-4983
시절	-4984
이터	-4985
▁래미	-4986
▁목강	-4987
▁수라	-4988
▁아일	-4989
▁으나	-4990
▁은제	-4991
▁이빨	-4992
▁자니	-4993
▁킬로	-4994
▁소나이	-4995
▁이래요	-4996
▁일어난	-4997
▁안타까운	-4998
▁균	-4999
▁윗	-5000
▁촉	-5001
거든	-5002
화물	-5003
▁나영	-5004
▁대문	-5005
▁막장	-5006
▁막히	-5007
▁면역	-5008
▁무거	-5009
▁미련	-5010
▁부댄	-5011
▁셍이	-5012
▁소재	-5013
▁연금	-5014
▁인원	-5015
▁잖애	-5016
▁주먹	-5017
▁주소	-5018
▁증상	-5019
▁지러	-5020
▁지사	-5021
▁진고	-5022
던시절	-5023
▁다혈질	-5024
▁레시피	-5025
▁쭐어들	-5026
담배피우	-5027
▁오랫동안	-5028
던시절에는	-5029
▁렝이담배피우	-5030
▁렝이담배피우던시절에는	-5031
▁굴러	-5032
▁날매	-5033
▁대개	-5034
▁먹여	-5035
▁메시	-5036
▁뭣하	-5037
▁볼링	-5038
▁업체	-5039
▁울리	-5040
▁으레	-5041
▁접근	-5042
▁주목	-5043
▁참고	-5044
▁파도	-5045
▁가르쳐	-5046
▁늘어나	-5047
▁돌아왔	-5048
▁목걸이	-5049
▁무거운	-5050
▁봉다리	-5051
▁에어컨	-5052
▁온다구	-5053
▁깝	-5054
▁깥	-5055
▁똔	-5056
▁잎	-5057
생긴	-5058
어졌	-5059
▁가깝	-5060
▁거연	-5061
▁규모	-5062
▁디리	-5063
▁맀을	-5064
▁사면	-5065
▁살살	-5066
▁시커	-5067
▁주도	-5068
▁들어올	-5069
▁리스트	-5070
▁장난감	-5071
▁즌화가	-5072
▁멤	-5073
뱅이	-5074
▁가득	-5075
▁경력	-5076
▁마침	-5077
▁못허	-5078
▁신호	-5079
▁자빠	-5080
▁충전	-5081
▁코드	-5082
▁학창	-5083
▁갈라구	-5084
▁부작용	-5085
▁태어났	-5086
▁한마디	-5087
▁당해	-5088
▁데요	-5089
▁릏게	-5090
▁아바	-5091
▁애완	-5092
▁웬수	-5093
▁줄라	-5094
▁추구	-5095
▁데이터	-5096
▁실래요	-5097
▁쬐끄만	-5098
▁이라던가	-5099
▁#	-5100
▁뎌	-5101
든가	-5102
바리	-5103
▁갈치	-5104
▁구운	-5105
▁마구	-5106
▁밍구	-5107
▁복수	-5108
▁소름	-5109
▁식물	-5110
▁연주	-5111
▁재비	-5112
▁조개	-5113
▁택하	-5114
▁파란	-5115
▁파악	-5116
▁포도	-5117
▁한복	-5118
▁다가오	-5119
▁대학원	-5120
▁움직여	-5121
▁전문가	-5122
▁주마는	-5123
▁할까요	-5124
▁드라이브	-5125
▁짖	-5126
▁거려	-5127
▁거북	-5128
▁마켓	-5129
▁빡시	-5130
▁양식	-5131
▁오케	-5132
▁음청	-5133
▁전세	-5134
▁조각	-5135
▁지마	-5136
▁청년	-5137
▁헌다	-5138
▁후반	-5139
▁길거리	-5140
▁우리나라	-5141
▁대상	-5142
▁무게	-5143
▁미니	-5144
▁신뢰	-5145
▁웃음	-5146
▁으다	-5147
▁제안	-5148
▁쪼만	-5149
▁착각	-5150
▁탄수	-5151
▁해당	-5152
▁아서요	-5153
▁프로젝	-5154
▁잼	-5155
들이	-5156
버니	-5157
어야	-5158
▁났었	-5159
▁냄비	-5160
▁반갑	-5161
▁발목	-5162
▁비트	-5163
▁살리	-5164
▁순수	-5165
▁오프	-5166
▁전시	-5167
▁팔재	-5168
▁헷갈	-5169
▁호주	-5170
▁관광객	-5171
▁비디오	-5172
▁콤퓨터	-5173
▁탄수화물	-5174
▁껭	-5175
▁꾀	-5176
▁펄	-5177
▁마신	-5178
▁말랐	-5179
▁멋지	-5180
▁보라	-5181
▁보름	-5182
▁연세	-5183
▁올린	-5184
▁외식	-5185
▁이하	-5186
▁일러	-5187
▁키로	-5188
▁통통	-5189
▁홍콩	-5190
▁이카니	-5191
▁텡	-5192
만큼	-5193
▁깨달	-5194
▁놀란	-5195
▁매번	-5196
▁소통	-5197
▁양보	-5198
▁에는	-5199
▁전해	-5200
▁짬뽕	-5201
▁참여	-5202
▁우울증	-5203
▁특벨히	-5204
▁오라버니	-5205
▁됭	-5206
▁각행	-5207
▁내린	-5208
▁누굴	-5209
▁든든	-5210
▁마저	-5211
▁멩이	-5212
▁빨랑	-5213
▁새박	-5214
▁슬퍼	-5215
▁신중	-5216
▁엑스	-5217
▁장새	-5218
▁전통	-5219
▁정서	-5220
▁질르	-5221
▁통시	-5222
▁펜지	-5223
▁형수	-5224
▁며느리	-5225
▁에이비	-5226
▁뉘	-5227
▁밧	-5228
▁앗	-5229
덩이	-5230
▁가두	-5231
▁게이	-5232
▁계실	-5233
▁그린	-5234
▁더이	-5235
▁도리	-5236
▁땐가	-5237
▁소녀	-5238
▁소소	-5239
▁영행	-5240
▁조언	-5241
▁줬었	-5242
▁집착	-5243
▁체중	-5244
▁설거지	-5245
▁여러분	-5246
▁월요일	-5247
▁준다고	-5248
▁구름	-5249
▁꺼려	-5250
▁리그	-5251
▁먼첨	-5252
▁상자	-5253
▁서두	-5254
▁앨범	-5255
▁여도	-5256
▁입양	-5257
▁잔못	-5258
▁잖나	-5259
▁부러워	-5260
▁지저분	-5261
▁프로젝트	-5262
▁멧	-5263
▁빅	-5264
▁빽	-5265
▁틱	-5266
금치	-5267
▁감수	-5268
▁결말	-5269
▁고로	-5270
▁관절	-5271
▁까스	-5272
▁낭비	-5273
▁당당	-5274
▁동시	-5275
▁시자	-5276
▁올림	-5277
▁우승	-5278
▁일월	-5279
▁자료	-5280
▁척하	-5281
▁출장	-5282
▁한약	-5283
▁가라앉	-5284
▁놨는데	-5285
▁두레기	-5286
▁똑바루	-5287
▁부끄러	-5288
▁소고기	-5289
▁아사리	-5290
▁아쉬워	-5291
▁최소한	-5292
▁됬	-5293
▁띵	-5294
▁감서	-5295
▁거실	-5296
▁고소	-5297
▁교환	-5298
▁대지	-5299
▁붕어	-5300
▁비닐	-5301
▁셔츠	-5302
▁실례	-5303
▁실험	-5304
▁아내	-5305
▁이지	-5306
▁작정	-5307
▁찝찝	-5308
▁고걸로	-5309
▁기집애	-5310
▁어때요	-5311
▁테스트	-5312
▁돕	-5313
에프	-5314
저기	-5315
패드	-5316
▁개성	-5317
▁구신	-5318
▁구체	-5319
▁넘겨	-5320
▁따루	-5321
▁배구	-5322
▁볼래	-5323
▁뻐스	-5324
▁사계	-5325
▁사내	-5326
▁왔다	-5327
▁운명	-5328
▁잠자	-5329
▁접하	-5330
▁정기	-5331
▁차지	-5332
▁취급	-5333
▁가이드	-5334
▁뭣하러	-5335
▁부지런	-5336
▁꿩	-5337
▁륵	-5338
▁칙	-5339
년기	-5340
▁계정	-5341
▁공개	-5342
▁과하	-5343
▁그야	-5344
▁노시	-5345
▁다친	-5346
▁대형	-5347
▁드루	-5348
▁드셨	-5349
▁디비	-5350
▁뜨신	-5351
▁미스	-5352
▁성가	-5353
▁실기	-5354
▁싸이	-5355
▁조만	-5356
▁채우	-5357
▁출신	-5358
▁태우	-5359
▁퇴원	-5360
▁물어볼	-5361
▁평상시	-5362
▁아이패드	-5363
▁이라든가	-5364
▁쌂	-5365
▁옇	-5366
▁찹	-5367
▁갈려	-5368
▁검정	-5369
▁도우	-5370
▁든다	-5371
▁라민	-5372
▁받으	-5373
▁세기	-5374
▁엘지	-5375
▁영해	-5376
▁주시	-5377
▁찬찬	-5378
▁하리	-5379
▁가차이	-5380
▁내려와	-5381
▁클래식	-5382
▁믹	-5383
▁짭	-5384
▁찼	-5385
대이	-5386
▁거여	-5387
▁경상	-5388
▁경한	-5389
▁금마	-5390
▁기서	-5391
▁내놔	-5392
▁대놓	-5393
▁도덕	-5394
▁딱지	-5395
▁똔똔	-5396
▁삼월	-5397
▁설정	-5398
▁센치	-5399
▁수치	-5400
▁시케	-5401
▁어떵	-5402
▁적용	-5403
▁추리	-5404
▁춤추	-5405
▁케어	-5406
▁평일	-5407
▁미역국	-5408
▁언젠가	-5409
▁엽	-5410
징어	-5411
▁감각	-5412
▁귀한	-5413
▁라라	-5414
▁무순	-5415
▁바끼	-5416
▁빌리	-5417
▁손톱	-5418
▁오줌	-5419
▁의료	-5420
▁일종	-5421
▁잡혀	-5422
▁장갑	-5423
▁저지	-5424
▁죄다	-5425
▁채리	-5426
▁채소	-5427
▁파이	-5428
▁고사리	-5429
▁니까요	-5430
▁시끄럽	-5431
▁여기저기	-5432
▁읃	-5433
▁챔	-5434
▁기뻐	-5435
▁께요	-5436
▁난게	-5437
▁대니	-5438
▁맥이	-5439
▁무자	-5440
▁불법	-5441
▁아껴	-5442
▁오바	-5443
▁올게	-5444
▁원인	-5445
▁이적	-5446
▁처지	-5447
▁편집	-5448
▁행이	-5449
▁괴롭히	-5450
▁드려요	-5451
▁알아봐	-5452
▁오른쪽	-5453
▁이걸로	-5454
▁찾아오	-5455
기름	-5456
다른	-5457
라면	-5458
터리	-5459
▁기르	-5460
▁남매	-5461
▁내부	-5462
▁대만	-5463
▁미루	-5464
▁버거	-5465
▁식솔	-5466
▁애정	-5467
▁인구	-5468
▁일억	-5469
▁증거	-5470
▁지낼	-5471
▁지워	-5472
▁태도	-5473
▁터졌	-5474
▁편할	-5475
▁표시	-5476
▁가르치	-5477
▁가만히	-5478
▁똔똔이	-5479
▁보고서	-5480
▁생활비	-5481
▁사회생활	-5482
▁뽈	-5483
▁큐	-5484
▁글러	-5485
▁까불	-5486
▁또는	-5487
▁먹이	-5488
▁수광	-5489
▁신앙	-5490
▁에휴	-5491
▁인공	-5492
▁입술	-5493
▁주름	-5494
▁지시	-5495
▁지우	-5496
▁집어	-5497
▁가져와	-5498
▁관광지	-5499
▁내려왔	-5500
▁냉거지	-5501
▁오징어	-5502
▁칩	-5503
▁쾌	-5504
▁고놈	-5505
▁구성	-5506
▁그마	-5507
▁대그	-5508
▁든디	-5509
▁른이	-5510
▁멤버	-5511
▁멸치	-5512
▁부치	-5513
▁블루	-5514
▁사지	-5515
▁설마	-5516
▁이디	-5517
▁이수	-5518
▁이슈	-5519
▁인해	-5520
▁저이	-5521
▁제기	-5522
▁카마	-5523
▁회과	-5524
▁흐름	-5525
춧가루	-5526
▁쓰러지	-5527
▁어떨까	-5528
▁그마만큼	-5529
▁뺑	-5530
▁쓱	-5531
▁잽	-5532
▁쳥	-5533
▁갠데	-5534
▁거길	-5535
▁기시	-5536
▁꽁짜	-5537
▁다머	-5538
▁다메	-5539
▁마사	-5540
▁방어	-5541
▁부위	-5542
▁스킨	-5543
▁아아	-5544
▁여신	-5545
▁열정	-5546
▁이뤄	-5547
▁존경	-5548
▁훔쳐	-5549
▁머릿속	-5550
▁스페인	-5551
▁하지만	-5552
▁한다믄	-5553
▁엊그저께	-5554
▁랍	-5555
▁슭	-5556
▁잣	-5557
갈비	-5558
러워	-5559
새기	-5560
▁가죽	-5561
▁고깃	-5562
▁교정	-5563
▁국제	-5564
▁뒷날	-5565
▁보카	-5566
▁언데	-5567
▁와이	-5568
▁원체	-5569
▁장창	-5570
▁초록	-5571
▁필리	-5572
▁혁명	-5573
▁아이템	-5574
▁어저께	-5575
▁올라왔	-5576
▁정확히	-5577
▁중학생	-5578
▁갇	-5579
▁율	-5580
▁줭	-5581
▁컷	-5582
▁핼	-5583
▁결심	-5584
▁교실	-5585
▁끝날	-5586
▁독감	-5587
▁들렸	-5588
▁변한	-5589
▁보구	-5590
▁보태	-5591
▁뿌러	-5592
▁새롭	-5593
▁섭취	-5594
▁심정	-5595
▁어릿	-5596
▁월드	-5597
▁줄여	-5598
▁클럽	-5599
▁태양	-5600
▁패턴	-5601
▁현상	-5602
▁강냉이	-5603
▁귀여워	-5604
▁그렁이	-5605
▁세탁기	-5606
▁스러웠	-5607
▁어야제	-5608
▁칼국수	-5609
▁특별히	-5610
▁럈	-5611
고리	-5612
내기	-5613
물관	-5614
어놓	-5615
▁가덕	-5616
▁간부	-5617
▁경계	-5618
▁경비	-5619
▁고속	-5620
▁꼼꼼	-5621
▁대야	-5622
▁도장	-5623
▁드신	-5624
▁마감	-5625
▁망신	-5626
▁배송	-5627
▁보머	-5628
▁보상	-5629
▁분양	-5630
▁사만	-5631
▁어휴	-5632
▁엥간	-5633
▁전달	-5634
▁정심	-5635
▁하메	-5636
▁한때	-5637
▁그래야	-5638
▁박물관	-5639
▁생겨서	-5640
▁스키장	-5641
▁올림픽	-5642
▁완전히	-5643
▁자존심	-5644
▁허벅지	-5645
▁똣	-5646
▁맏	-5647
▁솥	-5648
▁앱	-5649
트리	-5650
▁곱창	-5651
▁구랑	-5652
▁귀경	-5653
▁꺼지	-5654
▁당가	-5655
▁독특	-5656
▁몰려	-5657
▁반가	-5658
▁성형	-5659
▁소슬	-5660
▁스피	-5661
▁식탁	-5662
▁양심	-5663
▁여잔	-5664
▁와중	-5665
▁추웠	-5666
▁혜택	-5667
▁나온대	-5668
▁나왔었	-5669
▁들어야	-5670
▁면허증	-5671
▁방송국	-5672
▁쇼핑몰	-5673
▁어떻게	-5674
▁오라이	-5675
▁집구석	-5676
▁해산물	-5677
▁혹시나	-5678
▁아름다운	-5679
고사	-5680
▁꼬닥	-5681
▁끌려	-5682
▁낙엽	-5683
▁난대	-5684
▁맹금	-5685
▁메리	-5686
▁모바	-5687
▁반말	-5688
▁봉께	-5689
▁순서	-5690
▁야외	-5691
▁약혼	-5692
▁엉망	-5693
▁지가	-5694
▁지속	-5695
▁질려	-5696
▁차운	-5697
▁카트	-5698
▁태권	-5699
▁가벼운	-5700
▁가슴살	-5701
▁는다꼬	-5702
▁떠오르	-5703
▁사계절	-5704
▁올라와	-5705
▁필리핀	-5706
▁해부러	-5707
▁왜냐면은	-5708
▁꿇	-5709
▁잭	-5710
김치	-5711
니더	-5712
▁거영	-5713
▁고래	-5714
▁구가	-5715
▁달랜	-5716
▁대매	-5717
▁무한	-5718
▁서양	-5719
▁설레	-5720
▁아웃	-5721
▁오갈	-5722
▁온대	-5723
▁올케	-5724
▁일랑	-5725
▁잖니	-5726
▁종종	-5727
▁틴데	-5728
▁판타	-5729
▁편리	-5730
▁해마	-5731
스크림	-5732
▁가져오	-5733
▁시켜야	-5734
▁유산균	-5735
▁을게요	-5736
▁자면은	-5737
▁허지만	-5738
▁수학여행	-5739
▁곁	-5740
▁눕	-5741
▁풋	-5742
▁혐	-5743
스토	-5744
▁구르	-5745
▁뜨거	-5746
▁망가	-5747
▁빨르	-5748
▁살까	-5749
▁안대	-5750
▁엄지	-5751
▁원망	-5752
▁이선	-5753
▁진이	-5754
▁징그	-5755
▁통과	-5756
▁행수	-5757
▁넘어갈	-5758
▁메이커	-5759
▁부드럽	-5760
▁돗	-5761
▁료	-5762
▁캡	-5763
어도	-5764
▁라다	-5765
▁망하	-5766
▁바른	-5767
▁불리	-5768
▁셋째	-5769
▁야식	-5770
▁왼쪽	-5771
▁의무	-5772
▁지랄	-5773
▁파트	-5774
▁갈려고	-5775
▁다행히	-5776
▁스릴러	-5777
▁올라온	-5778
▁이마트	-5779
▁테니스	-5780
▁판타지	-5781
▁아이스크림	-5782
▁펌	-5783
러블	-5784
자기	-5785
▁개선	-5786
▁꼬지	-5787
▁내현	-5788
▁버섯	-5789
▁빵빵	-5790
▁사료	-5791
▁손목	-5792
▁시머	-5793
▁쓴다	-5794
▁알지	-5795
▁열리	-5796
▁온천	-5797
▁외향	-5798
▁입학	-5799
▁조기	-5800
▁차례	-5801
▁탱이	-5802
▁텐트	-5803
▁하필	-5804
▁껍데기	-5805
▁드려야	-5806
▁모바일	-5807
▁스트레	-5808
▁싸가지	-5809
▁을라꼬	-5810
▁트러블	-5811
▁빳	-5812
▁엮	-5813
▁촤	-5814
▁교감	-5815
▁덜이	-5816
▁리두	-5817
▁민감	-5818
▁바뀔	-5819
▁범인	-5820
▁어하	-5821
▁유도	-5822
▁으려	-5823
▁이월	-5824
▁잃어	-5825
▁주부	-5826
▁친했	-5827
▁편히	-5828
▁평균	-5829
▁거짓말	-5830
▁고마운	-5831
▁기다릴	-5832
▁드레스	-5833
▁러시아	-5834
▁생각났	-5835
▁정시이	-5836
▁낄	-5837
▁간닥	-5838
▁꼬박	-5839
▁노후	-5840
▁놔둬	-5841
▁대유	-5842
▁리조	-5843
▁사양	-5844
▁수운	-5845
▁수지	-5846
▁오락	-5847
▁응급	-5848
▁의외	-5849
▁쫓겨	-5850
▁카레	-5851
▁합쳐	-5852
▁흐르	-5853
▁던데요	-5854
▁따러서	-5855
▁밀가루	-5856
▁스케줄	-5857
▁앞머리	-5858
▁올라간	-5859
▁껸	-5860
▁꿍	-5861
▁뱉	-5862
▁쎘	-5863
대장	-5864
프트	-5865
▁개개	-5866
▁건설	-5867
▁걸레	-5868
▁까다	-5869
▁놔라	-5870
▁당빠	-5871
▁덕분	-5872
▁등급	-5873
▁멍청	-5874
▁보건	-5875
▁보수	-5876
▁사극	-5877
▁사소	-5878
▁수제	-5879
▁약국	-5880
▁연수	-5881
▁이끌	-5882
▁전다	-5883
▁해녀	-5884
▁형태	-5885
▁사모님	-5886
▁좋아했	-5887
▁찬찬히	-5888
▁궤	-5889
▁듭	-5890
▁쿵	-5891
구만	-5892
▁겅한	-5893
▁계열	-5894
▁공동	-5895
▁구녕	-5896
▁길르	-5897
▁껌정	-5898
▁는단	-5899
▁다며	-5900
▁대우	-5901
▁려니	-5902
▁망이	-5903
▁매한	-5904
▁배신	-5905
▁생강	-5906
▁설득	-5907
▁성경	-5908
▁소이	-5909
▁수면	-5910
▁여고	-5911
▁이길	-5912
▁자넨	-5913
▁질질	-5914
▁친굴	-5915
▁태국	-5916
▁트리	-5917
▁한심	-5918
▁한정	-5919
▁해석	-5920
▁형식	-5921
▁확률	-5922
▁환불	-5923
▁다녀왔	-5924
▁더구나	-5925
▁미스터	-5926
▁이대루	-5927
▁이랬었	-5928
▁자세히	-5929
▁좌우명	-5930
▁한국인	-5931
▁매한가지	-5932
는디	-5933
뜨리	-5934
로리	-5935
저나	-5936
▁가아	-5937
▁관념	-5938
▁그등	-5939
▁긴가	-5940
▁날리	-5941
▁눌르	-5942
▁당기	-5943
▁밀리	-5944
▁변해	-5945
▁생전	-5946
▁쉬워	-5947
▁시각	-5948
▁요청	-5949
▁전환	-5950
▁주래	-5951
▁지점	-5952
▁직사	-5953
▁하제	-5954
▁건데요	-5955
▁냉동실	-5956
▁려구요	-5957
▁아름답	-5958
▁을수록	-5959
갔다	-5960
버스	-5961
▁국회	-5962
▁껀디	-5963
▁달랐	-5964
▁도라	-5965
▁똥그	-5966
▁리을	-5967
▁매치	-5968
▁몰입	-5969
▁방구	-5970
▁연인	-5971
▁와따	-5972
▁위기	-5973
▁육수	-5974
▁자내	-5975
▁전복	-5976
▁종합	-5977
▁진대	-5978
▁차량	-5979
▁추장	-5980
▁한쪽	-5981
▁내려온	-5982
▁라는데	-5983
▁아이라	-5984
▁일본어	-5985
▁줄려고	-5986
▁합디다	-5987
▁흔들리	-5988
▁왔다갔다	-5989
▁깁	-5990
▁씅	-5991
▁줨	-5992
그네	-5993
락지	-5994
▁걸까	-5995
▁고칠	-5996
▁끼치	-5997
▁드셔	-5998
▁바짝	-5999
▁밖이	-6000
▁밝혀	-6001
▁뱃살	-6002
▁분다	-6003
▁서서	-6004
▁수가	-6005
▁순대	-6006
▁십일	-6007
▁예비	-6008
▁유니	-6009
▁재주	-6010
▁조정	-6011
▁주고	-6012
▁주난	-6013
▁즌쟁	-6014
▁지붕	-6015
▁징허	-6016
▁치과	-6017
▁쿠키	-6018
▁특성	-6019
▁해래	-6020
▁혼났	-6021
▁화내	-6022
▁가까워	-6023
▁다시금	-6024
▁배고파	-6025
▁아주방	-6026
▁어려움	-6027
▁한테서	-6028
▁스트레칭	-6029
▁샥	-6030
세지	-6031
▁강해	-6032
▁검질	-6033
▁고리	-6034
▁근사	-6035
▁기어	-6036
▁라나	-6037
▁보예	-6038
▁부애	-6039
▁사귄	-6040
▁상견	-6041
▁새러	-6042
▁시럽	-6043
▁영원	-6044
▁오이	-6045
▁월세	-6046
▁의원	-6047
▁이윤	-6048
▁쭐여	-6049
▁천주	-6050
▁코인	-6051
▁하네	-6052
▁가격대	-6053
▁고깃집	-6054
▁그치만	-6055
▁기럭지	-6056
▁셨잖아요	-6057
▁킨	-6058
싸움	-6059
어요	-6060
져야	-6061
▁낀데	-6062
▁단식	-6063
▁떠났	-6064
▁란가	-6065
▁방울	-6066
▁보증	-6067
▁부여	-6068
▁비염	-6069
▁수시	-6070
▁숨겨	-6071
▁승부	-6072
▁신체	-6073
▁알리	-6074
▁어선	-6075
▁이득	-6076
▁잠들	-6077
▁전원	-6078
▁지렁	-6079
▁지안	-6080
▁터진	-6081
▁혹은	-6082
▁회살	-6083
▁갱년기	-6084
▁소용없	-6085
▁수요일	-6086
▁십니다	-6087
▁지만서	-6088
▁들으면은	-6089
▁깻	-6090
▁량	-6091
▁맬	-6092
▁가매	-6093
▁나드	-6094
▁라부	-6095
▁럈어	-6096
▁방해	-6097
▁본대	-6098
▁수정	-6099
▁심이	-6100
▁쎄리	-6101
▁아끼	-6102
▁우주	-6103
▁저건	-6104
▁정책	-6105
▁창고	-6106
▁겅헌디	-6107
▁목욕탕	-6108
▁시켜서	-6109
▁신다고	-6110
▁이걸루	-6111
▁한다면	-6112
▁합시다	-6113
▁득	-6114
▁씁	-6115
▁융	-6116
▁쩔	-6117
▁칫	-6118
▁캉	-6119
▁갱이	-6120
▁고도	-6121
▁고백	-6122
▁구미	-6123
▁기에	-6124
▁내시	-6125
▁넉넉	-6126
▁더군	-6127
▁딸리	-6128
▁뚜껑	-6129
▁마블	-6130
▁모셔	-6131
▁믿음	-6132
▁사전	-6133
▁울산	-6134
▁웨딩	-6135
▁토끼	-6136
▁파일	-6137
▁학습	-6138
▁환상	-6139
▁갈게요	-6140
▁붕어빵	-6141
▁상견례	-6142
▁잡아먹	-6143
▁조용히	-6144
▁좋아할	-6145
▁타이밍	-6146
▁햄스터	-6147
▁김치찌개	-6148
▁아이디어	-6149
▁룰	-6150
▁킥	-6151
▁힌	-6152
버려	-6153
▁가인	-6154
▁거울	-6155
▁건들	-6156
▁경치	-6157
▁고지	-6158
▁그름	-6159
▁깊이	-6160
▁넘치	-6161
▁담날	-6162
▁딸려	-6163
▁랑게	-6164
▁렌트	-6165
▁려나	-6166
▁무스	-6167
▁바쁠	-6168
▁방탄	-6169
▁범위	-6170
▁분리	-6171
▁사태	-6172
▁엘리	-6173
▁오빤	-6174
▁이태	-6175
▁작성	-6176
▁타고	-6177
▁피로	-6178
▁한글	-6179
▁회원	-6180
▁돌아올	-6181
▁들어부	-6182
▁라디오	-6183
▁비빔밥	-6184
▁알아들	-6185
▁얻어먹	-6186
▁울매나	-6187
▁은다고	-6188
▁천주교	-6189
▁덧	-6190
▁뜩	-6191
▁셈	-6192
위치	-6193
▁가신	-6194
▁격리	-6195
▁냉면	-6196
▁다년	-6197
▁대처	-6198
▁멈추	-6199
▁모재	-6200
▁모지	-6201
▁배드	-6202
▁보람	-6203
▁보석	-6204
▁불행	-6205
▁비율	-6206
▁스크	-6207
▁시월	-6208
▁아녜	-6209
▁아오	-6210
▁언간	-6211
▁오뎅	-6212
▁외우	-6213
▁운진	-6214
▁으고	-6215
▁으꼬	-6216
▁일일	-6217
▁저쩌	-6218
▁조미	-6219
▁창가	-6220
▁초기	-6221
▁초콜	-6222
▁측면	-6223
▁넘어갔	-6224
▁달라졌	-6225
▁들어도	-6226
▁딸내미	-6227
▁맘대루	-6228
▁모른다	-6229
▁십일월	-6230
▁어려서	-6231
▁이상형	-6232
▁그나저나	-6233
든지	-6234
살이	-6235
운드	-6236
▁개그	-6237
▁겅가	-6238
▁겅핸	-6239
▁게요	-6240
▁구할	-6241
▁네잉	-6242
▁뎅기	-6243
▁도구	-6244
▁반성	-6245
▁벗겨	-6246
▁빵꾸	-6247
▁숫자	-6248
▁이웃	-6249
▁펀드	-6250
▁다면은	-6251
▁리조트	-6252
▁바가지	-6253
▁빨간색	-6254
▁커피숍	-6255
▁할바이	-6256
▁흘러가	-6257
▁맽	-6258
▁뻑	-6259
▁섹	-6260
깨비	-6261
에이	-6262
▁갈등	-6263
▁갈색	-6264
▁그렸	-6265
▁낙지	-6266
▁내장	-6267
▁내주	-6268
▁대가	-6269
▁더우	-6270
▁드럽	-6271
▁무난	-6272
▁바꾼	-6273
▁벌레	-6274
▁시합	-6275
▁쌀쌀	-6276
▁양지	-6277
▁우수	-6278
▁을걸	-6279
▁자부	-6280
▁장례	-6281
▁장미	-6282
▁젓갈	-6283
▁지각	-6284
▁참석	-6285
▁후기	-6286
▁다더라	-6287
▁들어감	-6288
▁으까요	-6289
▁몹	-6290
▁감히	-6291
▁강요	-6292
▁교양	-6293
▁구구	-6294
▁구이	-6295
▁국어	-6296
▁꼼짝	-6297
▁끄내	-6298
▁날려	-6299
▁냑은	-6300
▁뉴욕	-6301
▁단가	-6302
▁동서	-6303
▁무너	-6304
▁미운	-6305
▁보당	-6306
▁브라	-6307
▁사름	-6308
▁사탕	-6309
▁살찌	-6310
▁아메	-6311
▁아입	-6312
▁얼렁	-6313
▁연하	-6314
▁염하	-6315
▁외워	-6316
▁용품	-6317
▁제출	-6318
▁지장	-6319
▁짤르	-6320
▁찌지	-6321
▁참으	-6322
▁철학	-6323
▁하체	-6324
▁휴학	-6325
▁다던가	-6326
▁다던데	-6327
▁드라이	-6328
▁볼라꼬	-6329
▁아녜요	-6330
▁할려면	-6331
▁한다거나	-6332
▁뷔	-6333
▁왓	-6334
르르	-6335
먼지	-6336
어내	-6337
▁건축	-6338
▁까라	-6339
▁남기	-6340
▁당관	-6341
▁당진	-6342
▁동호	-6343
▁두리	-6344
▁반죽	-6345
▁보장	-6346
▁본부	-6347
▁사괘	-6348
▁사시	-6349
▁싱싱	-6350
▁올레	-6351
▁유형	-6352
▁집사	-6353
▁치가	-6354
▁탄탄	-6355
▁팍팍	-6356
▁느라구	-6357
▁볼게요	-6358
▁빠져나	-6359
▁인터뷰	-6360
▁지켜보	-6361
▁어린이집	-6362
▁밉	-6363
다면	-6364
욕장	-6365
조리	-6366
▁겅했	-6367
▁고아	-6368
▁그립	-6369
▁나훈	-6370
▁눈빛	-6371
▁당일	-6372
▁마약	-6373
▁무식	-6374
▁볼일	-6375
▁부처	-6376
▁빼빼	-6377
▁사단	-6378
▁석반	-6379
▁소풍	-6380
▁여사	-6381
▁인천	-6382
▁장관	-6383
▁천지	-6384
▁케잌	-6385
▁크로	-6386
▁표준	-6387
▁해리	-6388
▁해치	-6389
▁놨다가	-6390
▁몰라서	-6391
▁주머니	-6392
▁테이프	-6393
▁숯	-6394
▁싯	-6395
▁얀	-6396
▁가문	-6397
▁가불	-6398
▁갈켜	-6399
▁구했	-6400
▁기이	-6401
▁나강	-6402
▁내릴	-6403
▁백종	-6404
▁소년	-6405
▁손녀	-6406
▁쓸쓸	-6407
▁아씨	-6408
▁연속	-6409
▁연장	-6410
▁운젠	-6411
▁적성	-6412
▁제공	-6413
▁좌석	-6414
▁지진	-6415
▁철저	-6416
▁콧대	-6417
▁흥분	-6418
▁나훈아	-6419
▁다가가	-6420
▁단순히	-6421
▁더랑께	-6422
▁일반인	-6423
▁줄어들	-6424
▁칼로리	-6425
▁프라이	-6426
▁몫	-6427
▁츤	-6428
▁개문	-6429
▁고른	-6430
▁고수	-6431
▁단위	-6432
▁발음	-6433
▁봉투	-6434
▁비상	-6435
▁시카	-6436
▁싰는	-6437
▁안쓰	-6438
▁어다	-6439
▁연관	-6440
▁이봐	-6441
▁중반	-6442
▁지발	-6443
▁최악	-6444
▁팔리	-6445
▁해필	-6446
▁현명	-6447
▁회계	-6448
▁내려갔	-6449
▁누나야	-6450
▁독새기	-6451
▁부딪치	-6452
▁야겠다	-6453
▁언니네	-6454
▁헤어진	-6455
▁에이비형	-6456
▁럼	-6457
▁뽄	-6458
▁샛	-6459
▁왁	-6460
뎅이	-6461
민턴	-6462
크림	-6463
키지	-6464
▁가대	-6465
▁가보	-6466
▁거름	-6467
▁구수	-6468
▁그레	-6469
▁긍강	-6470
▁기존	-6471
▁더욱	-6472
▁매년	-6473
▁멩한	-6474
▁모레	-6475
▁보도	-6476
▁볼려	-6477
▁사상	-6478
▁상의	-6479
▁소속	-6480
▁수강	-6481
▁슬슬	-6482
▁시시	-6483
▁아신	-6484
▁언능	-6485
▁웃겼	-6486
▁입히	-6487
▁자긴	-6488
▁제거	-6489
▁조직	-6490
▁주스	-6491
▁죽음	-6492
▁질병	-6493
▁차단	-6494
▁틀렸	-6495
▁팝송	-6496
▁허주	-6497
스토랑	-6498
▁달라진	-6499
▁드래도	-6500
▁백종원	-6501
▁보일러	-6502
▁뻐리고	-6503
▁에스티	-6504
▁집안일	-6505
▁드립니다	-6506
▁레스토랑	-6507
▁배드민턴	-6508
▁에이아이	-6509
▁걘	-6510
▁꾹	-6511
▁뺨	-6512
▁웂	-6513
▁촞	-6514
▁텔	-6515
▁가위	-6516
▁강남	-6517
▁고를	-6518
▁구역	-6519
▁깨지	-6520
▁내이	-6521
▁다손	-6522
▁더부	-6523
▁뜨뜻	-6524
▁망설	-6525
▁맞출	-6526
▁멋져	-6527
▁모았	-6528
▁미뤄	-6529
▁밀려	-6530
▁바탕	-6531
▁사인	-6532
▁살펴	-6533
▁서너	-6534
▁선거	-6535
▁열매	-6536
▁워째	-6537
▁유독	-6538
▁지라	-6539
▁지킬	-6540
▁게시리	-6541
▁신다구	-6542
▁아지매	-6543
▁바이러스	-6544
▁오프라인	-6545
▁붉	-6546
갓집	-6547
이드	-6548
▁갖춰	-6549
▁고러	-6550
▁근가	-6551
▁기쁘	-6552
▁기침	-6553
▁껍질	-6554
▁단디	-6555
▁무선	-6556
▁바뻐	-6557
▁분석	-6558
▁색조	-6559
▁생케	-6560
▁소라	-6561
▁소린	-6562
▁소방	-6563
▁수박	-6564
▁신용	-6565
▁여시	-6566
▁염려	-6567
▁였었	-6568
▁예배	-6569
▁오마	-6570
▁와두	-6571
▁외부	-6572
▁위이	-6573
▁이분	-6574
▁인성	-6575
▁정장	-6576
▁제우	-6577
▁졸라	-6578
▁주임	-6579
▁직전	-6580
▁토론	-6581
▁튀기	-6582
▁특정	-6583
▁할아	-6584
▁가르키	-6585
▁고등어	-6586
▁고모부	-6587
▁날라가	-6588
▁아쉬움	-6589
▁잘생긴	-6590
▁짓거리	-6591
▁티브이	-6592
▁패키지	-6593
▁다면서요	-6594
▁돼지고기	-6595
▁뒁	-6596
▁싣	-6597
▁쌉	-6598
▁템	-6599
당초	-6600
드라	-6601
▁꺼라	-6602
▁더위	-6603
▁뒤져	-6604
▁반반	-6605
▁비비	-6606
▁수월	-6607
▁식초	-6608
▁실천	-6609
▁예수	-6610
▁왕따	-6611
▁장단	-6612
▁재작	-6613
▁전수	-6614
▁짤리	-6615
▁첫날	-6616
▁체계	-6617
▁커지	-6618
▁해변	-6619
▁호흡	-6620
▁가운데	-6621
▁는군요	-6622
▁는디유	-6623
▁동호회	-6624
▁라면은	-6625
▁면역력	-6626
▁즐거운	-6627
▁미세먼지	-6628
▁롸	-6629
▁튕	-6630
까봐	-6631
드름	-6632
저트	-6633
포터	-6634
▁그자	-6635
▁니다	-6636
▁다듬	-6637
▁단속	-6638
▁달린	-6639
▁뚜렷	-6640
▁만남	-6641
▁망치	-6642
▁발리	-6643
▁본데	-6644
▁빡빡	-6645
▁사자	-6646
▁상식	-6647
▁서둘	-6648
▁성분	-6649
▁손질	-6650
▁영한	-6651
▁오니	-6652
▁잔뜩	-6653
▁정적	-6654
▁져야	-6655
▁지수	-6656
▁참치	-6657
▁처방	-6658
▁혼내	-6659
▁경상도	-6660
▁디저트	-6661
▁산다고	-6662
▁살아온	-6663
▁어이없	-6664
▁좋아한	-6665
▁지나갔	-6666
▁헤어져	-6667
▁아닙니다	-6668
▁꿰	-6669
▁픽	-6670
마차	-6671
▁가즈	-6672
▁개봉	-6673
▁거들	-6674
▁기생	-6675
▁리뷰	-6676
▁마르	-6677
▁메모	-6678
▁무기	-6679
▁미드	-6680
▁병사	-6681
▁수수	-6682
▁시굴	-6683
▁시디	-6684
▁실질	-6685
▁심사	-6686
▁오염	-6687
▁우스	-6688
▁운디	-6689
▁잡수	-6690
▁점장	-6691
▁접시	-6692
▁조작	-6693
▁진단	-6694
▁초보	-6695
▁키스	-6696
▁현지	-6697
▁형편	-6698
테리어	-6699
▁나타났	-6700
▁달구리	-6701
▁라고요	-6702
▁라면서	-6703
▁어울릴	-6704
▁직사게	-6705
▁해서요	-6706
▁시어머니	-6707
▁깰	-6708
▁렘	-6709
인다	-6710
▁가작	-6711
▁거제	-6712
▁남안	-6713
▁논란	-6714
▁대책	-6715
▁로워	-6716
▁매겼	-6717
▁모욕	-6718
▁배불	-6719
▁비벼	-6720
▁빵집	-6721
▁뽀뽀	-6722
▁사도	-6723
▁새나	-6724
▁속초	-6725
▁시부	-6726
▁시야	-6727
▁써먹	-6728
▁씨씨	-6729
▁와도	-6730
▁의도	-6731
▁이탈	-6732
▁인턴	-6733
▁일지	-6734
▁재벌	-6735
▁터치	-6736
▁펼쳐	-6737
▁풀려	-6738
▁한림	-6739
▁할배	-6740
▁합의	-6741
▁해병	-6742
▁는데도	-6743
▁돌아보	-6744
▁마이크	-6745
▁볶음밥	-6746
▁실갱이	-6747
▁엄청난	-6748
▁왔잖아	-6749
▁페이지	-6750
▁헙디다	-6751
▁아이지마	-6752
▁포장마차	-6753
▁해수욕장	-6754
▁쁘	-6755
▁츄	-6756
▁톰	-6757
다보	-6758
파리	-6759
▁가드	-6760
▁갈지	-6761
▁경영	-6762
▁고용	-6763
▁그딴	-6764
▁깻잎	-6765
▁락산	-6766
▁모도	-6767
▁모은	-6768
▁미칠	-6769
▁아여	-6770
▁왜사	-6771
▁처벌	-6772
▁컨셉	-6773
▁탈출	-6774
▁호기	-6775
▁화분	-6776
▁활성	-6777
부러지	-6778
▁갈아입	-6779
▁고뱅이	-6780
▁구먼유	-6781
▁내려놓	-6782
▁달라붙	-6783
▁사라졌	-6784
▁스카이	-6785
▁으신지	-6786
▁일일이	-6787
▁장난치	-6788
▁장모님	-6789
▁재작년	-6790
▁줄려구	-6791
▁지나치	-6792
▁한라산	-6793
▁해져서	-6794
▁그러니께	-6795
▁녕	-6796
▁놋	-6797
▁솨	-6798
▁텃	-6799
수증	-6800
▁갑작	-6801
▁개서	-6802
▁기절	-6803
▁남성	-6804
▁누르	-6805
▁동양	-6806
▁때렸	-6807
▁떨리	-6808
▁멈춰	-6809
▁버르	-6810
▁불량	-6811
▁시점	-6812
▁안방	-6813
▁원작	-6814
▁저걸	-6815
▁존중	-6816
▁쪼끄	-6817
▁청춘	-6818
▁프린	-6819
▁허긴	-6820
▁독서실	-6821
▁베란다	-6822
▁보여서	-6823
▁부끄럽	-6824
▁어딘가	-6825
▁어쩐가	-6826
▁조만간	-6827
▁중국어	-6828
▁셩	-6829
▁씰	-6830
게싸	-6831
질러	-6832
챙이	-6833
텐츠	-6834
▁강제	-6835
▁게론	-6836
▁고시	-6837
▁고파	-6838
▁구박	-6839
▁기우	-6840
▁날아	-6841
▁니트	-6842
▁대면	-6843
▁되돌	-6844
▁디이	-6845
▁라곤	-6846
▁런닝	-6847
▁로마	-6848
▁마땅	-6849
▁멕여	-6850
▁번지	-6851
▁벌리	-6852
▁보충	-6853
▁부사	-6854
▁비서	-6855
▁비워	-6856
▁상사	-6857
▁수사	-6858
▁순환	-6859
▁신입	-6860
▁실행	-6861
▁싫어	-6862
▁아스	-6863
▁예산	-6864
▁육군	-6865
▁인고	-6866
▁장래	-6867
▁진로	-6868
▁차원	-6869
▁총각	-6870
▁치러	-6871
▁확신	-6872
▁흰색	-6873
게싸게	-6874
▁가마이	-6875
▁누워서	-6876
▁면서도	-6877
▁알아주	-6878
▁어데다	-6879
▁어떤지	-6880
▁유산소	-6881
▁응급실	-6882
▁찾아와	-6883
▁특벨한	-6884
▁후라이	-6885
▁싸게싸게	-6886
▁인테리어	-6887
▁닳	-6888
▁렸	-6889
맹이	-6890
사고	-6891
아치	-6892
▁각각	-6893
▁개미	-6894
▁고프	-6895
▁끝났	-6896
▁나사	-6897
▁내지	-6898
▁들온	-6899
▁먹방	-6900
▁멀미	-6901
▁목장	-6902
▁부렸	-6903
▁뻔히	-6904
▁상당	-6905
▁연출	-6906
▁예에	-6907
▁운재	-6908
▁유재	-6909
▁이론	-6910
▁이우	-6911
▁입대	-6912
▁조명	-6913
▁준빌	-6914
▁지낭	-6915
▁지이	-6916
▁지쳐	-6917
▁치미	-6918
▁희생	-6919
▁겅하멍	-6920
▁경기도	-6921
▁따라오	-6922
▁보여요	-6923
▁이제사	-6924
▁줄거리	-6925
▁력	-6926
▁쏴	-6927
▁잿	-6928
다란	-6929
보드	-6930
봐도	-6931
언니	-6932
젯밤	-6933
카락	-6934
▁급허	-6935
▁놓치	-6936
▁는께	-6937
▁단정	-6938
▁달렸	-6939
▁당구	-6940
▁대접	-6941
▁디레	-6942
▁말르	-6943
▁멘탈	-6944
▁미팅	-6945
▁부엌	-6946
▁수단	-6947
▁써도	-6948
▁아고	-6949
▁열받	-6950
▁열차	-6951
▁오월	-6952
▁우이	-6953
▁입시	-6954
▁잡숫	-6955
▁족발	-6956
▁지랑	-6957
▁통신	-6958
▁투표	-6959
▁플랫	-6960
▁하간	-6961
▁할꼬	-6962
▁해고	-6963
▁해동	-6964
▁허랜	-6965
▁현관	-6966
▁고로케	-6967
▁그대로	-6968
▁나와요	-6969
▁도깨비	-6970
▁사라져	-6971
▁서부터	-6972
▁어젯밤	-6973
▁주고받	-6974
▁챙겨야	-6975
▁훈련소	-6976
▁머리카락	-6977
▁튀어나왔	-6978
▁낑	-6979
▁댐	-6980
▁땍	-6981
▁뽁	-6982
▁숱	-6983
로우	-6984
▁놨던	-6985
▁눈앞	-6986
▁늘어	-6987
▁다정	-6988
▁당할	-6989
▁동해	-6990
▁라드	-6991
▁랐싸	-6992
▁망했	-6993
▁매주	-6994
▁밥통	-6995
▁비리	-6996
▁사난	-6997
▁삭제	-6998
▁실용	-6999
▁연령	-7000
▁염한	-7001
▁우찌	-7002
▁으미	-7003
▁이소	-7004
▁전활	-7005
▁처이	-7006
▁특수	-7007
▁편입	-7008
▁풍부	-7009
▁피디	-7010
▁황당	-7011
▁그런께	-7012
▁들으문	-7013
▁미스타	-7014
▁우연히	-7015
▁청소기	-7016
▁아프리카	-7017
▁찻	-7018
달리	-7019
와이	-7020
▁감시	-7021
▁강도	-7022
▁괜차	-7023
▁구멍	-7024
▁내밀	-7025
▁달마	-7026
▁마취	-7027
▁모단	-7028
▁뭉치	-7029
▁바빴	-7030
▁배부	-7031
▁부쳐	-7032
▁빙떡	-7033
▁사리	-7034
▁사망	-7035
▁소독	-7036
▁수분	-7037
▁애쓰	-7038
▁와부	-7039
▁원비	-7040
▁위원	-7041
▁육아	-7042
▁이서	-7043
▁잡아	-7044
▁장모	-7045
▁저렇	-7046
▁제약	-7047
▁조그	-7048
▁지니	-7049
▁치로	-7050
▁카이	-7051
▁해소	-7052
▁해이	-7053
▁허물	-7054
▁간다는	-7055
▁갔다오	-7056
▁다녔었	-7057
▁오일장	-7058
▁교통사고	-7059
▁돌아가셔	-7060
▁아닙니까	-7061
▁잊어버리	-7062
따리	-7063
새끼	-7064
인지	-7065
▁강화	-7066
▁굴리	-7067
▁극단	-7068
▁끄름	-7069
▁나을	-7070
▁낚수	-7071
▁놔뒀	-7072
▁단장	-7073
▁무척	-7074
▁밤중	-7075
▁배낭	-7076
▁붙들	-7077
▁비치	-7078
▁사원	-7079
▁생리	-7080
▁어낭	-7081
▁욕먹	-7082
▁입사	-7083
▁재워	-7084
▁저쪽	-7085
▁절반	-7086
▁정원	-7087
▁줘두	-7088
▁추세	-7089
▁치사	-7090
▁평화	-7091
▁한당	-7092
▁한자	-7093
▁움직일	-7094
▁호기심	-7095
▁회사기	-7096
▁똑부러지	-7097
▁넝	-7098
▁봠	-7099
나다	-7100
마토	-7101
생이	-7102
▁가머	-7103
▁걸으	-7104
▁길이	-7105
▁끝냈	-7106
▁도저	-7107
▁뒤지	-7108
▁떠난	-7109
▁래유	-7110
▁목통	-7111
▁복장	-7112
▁사냥	-7113
▁샌드	-7114
▁성능	-7115
▁소득	-7116
▁써요	-7117
▁연상	-7118
▁예고	-7119
▁유용	-7120
▁유통	-7121
▁이겼	-7122
▁이빠	-7123
▁작용	-7124
▁조합	-7125
▁증가	-7126
▁체형	-7127
▁치민	-7128
▁특유	-7129
할머니	-7130
▁거러지	-7131
▁나이키	-7132
▁난다고	-7133
▁뜨거운	-7134
▁랐싸요	-7135
▁마사지	-7136
▁무너지	-7137
▁미끄러	-7138
▁본다고	-7139
▁볼라구	-7140
▁어울려	-7141
▁을마나	-7142
▁피해자	-7143
▁녁	-7144
▁췌	-7145
더러	-7146
보이	-7147
볶음	-7148
사랑	-7149
어서	-7150
케팅	-7151
흥민	-7152
▁고루	-7153
▁구라	-7154
▁껭이	-7155
▁내면	-7156
▁된지	-7157
▁맡기	-7158
▁바나	-7159
▁바둑	-7160
▁반품	-7161
▁복사	-7162
▁불과	-7163
▁서버	-7164
▁스티	-7165
▁식욕	-7166
▁신대	-7167
▁아랑	-7168
▁아실	-7169
▁전반	-7170
▁주워	-7171
▁중단	-7172
▁지주	-7173
▁질기	-7174
▁쭈꾸	-7175
▁투어	-7176
▁협박	-7177
▁형아	-7178
▁휴양	-7179
▁날더러	-7180
▁로부터	-7181
▁마케팅	-7182
▁손흥민	-7183
▁시집가	-7184
▁으셔서	-7185
▁청소년	-7186
▁콩나물	-7187
▁낡	-7188
▁념	-7189
▁뻣	-7190
▁쨈	-7191
미디	-7192
테일	-7193
▁가짜	-7194
▁고냥	-7195
▁공학	-7196
▁내미	-7197
▁독자	-7198
▁디다	-7199
▁마농	-7200
▁막연	-7201
▁몰랑	-7202
▁박혀	-7203
▁밥상	-7204
▁산대	-7205
▁상무	-7206
▁소유	-7207
▁손잡	-7208
▁싸인	-7209
▁아랫	-7210
▁아참	-7211
▁안해	-7212
▁영영	-7213
▁오븐	-7214
▁의하	-7215
▁잉께	-7216
▁전학	-7217
▁접수	-7218
▁제외	-7219
▁조상	-7220
▁지적	-7221
▁쪄서	-7222
▁해연	-7223
▁허버	-7224
▁호감	-7225
베이터	-7226
▁다녀와	-7227
▁드라만	-7228
▁물어본	-7229
▁보조제	-7230
▁살아나	-7231
▁영수증	-7232
▁청바지	-7233
▁코미디	-7234
▁한데요	-7235
▁쨍	-7236
▁쫘	-7237
▁픈	-7238
넹이	-7239
이네	-7240
페이	-7241
▁고단	-7242
▁교도	-7243
▁구룸	-7244
▁기장	-7245
▁꼬마	-7246
▁노물	-7247
▁놔도	-7248
▁다문	-7249
▁다스	-7250
▁댄다	-7251
▁디기	-7252
▁매트	-7253
▁뱃속	-7254
▁사위	-7255
▁산지	-7256
▁시네	-7257
▁시크	-7258
▁썰매	-7259
▁오드	-7260
▁올까	-7261
▁우체	-7262
▁유연	-7263
▁이실	-7264
▁입구	-7265
▁장어	-7266
▁접종	-7267
▁지불	-7268
▁지송	-7269
▁진즉	-7270
▁찬성	-7271
▁최종	-7272
▁컨디	-7273
▁펑펑	-7274
▁프라	-7275
▁하미	-7276
▁학점	-7277
▁해안	-7278
▁화해	-7279
▁게다가	-7280
▁나간다	-7281
▁라는디	-7282
▁메시지	-7283
▁변호사	-7284
▁/	-7285
▁깼	-7286
▁럽	-7287
▁샴	-7288
▁숏	-7289
▁흩	-7290
수다	-7291
전히	-7292
트롤	-7293
풀이	-7294
▁간섭	-7295
▁건거	-7296
▁공공	-7297
▁괜츈	-7298
▁구천	-7299
▁꼬치	-7300
▁낭게	-7301
▁닝게	-7302
▁닭발	-7303
▁데리	-7304
▁독하	-7305
▁동문	-7306
▁디즈	-7307
▁마랑	-7308
▁바구	-7309
▁반면	-7310
▁받쳐	-7311
▁사귈	-7312
▁소모	-7313
▁심허	-7314
▁쓰여	-7315
▁씅질	-7316
▁얼맨	-7317
▁여부	-7318
▁여주	-7319
▁유난	-7320
▁음성	-7321
▁인수	-7322
▁자란	-7323
▁장남	-7324
▁제시	-7325
▁주지	-7326
▁죽일	-7327
▁처제	-7328
▁최저	-7329
▁타지	-7330
▁패스	-7331
▁편견	-7332
▁할께	-7333
레이드	-7334
▁넘어지	-7335
▁느껴져	-7336
▁느껴졌	-7337
▁쌍둥이	-7338
▁유브이	-7339
▁을매나	-7340
▁정해진	-7341
▁주무시	-7342
▁중고차	-7343
▁뱈	-7344
▁춰	-7345
꿀로	-7346
▁거슬	-7347
▁계좌	-7348
▁고내	-7349
▁기쁨	-7350
▁낯선	-7351
▁냐는	-7352
▁노리	-7353
▁대본	-7354
▁돼도	-7355
▁떡국	-7356
▁마직	-7357
▁매콤	-7358
▁모였	-7359
▁모인	-7360
▁별나	-7361
▁비자	-7362
▁뻔뻔	-7363
▁상해	-7364
▁서예	-7365
▁성실	-7366
▁숟갈	-7367
▁실테	-7368
▁십쇼	-7369
▁앞서	-7370
▁야가	-7371
▁엔가	-7372
▁잡채	-7373
▁접촉	-7374
▁조교	-7375
▁줄께	-7376
▁취해	-7377
▁츰엔	-7378
▁캤었	-7379
▁커버	-7380
▁코치	-7381
▁헌데	-7382
▁형사	-7383
▁둘러보	-7384
▁막둥이	-7385
▁살아왔	-7386
▁아파요	-7387
▁지나간	-7388
▁뛸	-7389
▁룬	-7390
▁쿼	-7391
너스	-7392
을까	-7393
제품	-7394
▁겠어	-7395
▁관객	-7396
▁금지	-7397
▁긍가	-7398
▁기질	-7399
▁날개	-7400
▁단골	-7401
▁당분	-7402
▁대핵	-7403
▁도마	-7404
▁리더	-7405
▁막혀	-7406
▁망고	-7407
▁모리	-7408
▁밀어	-7409
▁반전	-7410
▁변경	-7411
▁브로	-7412
▁세끼	-7413
▁소매	-7414
▁수행	-7415
▁싹싹	-7416
▁애견	-7417
▁여라	-7418
▁염증	-7419
▁예보	-7420
▁인분	-7421
▁장식	-7422
▁전연	-7423
▁차선	-7424
▁피지	-7425
▁한방	-7426
▁현질	-7427
▁효율	-7428
▁겅하곡	-7429
▁괜잖은	-7430
▁근데도	-7431
▁마따나	-7432
▁바까서	-7433
▁바까야	-7434
▁색다른	-7435
▁시금치	-7436
▁아방이	-7437
▁오케이	-7438
▁은근히	-7439
▁읍디다	-7440
▁캐나다	-7441
▁컨트롤	-7442
▁해야제	-7443
▁해야죠	-7444
▁헤어질	-7445
▁아메리카	-7446
▁트레이닝	-7447
▁뮬	-7448
▁솟	-7449
기사	-7450
단지	-7451
배추	-7452
준다	-7453
탱이	-7454
▁가전	-7455
▁고이	-7456
▁그곳	-7457
▁꼬매	-7458
▁끌리	-7459
▁당보	-7460
▁당첨	-7461
▁더블	-7462
▁동백	-7463
▁동화	-7464
▁뚜꺼	-7465
▁란다	-7466
▁머신	-7467
▁멜론	-7468
▁몰러	-7469
▁바디	-7470
▁뱈에	-7471
▁사셨	-7472
▁상추	-7473
▁새이	-7474
▁셨었	-7475
▁수건	-7476
▁시한	-7477
▁암수	-7478
▁왕자	-7479
▁요령	-7480
▁우도	-7481
▁으모	-7482
▁재고	-7483
▁정의	-7484
▁질구	-7485
▁취득	-7486
▁트렌	-7487
▁파크	-7488
▁풍선	-7489
▁합리	-7490
▁뛰어나	-7491
▁무지기	-7492
▁베이스	-7493
▁양배추	-7494
▁엉덩이	-7495
▁영원히	-7496
▁이라니	-7497
▁캄	-7498
▁켱	-7499
꺼풀	-7500
반찬	-7501
버린	-7502
빠진	-7503
어질	-7504
이즈	-7505
쿠다	-7506
▁감추	-7507
▁거드	-7508
▁곤치	-7509
▁기상	-7510
▁꺼져	-7511
▁다간	-7512
▁데렌	-7513
▁라매	-7514
▁랜드	-7515
▁맞치	-7516
▁매너	-7517
▁맥히	-7518
▁벌금	-7519
▁부상	-7520
▁서든	-7521
▁손데	-7522
▁쓸모	-7523
▁제법	-7524
▁집값	-7525
▁형성	-7526
라우마	-7527
▁대해선	-7528
▁도저히	-7529
▁마누라	-7530
▁안녕히	-7531
▁장단점	-7532
▁짤라서	-7533
▁했으니	-7534
▁된장찌개	-7535
▁드릴께요	-7536
▁트라우마	-7537
▁댈	-7538
▁붐	-7539
▁턴	-7540
공일	-7541
스럽	-7542
은이	-7543
▁그새	-7544
▁대세	-7545
▁두렵	-7546
▁멜로	-7547
▁문신	-7548
▁발톱	-7549
▁버치	-7550
▁빠리	-7551
▁사노	-7552
▁사연	-7553
▁색시	-7554
▁수명	-7555
▁야근	-7556
▁영웅	-7557
▁오직	-7558
▁입력	-7559
▁입혀	-7560
▁잖냐	-7561
▁전신	-7562
▁제정	-7563
▁조화	-7564
▁주저	-7565
▁줄이	-7566
▁캐서	-7567
▁통증	-7568
▁해물	-7569
▁혼처	-7570
▁횟집	-7571
▁그라머	-7572
▁나아가	-7573
▁내시경	-7574
▁누군데	-7575
▁숟가락	-7576
▁에이형	-7577
▁올게요	-7578
▁워낙에	-7579
▁으실까	-7580
▁태어난	-7581
▁한국어	-7582
▁화요일	-7583
▁으니까네	-7584
▁엘리베이터	-7585
▁꼈	-7586
꾸기	-7587
아나	-7588
파이	-7589
▁구루	-7590
▁기주	-7591
▁기후	-7592
▁까칠	-7593
▁나대	-7594
▁노랑	-7595
▁노출	-7596
▁돌봐	-7597
▁따져	-7598
▁뜨개	-7599
▁뜨겁	-7600
▁리모	-7601
▁반팔	-7602
▁방치	-7603
▁번거	-7604
▁사마	-7605
▁사방	-7606
▁살라	-7607
▁상한	-7608
▁상했	-7609
▁생신	-7610
▁서빙	-7611
▁서유	-7612
▁세수	-7613
▁순진	-7614
▁실실	-7615
▁어만	-7616
▁연어	-7617
▁옥상	-7618
▁유부	-7619
▁육만	-7620
▁입금	-7621
▁장학	-7622
▁점프	-7623
▁차렸	-7624
▁컬러	-7625
▁팔뚝	-7626
▁피파	-7627
▁혈관	-7628
▁회산	-7629
▁흔하	-7630
▁건조기	-7631
▁돌려주	-7632
▁디즈니	-7633
▁문제점	-7634
▁바이올	-7635
▁보리밥	-7636
▁올리브	-7637
▁운전병	-7638
▁이지마	-7639
▁플라스	-7640
▁했었잖	-7641
▁샌드위치	-7642
▁으셨어요	-7643
▁꺽	-7644
▁띡	-7645
▁쫑	-7646
▁횡	-7647
그리	-7648
딱지	-7649
부리	-7650
사자	-7651
의자	-7652
▁간판	-7653
▁갈쳐	-7654
▁공식	-7655
▁공통	-7656
▁곹은	-7657
▁교대	-7658
▁깜장	-7659
▁넘쳐	-7660
▁다큐	-7661
▁로또	-7662
▁른들	-7663
▁모질	-7664
▁므리	-7665
▁박수	-7666
▁봉지	-7667
▁불려	-7668
▁서핑	-7669
▁세련	-7670
▁수습	-7671
▁식감	-7672
▁식이	-7673
▁안개	-7674
▁압박	-7675
▁엘랑	-7676
▁요래	-7677
▁용도	-7678
▁으찌	-7679
▁은퇴	-7680
▁음주	-7681
▁응답	-7682
▁재재	-7683
▁정직	-7684
▁정학	-7685
▁징하	-7686
▁청약	-7687
▁출연	-7688
▁포즈	-7689
▁해군	-7690
▁호수	-7691
▁후드	-7692
▁관해서	-7693
▁니라고	-7694
▁무지하	-7695
▁사우나	-7696
▁재미난	-7697
▁찾아왔	-7698
▁컨디션	-7699
▁굼이라두	-7700
▁에서부터	-7701
▁플라스틱	-7702
겨서	-7703
그러	-7704
서방	-7705
재주	-7706
학년	-7707
▁가도	-7708
▁가터	-7709
▁간헐	-7710
▁검찰	-7711
▁고뿔	-7712
▁고쪽	-7713
▁공인	-7714
▁군산	-7715
▁노려	-7716
▁누님	-7717
▁다물	-7718
▁레드	-7719
▁마마	-7720
▁메밀	-7721
▁배차	-7722
▁별론	-7723
▁불어	-7724
▁뷔페	-7725
▁삐삐	-7726
▁산소	-7727
▁선선	-7728
▁신게	-7729
▁억지	-7730
▁요쪽	-7731
▁요쯤	-7732
▁우동	-7733
▁우와	-7734
▁일당	-7735
▁작곡	-7736
▁전투	-7737
▁주가	-7738
▁지옥	-7739
▁착상	-7740
▁쿠팡	-7741
▁파워	-7742
▁겅해야	-7743
▁그만뒀	-7744
▁꺼꿀로	-7745
▁나타난	-7746
▁대놓고	-7747
▁될랑가	-7748
▁드라두	-7749
▁마음속	-7750
▁바나나	-7751
▁뻐꾸기	-7752
▁살아남	-7753
▁서둘러	-7754
▁어린애	-7755
▁유재석	-7756
▁준다는	-7757
▁진다고	-7758
▁집어넣	-7759
▁파이브	-7760
로운	-7761
리스	-7762
배우	-7763
엑스	-7764
인데	-7765
주얼	-7766
▁걸치	-7767
▁겁내	-7768
▁고딩	-7769
▁골치	-7770
▁관람	-7771
▁궤기	-7772
▁귀하	-7773
▁끓였	-7774
▁마커	-7775
▁매출	-7776
▁목돈	-7777
▁못난	-7778
▁바위	-7779
▁보살	-7780
▁불쾌	-7781
▁빼놓	-7782
▁빼먹	-7783
▁사례	-7784
▁사운	-7785
▁샴푸	-7786
▁설렁	-7787
▁성두	-7788
▁속이	-7789
▁스위	-7790
▁스펙	-7791
▁심상	-7792
▁여동	-7793
▁열려	-7794
▁온몸	-7795
▁은혜	-7796
▁인께	-7797
▁인문	-7798
▁자산	-7799
▁절약	-7800
▁절차	-7801
▁정류	-7802
▁진료	-7803
▁타격	-7804
▁팔자	-7805
▁허무	-7806
▁호떡	-7807
▁더래도	-7808
▁돌아갈	-7809
▁목도리	-7810
▁바지씨	-7811
▁사생활	-7812
▁습니더	-7813
▁아야제	-7814
▁줄래요	-7815
▁해병대	-7816
▁바이올린	-7817
▁깃	-7818
▁록	-7819
게티	-7820
레르	-7821
숭아	-7822
시간	-7823
잣집	-7824
친다	-7825
▁기보	-7826
▁깝깝	-7827
▁난두	-7828
▁돌렸	-7829
▁되사	-7830
▁따시	-7831
▁로라	-7832
▁말쌈	-7833
▁무심	-7834
▁발령	-7835
▁배치	-7836
▁보말	-7837
▁본사	-7838
▁비즈	-7839
▁설계	-7840
▁성취	-7841
▁스승	-7842
▁어치	-7843
▁여인	-7844
▁예측	-7845
▁유자	-7846
▁으멘	-7847
▁이긴	-7848
▁이놈	-7849
▁인삼	-7850
▁정년	-7851
▁지혜	-7852
▁찐한	-7853
▁출산	-7854
▁친군	-7855
▁터질	-7856
▁화상	-7857
▁휴식	-7858
▁경찰서	-7859
▁내보내	-7860
▁돌아온	-7861
▁모처럼	-7862
▁살아난	-7863
▁셔야죠	-7864
▁습디다	-7865
▁아이지	-7866
▁알레르	-7867
▁요양원	-7868
▁유전자	-7869
▁이어지	-7870
▁적당히	-7871
▁이탈리아	-7872
▁뎁	-7873
▁룻	-7874
▁텀	-7875
저래	-7876
▁게도	-7877
▁근로	-7878
▁까만	-7879
▁냉정	-7880
▁니케	-7881
▁대강	-7882
▁데뷔	-7883
▁도랜	-7884
▁래면	-7885
▁매지	-7886
▁매형	-7887
▁무언	-7888
▁뭔디	-7889
▁민족	-7890
▁부루	-7891
▁샀었	-7892
▁세부	-7893
▁안다	-7894
▁어뗘	-7895
▁영광	-7896
▁우아	-7897
▁유머	-7898
▁의리	-7899
▁저금	-7900
▁즈이	-7901
▁지출	-7902
▁참가	-7903
▁창피	-7904
▁챙길	-7905
▁천장	-7906
▁쳐야	-7907
▁취했	-7908
▁쿠폰	-7909
▁탈색	-7910
▁통제	-7911
▁한숨	-7912
▁할미	-7913
▁화난	-7914
▁화학	-7915
레이크	-7916
▁기생충	-7917
▁나따나	-7918
▁뚜꺼운	-7919
▁메이플	-7920
▁목요일	-7921
▁보호자	-7922
▁요리사	-7923
▁잊어먹	-7924
▁즐거움	-7925
▁크리스	-7926
▁꿨	-7927
▁웁	-7928
▁쩜	-7929
가스	-7930
그라	-7931
부인	-7932
▁겡이	-7933
▁견딜	-7934
▁겹치	-7935
▁관두	-7936
▁기아	-7937
▁끼워	-7938
▁나뉘	-7939
▁내나	-7940
▁달랑	-7941
▁때기	-7942
▁뚜껍	-7943
▁라떼	-7944
▁로써	-7945
▁매기	-7946
▁반영	-7947
▁벌이	-7948
▁비참	-7949
▁빨개	-7950
▁상위	-7951
▁섭하	-7952
▁숙박	-7953
▁실프	-7954
▁써두	-7955
▁오를	-7956
▁유아	-7957
▁응감	-7958
▁인스	-7959
▁임대	-7960
▁잔말	-7961
▁체인	-7962
▁해지	-7963
▁후딱	-7964
▁겅하민	-7965
▁더군요	-7966
▁데려다	-7967
▁바이두	-7968
▁배워야	-7969
▁부잣집	-7970
▁손바닥	-7971
▁장거리	-7972
▁에이에스	-7973
▁이라던지	-7974
▁둑	-7975
▁맷	-7976
▁셰	-7977
▁쭌	-7978
▁콕	-7979
국장	-7980
번호	-7981
크라	-7982
▁갈리	-7983
▁갱신	-7984
▁게울	-7985
▁기온	-7986
▁기프	-7987
▁너라	-7988
▁농약	-7989
▁대나	-7990
▁대민	-7991
▁동전	-7992
▁뚝딱	-7993
▁리무	-7994
▁말랑	-7995
▁메인	-7996
▁명언	-7997
▁물으	-7998
▁미처	-7999
▁반짝	-8000
▁발러	-8001
▁부검	-8002
▁산께	-8003
▁소위	-8004
▁손자	-8005
▁수저	-8006
▁어수	-8007
▁에따	-8008
▁엔진	-8009
▁연탄	-8010
▁이가	-8011
▁일식	-8012
▁조끔	-8013
▁지레	-8014
▁차릴	-8015
▁취한	-8016
▁칠만	-8017
▁통영	-8018
▁겅해도	-8019
▁고속도	-8020
▁놀이터	-8021
▁돌아와	-8022
▁불고기	-8023
▁쌍꺼풀	-8024
▁월드컵	-8025
▁장마철	-8026
▁지켜야	-8027
▁쭈꾸미	-8028
▁청국장	-8029
▁키보드	-8030
▁아입니다	-8031
▁돔	-8032
▁삥	-8033
▁삿	-8034
▁쯧	-8035
▁횔	-8036
신게	-8037
아보	-8038
▁가래	-8039
▁공중	-8040
▁구월	-8041
▁권리	-8042
▁기울	-8043
▁깨우	-8044
▁끌어	-8045
▁느린	-8046
▁니기	-8047
▁동반	-8048
▁막막	-8049
▁몇몇	-8050
▁무뚝	-8051
▁뭘로	-8052
▁민간	-8053
▁버텨	-8054
▁분홍	-8055
▁비린	-8056
▁설사	-8057
▁소야	-8058
▁손발	-8059
▁수당	-8060
▁아트	-8061
▁얌전	-8062
▁어래	-8063
▁언론	-8064
▁였을	-8065
▁영노	-8066
▁오렌	-8067
▁외박	-8068
▁욕구	-8069
▁이익	-8070
▁일자	-8071
▁임영	-8072
▁정답	-8073
▁진공	-8074
▁천상	-8075
▁청주	-8076
▁체격	-8077
▁통일	-8078
▁풀렸	-8079
▁하트	-8080
▁흡수	-8081
▁그런다	-8082
▁그런데	-8083
▁났거든	-8084
▁났잖아	-8085
▁닭갈비	-8086
▁디스크	-8087
▁상품권	-8088
▁생일날	-8089
▁스타트	-8090
▁으려고	-8091
▁즐거웠	-8092
▁했어도	-8093
▁떄	-8094
▁욜	-8095
▁윈	-8096
꼬박	-8097
내리	-8098
식장	-8099
천지	-8100
하루	-8101
▁감명	-8102
▁견뎌	-8103
▁고간	-8104
▁공복	-8105
▁깨워	-8106
▁너야	-8107
▁농협	-8108
▁더럽	-8109
▁리메	-8110
▁모당	-8111
▁미끄	-8112
▁미인	-8113
▁바쿠	-8114
▁벗어	-8115
▁보세	-8116
▁부품	-8117
▁비니	-8118
▁섞여	-8119
▁성게	-8120
▁성비	-8121
▁성숙	-8122
▁쌓인	-8123
▁아울	-8124
▁아즈	-8125
▁알암	-8126
▁에버	-8127
▁여길	-8128
▁여지	-8129
▁온갖	-8130
▁와봐	-8131
▁용어	-8132
▁이견	-8133
▁익히	-8134
▁잠두	-8135
▁장만	-8136
▁재방	-8137
▁재우	-8138
▁정비	-8139
▁중식	-8140
▁질까	-8141
▁집단	-8142
▁찬물	-8143
▁찹쌀	-8144
▁팔월	-8145
▁페시	-8146
▁편찮	-8147
▁폭풍	-8148
▁푸대	-8149
▁해피	-8150
▁허운	-8151
▁홍삼	-8152
▁과학자	-8153
▁나아지	-8154
▁넘어졌	-8155
▁단다이	-8156
▁로구나	-8157
▁무뚝뚝	-8158
▁밑반찬	-8159
▁산다는	-8160
▁서울대	-8161
▁아까운	-8162
▁외국어	-8163
▁자신감	-8164
▁지넹이	-8165
▁쪼그만	-8166
▁허기는	-8167
▁꼬박꼬박	-8168
▁돌아다녀	-8169
▁라니까요	-8170
▁트레이너	-8171
▁꼿	-8172
▁벳	-8173
▁뾰	-8174
▁쫀	-8175
▁챠	-8176
동원	-8177
스틱	-8178
▁갈기	-8179
▁감염	-8180
▁검토	-8181
▁기한	-8182
▁깡패	-8183
▁깨닫	-8184
▁끓일	-8185
▁나유	-8186
▁농장	-8187
▁늘리	-8188
▁더냐	-8189
▁들릴	-8190
▁디스	-8191
▁땍이	-8192
▁떠서	-8193
▁막말	-8194
▁몰개	-8195
▁무덤	-8196
▁박보	-8197
▁병장	-8198
▁본격	-8199
▁부츠	-8200
▁분류	-8201
▁사민	-8202
▁살찐	-8203
▁상승	-8204
▁성산	-8205
▁소극	-8206
▁소형	-8207
▁시무	-8208
▁야인	-8209
▁외동	-8210
▁원룸	-8211
▁으응	-8212
▁의문	-8213
▁의학	-8214
▁재난	-8215
▁적절	-8216
▁전북	-8217
▁주관	-8218
▁주물	-8219
▁줸이	-8220
▁질환	-8221
▁편했	-8222
▁피워	-8223
▁핸들	-8224
▁갑시다	-8225
▁걸어서	-8226
▁겅허고	-8227
▁곹은거	-8228
▁나와야	-8229
▁달려가	-8230
▁데려오	-8231
▁마주치	-8232
▁봅시다	-8233
▁부러운	-8234
▁살아갈	-8235
▁에따가	-8236
▁용의자	-8237
▁임영웅	-8238
▁전화기	-8239
▁조미료	-8240
▁타이어	-8241
▁하와이	-8242
▁떨어져서	-8243
▁어떠세요	-8244
▁샷	-8245
는지	-8246
르몬	-8247
리티	-8248
모습	-8249
이너	-8250
지근	-8251
▁가셔	-8252
▁각오	-8253
▁간편	-8254
▁강조	-8255
▁걸립	-8256
▁게을	-8257
▁계급	-8258
▁규정	-8259
▁꼬랑	-8260
▁꿈꾸	-8261
▁남주	-8262
▁다쳐	-8263
▁담양	-8264
▁독한	-8265
▁돈이	-8266
▁동원	-8267
▁드실	-8268
▁레슨	-8269
▁렌즈	-8270
▁린아	-8271
▁모밀	-8272
▁모을	-8273
▁무느	-8274
▁무로	-8275
▁벌렁	-8276
▁복학	-8277
▁불로	-8278
▁빌딩	-8279
▁생이	-8280
▁서점	-8281
▁성과	-8282
▁세븐	-8283
▁소장	-8284
▁소지	-8285
▁속옷	-8286
▁손수	-8287
▁악세	-8288
▁엔딩	-8289
▁원서	-8290
▁위생	-8291
▁이승	-8292
▁잉게	-8293
▁자켓	-8294
▁정체	-8295
▁제라	-8296
▁제철	-8297
▁쭉쭉	-8298
▁차장	-8299
▁최신	-8300
▁카니	-8301
▁탕수	-8302
▁트위	-8303
▁포항	-8304
▁행운	-8305
▁헤드	-8306
▁혼인	-8307
▁후보	-8308
▁흔한	-8309
니대이	-8310
▁귀빠진	-8311
▁까챙이	-8312
▁다고요	-8313
▁다더니	-8314
▁다이아	-8315
▁두꺼비	-8316
▁손재주	-8317
▁신가요	-8318
▁신세계	-8319
▁아이모	-8320
▁짜장면	-8321
▁책임감	-8322
▁책임지	-8323
▁초록색	-8324
▁토마토	-8325
▁호르몬	-8326
▁계십니까	-8327
▁알레르기	-8328
▁훑	-8329
그릇	-8330
두리	-8331
버섯	-8332
불호	-8333
웨이	-8334
의원	-8335
하게	-8336
하니	-8337
▁가메	-8338
▁갈수	-8339
▁개와	-8340
▁걸요	-8341
▁고선	-8342
▁과수	-8343
▁나빴	-8344
▁내불	-8345
▁냅둬	-8346
▁느려	-8347
▁다름	-8348
▁달콤	-8349
▁돌릴	-8350
▁동거	-8351
▁동일	-8352
▁뒤러	-8353
▁드럼	-8354
▁등장	-8355
▁레벨	-8356
▁로션	-8357
▁마스	-8358
▁말해	-8359
▁무르	-8360
▁무인	-8361
▁문어	-8362
▁뮤직	-8363
▁번쩍	-8364
▁불곡	-8365
▁서브	-8366
▁수확	-8367
▁시동	-8368
▁신분	-8369
▁야경	-8370
▁얼러	-8371
▁연도	-8372
▁외제	-8373
▁요전	-8374
▁욕실	-8375
▁울려	-8376
▁웨이	-8377
▁위반	-8378
▁인종	-8379
▁임시	-8380
▁작동	-8381
▁장수	-8382
▁전망	-8383
▁접때	-8384
▁찔러	-8385
▁챙견	-8386
▁편혀	-8387
▁화토	-8388
▁휴지	-8389
▁게스트	-8390
▁구루마	-8391
▁다니깐	-8392
▁달라질	-8393
▁당사자	-8394
▁모자라	-8395
▁무거워	-8396
▁배우자	-8397
▁벌어지	-8398
▁부러웠	-8399
▁아마도	-8400
▁줄라구	-8401
▁프리미	-8402
▁할께요	-8403
▁호불호	-8404
▁지만서도	-8405
▁한다니까	-8406
▁해리포터	-8407
▁아메리카노	-8408
▁귓	-8409
▁깅	-8410
▁쨰	-8411
봐야	-8412
▁가새	-8413
▁각해	-8414
▁경장	-8415
▁고쳤	-8416
▁금융	-8417
▁너거	-8418
▁놨두	-8419
▁담가	-8420
▁데로	-8421
▁뛰뛰	-8422
▁맞춘	-8423
▁문장	-8424
▁방영	-8425
▁보안	-8426
▁복상	-8427
▁부도	-8428
▁불지	-8429
▁비유	-8430
▁비틀	-8431
▁세종	-8432
▁수육	-8433
▁시아	-8434
▁실려	-8435
▁아그	-8436
▁양치	-8437
▁억질	-8438
▁옷장	-8439
▁이뻤	-8440
▁인격	-8441
▁일시	-8442
▁저울	-8443
▁전략	-8444
▁정작	-8445
▁지목	-8446
▁짱구	-8447
▁찌르	-8448
▁찌질	-8449
▁차트	-8450
▁착해	-8451
▁천사	-8452
▁하카	-8453
▁행위	-8454
▁향신	-8455
린다고	-8456
▁가리키	-8457
▁경기장	-8458
▁덩어리	-8459
▁두려워	-8460
▁드러운	-8461
▁만화방	-8462
▁면서두	-8463
▁볼까요	-8464
▁소개팅	-8465
▁소비자	-8466
▁쓰러져	-8467
▁어두운	-8468
▁으라는	-8469
▁을라믄	-8470
▁읍니까	-8471
▁탕수육	-8472
▁힘든데	-8473
▁나온다고	-8474
▁마이너스	-8475
▁아닌가요	-8476
▁즌화번호	-8477
▁1	-8478
▁끙	-8479
▁둰	-8480
▁퀴	-8481
같이	-8482
고생	-8483
빵빵	-8484
스름	-8485
지름	-8486
▁걸쳐	-8487
▁교류	-8488
▁껴야	-8489
▁나예	-8490
▁내성	-8491
▁냄기	-8492
▁네모	-8493
▁녹차	-8494
▁도새	-8495
▁루이	-8496
▁말구	-8497
▁매점	-8498
▁메가	-8499
▁명령	-8500
▁모니	-8501
▁물회	-8502
▁바우	-8503
▁버전	-8504
▁버텀	-8505
▁부이	-8506
▁부침	-8507
▁불빛	-8508
▁비쌌	-8509
▁상점	-8510
▁숨기	-8511
▁시게	-8512
▁시력	-8513
▁신사	-8514
▁아수	-8515
▁안쪽	-8516
▁여건	-8517
▁여권	-8518
▁완결	-8519
▁외루	-8520
▁워터	-8521
▁일하	-8522
▁잊혀	-8523
▁자래	-8524
▁재판	-8525
▁정거	-8526
▁중년	-8527
▁즉흥	-8528
▁짐작	-8529
▁차가	-8530
▁처녀	-8531
▁충청	-8532
▁파인	-8533
▁필름	-8534
▁허나	-8535
▁회관	-8536
▁가져왔	-8537
▁그믄은	-8538
▁기념일	-8539
▁기달렸	-8540
▁돌아간	-8541
▁드러내	-8542
▁라이브	-8543
▁무언가	-8544
▁버려야	-8545
▁베스트	-8546
▁오피스	-8547
▁온다는	-8548
▁을라면	-8549
▁젊은이	-8550
▁즌화로	-8551
▁쪼가리	-8552
▁추운데	-8553
▁케이블	-8554
▁트위터	-8555
▁학부모	-8556
▁해신가	-8557
▁뛰뛰빵빵	-8558
▁브레이크	-8559
▁빠져나가	-8560
▁주무세요	-8561
▁앰	-8562
▁얽	-8563
▁촛	-8564
▁폈	-8565
가다	-8566
럼프	-8567
마씸	-8568
벌이	-8569
에도	-8570
타리	-8571
하면	-8572
▁균형	-8573
▁그렜	-8574
▁기카	-8575
▁꽂혀	-8576
▁나지	-8577
▁내라	-8578
▁누웠	-8579
▁돌보	-8580
▁동작	-8581
▁막힌	-8582
▁말간	-8583
▁머니	-8584
▁몰아	-8585
▁발랐	-8586
▁베풀	-8587
▁복귀	-8588
▁속눈	-8589
▁수십	-8590
▁스쿠	-8591
▁실라	-8592
▁아네	-8593
▁암서	-8594
▁엔간	-8595
▁예뻤	-8596
▁용건	-8597
▁울음	-8598
▁위안	-8599
▁위장	-8600
▁육체	-8601
▁으며	-8602
▁이과	-8603
▁이율	-8604
▁자본	-8605
▁자원	-8606
▁잠옷	-8607
▁조립	-8608
▁진작	-8609
▁질굼	-8610
▁짜식	-8611
▁짤랐	-8612
▁채식	-8613
▁채팅	-8614
▁체하	-8615
▁파스	-8616
▁푸드	-8617
▁푸른	-8618
▁해운	-8619
▁향기	-8620
▁헌테	-8621
▁흘려	-8622
데이트	-8623
▁과수원	-8624
▁라이트	-8625
▁물려받	-8626
▁복숭아	-8627
▁스피커	-8628
▁쓸라고	-8629
▁아울렛	-8630
▁어두워	-8631
▁여드름	-8632
▁오디션	-8633
▁일으키	-8634
▁잡아가	-8635
▁할수록	-8636
▁고춧가루	-8637
▁기달려야	-8638
▁더라고이	-8639
▁들으면서	-8640
▁즌화해서	-8641
▁듀	-8642
▁붑	-8643
다녔	-8644
돗개	-8645
벌레	-8646
비슷	-8647
포트	-8648
회전	-8649
▁골고	-8650
▁괴물	-8651
▁그먼	-8652
▁끊기	-8653
▁난개	-8654
▁낭중	-8655
▁높여	-8656
▁도박	-8657
▁두껍	-8658
▁드물	-8659
▁들깨	-8660
▁때릴	-8661
▁리스	-8662
▁말린	-8663
▁면세	-8664
▁몸뚱	-8665
▁문구	-8666
▁비켜	-8667
▁비판	-8668
▁사월	-8669
▁수비	-8670
▁스터	-8671
▁식기	-8672
▁실컷	-8673
▁썼었	-8674
▁어둡	-8675
▁언덕	-8676
▁요일	-8677
▁우예	-8678
▁우정	-8679
▁위쪽	-8680
▁유혹	-8681
▁인강	-8682
▁일제	-8683
▁자르	-8684
▁자자	-8685
▁저딴	-8686
▁전개	-8687
▁전지	-8688
▁증이	-8689
▁지간	-8690
▁지배	-8691
▁쪽팔	-8692
▁초장	-8693
▁츳날	-8694
▁치아	-8695
▁하문	-8696
▁합병	-8697
▁해내	-8698
▁거시기	-8699
▁더라면	-8700
▁된장국	-8701
▁매달리	-8702
▁반공일	-8703
▁배고픈	-8704
▁사라진	-8705
▁알아볼	-8706
▁으신가	-8707
▁정류장	-8708
▁진돗개	-8709
▁징그럽	-8710
▁털어놓	-8711
▁향신료	-8712
▁헷갈리	-8713
▁다니까요	-8714
▁하루하루	-8715
▁즌화하라우	-8716
게임	-8717
긴다	-8718
답시	-8719
미리	-8720
부지	-8721
▁가찹	-8722
▁간덴	-8723
▁경고	-8724
▁고전	-8725
▁과실	-8726
▁기왕	-8727
▁나기	-8728
▁내복	-8729
▁내세	-8730
▁노민	-8731
▁늘려	-8732
▁니야	-8733
▁담백	-8734
▁답장	-8735
▁더울	-8736
▁렌지	-8737
▁리터	-8738
▁맛나	-8739
▁뭘러	-8740
▁발레	-8741
▁밥맛	-8742
▁분기	-8743
▁불평	-8744
▁산타	-8745
▁살릴	-8746
▁새싹	-8747
▁생존	-8748
▁설문	-8749
▁소송	-8750
▁시사	-8751
▁식전	-8752
▁여럿	-8753
▁연봉	-8754
▁영감	-8755
▁우려	-8756
▁이문	-8757
▁잠바	-8758
▁잡힌	-8759
▁저사	-8760
▁청양	-8761
▁코너	-8762
▁토하	-8763
▁폭발	-8764
▁해보	-8765
▁화났	-8766
▁흐리	-8767
▁가벼워	-8768
▁속눈썹	-8769
▁신천지	-8770
▁어거지	-8771
▁이래두	-8772
▁진다구	-8773
▁했었었	-8774
▁한다던가	-8775
▁퓨	-8776
엄마	-8777
연히	-8778
지만	-8779
퇴근	-8780
▁간절	-8781
▁고가	-8782
▁고운	-8783
▁관점	-8784
▁괜한	-8785
▁깔려	-8786
▁내구	-8787
▁놨다	-8788
▁놨었	-8789
▁대여	-8790
▁더나	-8791
▁도세	-8792
▁둬야	-8793
▁라가	-8794
▁무늬	-8795
▁보물	-8796
▁부다	-8797
▁비난	-8798
▁손실	-8799
▁수선	-8800
▁숯불	-8801
▁스민	-8802
▁승진	-8803
▁시체	-8804
▁신상	-8805
▁싱글	-8806
▁쓴대	-8807
▁애도	-8808
▁요요	-8809
▁이별	-8810
▁이외	-8811
▁인증	-8812
▁일구	-8813
▁잡지	-8814
▁장구	-8815
▁장판	-8816
▁재질	-8817
▁지상	-8818
▁진주	-8819
▁짤렸	-8820
▁천국	-8821
▁첫눈	-8822
▁통계	-8823
▁투명	-8824
▁파랑	-8825
▁하모	-8826
▁힘내	-8827
니데이	-8828
▁건드리	-8829
▁고마웠	-8830
▁그리워	-8831
▁느냐구	-8832
▁더니만	-8833
▁배터리	-8834
▁스크린	-8835
▁어쩌구	-8836
▁오렌지	-8837
▁우체국	-8838
▁으려면	-8839
▁지나갈	-8840
▁한국사	-8841
▁갈라면은	-8842
▁안타까워	-8843
번에	-8844
어든	-8845
지능	-8846
▁감싸	-8847
▁권력	-8848
▁급여	-8849
▁껴입	-8850
▁난데	-8851
▁난증	-8852
▁노하	-8853
▁논문	-8854
▁담궈	-8855
▁러브	-8856
▁만구	-8857
▁맹이	-8858
▁물품	-8859
▁민주	-8860
▁반납	-8861
▁발언	-8862
▁번개	-8863
▁부디	-8864
▁분가	-8865
▁비누	-8866
▁비료	-8867
▁승리	-8868
▁실감	-8869
▁쏟아	-8870
▁아자	-8871
▁앉혀	-8872
▁앞뒤	-8873
▁어미	-8874
▁업그	-8875
▁열렸	-8876
▁우러	-8877
▁의존	-8878
▁이중	-8879
▁인하	-8880
▁일리	-8881
▁일만	-8882
▁잔디	-8883
▁증명	-8884
▁커트	-8885
▁툭툭	-8886
▁허전	-8887
▁현빈	-8888
▁갔다왔	-8889
▁겅허댄	-8890
▁겅허믄	-8891
▁그래유	-8892
▁그저께	-8893
▁는구만	-8894
▁반가워	-8895
▁양아치	-8896
▁어려우	-8897
▁운동화	-8898
▁을려면	-8899
▁찾아볼	-8900
▁출퇴근	-8901
▁클래스	-8902
▁파란색	-8903
▁그럼에도	-8904
▁인공지능	-8905
▁업그레이드	-8906
▁깬	-8907
▁뗘	-8908
▁휙	-8909
돌이	-8910
마리	-8911
습기	-8912
어마	-8913
▁가디	-8914
▁가여	-8915
▁각지	-8916
▁강박	-8917
▁거두	-8918
▁고사	-8919
▁구독	-8920
▁나세	-8921
▁나야	-8922
▁남잔	-8923
▁내향	-8924
▁느긋	-8925
▁는걸	-8926
▁다던	-8927
▁도쿄	-8928
▁뒤돌	-8929
▁락한	-8930
▁말렸	-8931
▁명의	-8932
▁명장	-8933
▁미수	-8934
▁보완	-8935
▁본디	-8936
▁빌라	-8937
▁사여	-8938
▁서마	-8939
▁선뜻	-8940
▁소파	-8941
▁실물	-8942
▁싸돌	-8943
▁억양	-8944
▁여가	-8945
▁영역	-8946
▁영혼	-8947
▁용량	-8948
▁이요	-8949
▁조연	-8950
▁주라	-8951
▁주연	-8952
▁줄일	-8953
▁중성	-8954
▁지선	-8955
▁천재	-8956
▁캐슬	-8957
▁혼수	-8958
▁휴게	-8959
▁괜차녀	-8960
▁답니다	-8961
▁두꺼운	-8962
▁뚜가리	-8963
▁망가지	-8964
▁발바닥	-8965
▁벌거지	-8966
▁산다구	-8967
▁스위스	-8968
▁아무거	-8969
▁운동회	-8970
▁운전자	-8971
▁찌지개	-8972
▁체육관	-8973
▁춧가루	-8974
▁친해졌	-8975
▁학생회	-8976
▁상관없이	-8977
▁악세사리	-8978
▁어마어마	-8979
▁뜸	-8980
▁퀄	-8981
가짐	-8982
끼리	-8983
무니	-8984
셔츠	-8985
수기	-8986
수수	-8987
시장	-8988
코인	-8989
▁가제	-8990
▁기쁜	-8991
▁낭만	-8992
▁낮잠	-8993
▁놀랍	-8994
▁당허	-8995
▁도꾸	-8996
▁될꼬	-8997
▁드림	-8998
▁때우	-8999
▁마래	-9000
▁마비	-9001
▁무탄	-9002
▁뭘까	-9003
▁반항	-9004
▁배움	-9005
▁백마	-9006
▁법원	-9007
▁변기	-9008
▁뻔한	-9009
▁뿐이	-9010
▁사타	-9011
▁소음	-9012
▁스프	-9013
▁실현	-9014
▁아동	-9015
▁아드	-9016
▁아토	-9017
▁어특	-9018
▁오도	-9019
▁오사	-9020
▁인날	-9021
▁자요	-9022
▁장민	-9023
▁정선	-9024
▁주전	-9025
▁집세	-9026
▁쪼개	-9027
▁차마	-9028
▁청구	-9029
▁튀겨	-9030
▁틀림	-9031
▁하래	-9032
▁항시	-9033
▁가져다	-9034
▁그르치	-9035
▁넘어간	-9036
▁두려움	-9037
▁부러야	-9038
▁설렁탕	-9039
▁안다고	-9040
▁알아본	-9041
▁이래라	-9042
▁제정신	-9043
▁쫓아가	-9044
▁하얀색	-9045
▁한대는	-9046
▁국회의원	-9047
▁무서워하	-9048
▁비트코인	-9049
▁업데이트	-9050
▁할라면은	-9051
▁훼	-9052
갑다	-9053
넘기	-9054
데리	-9055
들여	-9056
무지	-9057
소년	-9058
습관	-9059
▁가모	-9060
▁가세	-9061
▁굉장	-9062
▁교훈	-9063
▁그랑	-9064
▁근래	-9065
▁글루	-9066
▁꾸리	-9067
▁는진	-9068
▁달기	-9069
▁더웠	-9070
▁도민	-9071
▁동산	-9072
▁동성	-9073
▁땜시	-9074
▁리민	-9075
▁마세	-9076
▁맞췄	-9077
▁모구	-9078
▁모음	-9079
▁문대	-9080
▁바대	-9081
▁버틸	-9082
▁변비	-9083
▁보스	-9084
▁부추	-9085
▁생소	-9086
▁섬세	-9087
▁센스	-9088
▁소홀	-9089
▁송이	-9090
▁순정	-9091
▁순천	-9092
▁스캔	-9093
▁슬펐	-9094
▁식빵	-9095
▁썩이	-9096
▁알뜰	-9097
▁여태	-9098
▁오브	-9099
▁원했	-9100
▁의상	-9101
▁이눔	-9102
▁일주	-9103
▁잡혔	-9104
▁접해	-9105
▁져요	-9106
▁죽였	-9107
▁짠하	-9108
▁칼슘	-9109
▁코딩	-9110
▁하곤	-9111
▁하수	-9112
▁함서	-9113
▁혼란	-9114
▁화재	-9115
▁환영	-9116
▁효도	-9117
▁고등과	-9118
▁고쳐야	-9119
▁그래도	-9120
▁넘어오	-9121
▁돈가스	-9122
▁마카롱	-9123
▁불러야	-9124
▁사실상	-9125
▁사이다	-9126
▁사타구	-9127
▁속상한	-9128
▁스러울	-9129
▁식습관	-9130
▁써야지	-9131
▁알려져	-9132
▁어래이	-9133
▁이모부	-9134
▁장학금	-9135
▁졸업식	-9136
▁찢어지	-9137
▁참기름	-9138
▁퀄리티	-9139
▁몸뚱아리	-9140
▁후라이팬	-9141
라는	-9142
붙이	-9143
서니	-9144
으민	-9145
을루	-9146
즈막	-9147
▁간격	-9148
▁객관	-9149
▁고랑	-9150
▁규제	-9151
▁기반	-9152
▁꺼냈	-9153
▁낮추	-9154
▁돌이	-9155
▁동쪽	-9156
▁되루	-9157
▁들락	-9158
▁땅콩	-9159
▁뜨끈	-9160
▁마크	-9161
▁망할	-9162
▁망해	-9163
▁몰리	-9164
▁부주	-9165
▁분노	-9166
▁비중	-9167
▁선전	-9168
▁세웠	-9169
▁순한	-9170
▁스런	-9171
▁시려	-9172
▁아펐	-9173
▁아픔	-9174
▁애지	-9175
▁오로	-9176
▁옮겼	-9177
▁왕복	-9178
▁외가	-9179
▁우기	-9180
▁우로	-9181
▁유채	-9182
▁으마	-9183
▁이종	-9184
▁인력	-9185
▁일나	-9186
▁전용	-9187
▁전형	-9188
▁정당	-9189
▁정했	-9190
▁조림	-9191
▁주이	-9192
▁중대	-9193
▁지겨	-9194
▁찜질	-9195
▁축복	-9196
▁출석	-9197
▁코믹	-9198
▁팔찌	-9199
▁패드	-9200
▁한매	-9201
▁합치	-9202
▁해실	-9203
▁해줄	-9204
▁헌지	-9205
▁확장	-9206
▁후추	-9207
▁다마는	-9208
▁대체로	-9209
▁돌아서	-9210
▁락하게	-9211
▁립스틱	-9212
▁브라운	-9213
▁시누이	-9214
▁싫어하	-9215
▁십디다	-9216
▁어딘지	-9217
▁크다란	-9218
▁트렌드	-9219
▁스러워서	-9220
▁스케이트	-9221
▁스파게티	-9222
▁어린아이	-9223
▁에버랜드	-9224
▁좋아한다	-9225
▁늑	-9226
댕이	-9227
러레	-9228
린데	-9229
보기	-9230
스팅	-9231
어드	-9232
으로	-9233
제이	-9234
텐데	-9235
▁건네	-9236
▁건드	-9237
▁고망	-9238
▁관찰	-9239
▁교과	-9240
▁노형	-9241
▁느네	-9242
▁데릴	-9243
▁도독	-9244
▁둘레	-9245
▁떠날	-9246
▁뛰쳐	-9247
▁몹시	-9248
▁무용	-9249
▁밲에	-9250
▁버즈	-9251
▁벅스	-9252
▁별명	-9253
▁보약	-9254
▁부스	-9255
▁비웃	-9256
▁비지	-9257
▁사교	-9258
▁새해	-9259
▁섹시	-9260
▁시렁	-9261
▁신간	-9262
▁악마	-9263
▁애국	-9264
▁역활	-9265
▁영구	-9266
▁유익	-9267
▁이병	-9268
▁이터	-9269
▁자릴	-9270
▁제부	-9271
▁준단	-9272
▁진통	-9273
▁집집	-9274
▁착허	-9275
▁추적	-9276
▁치고	-9277
▁치르	-9278
▁타인	-9279
▁터미	-9280
▁퍼져	-9281
▁퍼지	-9282
▁피드	-9283
▁한꺼	-9284
▁호강	-9285
▁가져갔	-9286
▁갈까요	-9287
▁끼어들	-9288
▁느껴질	-9289
▁돌려서	-9290
▁들으면	-9291
▁모니터	-9292
▁보호사	-9293
▁부침개	-9294
▁뿌러지	-9295
▁속상해	-9296
▁스케일	-9297
▁아까워	-9298
▁아토피	-9299
▁피부과	-9300
▁해운대	-9301
▁이래저래	-9302
▁이루어지	-9303
▁한꺼번에	-9304
구먼	-9305
다이	-9306
따라	-9307
마이	-9308
투맨	-9309
▁간혹	-9310
▁강력	-9311
▁고야	-9312
▁근본	-9313
▁깜깜	-9314
▁끙끙	-9315
▁끝장	-9316
▁낸다	-9317
▁놓여	-9318
▁단맛	-9319
▁담구	-9320
▁대들	-9321
▁두구	-9322
▁두어	-9323
▁따님	-9324
▁라네	-9325
▁마고	-9326
▁마날	-9327
▁마빡	-9328
▁모태	-9329
▁문서	-9330
▁뭐시	-9331
▁방지	-9332
▁붙였	-9333
▁블라	-9334
▁비추	-9335
▁사놓	-9336
▁사모	-9337
▁사사	-9338
▁산시	-9339
▁세차	-9340
▁스튜	-9341
▁실까	-9342
▁심부	-9343
▁아반	-9344
▁악화	-9345
▁안게	-9346
▁야랑	-9347
▁약물	-9348
▁약수	-9349
▁어망	-9350
▁였잖	-9351
▁영장	-9352
▁우태	-9353
▁전대	-9354
▁정권	-9355
▁조우	-9356
▁줄기	-9357
▁참외	-9358
▁챔피	-9359
▁출시	-9360
▁탈모	-9361
▁하여	-9362
▁핼미	-9363
▁홍어	-9364
▁화사	-9365
▁흑인	-9366
▁공기업	-9367
▁괜잖다	-9368
▁구미호	-9369
▁귀걸이	-9370
▁그만둬	-9371
▁까다롭	-9372
▁다녀올	-9373
▁다잖아	-9374
▁댕겨서	-9375
▁따라와	-9376
▁떠올르	-9377
▁리까리	-9378
▁보따리	-9379
▁아무런	-9380
▁연락처	-9381
▁오메가	-9382
▁오사카	-9383
▁이지아	-9384
▁일수록	-9385
▁초콜릿	-9386
▁충청도	-9387
▁토깽이	-9388
▁할려는	-9389
▁들어와서	-9390
▁비슷비슷	-9391
▁잃어버렸	-9392
▁찾아다니	-9393
▁합니데이	-9394
▁깽	-9395
다지	-9396
르트	-9397
빨리	-9398
운서	-9399
▁강지	-9400
▁갖추	-9401
▁거칠	-9402
▁게으	-9403
▁관장	-9404
▁구찌	-9405
▁궁기	-9406
▁논리	-9407
▁늦잠	-9408
▁니들	-9409
▁대추	-9410
▁대파	-9411
▁도중	-9412
▁동글	-9413
▁들렀	-9414
▁땡길	-9415
▁런던	-9416
▁리듬	-9417
▁맙서	-9418
▁매두	-9419
▁몸살	-9420
▁무역	-9421
▁바깠	-9422
▁발휘	-9423
▁보롬	-9424
▁불가	-9425
▁비오	-9426
▁삐뚤	-9427
▁사막	-9428
▁사표	-9429
▁삼계	-9430
▁새겨	-9431
▁수집	-9432
▁순하	-9433
▁스킬	-9434
▁슬픔	-9435
▁시티	-9436
▁신구	-9437
▁싱겁	-9438
▁써라	-9439
▁써져	-9440
▁야죠	-9441
▁양히	-9442
▁온나	-9443
▁올지	-9444
▁옮길	-9445
▁외삼	-9446
▁은재	-9447
▁이내	-9448
▁이력	-9449
▁이쁠	-9450
▁익혀	-9451
▁일세	-9452
▁자민	-9453
▁자상	-9454
▁잔거	-9455
▁장치	-9456
▁조이	-9457
▁조회	-9458
▁창의	-9459
▁초라	-9460
▁충돌	-9461
▁충동	-9462
▁치울	-9463
▁카운	-9464
▁크라	-9465
▁타령	-9466
▁포켓	-9467
▁학자	-9468
▁허니	-9469
▁괴로워	-9470
▁그래픽	-9471
▁돌아갔	-9472
▁동창회	-9473
▁맨투맨	-9474
▁미워하	-9475
▁박보검	-9476
▁배부르	-9477
▁서서히	-9478
▁소라리	-9479
▁시부모	-9480
▁시청자	-9481
▁아픈데	-9482
▁오에스	-9483
▁자구요	-9484
▁조그만	-9485
▁큰언니	-9486
▁키운다	-9487
▁걸립니까	-9488
▁산시금치	-9489
▁아나운서	-9490
▁괄	-9491
버님	-9492
소연	-9493
저리	-9494
▁간직	-9495
▁개리	-9496
▁거치	-9497
▁겹쳐	-9498
▁고저	-9499
▁골랐	-9500
▁공급	-9501
▁교체	-9502
▁까딱	-9503
▁꼰대	-9504
▁나쁠	-9505
▁내놨	-9506
▁내사	-9507
▁넘겼	-9508
▁놀려	-9509
▁다방	-9510
▁드간	-9511
▁들르	-9512
▁따먹	-9513
▁땡땡	-9514
▁뜬금	-9515
▁레저	-9516
▁마들	-9517
▁모하	-9518
▁보급	-9519
▁봉가	-9520
▁삐지	-9521
▁사유	-9522
▁서사	-9523
▁성의	-9524
▁소그	-9525
▁소변	-9526
▁수염	-9527
▁실적	-9528
▁심란	-9529
▁쌓였	-9530
▁에겐	-9531
▁연재	-9532
▁예단	-9533
▁와시	-9534
▁요인	-9535
▁이스	-9536
▁이억	-9537
▁인심	-9538
▁일치	-9539
▁전설	-9540
▁죽인	-9541
▁준께	-9542
▁지겹	-9543
▁지오	-9544
▁짠지	-9545
▁창업	-9546
▁초마	-9547
▁출세	-9548
▁친다	-9549
▁킹덤	-9550
▁타워	-9551
▁테슬	-9552
▁팥죽	-9553
▁패러	-9554
▁핵심	-9555
▁행보	-9556
▁허용	-9557
▁환기	-9558
대가리	-9559
▁고무줄	-9560
▁그르믄	-9561
▁그리고	-9562
▁그만둔	-9563
▁등록금	-9564
▁똥그랗	-9565
▁모갱이	-9566
▁부담감	-9567
▁삼계탕	-9568
▁수시로	-9569
▁어울린	-9570
▁태권도	-9571
▁터미널	-9572
▁한다기	-9573
▁가전제품	-9574
▁들어간다	-9575
▁쓰레기통	-9576
▁에스에프	-9577
▁프리미엄	-9578
▁렛	-9579
▁쌕	-9580
▁텅	-9581
▁튿	-9582
다발	-9583
런스	-9584
바탕	-9585
버릴	-9586
보내	-9587
브리	-9588
어른	-9589
절기	-9590
▁가락	-9591
▁가망	-9592
▁가하	-9593
▁각재	-9594
▁경도	-9595
▁경사	-9596
▁고란	-9597
▁공군	-9598
▁공짜	-9599
▁교시	-9600
▁그눔	-9601
▁그럭	-9602
▁꼬셔	-9603
▁담겨	-9604
▁라오	-9605
▁러서	-9606
▁막창	-9607
▁맞이	-9608
▁명작	-9609
▁목구	-9610
▁바삭	-9611
▁백수	-9612
▁버튼	-9613
▁베락	-9614
▁병행	-9615
▁부릴	-9616
▁빡쎄	-9617
▁산후	-9618
▁스탠	-9619
▁시라	-9620
▁시행	-9621
▁식혜	-9622
▁실비	-9623
▁십자	-9624
▁씨름	-9625
▁양산	-9626
▁에라	-9627
▁연설	-9628
▁연필	-9629
▁왐신	-9630
▁우왕	-9631
▁위축	-9632
▁은예	-9633
▁인내	-9634
▁인맥	-9635
▁자영	-9636
▁장롱	-9637
▁재집	-9638
▁쟁여	-9639
▁제자	-9640
▁졌어	-9641
▁주서	-9642
▁지녁	-9643
▁천마	-9644
▁천천	-9645
▁추진	-9646
▁콧물	-9647
▁탄다	-9648
▁폐쇄	-9649
▁환갑	-9650
십시오	-9651
▁그러구	-9652
▁노하우	-9653
▁담당자	-9654
▁배불러	-9655
▁생긴다	-9656
▁소세지	-9657
▁수수료	-9658
▁아반떼	-9659
▁어지럽	-9660
▁언젠간	-9661
▁주방장	-9662
▁진즉에	-9663
▁집들이	-9664
▁태어날	-9665
▁테슬라	-9666
▁팔로우	-9667
▁포스터	-9668
▁마음가짐	-9669
▁아시당초	-9670
▁오피스텔	-9671
▁닐	-9672
▁웰	-9673
▁젯	-9674
▁첩	-9675
개서	-9676
랑이	-9677
르륵	-9678
뿐히	-9679
양이	-9680
턴트	-9681
톡스	-9682
▁간간	-9683
▁건전	-9684
▁국사	-9685
▁궁합	-9686
▁그루	-9687
▁끝낼	-9688
▁나시	-9689
▁내색	-9690
▁는군	-9691
▁단편	-9692
▁담그	-9693
▁당직	-9694
▁두룩	-9695
▁랐네	-9696
▁려던	-9697
▁말짱	-9698
▁망한	-9699
▁맽기	-9700
▁명확	-9701
▁모실	-9702
▁못지	-9703
▁바글	-9704
▁바늘	-9705
▁바뿌	-9706
▁방면	-9707
▁번역	-9708
▁불런	-9709
▁빠이	-9710
▁상세	-9711
▁생생	-9712
▁설날	-9713
▁소낭	-9714
▁슬기	-9715
▁시트	-9716
▁실업	-9717
▁아후	-9718
▁애월	-9719
▁어학	-9720
▁언급	-9721
▁엄두	-9722
▁우물	-9723
▁우티	-9724
▁우편	-9725
▁입덧	-9726
▁자국	-9727
▁잔차	-9728
▁장손	-9729
▁잽히	-9730
▁졌었	-9731
▁조치	-9732
▁줄려	-9733
▁쭈물	-9734
▁차갑	-9735
▁칠월	-9736
▁코메	-9737
▁쿼트	-9738
▁타일	-9739
▁택할	-9740
▁팝콘	-9741
▁페북	-9742
▁표지	-9743
▁할튼	-9744
▁해민	-9745
▁해선	-9746
▁화투	-9747
▁후원	-9748
▁흘르	-9749
러워서	-9750
▁그런대	-9751
▁는디야	-9752
▁드러나	-9753
▁뛰어난	-9754
▁아리랑	-9755
▁애새끼	-9756
▁어디여	-9757
▁이빠이	-9758
▁자영업	-9759
▁전단지	-9760
▁전시회	-9761
▁종아리	-9762
▁천천히	-9763
▁텔레비	-9764
▁퇴직금	-9765
▁할라면	-9766
▁비즈니스	-9767
▁외할머니	-9768
▁궂	-9769
▁뀌	-9770
래머	-9771
메기	-9772
서야	-9773
장판	-9774
지기	-9775
카드	-9776
카이	-9777
튀김	-9778
팽이	-9779
피아	-9780
▁거꾸	-9781
▁겅햄	-9782
▁공구	-9783
▁구덕	-9784
▁구래	-9785
▁글서	-9786
▁글시	-9787
▁기민	-9788
▁나미	-9789
▁나제	-9790
▁다나	-9791
▁당번	-9792
▁라요	-9793
▁랬지	-9794
▁마나	-9795
▁맞수	-9796
▁맞춤	-9797
▁매직	-9798
▁모의	-9799
▁모집	-9800
▁묻혀	-9801
▁번갈	-9802
▁복싱	-9803
▁본능	-9804
▁본단	-9805
▁비씨	-9806
▁빛나	-9807
▁삐졌	-9808
▁사달	-9809
▁사물	-9810
▁사오	-9811
▁삼각	-9812
▁새삼	-9813
▁샘플	-9814
▁서쪽	-9815
▁수목	-9816
▁스팀	-9817
▁시들	-9818
▁시비	-9819
▁시위	-9820
▁실화	-9821
▁씁쓸	-9822
▁여운	-9823
▁여잉	-9824
▁요론	-9825
▁워라	-9826
▁워크	-9827
▁워킹	-9828
▁원두	-9829
▁으리	-9830
▁의경	-9831
▁이날	-9832
▁임재	-9833
▁있이	-9834
▁잘나	-9835
▁장이	-9836
▁재활	-9837
▁정착	-9838
▁지으	-9839
▁지침	-9840
▁챙겼	-9841
▁쳐도	-9842
▁촉촉	-9843
▁친가	-9844
▁퀴즈	-9845
▁크루	-9846
▁파괴	-9847
▁하관	-9848
▁하사	-9849
▁하하	-9850
▁한강	-9851
▁햇볕	-9852
▁활기	-9853
으니까	-9854
▁간다고	-9855
▁겅허멍	-9856
▁골라서	-9857
▁다닌다	-9858
▁다던지	-9859
▁동물원	-9860
▁라니께	-9861
▁멀리서	-9862
▁바이트	-9863
▁발개서	-9864
▁안쓰럽	-9865
▁옥수수	-9866
▁완저히	-9867
▁자니까	-9868
▁즌화는	-9869
▁직장인	-9870
▁챔피언	-9871
▁챙겨서	-9872
▁초콜렛	-9873
▁콜라겐	-9874
▁트럼프	-9875
▁플러스	-9876
▁했으면	-9877
▁스타트업	-9878
▁여보세요	-9879
▁카카오톡	-9880
▁할아바이	-9881
▁꼉	-9882
▁렉	-9883
▁쨌	-9884
걸음	-9885
몬드	-9886
미터	-9887
의사	-9888
젱이	-9889
체능	-9890
▁가계	-9891
▁게장	-9892
▁고인	-9893
▁광경	-9894
▁구선	-9895
▁그늘	-9896
▁나았	-9897
▁뒤쪽	-9898
▁드름	-9899
▁들마	-9900
▁띄워	-9901
▁라먼	-9902
▁라야	-9903
▁말썽	-9904
▁맡길	-9905
▁맥북	-9906
▁면회	-9907
▁못생	-9908
▁무과	-9909
▁미신	-9910
▁박지	-9911
▁방안	-9912
▁베기	-9913
▁벤츠	-9914
▁볼꼬	-9915
▁불닭	-9916
▁비쌀	-9917
▁뺏기	-9918
▁뿌시	-9919
▁사대	-9920
▁선정	-9921
▁수원	-9922
▁스토	-9923
▁스푼	-9924
▁쌂아	-9925
▁아판	-9926
▁안마	-9927
▁알라	-9928
▁어스	-9929
▁온단	-9930
▁올른	-9931
▁완화	-9932
▁읎이	-9933
▁이네	-9934
▁이순	-9935
▁이신	-9936
▁이영	-9937
▁일회	-9938
▁정자	-9939
▁정한	-9940
▁중매	-9941
▁지께	-9942
▁지분	-9943
▁지성	-9944
▁지실	-9945
▁지친	-9946
▁진열	-9947
▁질색	-9948
▁쪽지	-9949
▁착용	-9950
▁천안	-9951
▁천하	-9952
▁체리	-9953
▁체얌	-9954
▁트레	-9955
▁팔려	-9956
▁학번	-9957
▁학부	-9958
▁확고	-9959
▁확보	-9960
▁흉터	-9961
▁가시내	-9962
▁갈려구	-9963
▁곹으민	-9964
▁그다가	-9965
▁기름기	-9966
▁꼬맹이	-9967
▁나눠져	-9968
▁나이트	-9969
▁낭거지	-9970
▁노가다	-9971
▁데려왔	-9972
▁떨어뜨	-9973
▁멜로디	-9974
▁물놀이	-9975
▁에이치	-9976
▁예체능	-9977
▁음식물	-9978
▁자취방	-9979
▁정신없	-9980
▁취해서	-9981
▁클라이	-9982
▁하기사	-9983
▁하드만	-9984
▁할래요	-9985
▁환절기	-9986
▁디자이너	-9987
▁받아들여	-9988
▁잊어버렸	-9989
▁셜	-9990
난다	-9991
디어	-9992
러치	-9993
로이	-9994
른다	-9995
바다	-9996
박질	-9997
▁강했	-9998
▁고스	-9999
▁공고	-10000
▁공익	-10001
▁과대	-10002
▁관상	-10003
▁그릴	-10004
▁기죽	-10005
▁까묵	-10006
▁남산	-10007
▁단호	-10008
▁대끼	-10009
▁동내	-10010
▁동삼	-10011
▁둥글	-10012
▁딸구	-10013
▁로우	-10014
▁마동	-10015
▁막혔	-10016
▁만도	-10017
▁머무	-10018
▁머물	-10019
▁모디	-10020
▁방과	-10021
▁배틀	-10022
▁버쳐	-10023
▁법률	-10024
▁보메	-10025
▁부니	-10026
▁비개	-10027
▁빤짝	-10028
▁뻣뻣	-10029
▁서나	-10030
▁섞인	-10031
▁성함	-10032
▁세미	-10033
▁수요	-10034
▁수태	-10035
▁식비	-10036
▁에비	-10037
▁연동	-10038
▁염소	-10039
▁오키	-10040
▁올개	-10041
▁웅장	-10042
▁육회	-10043
▁의아	-10044
▁이레	-10045
▁잖우	-10046
▁재사	-10047
▁제수	-10048
▁주유	-10049
▁중점	-10050
▁지독	-10051
▁직구	-10052
▁짤려	-10053
▁채용	-10054
▁츤츤	-10055
▁칫솔	-10056
▁코피	-10057
▁파라	-10058
▁핏줄	-10059
▁해양	-10060
▁허단	-10061
▁호리	-10062
▁황금	-10063
▁회색	-10064
▁횟수	-10065
▁효자	-10066
▁후유	-10067
글거리	-10068
▁가져온	-10069
▁감자탕	-10070
▁게을러	-10071
▁공연장	-10072
▁그럴까	-10073
▁꽃다발	-10074
▁내려갈	-10075
▁는다면	-10076
▁마즈막	-10077
▁메세지	-10078
▁모른대	-10079
▁몰랐었	-10080
▁보인대	-10081
▁보험료	-10082
▁외삼촌	-10083
▁움직임	-10084
▁찬바람	-10085
▁화이트	-10086
▁미리미리	-10087
▁부끄러운	-10088
▁림	-10089
▁웠	-10090
거렸	-10091
년생	-10092
두부	-10093
라서	-10094
러리	-10095
스테	-10096
시럽	-10097
악산	-10098
운전	-10099
절이	-10100
지르	-10101
▁가물	-10102
▁가본	-10103
▁가성	-10104
▁가파	-10105
▁같혀	-10106
▁거린	-10107
▁거멍	-10108
▁건져	-10109
▁겅도	-10110
▁게나	-10111
▁경차	-10112
▁급해	-10113
▁꼬시	-10114
▁꽈게	-10115
▁끓인	-10116
▁날카	-10117
▁내마	-10118
▁내신	-10119
▁다오	-10120
▁달개	-10121
▁도루	-10122
▁동지	-10123
▁뚝뚝	-10124
▁레몬	-10125
▁로리	-10126
▁리얼	-10127
▁말년	-10128
▁망지	-10129
▁매체	-10130
▁멩함	-10131
▁목록	-10132
▁몽골	-10133
▁무안	-10134
▁방황	-10135
▁보트	-10136
▁부풀	-10137
▁분식	-10138
▁브리	-10139
▁산거	-10140
▁산모	-10141
▁살피	-10142
▁상징	-10143
▁상쾌	-10144
▁새콤	-10145
▁손맛	-10146
▁수련	-10147
▁시루	-10148
▁시켠	-10149
▁신어	-10150
▁싱거	-10151
▁쑤시	-10152
▁아다	-10153
▁아빤	-10154
▁안부	-10155
▁압력	-10156
▁야도	-10157
▁열린	-10158
▁열흘	-10159
▁온난	-10160
▁원만	-10161
▁이언	-10162
▁이치	-10163
▁장시	-10164
▁전도	-10165
▁종로	-10166
▁주주	-10167
▁지문	-10168
▁지슬	-10169
▁출판	-10170
▁커져	-10171
▁쿠션	-10172
▁판사	-10173
▁항구	-10174
▁해구	-10175
▁허가	-10176
▁허도	-10177
▁협회	-10178
▁호적	-10179
라이더	-10180
▁거뿐히	-10181
▁그리스	-10182
▁난다구	-10183
▁내려올	-10184
▁내비두	-10185
▁도망갔	-10186
▁두드리	-10187
▁디테일	-10188
▁려면은	-10189
▁모가지	-10190
▁보건소	-10191
▁부조리	-10192
▁살펴보	-10193
▁세계관	-10194
▁속상했	-10195
▁쏟아지	-10196
▁알려진	-10197
▁어쩌다	-10198
▁엊그제	-10199
▁오락실	-10200
▁오래가	-10201
▁웨이브	-10202
▁쭐여서	-10203
▁찾아봐	-10204
▁친해질	-10205
▁코메디	-10206
▁키웠었	-10207
▁그래야지	-10208
▁쫓아다니	-10209
▁곽	-10210
▁획	-10211
거려	-10212
다수	-10213
모스	-10214
지션	-10215
치레	-10216
투스	-10217
▁가훈	-10218
▁각서	-10219
▁갑상	-10220
▁개무	-10221
▁거랑	-10222
▁거렸	-10223
▁경로	-10224
▁공갈	-10225
▁관중	-10226
▁구로	-10227
▁금전	-10228
▁기특	-10229
▁깁스	-10230
▁깨끼	-10231
▁꺼꾸	-10232
▁꽁치	-10233
▁꾸물	-10234
▁나인	-10235
▁나허	-10236
▁난마	-10237
▁남쪽	-10238
▁네일	-10239
▁노나	-10240
▁답변	-10241
▁대대	-10242
▁더듬	-10243
▁동구	-10244
▁동그	-10245
▁뒤늦	-10246
▁들을	-10247
▁디엠	-10248
▁래야	-10249
▁리가	-10250
▁말제	-10251
▁먹지	-10252
▁메기	-10253
▁무디	-10254
▁무례	-10255
▁밍크	-10256
▁바치	-10257
▁발자	-10258
▁배끼	-10259
▁벌려	-10260
▁본전	-10261
▁부시	-10262
▁부야	-10263
▁부채	-10264
▁뷰티	-10265
▁사니	-10266
▁사형	-10267
▁세운	-10268
▁세이	-10269
▁소망	-10270
▁숙이	-10271
▁습하	-10272
▁신서	-10273
▁씌워	-10274
▁악착	-10275
▁알람	-10276
▁애착	-10277
▁양육	-10278
▁어묵	-10279
▁어택	-10280
▁엠티	-10281
▁예매	-10282
▁옵션	-10283
▁요법	-10284
▁우시	-10285
▁의대	-10286
▁일방	-10287
▁임원	-10288
▁자두	-10289
▁자아	-10290
▁자지	-10291
▁잔나	-10292
▁적혀	-10293
▁절기	-10294
▁젤리	-10295
▁종식	-10296
▁지능	-10297
▁짜꾸	-10298
▁충고	-10299
▁침착	-10300
▁콩국	-10301
▁편식	-10302
▁포토	-10303
▁한우	-10304
▁해낼	-10305
▁혀야	-10306
▁휴직	-10307
이월드	-10308
페이지	-10309
▁가져야	-10310
▁걸린다	-10311
▁굼처럼	-10312
▁더구만	-10313
▁멋대루	-10314
▁버린다	-10315
▁부사장	-10316
▁사나이	-10317
▁세탁소	-10318
▁스티커	-10319
▁시간대	-10320
▁아이언	-10321
▁엄청나	-10322
▁주머이	-10323
▁지렁물	-10324
▁차이점	-10325
▁책임질	-10326
▁콘텐츠	-10327
▁티셔츠	-10328
▁후유증	-10329
▁흰머리	-10330
▁바리스타	-10331
▁보드게임	-10332
▁싸이월드	-10333
▁홈페이지	-10334
▁늬	-10335
▁렜	-10336
▁왈	-10337
▁펠	-10338
다닥	-10339
댓말	-10340
루룩	-10341
생각	-10342
성이	-10343
어로	-10344
▁가산	-10345
▁간신	-10346
▁갈매	-10347
▁군것	-10348
▁그럽	-10349
▁근역	-10350
▁기말	-10351
▁기뻤	-10352
▁끊임	-10353
▁남새	-10354
▁다곤	-10355
▁다투	-10356
▁닥치	-10357
▁당면	-10358
▁대굴	-10359
▁덴지	-10360
▁동사	-10361
▁동선	-10362
▁들키	-10363
▁따끔	-10364
▁딴지	-10365
▁른다	-10366
▁매음	-10367
▁못써	-10368
▁무우	-10369
▁미소	-10370
▁바고	-10371
▁바서	-10372
▁밤낮	-10373
▁버킷	-10374
▁빡센	-10375
▁소대	-10376
▁수용	-10377
▁수출	-10378
▁스노	-10379
▁씨래	-10380
▁액정	-10381
▁어염	-10382
▁엄서	-10383
▁엄시	-10384
▁요건	-10385
▁요게	-10386
▁우습	-10387
▁원금	-10388
▁원한	-10389
▁위대	-10390
▁작전	-10391
▁저마	-10392
▁저분	-10393
▁저약	-10394
▁조지	-10395
▁족족	-10396
▁주황	-10397
▁중도	-10398
▁지울	-10399
▁처박	-10400
▁체감	-10401
▁체조	-10402
▁타자	-10403
▁텃밭	-10404
▁판다	-10405
▁프랜	-10406
▁하노	-10407
▁하얘	-10408
▁함박	-10409
▁해본	-10410
▁헤미	-10411
▁화낼	-10412
▁황사	-10413
라이트	-10414
▁강생이	-10415
▁겅해난	-10416
▁고아원	-10417
▁꼭대기	-10418
▁마음먹	-10419
▁바꿔야	-10420
▁밥그릇	-10421
▁본다는	-10422
▁소설가	-10423
▁신데요	-10424
▁쓰러졌	-10425
▁아닌지	-10426
▁아시아	-10427
▁야구장	-10428
▁유리창	-10429
▁이병헌	-10430
▁이사장	-10431
▁이태원	-10432
▁정신줄	-10433
▁존댓말	-10434
▁크로스	-10435
▁프린터	-10436
▁히어로	-10437
▁결혼식장	-10438
▁그럴라고	-10439
▁돌아가실	-10440
▁들으니께	-10441
▁냇	-10442
▁렀	-10443
과수	-10444
내려	-10445
대문	-10446
스키	-10447
자식	-10448
전드	-10449
풍기	-10450
▁거창	-10451
▁거추	-10452
▁과감	-10453
▁구글	-10454
▁그던	-10455
▁금리	-10456
▁기저	-10457
▁깨져	-10458
▁깨졌	-10459
▁낯설	-10460
▁내민	-10461
▁널널	-10462
▁다래	-10463
▁대녔	-10464
▁덜렁	-10465
▁돈데	-10466
▁두근	-10467
▁등등	-10468
▁래나	-10469
▁마루	-10470
▁막판	-10471
▁모닝	-10472
▁묘사	-10473
▁방역	-10474
▁벽돌	-10475
▁별일	-10476
▁보래	-10477
▁보시	-10478
▁봐예	-10479
▁블록	-10480
▁비법	-10481
▁뻔하	-10482
▁사발	-10483
▁상업	-10484
▁상할	-10485
▁서기	-10486
▁세포	-10487
▁시세	-10488
▁시우	-10489
▁식용	-10490
▁신라	-10491
▁아셨	-10492
▁안겨	-10493
▁앙이	-10494
▁앞두	-10495
▁애시	-10496
▁앤데	-10497
▁어질	-10498
▁엄신	-10499
▁오냐	-10500
▁온통	-10501
▁이색	-10502
▁일병	-10503
▁일생	-10504
▁입수	-10505
▁자박	-10506
▁작은	-10507
▁잠수	-10508
▁전교	-10509
▁정마	-10510
▁정형	-10511
▁제재	-10512
▁조마	-10513
▁조종	-10514
▁주년	-10515
▁줄줄	-10516
▁진도	-10517
▁쨍쨍	-10518
▁쫄깃	-10519
▁차비	-10520
▁천둥	-10521
▁천연	-10522
▁체지	-10523
▁초가	-10524
▁총무	-10525
▁치장	-10526
▁칼치	-10527
▁큰딸	-10528
▁클릭	-10529
▁통닭	-10530
▁특색	-10531
▁피할	-10532
▁한옥	-10533
▁할리	-10534
▁허세	-10535
▁호칭	-10536
▁회수	-10537
로이드	-10538
테이션	-10539
▁갑상선	-10540
▁개그맨	-10541
▁거짓불	-10542
▁국과수	-10543
▁나아졌	-10544
▁낯바닥	-10545
▁다가왔	-10546
▁더워서	-10547
▁도자기	-10548
▁때려치	-10549
▁무서울	-10550
▁아파하	-10551
▁어버이	-10552
▁엘에이	-10553
▁읍니다	-10554
▁즌화해	-10555
▁집사람	-10556
▁집중력	-10557
▁짝사랑	-10558
▁쪼끄매	-10559
▁찾아갔	-10560
▁친해져	-10561
▁케이티	-10562
▁타고난	-10563
▁툭하면	-10564
▁피엑스	-10565
▁걸어다니	-10566
▁부드러운	-10567
▁블루투스	-10568
▁아들내미	-10569
▁영화배우	-10570
▁으니까는	-10571
▁으로부터	-10572
▁인스턴트	-10573
▁떳	-10574
▁씽	-10575
▁톨	-10576
느님	-10577
도우	-10578
레인	-10579
용차	-10580
▁개운	-10581
▁거릴	-10582
▁고락	-10583
▁국립	-10584
▁국산	-10585
▁국화	-10586
▁굴려	-10587
▁김선	-10588
▁깨운	-10589
▁꽂히	-10590
▁나르	-10591
▁날까	-10592
▁남사	-10593
▁놓쳤	-10594
▁눈깔	-10595
▁니리	-10596
▁단초	-10597
▁뎁혀	-10598
▁됭께	-10599
▁두유	-10600
▁따끈	-10601
▁딸린	-10602
▁때린	-10603
▁마중	-10604
▁막힐	-10605
▁매야	-10606
▁명상	-10607
▁명예	-10608
▁무침	-10609
▁미식	-10610
▁밝히	-10611
▁벌떡	-10612
▁벤가	-10613
▁볼게	-10614
▁봐줄	-10615
▁붙인	-10616
▁빠삭	-10617
▁산수	-10618
▁순식	-10619
▁슭이	-10620
▁시오	-10621
▁아낄	-10622
▁안가	-10623
▁안동	-10624
▁암말	-10625
▁약점	-10626
▁양석	-10627
▁얼룩	-10628
▁여왕	-10629
▁염치	-10630
▁영탁	-10631
▁오페	-10632
▁완이	-10633
▁외투	-10634
▁우야	-10635
▁우영	-10636
▁워메	-10637
▁위협	-10638
▁이식	-10639
▁인마	-10640
▁일행	-10641
▁작두	-10642
▁잔다	-10643
▁저릿	-10644
▁전철	-10645
▁제게	-10646
▁조요	-10647
▁주러	-10648
▁쥐정	-10649
▁진동	-10650
▁찍히	-10651
▁차린	-10652
▁체제	-10653
▁치웠	-10654
▁침체	-10655
▁폭탄	-10656
▁학벌	-10657
▁함덕	-10658
▁해대	-10659
▁헤매	-10660
▁협상	-10661
▁화목	-10662
▁계신데	-10663
▁군것질	-10664
▁그랬던	-10665
▁내려간	-10666
▁내버려	-10667
▁다든가	-10668
▁돼야지	-10669
▁들려서	-10670
▁뛰어가	-10671
▁레전드	-10672
▁면세점	-10673
▁버려라	-10674
▁비싼데	-10675
▁뿌럭지	-10676
▁생각날	-10677
▁술자리	-10678
▁여행사	-10679
▁우울해	-10680
▁재미나	-10681
▁졈신게	-10682
▁즐거워	-10683
▁찾아본	-10684
▁촌스럽	-10685
▁카운터	-10686
▁텐데요	-10687
▁파트너	-10688
▁한대요	-10689
▁할머님	-10690
▁내려와서	-10691
▁받아들일	-10692
▁시끄러워	-10693
▁으니까요	-10694
▁할려면은	-10695
▁끗	-10696
기념	-10697
드시	-10698
때기	-10699
소문	-10700
주게	-10701
창기	-10702
책감	-10703
▁간데	-10704
▁간병	-10705
▁고문	-10706
▁고물	-10707
▁고약	-10708
▁곡석	-10709
▁공산	-10710
▁구별	-10711
▁그깟	-10712
▁금새	-10713
▁김수	-10714
▁김영	-10715
▁꺼질	-10716
▁꽁꽁	-10717
▁나눌	-10718
▁나불	-10719
▁노화	-10720
▁대변	-10721
▁더더	-10722
▁등교	-10723
▁따듯	-10724
▁땅값	-10725
▁떨려	-10726
▁라잉	-10727
▁마아	-10728
▁매가	-10729
▁매워	-10730
▁먹히	-10731
▁모험	-10732
▁무쳐	-10733
▁물놀	-10734
▁물류	-10735
▁믹스	-10736
▁민폐	-10737
▁바티	-10738
▁벌벌	-10739
▁벨트	-10740
▁산골	-10741
▁산악	-10742
▁서랍	-10743
▁선보	-10744
▁선입	-10745
▁선진	-10746
▁세세	-10747
▁세울	-10748
▁식스	-10749
▁쌍대	-10750
▁쏠쏠	-10751
▁야아	-10752
▁어긋	-10753
▁어둔	-10754
▁엑소	-10755
▁원가	-10756
▁유월	-10757
▁은다	-10758
▁이타	-10759
▁인건	-10760
▁임금	-10761
▁저하	-10762
▁적합	-10763
▁전라	-10764
▁접할	-10765
▁지경	-10766
▁지로	-10767
▁지비	-10768
▁직설	-10769
▁짐승	-10770
▁짤러	-10771
▁처남	-10772
▁철수	-10773
▁추정	-10774
▁충실	-10775
▁친근	-10776
▁캐도	-10777
▁터리	-10778
▁편도	-10779
▁폭포	-10780
▁하우	-10781
▁한눈	-10782
▁한도	-10783
▁행방	-10784
▁개개이	-10785
▁건드려	-10786
▁걸려요	-10787
▁겨울철	-10788
▁고추장	-10789
▁관심사	-10790
▁깨끗이	-10791
▁나타날	-10792
▁노란색	-10793
▁는구먼	-10794
▁래니까	-10795
▁마동석	-10796
▁문화재	-10797
▁보여준	-10798
▁아침밥	-10799
▁오로지	-10800
▁외갓집	-10801
▁유기농	-10802
▁유부남	-10803
▁을래요	-10804
▁의해서	-10805
▁자부심	-10806
▁제주어	-10807
▁주저앉	-10808
▁줄넘기	-10809
▁쫓겨나	-10810
▁캐리어	-10811
▁컨텐츠	-10812
▁해야겠	-10813
▁해장국	-10814
▁괜잖다구	-10815
▁꼬락서니	-10816
▁속상해서	-10817
▁랠	-10818
▁칵	-10819
▁툴	-10820
갖고	-10821
니깐	-10822
니아	-10823
더기	-10824
도전	-10825
무사	-10826
바글	-10827
오빠	-10828
중간	-10829
줘야	-10830
▁감상	-10831
▁고와	-10832
▁골드	-10833
▁광장	-10834
▁구레	-10835
▁구려	-10836
▁금강	-10837
▁금합	-10838
▁기적	-10839
▁깡통	-10840
▁깥에	-10841
▁깨진	-10842
▁난로	-10843
▁내키	-10844
▁냑두	-10845
▁놔요	-10846
▁대꾸	-10847
▁데드	-10848
▁도랑	-10849
▁도수	-10850
▁도입	-10851
▁동굴	-10852
▁뒤처	-10853
▁따숩	-10854
▁라메	-10855
▁머린	-10856
▁무렵	-10857
▁미너	-10858
▁받드	-10859
▁보쌈	-10860
▁보직	-10861
▁복권	-10862
▁복합	-10863
▁본래	-10864
▁본받	-10865
▁볼께	-10866
▁볼테	-10867
▁부비	-10868
▁사가	-10869
▁삼국	-10870
▁상영	-10871
▁색감	-10872
▁색상	-10873
▁서민	-10874
▁소질	-10875
▁손대	-10876
▁수녀	-10877
▁수동	-10878
▁수산	-10879
▁승차	-10880
▁시그	-10881
▁싸리	-10882
▁쑤셔	-10883
▁애이	-10884
▁야물	-10885
▁없앨	-10886
▁여겨	-10887
▁여우	-10888
▁오반	-10889
▁오켄	-10890
▁외숙	-10891
▁우하	-10892
▁의류	-10893
▁이비	-10894
▁인쇄	-10895
▁일출	-10896
▁일화	-10897
▁임용	-10898
▁자대	-10899
▁자시	-10900
▁저닉	-10901
▁점검	-10902
▁지급	-10903
▁지면	-10904
▁집합	-10905
▁찬차	-10906
▁채울	-10907
▁초음	-10908
▁최초	-10909
▁츰이	-10910
▁캐치	-10911
▁테크	-10912
▁펄펄	-10913
▁평수	-10914
▁포르	-10915
▁풍기	-10916
▁항목	-10917
▁해볼	-10918
▁허자	-10919
▁확정	-10920
▁흥행	-10921
소년단	-10922
▁갈아타	-10923
▁강해서	-10924
▁꼭다리	-10925
▁나갔었	-10926
▁노니까	-10927
▁는데예	-10928
▁따라갔	-10929
▁뛰쳐나	-10930
▁로맨틱	-10931
▁메리트	-10932
▁메이드	-10933
▁몰아가	-10934
▁못생겼	-10935
▁박서방	-10936
▁반드시	-10937
▁범죄자	-10938
▁보라색	-10939
▁부어서	-10940
▁분다고	-10941
▁비린내	-10942
▁빌려서	-10943
▁수제비	-10944
▁순식간	-10945
▁스터디	-10946
▁스파이	-10947
▁오리지	-10948
▁올라올	-10949
▁울타리	-10950
▁웨이트	-10951
▁유니폼	-10952
▁죄책감	-10953
▁줄게요	-10954
▁찜질방	-10955
▁초창기	-10956
▁츰을루	-10957
▁표준어	-10958
▁하느님	-10959
▁해부렀	-10960
▁구석구석	-10961
▁무한도전	-10962
▁바글바글	-10963
▁보인다구	-10964
▁어울린다	-10965
▁으십니까	-10966
▁코스모스	-10967
▁방탄소년단	-10968
▁카트라이더	-10969
강지	-10970
도날	-10971
로워	-10972
시리	-10973
정민	-10974
텐도	-10975
▁가늘	-10976
▁가릴	-10977
▁공대	-10978
▁광안	-10979
▁괜찬	-10980
▁교무	-10981
▁권유	-10982
▁나도	-10983
▁남아	-10984
▁남원	-10985
▁납작	-10986
▁내쫓	-10987
▁노라	-10988
▁눈썰	-10989
▁니나	-10990
▁다든	-10991
▁다락	-10992
▁다짐	-10993
▁단단	-10994
▁달까	-10995
▁동동	-10996
▁두드	-10997
▁듬직	-10998
▁메주	-10999
▁멕였	-11000
▁물린	-11001
▁뭉쳐	-11002
▁미러	-11003
▁미장	-11004
▁민원	-11005
▁박힌	-11006
▁방콕	-11007
▁배출	-11008
▁버들	-11009
▁베개	-11010
▁비결	-11011
▁빙수	-11012
▁사골	-11013
▁사치	-11014
▁살대	-11015
▁상병	-11016
▁상호	-11017
▁서야	-11018
▁수험	-11019
▁숙성	-11020
▁시술	-11021
▁시애	-11022
▁식히	-11023
▁싫증	-11024
▁싱크	-11025
▁아으	-11026
▁아초	-11027
▁양가	-11028
▁엄수	-11029
▁엑셀	-11030
▁예금	-11031
▁예쁠	-11032
▁원고	-11033
▁유발	-11034
▁으란	-11035
▁일르	-11036
▁저절	-11037
▁전방	-11038
▁점차	-11039
▁젠가	-11040
▁졸려	-11041
▁줄지	-11042
▁쭈게	-11043
▁찔리	-11044
▁체스	-11045
▁칠판	-11046
▁카지	-11047
▁택한	-11048
▁폴더	-11049
▁풀릴	-11050
▁풍습	-11051
▁프레	-11052
▁해비	-11053
▁향하	-11054
▁험한	-11055
기념일	-11056
부인과	-11057
▁가야지	-11058
▁간호학	-11059
▁거북이	-11060
▁긴장감	-11061
▁눈싸움	-11062
▁느꼈었	-11063
▁늘어지	-11064
▁닌텐도	-11065
▁다이소	-11066
▁더러워	-11067
▁더블유	-11068
▁도망치	-11069
▁런닝맨	-11070
▁매운탕	-11071
▁밸런스	-11072
▁분홍색	-11073
▁스타킹	-11074
▁실제로	-11075
▁아래이	-11076
▁어쨌든	-11077
▁엥간히	-11078
▁예식장	-11079
▁장례식	-11080
▁적어도	-11081
▁제수씨	-11082
▁즌화를	-11083
▁체지방	-11084
▁타고나	-11085
▁테이크	-11086
▁하이고	-11087
▁할까봐	-11088
▁그라운드	-11089
▁산부인과	-11090
▁합니다만	-11091
▁해야겠다	-11092
도록	-11093
마개	-11094
보트	-11095
치마	-11096
▁가해	-11097
▁감옥	-11098
▁감탄	-11099
▁갖대	-11100
▁갠가	-11101
▁구한	-11102
▁기력	-11103
▁낙서	-11104
▁다크	-11105
▁단독	-11106
▁덴가	-11107
▁도매	-11108
▁된데	-11109
▁따듬	-11110
▁띄우	-11111
▁랜다	-11112
▁마의	-11113
▁맙써	-11114
▁머그	-11115
▁먹통	-11116
▁모드	-11117
▁모순	-11118
▁문과	-11119
▁문득	-11120
▁문새	-11121
▁바비	-11122
▁배변	-11123
▁배정	-11124
▁부네	-11125
▁부실	-11126
▁선가	-11127
▁쇼파	-11128
▁쉬울	-11129
▁슬쩍	-11130
▁심보	-11131
▁쌕쌕	-11132
▁아장	-11133
▁아찌	-11134
▁알약	-11135
▁알코	-11136
▁에도	-11137
▁오더	-11138
▁올바	-11139
▁요란	-11140
▁요원	-11141
▁원주	-11142
▁위자	-11143
▁유적	-11144
▁으유	-11145
▁이정	-11146
▁입지	-11147
▁자당	-11148
▁자루	-11149
▁저질	-11150
▁전남	-11151
▁정글	-11152
▁정문	-11153
▁주요	-11154
▁중개	-11155
▁중문	-11156
▁지긋	-11157
▁집대	-11158
▁찜찜	-11159
▁처가	-11160
▁커야	-11161
▁테러	-11162
▁토지	-11163
▁퇴사	-11164
▁폭식	-11165
▁폭폭	-11166
▁풍성	-11167
▁필료	-11168
▁한기	-11169
▁했다	-11170
▁헙써	-11171
▁헤엄	-11172
▁후진	-11173
라이딩	-11174
트리스	-11175
▁강동원	-11176
▁겅하믄	-11177
▁겅해그	-11178
▁겅허민	-11179
▁는디요	-11180
▁다녀요	-11181
▁다드라	-11182
▁당분간	-11183
▁드래두	-11184
▁따까리	-11185
▁뜻대로	-11186
▁라이프	-11187
▁모여서	-11188
▁바래다	-11189
▁밧데리	-11190
▁버려서	-11191
▁볼수록	-11192
▁부딪히	-11193
▁생활관	-11194
▁성취감	-11195
▁승용차	-11196
▁얼만데	-11197
▁요만큼	-11198
▁워낙이	-11199
▁전기차	-11200
▁중성화	-11201
▁지원금	-11202
▁짤라야	-11203
▁츤츤히	-11204
▁캐스팅	-11205
▁캐주얼	-11206
▁투자자	-11207
▁한다매	-11208
▁허구헌	-11209
▁그르니까	-11210
▁기다려요	-11211
▁더라니까	-11212
▁된다니까	-11213
▁따라다니	-11214
▁애시당초	-11215
▁밋	-11216
▁켰	-11217
랙스	-11218
블릿	-11219
사진	-11220
시스	-11221
아웃	-11222
으믄	-11223
조이	-11224
환경	-11225
▁강호	-11226
▁개두	-11227
▁거품	-11228
▁경매	-11229
▁경하	-11230
▁공모	-11231
▁구상	-11232
▁구슬	-11233
▁구울	-11234
▁권하	-11235
▁그물	-11236
▁금가	-11237
▁긍깐	-11238
▁껀가	-11239
▁꼬불	-11240
▁끄트	-11241
▁끈기	-11242
▁나선	-11243
▁나주	-11244
▁납치	-11245
▁내창	-11246
▁농고	-11247
▁놓쳐	-11248
▁눈길	-11249
▁뉴질	-11250
▁다소	-11251
▁단련	-11252
▁대량	-11253
▁도사	-11254
▁뒷바	-11255
▁드랴	-11256
▁라미	-11257
▁로드	-11258
▁망라	-11259
▁먹일	-11260
▁메레	-11261
▁모금	-11262
▁모슬	-11263
▁모일	-11264
▁못나	-11265
▁물들	-11266
▁반도	-11267
▁범벅	-11268
▁벨루	-11269
▁별장	-11270
▁보존	-11271
▁보채	-11272
▁복용	-11273
▁부린	-11274
▁부수	-11275
▁불고	-11276
▁블리	-11277
▁생계	-11278
▁성악	-11279
▁셔도	-11280
▁소박	-11281
▁스쳐	-11282
▁승마	-11283
▁시드	-11284
▁시중	-11285
▁식개	-11286
▁쓰레	-11287
▁쓰봉	-11288
▁야생	-11289
▁약밥	-11290
▁어젠	-11291
▁언가	-11292
▁얼추	-11293
▁여중	-11294
▁여친	-11295
▁완료	-11296
▁왔음	-11297
▁운행	-11298
▁원칙	-11299
▁융통	-11300
▁인치	-11301
▁임기	-11302
▁자갈	-11303
▁자궁	-11304
▁자막	-11305
▁장담	-11306
▁장벽	-11307
▁적정	-11308
▁절제	-11309
▁조폭	-11310
▁종료	-11311
▁죄인	-11312
▁주체	-11313
▁중등	-11314
▁지둥	-11315
▁지연	-11316
▁창원	-11317
▁촞아	-11318
▁충족	-11319
▁치수	-11320
▁코디	-11321
▁탄력	-11322
▁탄산	-11323
▁탄지	-11324
▁털털	-11325
▁파혼	-11326
▁포크	-11327
▁품질	-11328
▁학대	-11329
▁학비	-11330
▁휘떡	-11331
▁휴일	-11332
도리탕	-11333
▁갑니다	-11334
▁괜시리	-11335
▁그러면	-11336
▁기념품	-11337
▁노동자	-11338
▁더래두	-11339
▁되도록	-11340
▁들어서	-11341
▁또라이	-11342
▁뜨거워	-11343
▁라니깐	-11344
▁무사히	-11345
▁므리한	-11346
▁버버리	-11347
▁봥이네	-11348
▁수목원	-11349
▁신문지	-11350
▁약혼식	-11351
▁움직인	-11352
▁유난히	-11353
▁이파리	-11354
▁일부러	-11355
▁일어서	-11356
▁재방송	-11357
▁젓가락	-11358
▁정해서	-11359
▁즌처럼	-11360
▁초음파	-11361
▁친해진	-11362
▁태블릿	-11363
▁페인트	-11364
▁할텐데	-11365
▁겠다라는	-11366
▁뉴질랜드	-11367
▁닭도리탕	-11368
▁모의고사	-11369
▁어떤지를	-11370
▁한다던지	-11371
▁쁠	-11372
▁톱	-11373
▁툰	-11374
괴기	-11375
데레	-11376
렐라	-11377
봤었	-11378
외과	-11379
유럽	-11380
으나	-11381
커트	-11382
테롤	-11383
팡이	-11384
▁같애	-11385
▁개도	-11386
▁개차	-11387
▁거듭	-11388
▁거죽	-11389
▁계발	-11390
▁공평	-11391
▁기게	-11392
▁까탈	-11393
▁꼬막	-11394
▁꼬이	-11395
▁끄집	-11396
▁나옵	-11397
▁난방	-11398
▁남겼	-11399
▁냑이	-11400
▁니라	-11401
▁다칠	-11402
▁단축	-11403
▁담긴	-11404
▁대두	-11405
▁도울	-11406
▁동적	-11407
▁드문	-11408
▁듬뿍	-11409
▁래매	-11410
▁로고	-11411
▁마티	-11412
▁망쳤	-11413
▁매실	-11414
▁명심	-11415
▁모야	-11416
▁몰살	-11417
▁못혀	-11418
▁묻히	-11419
▁물렸	-11420
▁바랬	-11421
▁방데	-11422
▁베려	-11423
▁보편	-11424
▁불른	-11425
▁뾰족	-11426
▁뿔리	-11427
▁사격	-11428
▁사구	-11429
▁사쿠	-11430
▁서명	-11431
▁세사	-11432
▁세제	-11433
▁슬리	-11434
▁신박	-11435
▁신장	-11436
▁쓰난	-11437
▁쓰시	-11438
▁씨앗	-11439
▁안구	-11440
▁얼리	-11441
▁엠피	-11442
▁여간	-11443
▁영리	-11444
▁왐마	-11445
▁외면	-11446
▁용납	-11447
▁우터	-11448
▁워디	-11449
▁원치	-11450
▁유모	-11451
▁유진	-11452
▁응시	-11453
▁응용	-11454
▁일등	-11455
▁재즈	-11456
▁정반	-11457
▁제때	-11458
▁조끼	-11459
▁종가	-11460
▁중소	-11461
▁증권	-11462
▁지킨	-11463
▁쩌쪽	-11464
▁차녀	-11465
▁체온	-11466
▁초과	-11467
▁측정	-11468
▁치대	-11469
▁카수	-11470
▁캠프	-11471
▁탈락	-11472
▁토할	-11473
▁튜브	-11474
▁파업	-11475
▁파전	-11476
▁하룻	-11477
▁한게	-11478
▁한판	-11479
▁할애	-11480
▁항암	-11481
▁허옇	-11482
▁허우	-11483
▁허허	-11484
▁호두	-11485
▁화제	-11486
▁확확	-11487
▁활력	-11488
▁활짝	-11489
▁회전	-11490
▁회화	-11491
▁히트	-11492
릅니다	-11493
▁가디건	-11494
▁가로수	-11495
▁가지가	-11496
▁거슬리	-11497
▁귀여웠	-11498
▁나타내	-11499
▁난이도	-11500
▁낼려고	-11501
▁댕겨오	-11502
▁라서요	-11503
▁마셔야	-11504
▁말아먹	-11505
▁맞조이	-11506
▁못생긴	-11507
▁못지않	-11508
▁무서우	-11509
▁물괴기	-11510
▁미술관	-11511
▁사거리	-11512
▁사이코	-11513
▁생크림	-11514
▁성가시	-11515
▁아구찜	-11516
▁아픈지	-11517
▁위원회	-11518
▁으래이	-11519
▁을라나	-11520
▁이동욱	-11521
▁인건비	-11522
▁일거리	-11523
▁즌화했	-11524
▁처갓집	-11525
▁쳐다봐	-11526
▁콜레스	-11527
▁타이트	-11528
▁태워다	-11529
▁틀림없	-11530
▁프로필	-11531
▁합니더	-11532
▁휴양지	-11533
▁겅해그네	-11534
▁들어온다	-11535
▁빨리빨리	-11536
▁생각난다	-11537
▁아주마이	-11538
▁지만서두	-11539
▁결혼기념일	-11540
▁콜레스테롤	-11541
▁맣	-11542
▁켠	-11543
길래	-11544
냐면	-11545
다르	-11546
다섯	-11547
두루	-11548
라기	-11549
란드	-11550
리닝	-11551
서리	-11552
수리	-11553
장구	-11554
저쩌	-11555
조마	-11556
치미	-11557
▁가닥	-11558
▁가랑	-11559
▁갇혀	-11560
▁갈피	-11561
▁강보	-11562
▁결코	-11563
▁고비	-11564
▁곤밥	-11565
▁곤쳐	-11566
▁과개	-11567
▁관하	-11568
▁구절	-11569
▁기복	-11570
▁꺼멍	-11571
▁께로	-11572
▁꾸지	-11573
▁나루	-11574
▁나뭇	-11575
▁나비	-11576
▁나조	-11577
▁남어	-11578
▁널리	-11579
▁논의	-11580
▁누난	-11581
▁능가	-11582
▁니가	-11583
▁달력	-11584
▁대략	-11585
▁대마	-11586
▁대서	-11587
▁돼두	-11588
▁땐디	-11589
▁렇게	-11590
▁마영	-11591
▁메일	-11592
▁모물	-11593
▁모수	-11594
▁무산	-11595
▁민박	-11596
▁박박	-11597
▁백숙	-11598
▁벤치	-11599
▁변할	-11600
▁별도	-11601
▁병실	-11602
▁부류	-11603
▁불쑥	-11604
▁붙일	-11605
▁살래	-11606
▁서원	-11607
▁서툴	-11608
▁세심	-11609
▁소곱	-11610
▁속담	-11611
▁속하	-11612
▁수실	-11613
▁수중	-11614
▁식성	-11615
▁아디	-11616
▁아의	-11617
▁엄격	-11618
▁역전	-11619
▁연비	-11620
▁오가	-11621
▁오류	-11622
▁외곽	-11623
▁요케	-11624
▁요행	-11625
▁우민	-11626
▁우애	-11627
▁울릉	-11628
▁원정	-11629
▁유대	-11630
▁으세	-11631
▁으지	-11632
▁이면	-11633
▁이슬	-11634
▁자손	-11635
▁작작	-11636
▁재개	-11637
▁저랬	-11638
▁정구	-11639
▁정석	-11640
▁조율	-11641
▁졸리	-11642
▁좁쌀	-11643
▁주간	-11644
▁지근	-11645
▁진입	-11646
▁진학	-11647
▁짜른	-11648
▁쪼깐	-11649
▁처분	-11650
▁청정	-11651
▁치약	-11652
▁치유	-11653
▁캐시	-11654
▁큼직	-11655
▁타투	-11656
▁퉁퉁	-11657
▁특기	-11658
▁팀원	-11659
▁파출	-11660
▁포스	-11661
▁플라	-11662
▁한적	-11663
▁효소	-11664
▁휘둘	-11665
고양이	-11666
도날드	-11667
▁가르킬	-11668
▁가생이	-11669
▁걸어야	-11670
▁구해야	-11671
▁그든요	-11672
▁기여히	-11673
▁끓여서	-11674
▁나온단	-11675
▁느껴서	-11676
▁다구리	-11677
▁도라지	-11678
▁도우미	-11679
▁드나들	-11680
▁드래곤	-11681
▁미용사	-11682
▁부턴가	-11683
▁서두르	-11684
▁소내기	-11685
▁순두부	-11686
▁스쿠버	-11687
▁쌀국수	-11688
▁연속극	-11689
▁외숙모	-11690
▁이태리	-11691
▁하룻밤	-11692
▁해진다	-11693
▁헷갈려	-11694
▁호랭이	-11695
▁겅하니까	-11696
▁내리다지	-11697
▁돌아다녔	-11698
▁두루두루	-11699
▁떨어진다	-11700
▁맥도날드	-11701
▁아기자기	-11702
▁아름다움	-11703
▁아이언맨	-11704
▁와이파이	-11705
▁장인어른	-11706
▁조마조마	-11707
▁땁	-11708
▁럿	-11709
▁볕	-11710
깅스	-11711
도치	-11712
막이	-11713
베리	-11714
어치	-11715
저만	-11716
테인	-11717
▁가미	-11718
▁가직	-11719
▁갈만	-11720
▁감소	-11721
▁감안	-11722
▁개방	-11723
▁거무	-11724
▁겠지	-11725
▁결석	-11726
▁경유	-11727
▁고슴	-11728
▁고픈	-11729
▁공방	-11730
▁국장	-11731
▁난감	-11732
▁농촌	-11733
▁놔주	-11734
▁는댜	-11735
▁니이	-11736
▁더덕	-11737
▁덩이	-11738
▁데쳐	-11739
▁동경	-11740
▁들왔	-11741
▁따위	-11742
▁리드	-11743
▁마쳤	-11744
▁만사	-11745
▁말릴	-11746
▁맛난	-11747
▁맡겼	-11748
▁멕시	-11749
▁명문	-11750
▁명소	-11751
▁목줄	-11752
▁무도	-11753
▁무래	-11754
▁물외	-11755
▁물통	-11756
▁뭔갈	-11757
▁미움	-11758
▁반디	-11759
▁밥값	-11760
▁벌어	-11761
▁벼락	-11762
▁병신	-11763
▁보육	-11764
▁본가	-11765
▁부하	-11766
▁불꽃	-11767
▁빅뱅	-11768
▁빼내	-11769
▁생김	-11770
▁선반	-11771
▁성품	-11772
▁소신	-11773
▁손상	-11774
▁수돗	-11775
▁수세	-11776
▁스쿨	-11777
▁스텔	-11778
▁스틱	-11779
▁신자	-11780
▁심플	-11781
▁쌩쌩	-11782
▁써가	-11783
▁썰렁	-11784
▁옥돔	-11785
▁왕국	-11786
▁왜그	-11787
▁외울	-11788
▁으구	-11789
▁으랴	-11790
▁이등	-11791
▁이망	-11792
▁이효	-11793
▁인용	-11794
▁자불	-11795
▁재이	-11796
▁전차	-11797
▁점잖	-11798
▁정규	-11799
▁족구	-11800
▁종부	-11801
▁증세	-11802
▁지껄	-11803
▁집행	-11804
▁징징	-11805
▁쪼그	-11806
▁쪽파	-11807
▁체포	-11808
▁친목	-11809
▁칼칼	-11810
▁큰데	-11811
▁키즈	-11812
▁타가	-11813
▁타그	-11814
▁타협	-11815
▁탁탁	-11816
▁투덜	-11817
▁투정	-11818
▁튀긴	-11819
▁홍대	-11820
▁홍수	-11821
▁화살	-11822
▁훔친	-11823
레인지	-11824
바구니	-11825
슬머리	-11826
▁갑니까	-11827
▁계셔서	-11828
▁골프장	-11829
▁기름진	-11830
▁깨어나	-11831
▁날라오	-11832
▁네다섯	-11833
▁는답시	-11834
▁니깐은	-11835
▁니라구	-11836
▁다이빙	-11837
▁달라져	-11838
▁달려들	-11839
▁대나무	-11840
▁더운데	-11841
▁데스크	-11842
▁들기름	-11843
▁딴따라	-11844
▁뛰어들	-11845
▁레깅스	-11846
▁루테인	-11847
▁매달려	-11848
▁머릿결	-11849
▁메러치	-11850
▁몰개미	-11851
▁물건짝	-11852
▁바뻐서	-11853
▁반지기	-11854
▁사겼었	-11855
▁살아났	-11856
▁수영복	-11857
▁쉐이크	-11858
▁양념장	-11859
▁에게서	-11860
▁옆구리	-11861
▁이학년	-11862
▁일본인	-11863
▁일회용	-11864
▁전지현	-11865
▁지리산	-11866
▁집니다	-11867
▁큰소리	-11868
▁큰일나	-11869
▁탁배기	-11870
▁포켓몬	-11871
▁항아리	-11872
▁고슴도치	-11873
▁구석탱이	-11874
▁다이어리	-11875
▁부끄러워	-11876
▁시아버지	-11877
▁오글거리	-11878
▁왜그냐면	-11879
▁이만저만	-11880
▁중간고사	-11881
▁클라이밍	-11882
▁튀어나오	-11883
▁프로그래머	-11884
▁눠	-11885
가방	-11886
게트	-11887
니어	-11888
다나	-11889
란트	-11890
러기	-11891
러져	-11892
막소	-11893
멩이	-11894
세이	-11895
운데	-11896
장창	-11897
코드	-11898
티브	-11899
현진	-11900
▁가근	-11901
▁가둬	-11902
▁갈테	-11903
▁강물	-11904
▁겅헐	-11905
▁견적	-11906
▁결승	-11907
▁공예	-11908
▁공책	-11909
▁광대	-11910
▁구간	-11911
▁구기	-11912
▁급격	-11913
▁기니	-11914
▁나그	-11915
▁난처	-11916
▁날쌔	-11917
▁낮춰	-11918
▁내령	-11919
▁녹화	-11920
▁놀랄	-11921
▁누룽	-11922
▁늘상	-11923
▁다령	-11924
▁다뤄	-11925
▁달릴	-11926
▁대금	-11927
▁동아	-11928
▁뒤틀	-11929
▁드시	-11930
▁들인	-11931
▁따를	-11932
▁딸라	-11933
▁땡겼	-11934
▁라데	-11935
▁라며	-11936
▁마일	-11937
▁만기	-11938
▁말대	-11939
▁머지	-11940
▁면도	-11941
▁모살	-11942
▁무얼	-11943
▁미네	-11944
▁미모	-11945
▁미션	-11946
▁밀코	-11947
▁밥솥	-11948
▁벌라	-11949
▁별미	-11950
▁보지	-11951
▁부적	-11952
▁분장	-11953
▁불면	-11954
▁비전	-11955
▁빌린	-11956
▁산만	-11957
▁살쪄	-11958
▁세력	-11959
▁셔유	-11960
▁속여	-11961
▁슭에	-11962
▁습한	-11963
▁시식	-11964
▁시저	-11965
▁실속	-11966
▁싸납	-11967
▁쓸까	-11968
▁쓸려	-11969
▁알맞	-11970
▁액수	-11971
▁액젓	-11972
▁어필	-11973
▁얼려	-11974
▁얼큰	-11975
▁없다	-11976
▁연고	-11977
▁오당	-11978
▁외관	-11979
▁위선	-11980
▁유료	-11981
▁으디	-11982
▁이룬	-11983
▁이맘	-11984
▁이주	-11985
▁자가	-11986
▁자수	-11987
▁재래	-11988
▁절로	-11989
▁절망	-11990
▁정정	-11991
▁제리	-11992
▁조깅	-11993
▁주카	-11994
▁준거	-11995
▁지켰	-11996
▁징상	-11997
▁짤릴	-11998
▁찍힌	-11999
▁차근	-12000
▁차기	-12001
▁창지	-12002
▁철판	-12003
▁추어	-12004
▁코코	-12005
▁키가	-12006
▁태평	-12007
▁터널	-12008
▁텐션	-12009
▁토스	-12010
▁팡팡	-12011
▁퍼붓	-12012
▁퍽퍽	-12013
▁펭귄	-12014
▁피닝	-12015
▁한갑	-12016
▁헐렁	-12017
▁홀로	-12018
덩어리	-12019
아이피	-12020
프라이	-12021
▁가까우	-12022
▁가려서	-12023
▁가막소	-12024
▁갈께요	-12025
▁갔다와	-12026
▁고스톱	-12027
▁교도소	-12028
▁그걸로	-12029
▁그랑게	-12030
▁기능사	-12031
▁날아가	-12032
▁넘어져	-12033
▁놩으네	-12034
▁두드려	-12035
▁드러워	-12036
▁들어줄	-12037
▁라로이	-12038
▁망설이	-12039
▁목적지	-12040
▁무서버	-12041
▁바게트	-12042
▁방송사	-12043
▁본다구	-12044
▁빠져서	-12045
▁심리학	-12046
▁아니마	-12047
▁아자씨	-12048
▁알바느	-12049
▁애완견	-12050
▁여전히	-12051
▁영양소	-12052
▁오늘날	-12053
▁외로움	-12054
▁위자료	-12055
▁이래야	-12056
▁인정받	-12057
▁자꾸나	-12058
▁줄라꼬	-12059
▁즌쟁이	-12060
▁지도자	-12061
▁팔아먹	-12062
▁해준다	-12063
▁허기사	-12064
▁휴게소	-12065
▁뛰어다니	-12066
▁모른다고	-12067
▁빠진다고	-12068
▁킬로미터	-12069
▁브이아이피	-12070
▁둠	-12071
▁춧	-12072
가요	-12073
간장	-12074
교통	-12075
꽂이	-12076
댕겼	-12077
라미	-12078
렁크	-12079
로드	-12080
만은	-12081
므로	-12082
우리	-12083
잡이	-12084
쫄깃	-12085
타이	-12086
퍼스	-12087
▁가들	-12088
▁가발	-12089
▁가서	-12090
▁각도	-12091
▁갈꼬	-12092
▁강주	-12093
▁개똥	-12094
▁거르	-12095
▁건방	-12096
▁게문	-12097
▁경이	-12098
▁골반	-12099
▁구우	-12100
▁구제	-12101
▁군고	-12102
▁굼의	-12103
▁기둥	-12104
▁기만	-12105
▁기미	-12106
▁기피	-12107
▁길가	-12108
▁김호	-12109
▁꼭꼭	-12110
▁꾸민	-12111
▁나설	-12112
▁노랠	-12113
▁놓친	-12114
▁단합	-12115
▁대령	-12116
▁대정	-12117
▁대행	-12118
▁데마	-12119
▁도련	-12120
▁돈독	-12121
▁뒷산	-12122
▁똘똘	-12123
▁뚫리	-12124
▁레지	-12125
▁루트	-12126
▁매매	-12127
▁멩절	-12128
▁면제	-12129
▁모앙	-12130
▁못살	-12131
▁무당	-12132
▁무수	-12133
▁묶여	-12134
▁뮬러	-12135
▁미성	-12136
▁민트	-12137
▁발끝	-12138
▁밭이	-12139
▁버틴	-12140
▁벌초	-12141
▁복도	-12142
▁비롯	-12143
▁빌렸	-12144
▁빼돌	-12145
▁사각	-12146
▁사슴	-12147
▁산행	-12148
▁상인	-12149
▁서글	-12150
▁섬유	-12151
▁센타	-12152
▁소품	-12153
▁스면	-12154
▁식상	-12155
▁식장	-12156
▁신화	-12157
▁알차	-12158
▁애써	-12159
▁애원	-12160
▁액자	-12161
▁여따	-12162
▁와가	-12163
▁왕창	-12164
▁왼갖	-12165
▁원대	-12166
▁유방	-12167
▁의논	-12168
▁이목	-12169
▁이원	-12170
▁인네	-12171
▁일과	-12172
▁장물	-12173
▁장염	-12174
▁전동	-12175
▁전적	-12176
▁제왕	-12177
▁종손	-12178
▁중순	-12179
▁증인	-12180
▁지서	-12181
▁짤린	-12182
▁출출	-12183
▁케일	-12184
▁터키	-12185
▁토트	-12186
▁통합	-12187
▁투기	-12188
▁페스	-12189
▁편치	-12190
▁푸들	-12191
▁풋살	-12192
▁할거	-12193
▁햇살	-12194
▁헤지	-12195
▁혐오	-12196
▁협조	-12197
▁호빵	-12198
▁호의	-12199
▁화가	-12200
▁화끈	-12201
▁화질	-12202
▁효능	-12203
▁흡연	-12204
레이션	-12205
멘터리	-12206
▁가산점	-12207
▁갔다온	-12208
▁개구리	-12209
▁겅해서	-12210
▁겨울옷	-12211
▁고무신	-12212
▁기다린	-12213
▁날라갔	-12214
▁났으믄	-12215
▁단기간	-12216
▁데려와	-12217
▁들러도	-12218
▁똥그란	-12219
▁마셔요	-12220
▁마우스	-12221
▁마이클	-12222
▁맞벌이	-12223
▁매가리	-12224
▁물러나	-12225
▁미장원	-12226
▁사세요	-12227
▁소프트	-12228
▁스트리	-12229
▁신다는	-12230
▁아무튼	-12231
▁알아먹	-12232
▁어떤데	-12233
▁어리석	-12234
▁예비군	-12235
▁오메기	-12236
▁우회전	-12237
▁웨이팅	-12238
▁이순신	-12239
▁이효리	-12240
▁자빠져	-12241
▁잠자리	-12242
▁전기세	-12243
▁정거장	-12244
▁주물러	-12245
▁주유소	-12246
▁진통제	-12247
▁쪽팔리	-12248
▁찢어져	-12249
▁추리닝	-12250
▁추어탕	-12251
▁츄리닝	-12252
▁큰오빠	-12253
▁트렁크	-12254
▁하쿠다	-12255
▁항공사	-12256
▁해드려	-12257
▁걸음걸이	-12258
▁는답시구	-12259
▁돌아댕겼	-12260
▁바퀴벌레	-12261
▁스튜디오	-12262
▁올라간다	-12263
▁쫄깃쫄깃	-12264
▁한다면은	-12265
▁할아버이	-12266
▁다큐멘터리	-12267
겨울	-12268
구불	-12269
다듬	-12270
떼기	-12271
무소	-12272
박이	-12273
업원	-12274
질금	-12275
하고	-12276
▁가곡	-12277
▁가공	-12278
▁가니	-12279
▁가상	-12280
▁가출	-12281
▁간접	-12282
▁갈께	-12283
▁개이	-12284
▁개혁	-12285
▁거거	-12286
▁건고	-12287
▁결재	-12288
▁공정	-12289
▁공지	-12290
▁구속	-12291
▁글로	-12292
▁글케	-12293
▁기엽	-12294
▁께나	-12295
▁껴도	-12296
▁꾸밀	-12297
▁끼니	-12298
▁나노	-12299
▁내우	-12300
▁노골	-12301
▁대왕	-12302
▁대인	-12303
▁대청	-12304
▁더치	-12305
▁덤비	-12306
▁독학	-12307
▁두이	-12308
▁둬요	-12309
▁들였	-12310
▁들판	-12311
▁딜러	-12312
▁딸랑	-12313
▁땁땁	-12314
▁똣한	-12315
▁러닝	-12316
▁마법	-12317
▁마차	-12318
▁만졌	-12319
▁말래	-12320
▁맹장	-12321
▁먹였	-12322
▁메로	-12323
▁모범	-12324
▁몽땅	-12325
▁무어	-12326
▁미군	-12327
▁민속	-12328
▁바를	-12329
▁방언	-12330
▁배꼽	-12331
▁부두	-12332
▁불시	-12333
▁비양	-12334
▁사립	-12335
▁사준	-12336
▁상반	-12337
▁선교	-12338
▁세예	-12339
▁소수	-12340
▁솔솔	-12341
▁스며	-12342
▁스윙	-12343
▁시렵	-12344
▁심판	-12345
▁싸대	-12346
▁쌈장	-12347
▁아레	-12348
▁아슬	-12349
▁악보	-12350
▁알켜	-12351
▁어설	-12352
▁억새	-12353
▁외지	-12354
▁울렁	-12355
▁유선	-12356
▁이룰	-12357
▁이보	-12358
▁인진	-12359
▁잠잘	-12360
▁장윤	-12361
▁재배	-12362
▁저럴	-12363
▁절간	-12364
▁조장	-12365
▁죙이	-12366
▁주눅	-12367
▁주점	-12368
▁주책	-12369
▁줍쇼	-12370
▁중형	-12371
▁지쳤	-12372
▁짜여	-12373
▁쨰서	-12374
▁체벌	-12375
▁쳐두	-12376
▁쳐들	-12377
▁출입	-12378
▁치열	-12379
▁카리	-12380
▁캄캄	-12381
▁텡께	-12382
▁투수	-12383
▁트집	-12384
▁틱톡	-12385
▁포대	-12386
▁포트	-12387
▁표면	-12388
▁프렌	-12389
▁피트	-12390
▁필터	-12391
▁하라	-12392
▁허다	-12393
▁호구	-12394
▁화산	-12395
▁회도	-12396
▁흐려	-12397
▁흘렸	-12398
고리즘	-12399
차이즈	-12400
▁가계부	-12401
▁가로등	-12402
▁갈라지	-12403
▁굴러가	-12404
▁근데두	-12405
▁냄새나	-12406
▁놀라운	-12407
▁농사지	-12408
▁다녀야	-12409
▁도토리	-12410
▁동양인	-12411
▁뒷모습	-12412
▁드러누	-12413
▁라던데	-12414
▁로보트	-12415
▁불러요	-12416
▁선입견	-12417
▁선풍기	-12418
▁설레이	-12419
▁스물세	-12420
▁스카프	-12421
▁승무원	-12422
▁시원찮	-12423
▁신다면	-12424
▁심부름	-12425
▁아부진	-12426
▁약수터	-12427
▁어때서	-12428
▁에이씨	-12429
▁와사비	-12430
▁이력서	-12431
▁인지라	-12432
▁입수불	-12433
▁잔나비	-12434
▁장가가	-12435
▁저지르	-12436
▁종업원	-12437
▁중대장	-12438
▁즌화할	-12439
▁초가집	-12440
▁충전기	-12441
▁케이비	-12442
▁토트넘	-12443
▁피에스	-12444
▁한바탕	-12445
▁해지지	-12446
▁호랑이	-12447
▁호리이	-12448
▁황정민	-12449
▁나간다고	-12450
▁나온다구	-12451
▁는다거나	-12452
▁대중교통	-12453
▁물어봐야	-12454
▁아니면은	-12455
▁악착같이	-12456
▁알고리즘	-12457
▁잊어버려	-12458
▁전기장판	-12459
▁즌화라두	-12460
▁졈신게마씸	-12461
▁프랜차이즈	-12462
▁깄	-12463
▁윙	-12464
구이	-12465
기업	-12466
꼬리	-12467
동자	-12468
봐라	-12469
주리	-12470
지는	-12471
콜리	-12472
▁가야	-12473
▁거둬	-12474
▁게유	-12475
▁구급	-12476
▁권위	-12477
▁기수	-12478
▁기스	-12479
▁끈끈	-12480
▁낙하	-12481
▁내만	-12482
▁넘긴	-12483
▁노놔	-12484
▁노랜	-12485
▁눌렀	-12486
▁다독	-12487
▁대외	-12488
▁대천	-12489
▁도두	-12490
▁뒷담	-12491
▁들개	-12492
▁들린	-12493
▁등신	-12494
▁따리	-12495
▁란대	-12496
▁래퍼	-12497
▁로그	-12498
▁마큼	-12499
▁망정	-12500
▁메르	-12501
▁모녀	-12502
▁몽창	-12503
▁물량	-12504
▁미숙	-12505
▁방석	-12506
▁배민	-12507
▁베끼	-12508
▁변형	-12509
▁복구	-12510
▁복무	-12511
▁부가	-12512
▁부당	-12513
▁분산	-12514
▁불륜	-12515
▁비향	-12516
▁사수	-12517
▁삼마	-12518
▁샤넬	-12519
▁서답	-12520
▁서먹	-12521
▁선사	-12522
▁성새	-12523
▁수작	-12524
▁수족	-12525
▁쉐프	-12526
▁슬플	-12527
▁시더	-12528
▁쌀밥	-12529
▁씻기	-12530
▁안디	-12531
▁안사	-12532
▁알파	-12533
▁앞쪽	-12534
▁애스	-12535
▁애용	-12536
▁억압	-12537
▁얼핏	-12538
▁엠알	-12539
▁여이	-12540
▁영덕	-12541
▁온데	-12542
▁와우	-12543
▁외레	-12544
▁울매	-12545
▁유저	-12546
▁으매	-12547
▁이난	-12548
▁이노	-12549
▁이입	-12550
▁일찌	-12551
▁입개	-12552
▁입주	-12553
▁자도	-12554
▁잠겨	-12555
▁재택	-12556
▁저서	-12557
▁전염	-12558
▁절여	-12559
▁접대	-12560
▁조던	-12561
▁주자	-12562
▁중학	-12563
▁지져	-12564
▁착실	-12565
▁참견	-12566
▁참새	-12567
▁청산	-12568
▁축축	-12569
▁코난	-12570
▁터울	-12571
▁톡톡	-12572
▁통역	-12573
▁파래	-12574
▁팬티	-12575
▁플랜	-12576
▁하객	-12577
▁학업	-12578
▁할걸	-12579
▁함부	-12580
▁헐라	-12581
▁험하	-12582
▁현미	-12583
▁현역	-12584
▁형광	-12585
▁홍감	-12586
▁회비	-12587
▁후방	-12588
▁후제	-12589
▁훼손	-12590
구불구	-12591
▁가르마	-12592
▁갑작스	-12593
▁겅하네	-12594
▁광안리	-12595
▁교과서	-12596
▁교무실	-12597
▁그러나	-12598
▁그런진	-12599
▁기보단	-12600
▁김호중	-12601
▁나루토	-12602
▁나올지	-12603
▁냐니까	-12604
▁놨잖아	-12605
▁달라요	-12606
▁돗자리	-12607
▁동대문	-12608
▁든다고	-12609
▁레이저	-12610
▁마스터	-12611
▁마피아	-12612
▁바이든	-12613
▁버릴까	-12614
▁보리쌀	-12615
▁선진국	-12616
▁손수건	-12617
▁스러우	-12618
▁스캔들	-12619
▁스케치	-12620
▁스테이	-12621
▁시킨다	-12622
▁아녀유	-12623
▁아라동	-12624
▁아웃렛	-12625
▁여학생	-12626
▁인데도	-12627
▁제자리	-12628
▁차려야	-12629
▁찾아내	-12630
▁체인점	-12631
▁츰에는	-12632
▁칵테일	-12633
▁캠핑카	-12634
▁컵라면	-12635
▁터래기	-12636
▁틀어지	-12637
▁티에스	-12638
▁함박눈	-12639
▁헙니까	-12640
▁헙니다	-12641
▁겅허니까	-12642
▁넘어져서	-12643
▁뒷바라지	-12644
▁브로콜리	-12645
▁시끄러운	-12646
▁아주버님	-12647
▁안타까웠	-12648
▁울구불구	-12649
▁중소기업	-12650
▁텔레비전	-12651
▁컹	-12652
게인	-12653
니꺼	-12654
다녀	-12655
딴지	-12656
막길	-12657
뿌리	-12658
사이	-12659
조림	-12660
클럽	-12661
퉁이	-12662
▁가식	-12663
▁강렬	-12664
▁격투	-12665
▁견과	-12666
▁고친	-12667
▁골문	-12668
▁곰곰	-12669
▁공상	-12670
▁과식	-12671
▁구비	-12672
▁구정	-12673
▁궁상	-12674
▁근심	-12675
▁금연	-12676
▁나나	-12677
▁날렸	-12678
▁내논	-12679
▁냐잉	-12680
▁노을	-12681
▁놀부	-12682
▁놓칠	-12683
▁다룰	-12684
▁달성	-12685
▁덮밥	-12686
▁덴데	-12687
▁도르	-12688
▁도적	-12689
▁독도	-12690
▁동태	-12691
▁두툼	-12692
▁둥둥	-12693
▁똣똣	-12694
▁뚫려	-12695
▁려오	-12696
▁롤러	-12697
▁른게	-12698
▁말른	-12699
▁말항	-12700
▁맘껏	-12701
▁멀찍	-12702
▁멩렝	-12703
▁모예	-12704
▁목격	-12705
▁무구	-12706
▁무던	-12707
▁문방	-12708
▁문애	-12709
▁밀과	-12710
▁반주	-12711
▁버럭	-12712
▁벌겅	-12713
▁법정	-12714
▁변신	-12715
▁보정	-12716
▁분할	-12717
▁불문	-12718
▁비만	-12719
▁비엠	-12720
▁비춰	-12721
▁빙판	-12722
▁사부	-12723
▁사심	-12724
▁석이	-12725
▁소도	-12726
▁소포	-12727
▁수표	-12728
▁심할	-12729
▁쓴께	-12730
▁아범	-12731
▁아합	-12732
▁안달	-12733
▁애썼	-12734
▁엄매	-12735
▁업종	-12736
▁여깄	-12737
▁여두	-12738
▁여론	-12739
▁여요	-12740
▁연대	-12741
▁옇으	-12742
▁왜소	-12743
▁용심	-12744
▁용인	-12745
▁웃길	-12746
▁유사	-12747
▁으슈	-12748
▁의향	-12749
▁익산	-12750
▁일수	-12751
▁일차	-12752
▁입어	-12753
▁자개	-12754
▁재생	-12755
▁재촉	-12756
▁잽이	-12757
▁저놈	-12758
▁제육	-12759
▁제의	-12760
▁제조	-12761
▁조급	-12762
▁조두	-12763
▁조성	-12764
▁조수	-12765
▁족보	-12766
▁종강	-12767
▁주구	-12768
▁즐겼	-12769
▁지신	-12770
▁지휘	-12771
▁진한	-12772
▁짜를	-12773
▁짝꿍	-12774
▁쭈끼	-12775
▁쭌다	-12776
▁찔끔	-12777
▁채근	-12778
▁철들	-12779
▁촛불	-12780
▁추측	-12781
▁커리	-12782
▁커졌	-12783
▁커튼	-12784
▁타운	-12785
▁탑승	-12786
▁토리	-12787
▁통행	-12788
▁평창	-12789
▁허문	-12790
▁혈당	-12791
▁홀랑	-12792
▁화리	-12793
▁활약	-12794
▁흐레	-12795
나리오	-12796
래프트	-12797
스트라	-12798
▁가근방	-12799
▁간단히	-12800
▁간병인	-12801
▁갈매기	-12802
▁갈비탕	-12803
▁값어치	-12804
▁골고루	-12805
▁골목길	-12806
▁김선호	-12807
▁눈썰매	-12808
▁느냐고	-12809
▁다던디	-12810
▁다든지	-12811
▁동의서	-12812
▁뛰어놀	-12813
▁렌트카	-12814
▁만났었	-12815
▁맥혀서	-12816
▁멕시코	-12817
▁모를까	-12818
▁미성년	-12819
▁반바지	-12820
▁볼거리	-12821
▁부러지	-12822
▁붙여서	-12823
▁뿌레기	-12824
▁새우젓	-12825
▁슬랙스	-12826
▁시달리	-12827
▁시래기	-12828
▁쓸모없	-12829
▁어게인	-12830
▁어야죠	-12831
▁억지러	-12832
▁외로울	-12833
▁우거지	-12834
▁웨이터	-12835
▁이만큼	-12836
▁저지레	-12837
▁정반대	-12838
▁정치인	-12839
▁조영이	-12840
▁지다리	-12841
▁체육복	-12842
▁캠퍼스	-12843
▁틈바구	-12844
▁해봐도	-12845
▁해줘도	-12846
▁했어야	-12847
▁듭니대이	-12848
▁물어봐도	-12849
▁부드러워	-12850
▁소매치기	-12851
▁시나리오	-12852
▁여쭤봐도	-12853
▁했으니께	-12854
▁뚤	-12855
▁륙	-12856
가림	-12857
갈이	-12858
따로	-12859
말루	-12860
무이	-12861
발유	-12862
보리	-12863
송이	-12864
수과	-12865
입장	-12866
지긋	-12867
지를	-12868
팅기	-12869
혈압	-12870
효진	-12871
▁가우	-12872
▁각종	-12873
▁거문	-12874
▁거봐	-12875
▁거쳐	-12876
▁게라	-12877
▁과격	-12878
▁구청	-12879
▁군사	-12880
▁굴비	-12881
▁굼까	-12882
▁금붕	-12883
▁기른	-12884
▁기모	-12885
▁김연	-12886
▁까봐	-12887
▁깐단	-12888
▁꼬두	-12889
▁꾸려	-12890
▁끈적	-12891
▁내두	-12892
▁너이	-12893
▁노른	-12894
▁농부	-12895
▁단타	-12896
▁달랬	-12897
▁대근	-12898
▁대수	-12899
▁던졌	-12900
▁덩치	-12901
▁독판	-12902
▁되배	-12903
▁될라	-12904
▁두들	-12905
▁둔다	-12906
▁둬서	-12907
▁드랑	-12908
▁따질	-12909
▁땀나	-12910
▁라사	-12911
▁라식	-12912
▁레인	-12913
▁마술	-12914
▁만이	-12915
▁맛보	-12916
▁매진	-12917
▁멍석	-12918
▁목살	-12919
▁묘하	-12920
▁물물	-12921
▁미사	-12922
▁민물	-12923
▁바랄	-12924
▁반발	-12925
▁발급	-12926
▁발효	-12927
▁베르	-12928
▁벽지	-12929
▁보답	-12930
▁보싹	-12931
▁보컬	-12932
▁본지	-12933
▁볼펜	-12934
▁부각	-12935
▁부근	-12936
▁분유	-12937
▁뿌린	-12938
▁상속	-12939
▁상큼	-12940
▁석아	-12941
▁세팅	-12942
▁소외	-12943
▁수백	-12944
▁수프	-12945
▁숙취	-12946
▁숱하	-12947
▁쉬웠	-12948
▁습득	-12949
▁시범	-12950
▁실무	-12951
▁실시	-12952
▁아담	-12953
▁아미	-12954
▁아전	-12955
▁야수	-12956
▁어림	-12957
▁어벤	-12958
▁엉뚱	-12959
▁엘레	-12960
▁여리	-12961
▁역량	-12962
▁연계	-12963
▁영창	-12964
▁영환	-12965
▁워매	-12966
▁유세	-12967
▁인거	-12968
▁일거	-12969
▁잇몸	-12970
▁자작	-12971
▁잡술	-12972
▁장아	-12973
▁장작	-12974
▁쟁기	-12975
▁적자	-12976
▁전산	-12977
▁전파	-12978
▁전후	-12979
▁접했	-12980
▁정화	-12981
▁중계	-12982
▁쥐어	-12983
▁지바	-12984
▁쪼르	-12985
▁쭐였	-12986
▁찡찡	-12987
▁참나	-12988
▁초점	-12989
▁총구	-12990
▁총알	-12991
▁추록	-12992
▁취사	-12993
▁카다	-12994
▁카라	-12995
▁태그	-12996
▁태산	-12997
▁태자	-12998
▁택했	-12999
▁파우	-13000
▁하락	-13001
▁하양	-13002
▁한입	-13003
▁해묵	-13004
▁핵상	-13005
▁행우	-13006
▁호스	-13007
▁화단	-13008
▁활달	-13009
▁회피	-13010
▁횡단	-13011
▁흐트	-13012
▁흘렀	-13013
고저쩌	-13014
▁가져올	-13015
▁간신히	-13016
▁갱신히	-13017
▁거려서	-13018
▁겅한디	-13019
▁그래예	-13020
▁그만큼	-13021
▁기뻐하	-13022
▁는갑다	-13023
▁돌멩이	-13024
▁동치미	-13025
▁들이대	-13026
▁려고요	-13027
▁무작정	-13028
▁발가락	-13029
▁봅니다	-13030
▁비주얼	-13031
▁살아오	-13032
▁생겨나	-13033
▁생긴대	-13034
▁설악산	-13035
▁슬리퍼	-13036
▁신호등	-13037
▁싱크대	-13038
▁쌕쌕이	-13039
▁야말루	-13040
▁어다가	-13041
▁어머닌	-13042
▁영양가	-13043
▁이바지	-13044
▁이우지	-13045
▁자빠지	-13046
▁저녁때	-13047
▁저절루	-13048
▁주무셨	-13049
▁지겨워	-13050
▁쫓아내	-13051
▁참으로	-13052
▁책가방	-13053
▁표지판	-13054
▁할무니	-13055
프라이즈	-13056
▁겅해그냉	-13057
▁겅해그넹	-13058
▁따로따로	-13059
▁미끄러지	-13060
▁올라와서	-13061
▁지긋지긋	-13062
▁서프라이즈	-13063
▁어쩌고저쩌	-13064
▁겼	-13065
▁눅	-13066
▁닉	-13067
▁땃	-13068
건건	-13069
디가	-13070
랜서	-13071
무새	-13072
박스	-13073
방식	-13074
평가	-13075
혈증	-13076
▁가든	-13077
▁개굴	-13078
▁거칫	-13079
▁건진	-13080
▁검증	-13081
▁경관	-13082
▁공룡	-13083
▁과시	-13084
▁군기	-13085
▁굼쯤	-13086
▁권사	-13087
▁금서	-13088
▁기네	-13089
▁기세	-13090
▁기원	-13091
▁기증	-13092
▁긴지	-13093
▁길쭉	-13094
▁까치	-13095
▁나뻐	-13096
▁남긴	-13097
▁남동	-13098
▁내고	-13099
▁내과	-13100
▁내뱉	-13101
▁노망	-13102
▁노선	-13103
▁놀림	-13104
▁다툼	-13105
▁대용	-13106
▁덕지	-13107
▁데미	-13108
▁도도	-13109
▁둘르	-13110
▁뒤끝	-13111
▁드릅	-13112
▁드세	-13113
▁따신	-13114
▁땐데	-13115
▁똥개	-13116
▁라던	-13117
▁론가	-13118
▁롱도	-13119
▁리아	-13120
▁매겨	-13121
▁매물	-13122
▁맥스	-13123
▁멈출	-13124
▁명단	-13125
▁무소	-13126
▁문명	-13127
▁문법	-13128
▁뭉개	-13129
▁발등	-13130
▁발랄	-13131
▁발짝	-13132
▁방방	-13133
▁방사	-13134
▁벌기	-13135
▁별개	-13136
▁보켄	-13137
▁복직	-13138
▁분담	-13139
▁분량	-13140
▁분수	-13141
▁비어	-13142
▁비키	-13143
▁빼앗	-13144
▁뿌렸	-13145
▁사래	-13146
▁사량	-13147
▁사뭇	-13148
▁상고	-13149
▁색이	-13150
▁서구	-13151
▁서정	-13152
▁셔요	-13153
▁셔틀	-13154
▁소랑	-13155
▁소시	-13156
▁손절	-13157
▁솔로	-13158
▁수대	-13159
▁수러	-13160
▁수많	-13161
▁습기	-13162
▁승낙	-13163
▁실버	-13164
▁아찔	-13165
▁아치	-13166
▁아티	-13167
▁안하	-13168
▁야무	-13169
▁어둠	-13170
▁에고	-13171
▁여분	-13172
▁연한	-13173
▁열쇠	-13174
▁외계	-13175
▁우량	-13176
▁우릴	-13177
▁우짤	-13178
▁으사	-13179
▁의뢰	-13180
▁이단	-13181
▁일가	-13182
▁일마	-13183
▁작사	-13184
▁잔생	-13185
▁장군	-13186
▁장보	-13187
▁재정	-13188
▁저승	-13189
▁제미	-13190
▁제비	-13191
▁종당	-13192
▁지날	-13193
▁지여	-13194
▁지피	-13195
▁진화	-13196
▁징계	-13197
▁짱짱	-13198
▁착착	-13199
▁철사	-13200
▁청혼	-13201
▁출생	-13202
▁취약	-13203
▁칙칙	-13204
▁칙허	-13205
▁컨설	-13206
▁클라	-13207
▁키트	-13208
▁킬러	-13209
▁태연	-13210
▁터득	-13211
▁테마	-13212
▁투리	-13213
▁파견	-13214
▁평사	-13215
▁폐기	-13216
▁푸석	-13217
▁픽업	-13218
▁필러	-13219
▁하숙	-13220
▁함수	-13221
▁혼난	-13222
▁흐린	-13223
그라들	-13224
▁가르쳤	-13225
▁가져간	-13226
▁가져갈	-13227
▁가쿠다	-13228
▁갤러리	-13229
▁경찰관	-13230
▁공효진	-13231
▁교통비	-13232
▁나그네	-13233
▁나와도	-13234
▁냐고요	-13235
▁누룽지	-13236
▁다녀온	-13237
▁디지털	-13238
▁라더니	-13239
▁몰라라	-13240
▁문방구	-13241
▁사랑니	-13242
▁사무소	-13243
▁사이비	-13244
▁상당히	-13245
▁소나무	-13246
▁솔직히	-13247
▁스텔라	-13248
▁스트릿	-13249
▁시그널	-13250
▁쓰러질	-13251
▁아래께	-13252
▁에스엠	-13253
▁연예계	-13254
▁영향력	-13255
▁왐서야	-13256
▁유심히	-13257
▁이케야	-13258
▁저게서	-13259
▁조두순	-13260
▁조배기	-13261
▁중국인	-13262
▁집니까	-13263
▁쭐어든	-13264
▁코스트	-13265
▁패러글	-13266
▁플란트	-13267
▁흩어져	-13268
▁고속도로	-13269
▁그럴라면	-13270
▁들여다보	-13271
▁무료입장	-13272
▁사고방식	-13273
▁사사건건	-13274
▁아닐까요	-13275
▁아쉬워서	-13276
▁프리랜서	-13277
▁췄	-13278
대사	-13279
러니	-13280
방울	-13281
벼락	-13282
비티	-13283
소금	-13284
어보	-13285
웨어	-13286
이머	-13287
일러	-13288
퇴직	-13289
▁가렵	-13290
▁가름	-13291
▁가반	-13292
▁각대	-13293
▁개역	-13294
▁거미	-13295
▁거트	-13296
▁겁먹	-13297
▁겅할	-13298
▁격려	-13299
▁고여	-13300
▁고작	-13301
▁공과	-13302
▁과도	-13303
▁관둬	-13304
▁권한	-13305
▁극성	-13306
▁금주	-13307
▁깅이	-13308
▁까무	-13309
▁끊겼	-13310
▁끝낸	-13311
▁나면	-13312
▁나스	-13313
▁난가	-13314
▁남미	-13315
▁남지	-13316
▁낯짝	-13317
▁너그	-13318
▁노숙	-13319
▁노안	-13320
▁농업	-13321
▁늑대	-13322
▁다룬	-13323
▁다져	-13324
▁단추	-13325
▁당도	-13326
▁돌린	-13327
▁둬라	-13328
▁드노	-13329
▁떠오	-13330
▁떳떳	-13331
▁떼기	-13332
▁로부	-13333
▁루즈	-13334
▁망쳐	-13335
▁맨든	-13336
▁모토	-13337
▁무교	-13338
▁무명	-13339
▁밀접	-13340
▁바싹	-13341
▁박아	-13342
▁반기	-13343
▁발행	-13344
▁방수	-13345
▁배당	-13346
▁백성	-13347
▁백지	-13348
▁법칙	-13349
▁보듬	-13350
▁보유	-13351
▁본질	-13352
▁봉급	-13353
▁부랴	-13354
▁부레	-13355
▁분당	-13356
▁분하	-13357
▁분해	-13358
▁불국	-13359
▁불등	-13360
▁비레	-13361
▁삐딱	-13362
▁살집	-13363
▁상냥	-13364
▁선두	-13365
▁세무	-13366
▁센트	-13367
▁수위	-13368
▁순사	-13369
▁슈가	-13370
▁스콜	-13371
▁습도	-13372
▁시인	-13373
▁식도	-13374
▁실리	-13375
▁실명	-13376
▁심오	-13377
▁쌍수	-13378
▁쎄미	-13379
▁쓰였	-13380
▁씌우	-13381
▁아로	-13382
▁안드	-13383
▁암기	-13384
▁앞장	-13385
▁언구	-13386
▁얼떨	-13387
▁열무	-13388
▁예언	-13389
▁오야	-13390
▁원리	-13391
▁유가	-13392
▁육류	-13393
▁을껄	-13394
▁음질	-13395
▁이브	-13396
▁인류	-13397
▁인한	-13398
▁자다	-13399
▁잠그	-13400
▁재발	-13401
▁쟁반	-13402
▁저작	-13403
▁전력	-13404
▁전상	-13405
▁제껴	-13406
▁줨덴	-13407
▁즌엔	-13408
▁진디	-13409
▁진부	-13410
▁질렸	-13411
▁쫀득	-13412
▁쯧쯧	-13413
▁차돌	-13414
▁차인	-13415
▁찬양	-13416
▁철없	-13417
▁쳐져	-13418
▁초매	-13419
▁초조	-13420
▁최애	-13421
▁출혈	-13422
▁친분	-13423
▁칼러	-13424
▁캐리	-13425
▁캡틴	-13426
▁컸었	-13427
▁켜져	-13428
▁키위	-13429
▁킨다	-13430
▁티즈	-13431
▁퍼먹	-13432
▁학위	-13433
▁항생	-13434
▁혐의	-13435
▁혼동	-13436
▁홍시	-13437
▁홍실	-13438
▁화폐	-13439
▁환승	-13440
▁황제	-13441
▁흐지	-13442
떨어지	-13443
▁가습기	-13444
▁거래처	-13445
▁겅하당	-13446
▁경쟁력	-13447
▁고만하	-13448
▁괴로웠	-13449
▁글쎄요	-13450
▁끌려가	-13451
▁내다보	-13452
▁노이즈	-13453
▁는지요	-13454
▁늘어났	-13455
▁더더욱	-13456
▁도로는	-13457
▁드릴까	-13458
▁땅바닥	-13459
▁려다가	-13460
▁릅디다	-13461
▁만난다	-13462
▁매니아	-13463
▁매운맛	-13464
▁발자국	-13465
▁베이지	-13466
▁보재기	-13467
▁보증금	-13468
▁부렝이	-13469
▁사업자	-13470
▁상하차	-13471
▁식용유	-13472
▁신경질	-13473
▁쓰러진	-13474
▁아무렇	-13475
▁알려줘	-13476
▁앞자리	-13477
▁야시장	-13478
▁얘긴디	-13479
▁어긋나	-13480
▁연기력	-13481
▁영화제	-13482
▁예고편	-13483
▁올라고	-13484
▁요전번	-13485
▁으셔야	-13486
▁음악회	-13487
▁이용하	-13488
▁일주일	-13489
▁정서방	-13490
▁친환경	-13491
▁콩질금	-13492
▁토스트	-13493
▁투성이	-13494
▁풀어놓	-13495
▁플레인	-13496
▁해치우	-13497
▁개구락지	-13498
▁날라다니	-13499
▁돌아와서	-13500
▁모른다는	-13501
▁아름다워	-13502
▁아티스트	-13503
▁어쩌다가	-13504
▁음주운전	-13505
▁쬐끄만한	-13506
▁한다는디	-13507
▁흐지부지	-13508
▁패러글라이딩	-13509
▁릭	-13510
개장	-13511
꼭지	-13512
덕찌	-13513
디야	-13514
뜨렸	-13515
라당	-13516
락사	-13517
메달	-13518
밀리	-13519
버릇	-13520
베이	-13521
불명	-13522
시원	-13523
진영	-13524
카라	-13525
티벌	-13526
회장	-13527
▁가나	-13528
▁감주	-13529
▁갓난	-13530
▁강경	-13531
▁개업	-13532
▁격차	-13533
▁견이	-13534
▁고디	-13535
▁고조	-13536
▁곳곳	-13537
▁관여	-13538
▁구영	-13539
▁귀국	-13540
▁그쯤	-13541
▁극한	-13542
▁금세	-13543
▁긴요	-13544
▁김희	-13545
▁까마	-13546
▁끄덕	-13547
▁날르	-13548
▁내치	-13549
▁냅뒀	-13550
▁놔둘	-13551
▁놨뒀	-13552
▁는고	-13553
▁다더	-13554
▁더불	-13555
▁데모	-13556
▁데워	-13557
▁동이	-13558
▁랜덤	-13559
▁마찰	-13560
▁말기	-13561
▁맛깔	-13562
▁맞히	-13563
▁맹물	-13564
▁멈췄	-13565
▁모나	-13566
▁무주	-13567
▁물기	-13568
▁물렁	-13569
▁미남	-13570
▁미야	-13571
▁믿기	-13572
▁바베	-13573
▁백두	-13574
▁백억	-13575
▁벅차	-13576
▁변동	-13577
▁보온	-13578
▁부뚜	-13579
▁부성	-13580
▁부조	-13581
▁북적	-13582
▁불제	-13583
▁붙임	-13584
▁비겁	-13585
▁비계	-13586
▁비극	-13587
▁뻑뻑	-13588
▁뿌수	-13589
▁사와	-13590
▁산뜻	-13591
▁색소	-13592
▁생수	-13593
▁서해	-13594
▁석두	-13595
▁세균	-13596
▁셀카	-13597
▁소서	-13598
▁솔잎	-13599
▁송가	-13600
▁수마	-13601
▁숙모	-13602
▁숙주	-13603
▁숨길	-13604
▁시큰	-13605
▁실주	-13606
▁쏙쏙	-13607
▁알제	-13608
▁앤디	-13609
▁어멈	-13610
▁어인	-13611
▁업계	-13612
▁열나	-13613
▁열릴	-13614
▁오질	-13615
▁오하	-13616
▁완치	-13617
▁울렸	-13618
▁워떻	-13619
▁워뗘	-13620
▁월남	-13621
▁위혀	-13622
▁유교	-13623
▁유해	-13624
▁인어	-13625
▁인젠	-13626
▁일체	-13627
▁자판	-13628
▁장교	-13629
▁장대	-13630
▁재원	-13631
▁전제	-13632
▁절실	-13633
▁좌절	-13634
▁줸은	-13635
▁쥐똥	-13636
▁진흙	-13637
▁질릴	-13638
▁집회	-13639
▁짜구	-13640
▁차꼬	-13641
▁채림	-13642
▁챔프	-13643
▁첨단	-13644
▁청첩	-13645
▁쳐먹	-13646
▁추수	-13647
▁취지	-13648
▁콧구	-13649
▁투입	-13650
▁트랙	-13651
▁퍼뜩	-13652
▁편성	-13653
▁펼치	-13654
▁평지	-13655
▁풀린	-13656
▁프피	-13657
▁피피	-13658
▁핑장	-13659
▁하군	-13660
▁하차	-13661
▁한담	-13662
▁한화	-13663
▁항의	-13664
▁해남	-13665
▁해방	-13666
▁허먼	-13667
▁협찬	-13668
▁화물	-13669
▁확대	-13670
▁회담	-13671
▁훌쩍	-13672
갯소리	-13673
덕찌덕	-13674
▁가만있	-13675
▁갔으니	-13676
▁강호동	-13677
▁거린다	-13678
▁걸어오	-13679
▁겠다는	-13680
▁계란찜	-13681
▁공포증	-13682
▁궁금증	-13683
▁그지만	-13684
▁깜빡이	-13685
▁나뭇잎	-13686
▁난다는	-13687
▁둘러싸	-13688
▁리스크	-13689
▁머리숱	-13690
▁무너져	-13691
▁바빠요	-13692
▁방구석	-13693
▁버러지	-13694
▁벗겨지	-13695
▁불국사	-13696
▁뿌러진	-13697
▁사무직	-13698
▁소방관	-13699
▁시오야	-13700
▁시트콤	-13701
▁아라우	-13702
▁아픈가	-13703
▁알려준	-13704
▁오페라	-13705
▁온전히	-13706
▁올려서	-13707
▁유모차	-13708
▁육개장	-13709
▁읃어먹	-13710
▁이야긴	-13711
▁인데두	-13712
▁일으켰	-13713
▁자가용	-13714
▁자빠졌	-13715
▁주문진	-13716
▁지점장	-13717
▁코끼리	-13718
▁타이틀	-13719
▁피드백	-13720
▁한다니	-13721
▁간다니까	-13722
▁기말고사	-13723
▁길고양이	-13724
▁나온다는	-13725
▁된다구요	-13726
▁마스카라	-13727
▁미성년자	-13728
▁아이러니	-13729
▁오리지널	-13730
▁찌덕찌덕	-13731
▁페스티벌	-13732
▁우스갯소리	-13733
▁빔	-13734
고락	-13735
공주	-13736
꿈치	-13737
느니	-13738
다닐	-13739
닫이	-13740
덕션	-13741
드릴	-13742
러웠	-13743
만감	-13744
모레	-13745
모로	-13746
반지	-13747
받침	-13748
부절	-13749
사태	-13750
상가	-13751
어가	-13752
운다	-13753
의식	-13754
이까	-13755
이러	-13756
이팅	-13757
인공	-13758
전자	-13759
주부	-13760
지심	-13761
진진	-13762
쪼끔	-13763
커스	-13764
▁가자	-13765
▁갈구	-13766
▁갈앙	-13767
▁감량	-13768
▁감춰	-13769
▁개고	-13770
▁갱장	-13771
▁거야	-13772
▁거참	-13773
▁걸언	-13774
▁걸이	-13775
▁고발	-13776
▁골안	-13777
▁공단	-13778
▁과서	-13779
▁구애	-13780
▁구지	-13781
▁구축	-13782
▁군번	-13783
▁궁리	-13784
▁귀티	-13785
▁기고	-13786
▁김은	-13787
▁김해	-13788
▁꺼진	-13789
▁꾸불	-13790
▁끊겨	-13791
▁끼우	-13792
▁낑낑	-13793
▁나눔	-13794
▁나돌	-13795
▁나발	-13796
▁나팔	-13797
▁내림	-13798
▁낼려	-13799
▁노상	-13800
▁녹여	-13801
▁녹초	-13802
▁놓이	-13803
▁단감	-13804
▁당선	-13805
▁대견	-13806
▁대궁	-13807
▁대안	-13808
▁도배	-13809
▁드난	-13810
▁들일	-13811
▁뚫린	-13812
▁랄지	-13813
▁로군	-13814
▁로웠	-13815
▁리다	-13816
▁마새	-13817
▁맥힌	-13818
▁메타	-13819
▁무랑	-13820
▁물정	-13821
▁배설	-13822
▁백인	-13823
▁버섭	-13824
▁베껴	-13825
▁별것	-13826
▁부들	-13827
▁부럼	-13828
▁분디	-13829
▁분사	-13830
▁빈티	-13831
▁빽빽	-13832
▁사납	-13833
▁사제	-13834
▁생태	-13835
▁샤프	-13836
▁서럽	-13837
▁서면	-13838
▁서여	-13839
▁석사	-13840
▁소감	-13841
▁속인	-13842
▁스몰	-13843
▁시신	-13844
▁신단	-13845
▁심배	-13846
▁쑥쑥	-13847
▁쓸데	-13848
▁씻겨	-13849
▁아노	-13850
▁악역	-13851
▁안절	-13852
▁애호	-13853
▁얄밉	-13854
▁얼루	-13855
▁여관	-13856
▁여의	-13857
▁연차	-13858
▁오빨	-13859
▁올꺼	-13860
▁옵시	-13861
▁요놈	-13862
▁요약	-13863
▁원조	-13864
▁월료	-13865
▁유비	-13866
▁유효	-13867
▁이메	-13868
▁인위	-13869
▁일진	-13870
▁입안	-13871
▁입언	-13872
▁자랄	-13873
▁자서	-13874
▁잔칫	-13875
▁장부	-13876
▁정낭	-13877
▁제끼	-13878
▁주랑	-13879
▁쥬게	-13880
▁지양	-13881
▁지카	-13882
▁직무	-13883
▁진리	-13884
▁짝짝	-13885
▁채려	-13886
▁채사	-13887
▁책방	-13888
▁책장	-13889
▁체가	-13890
▁총기	-13891
▁최곤	-13892
▁축소	-13893
▁치명	-13894
▁친딸	-13895
▁커녕	-13896
▁케빈	-13897
▁클났	-13898
▁탁자	-13899
▁터주	-13900
▁토목	-13901
▁통로	-13902
▁통보	-13903
▁통풍	-13904
▁튕기	-13905
▁특전	-13906
▁파고	-13907
▁파릇	-13908
▁팔린	-13909
▁팽이	-13910
▁피크	-13911
▁하연	-13912
▁학문	-13913
▁한결	-13914
▁허름	-13915
▁호응	-13916
▁홀리	-13917
▁후문	-13918
립니다	-13919
▁걸어갈	-13920
▁결과물	-13921
▁고장나	-13922
▁골고로	-13923
▁그까는	-13924
▁그랜드	-13925
▁기억력	-13926
▁김영란	-13927
▁꺼무리	-13928
▁나눠서	-13929
▁나아질	-13930
▁낙하산	-13931
▁납니다	-13932
▁내세울	-13933
▁놨더니	-13934
▁다를까	-13935
▁도바이	-13936
▁돌아감	-13937
▁들여서	-13938
▁따른데	-13939
▁떠내려	-13940
▁뚝배기	-13941
▁로다가	-13942
▁마라톤	-13943
▁메이저	-13944
▁모질라	-13945
▁무르팍	-13946
▁물려주	-13947
▁미디어	-13948
▁바베큐	-13949
▁바이랑	-13950
▁배고플	-13951
▁번다고	-13952
▁병아리	-13953
▁병치레	-13954
▁보톡스	-13955
▁사라질	-13956
▁사이드	-13957
▁생김새	-13958
▁소린지	-13959
▁시러운	-13960
▁실까요	-13961
▁실시간	-13962
▁십니더	-13963
▁씅질이	-13964
▁아가리	-13965
▁아무데	-13966
▁우러나	-13967
▁울릉도	-13968
▁으신데	-13969
▁을께요	-13970
▁이대로	-13971
▁이라구	-13972
▁이뻐서	-13973
▁장딴지	-13974
▁정구지	-13975
▁제습기	-13976
▁통신사	-13977
▁파운데	-13978
▁편해졌	-13979
▁포만감	-13980
▁한당께	-13981
▁헤드셋	-13982
▁형제간	-13983
▁후루룩	-13984
▁갔으니께	-13985
▁그릏지만	-13986
▁그리구서	-13987
▁다녀와서	-13988
▁단발머리	-13989
▁떨어뜨리	-13990
▁부대찌개	-13991
▁안절부절	-13992
▁움직여야	-13993
▁이러이러	-13994
▁쪼끔쪼끔	-13995
▁케이블카	-13996
▁흥미진진	-13997
▁전자레인지	-13998
▁파운데이션	-13999
▁하이라이트	-14000
▁셉	-14001
거니	-14002
기는	-14003
도그	-14004
보다	-14005
이면	-14006
자루	-14007
저럭	-14008
조심	-14009
주름	-14010
지간	-14011
질구	-14012
차근	-14013
차림	-14014
코트	-14015
택시	-14016
팔트	-14017
푸석	-14018
해야	-14019
▁가분	-14020
▁간질	-14021
▁간통	-14022
▁강철	-14023
▁개론	-14024
▁개입	-14025
▁갠디	-14026
▁게리	-14027
▁고우	-14028
▁골든	-14029
▁공수	-14030
▁공황	-14031
▁교제	-14032
▁구단	-14033
▁국악	-14034
▁금년	-14035
▁길렀	-14036
▁김종	-14037
▁까부	-14038
▁까져	-14039
▁꿀밤	-14040
▁나눈	-14041
▁나락	-14042
▁나태	-14043
▁난단	-14044
▁납품	-14045
▁냐이	-14046
▁네트	-14047
▁논쟁	-14048
▁다란	-14049
▁닥터	-14050
▁닭살	-14051
▁담요	-14052
▁대포	-14053
▁덤벼	-14054
▁도심	-14055
▁독신	-14056
▁돌방	-14057
▁동부	-14058
▁두께	-14059
▁두에	-14060
▁린디	-14061
▁마담	-14062
▁마십	-14063
▁마한	-14064
▁말다	-14065
▁말마	-14066
▁맹세	-14067
▁명동	-14068
▁명성	-14069
▁명함	-14070
▁모영	-14071
▁모텔	-14072
▁무제	-14073
▁물래	-14074
▁뭘루	-14075
▁밀렸	-14076
▁박살	-14077
▁박히	-14078
▁발굴	-14079
▁발란	-14080
▁배리	-14081
▁백이	-14082
▁백제	-14083
▁버물	-14084
▁법안	-14085
▁복근	-14086
▁북극	-14087
▁북쪽	-14088
▁불타	-14089
▁블럭	-14090
▁비관	-14091
▁비눌	-14092
▁비록	-14093
▁빠를	-14094
▁빨강	-14095
▁사안	-14096
▁사친	-14097
▁사흘	-14098
▁삭막	-14099
▁삼양	-14100
▁서시	-14101
▁서희	-14102
▁선천	-14103
▁섭외	-14104
▁성거	-14105
▁세멘	-14106
▁셰프	-14107
▁소디	-14108
▁소태	-14109
▁수완	-14110
▁수천	-14111
▁수필	-14112
▁순종	-14113
▁스나	-14114
▁시끌	-14115
▁시유	-14116
▁시일	-14117
▁신곡	-14118
▁신생	-14119
▁실연	-14120
▁실크	-14121
▁심야	-14122
▁안일	-14123
▁안장	-14124
▁암컷	-14125
▁앞길	-14126
▁액티	-14127
▁야한	-14128
▁양개	-14129
▁업자	-14130
▁연두	-14131
▁염이	-14132
▁올인	-14133
▁옮긴	-14134
▁와유	-14135
▁왐쪄	-14136
▁왕래	-14137
▁왼손	-14138
▁요갈	-14139
▁이북	-14140
▁이인	-14141
▁인화	-14142
▁일절	-14143
▁임창	-14144
▁자러	-14145
▁자우	-14146
▁잘사	-14147
▁장날	-14148
▁장성	-14149
▁장장	-14150
▁장착	-14151
▁저긴	-14152
▁저냥	-14153
▁적적	-14154
▁전어	-14155
▁전임	-14156
▁전한	-14157
▁절러	-14158
▁정월	-14159
▁제어	-14160
▁조별	-14161
▁조천	-14162
▁중시	-14163
▁중지	-14164
▁쥬스	-14165
▁즉시	-14166
▁즉어	-14167
▁증개	-14168
▁지극	-14169
▁지언	-14170
▁지퍼	-14171
▁직관	-14172
▁직종	-14173
▁진급	-14174
▁진생	-14175
▁징역	-14176
▁짜릿	-14177
▁짝퉁	-14178
▁쪼깨	-14179
▁쭈욱	-14180
▁차차	-14181
▁창작	-14182
▁체더	-14183
▁치안	-14184
▁카세	-14185
▁커진	-14186
▁클립	-14187
▁탈퇴	-14188
▁통틀	-14189
▁티어	-14190
▁파토	-14191
▁팔렸	-14192
▁패배	-14193
▁팩스	-14194
▁퍼부	-14195
▁평판	-14196
▁폐렴	-14197
▁폐차	-14198
▁표선	-14199
▁피대	-14200
▁피스	-14201
▁피어	-14202
▁하가	-14203
▁학회	-14204
▁혼사	-14205
▁혼주	-14206
▁홈플	-14207
▁황후	-14208
▁회이	-14209
▁흉내	-14210
랍니다	-14211
조리원	-14212
▁갈래요	-14213
▁건강식	-14214
▁게시물	-14215
▁계산서	-14216
▁그럴라	-14217
▁놀러갔	-14218
▁대잖아	-14219
▁던가요	-14220
▁도망간	-14221
▁드니만	-14222
▁듭니까	-14223
▁따라잡	-14224
▁라더라	-14225
▁몰라두	-14226
▁미스트	-14227
▁밀가리	-14228
▁밀어주	-14229
▁바쁜데	-14230
▁반대편	-14231
▁베이컨	-14232
▁볼라면	-14233
▁부러졌	-14234
▁부사관	-14235
▁불러도	-14236
▁손잡이	-14237
▁수돗물	-14238
▁스노우	-14239
▁스키니	-14240
▁신분증	-14241
▁심해졌	-14242
▁아니야	-14243
▁알코올	-14244
▁앵무새	-14245
▁얘긴데	-14246
▁어벤져	-14247
▁어찌나	-14248
▁운동복	-14249
▁원해서	-14250
▁이등병	-14251
▁이래서	-14252
▁이봐요	-14253
▁일으켜	-14254
▁장윤정	-14255
▁저지른	-14256
▁정신병	-14257
▁졌으면	-14258
▁조심히	-14259
▁졸업장	-14260
▁지리기	-14261
▁차려입	-14262
▁찾아올	-14263
▁촌시럽	-14264
▁추워져	-14265
▁크루즈	-14266
▁핫도그	-14267
▁해결책	-14268
▁해봐야	-14269
▁호흡기	-14270
▁겅행으네	-14271
▁꼽슬머리	-14272
▁느껴져서	-14273
▁돌아다닌	-14274
▁들어와요	-14275
▁라면서요	-14276
▁배고파서	-14277
▁아스팔트	-14278
▁아이라인	-14279
▁액티비티	-14280
▁어려워하	-14281
▁여러모로	-14282
▁여주인공	-14283
▁오락가락	-14284
▁정년퇴직	-14285
▁차근차근	-14286
▁푸석푸석	-14287
▁홈플러스	-14288
▁산후조리원	-14289
▁륜	-14290
가죽	-14291
감지	-14292
거라	-14293
구마	-14294
꺼리	-14295
리오	-14296
보라	-14297
빼기	-14298
센스	-14299
승우	-14300
애플	-14301
워야	-14302
자재	-14303
장난	-14304
정리	-14305
태기	-14306
통수	-14307
▁간만	-14308
▁갈고	-14309
▁감귤	-14310
▁강연	-14311
▁개강	-14312
▁개마	-14313
▁개정	-14314
▁거사	-14315
▁거인	-14316
▁건성	-14317
▁격식	-14318
▁결단	-14319
▁경호	-14320
▁고성	-14321
▁그뜩	-14322
▁근체	-14323
▁기면	-14324
▁기안	-14325
▁기염	-14326
▁기와	-14327
▁김간	-14328
▁깐깐	-14329
▁깔깔	-14330
▁깥이	-14331
▁깨어	-14332
▁꾸마	-14333
▁꿈틀	-14334
▁나고	-14335
▁날러	-14336
▁남부	-14337
▁남진	-14338
▁넓혀	-14339
▁노루	-14340
▁노마	-14341
▁녹두	-14342
▁놀랠	-14343
▁놔둔	-14344
▁놨을	-14345
▁눌려	-14346
▁니더	-14347
▁담근	-14348
▁대응	-14349
▁대주	-14350
▁대할	-14351
▁댄디	-14352
▁데예	-14353
▁되찾	-14354
▁래여	-14355
▁레트	-14356
▁르고	-14357
▁만질	-14358
▁말지	-14359
▁말행	-14360
▁망친	-14361
▁매사	-14362
▁맹근	-14363
▁맹맹	-14364
▁멀국	-14365
▁멍들	-14366
▁모투	-14367
▁무장	-14368
▁문전	-14369
▁물티	-14370
▁미생	-14371
▁미아	-14372
▁밀크	-14373
▁박서	-14374
▁반겨	-14375
▁밤늦	-14376
▁방정	-14377
▁밭일	-14378
▁배미	-14379
▁배제	-14380
▁벤지	-14381
▁복원	-14382
▁부닥	-14383
▁부어	-14384
▁분배	-14385
▁불판	-14386
▁비위	-14387
▁비이	-14388
▁빌릴	-14389
▁빳는	-14390
▁삐져	-14391
▁사로	-14392
▁사온	-14393
▁살갑	-14394
▁생색	-14395
▁선고	-14396
▁선별	-14397
▁성별	-14398
▁세단	-14399
▁속아	-14400
▁수양	-14401
▁스웨	-14402
▁시차	-14403
▁식모	-14404
▁신식	-14405
▁싸난	-14406
▁쓰일	-14407
▁아만	-14408
▁아물	-14409
▁악당	-14410
▁악용	-14411
▁안목	-14412
▁양약	-14413
▁양양	-14414
▁언매	-14415
▁에바	-14416
▁여상	-14417
▁여잘	-14418
▁엮이	-14419
▁열풍	-14420
▁온댜	-14421
▁와플	-14422
▁외웠	-14423
▁유언	-14424
▁유쾌	-14425
▁윤리	-14426
▁음치	-14427
▁이을	-14428
▁인권	-14429
▁인부	-14430
▁일손	-14431
▁임상	-14432
▁자른	-14433
▁작하	-14434
▁잠간	-14435
▁잠기	-14436
▁잠재	-14437
▁잡곡	-14438
▁장두	-14439
▁재단	-14440
▁절개	-14441
▁절단	-14442
▁절절	-14443
▁점원	-14444
▁정산	-14445
▁제빵	-14446
▁중구	-14447
▁즉석	-14448
▁지딱	-14449
▁진수	-14450
▁진출	-14451
▁질서	-14452
▁쪼잔	-14453
▁찐다	-14454
▁창출	-14455
▁채례	-14456
▁처형	-14457
▁척추	-14458
▁철철	-14459
▁청량	-14460
▁청장	-14461
▁청한	-14462
▁촐리	-14463
▁최후	-14464
▁취할	-14465
▁치이	-14466
▁침묵	-14467
▁케미	-14468
▁키지	-14469
▁탄생	-14470
▁탑동	-14471
▁태아	-14472
▁토백	-14473
▁틈틈	-14474
▁티나	-14475
▁판결	-14476
▁팔짱	-14477
▁팽팽	-14478
▁포근	-14479
▁폭설	-14480
▁행여	-14481
▁향상	-14482
▁허브	-14483
▁허신	-14484
▁헤쳐	-14485
▁홍길	-14486
▁효녀	-14487
▁흔드	-14488
▁흥얼	-14489
▁히터	-14490
레이터	-14491
어머니	-14492
어져서	-14493
▁개개인	-14494
▁계산기	-14495
▁계신지	-14496
▁계약금	-14497
▁고구려	-14498
▁공감대	-14499
▁관리사	-14500
▁근까는	-14501
▁글로벌	-14502
▁기저귀	-14503
▁나빠서	-14504
▁나올까	-14505
▁	-14506
이	-14507
가	-14508
그	-14509
.	-14510
는	-14511
아	-14512
하	-14513
어	-14514
고	-14515
지	-14516
거	-14517
나	-14518
다	-14519
에	-14520
게	-14521
라	-14522
서	-14523
도	-14524
구	-14525
기	-14526
은	-14527
을	-14528
니	-14529
사	-14530
?	-14531
있	-14532
해	-14533
한	-14534
리	-14535
들	-14536
쫌	-14537
디	-14538
제	-14539
데	-14540
요	-14541
시	-14542
꼬	-14543
주	-14544
를	-14545
인	-14546
내	-14547
보	-14548
안	-14549
야	-14550
우	-14551
자	-14552
로	-14553
대	-14554
마	-14555
으	-14556
까	-14557
만	-14558
느	-14559
래	-14560
두	-14561
여	-14562
런	-14563
께	-14564
일	-14565
같	-14566
말	-14567
오	-14568
근	-14569
부	-14570
때	-14571
면	-14572
되	-14573
무	-14574
수	-14575
난	-14576
생	-14577
케	-14578
간	-14579
신	-14580
드	-14581
막	-14582
러	-14583
네	-14584
저	-14585
뭐	-14586
었	-14587
것	-14588
좋	-14589
예	-14590
많	-14591
너	-14592
했	-14593
먹	-14594
믄	-14595
더	-14596
진	-14597
애	-14598
할	-14599
또	-14600
상	-14601
르	-14602
정	-14603
스	-14604
장	-14605
머	-14606
각	-14607
없	-14608
잘	-14609
전	-14610
유	-14611
랑	-14612
긍	-14613
의	-14614
바	-14615
짜	-14616
람	-14617
모	-14618
든	-14619
~	-14620
려	-14621
건	-14622
냥	-14623
좀	-14624
금	-14625
허	-14626
비	-14627
치	-14628
영	-14629
날	-14630
번	-14631
집	-14632
개	-14633
원	-14634
미	-14635
약	-14636
잖	-14637
동	-14638
걸	-14639
잉	-14640
냐	-14641
알	-14642
민	-14643
른	-14644
던	-14645
못	-14646
소	-14647
겠	-14648
살	-14649
물	-14650
음	-14651
않	-14652
재	-14653
화	-14654
경	-14655
당	-14656
루	-14657
적	-14658
세	-14659
문	-14660
와	-14661
매	-14662
레	-14663
중	-14664
실	-14665
노	-14666
운	-14667
따	-14668
학	-14669
분	-14670
단	-14671
식	-14672
엄	-14673
싶	-14674
행	-14675
방	-14676
왜	-14677
겨	-14678
언	-14679
봐	-14680
성	-14681
테	-14682
히	-14683
트	-14684
차	-14685
카	-14686
았	-14687
계	-14688
긴	-14689
타	-14690
얘	-14691
교	-14692
조	-14693
불	-14694
심	-14695
싸	-14696
선	-14697
남	-14698
친	-14699
님	-14700
십	-14701
새	-14702
연	-14703
맞	-14704
워	-14705
양	-14706
달	-14707
빠	-14708
램	-14709
입	-14710
공	-14711
갔	-14712
배	-14713
쪼	-14714
속	-14715
누	-14716
버	-14717
터	-14718
과	-14719
돈	-14720
얼	-14721
받	-14722
편	-14723
글	-14724
갖	-14725
국	-14726
올	-14727
본	-14728
강	-14729
끔	-14730
직	-14731
갈	-14732
혼	-14733
울	-14734
년	-14735
겅	-14736
봤	-14737
처	-14738
질	-14739
된	-14740
먼	-14741
줄	-14742
키	-14743
작	-14744
증	-14745
관	-14746
산	-14747
피	-14748
멍	-14749
돼	-14750
져	-14751
티	-14752
맨	-14753
왔	-14754
놀	-14755
반	-14756
감	-14757
혀	-14758
회	-14759
청	-14760
몰	-14761
딱	-14762
발	-14763
맛	-14764
뭔	-14765
씨	-14766
렇	-14767
명	-14768
위	-14769
크	-14770
추	-14771
삼	-14772
참	-14773
돌	-14774
쓰	-14775
름	-14776
통	-14777
럼	-14778
습	-14779
점	-14780
덜	-14781
길	-14782
호	-14783
랬	-14784
용	-14785
격	-14786
힘	-14787
담	-14788
체	-14789
결	-14790
온	-14791
끼	-14792
린	-14793
프	-14794
응	-14795
코	-14796
억	-14797
메	-14798
파	-14799
랜	-14800
석	-14801
눈	-14802
겄	-14803
될	-14804
녀	-14805
태	-14806
임	-14807
즘	-14808
헌	-14809
완	-14810
별	-14811
짝	-14812
볼	-14813
절	-14814
밥	-14815
준	-14816
놓	-14817
천	-14818
손	-14819
뜨	-14820
닮	-14821
댄	-14822
꾸	-14823
됐	-14824
란	-14825
업	-14826
잡	-14827
백	-14828
굼	-14829
댕	-14830
외	-14831
망	-14832
등	-14833
엔	-14834
죽	-14835
곡	-14836
형	-14837
빨	-14838
줘	-14839
큰	-14840
핸	-14841
몇	-14842
죠	-14843
후	-14844
릏	-14845
셨	-14846
였	-14847
목	-14848
암	-14849
꺼	-14850
씩	-14851
락	-14852
팔	-14853
군	-14854
쪽	-14855
술	-14856
껴	-14857
론	-14858
열	-14859
괜	-14860
떤	-14861
늘	-14862
릴	-14863
움	-14864
박	-14865
복	-14866
렸	-14867
겁	-14868
육	-14869
닌	-14870
찾	-14871
앞	-14872
초	-14873
력	-14874
젠	-14875
써	-14876
싫	-14877
월	-14878
났	-14879
브	-14880
땜	-14881
겐	-14882
둘	-14883
끝	-14884
찮	-14885
포	-14886
벌	-14887
옷	-14888
활	-14889
졌	-14890
솔	-14891
항	-14892
잔	-14893
찌	-14894
필	-14895
몸	-14896
역	-14897
슨	-14898
취	-14899
토	-14900
혹	-14901
험	-14902
깐	-14903
종	-14904
병	-14905
갑	-14906
책	-14907
떠	-14908
딴	-14909
넘	-14910
쳐	-14911
냉	-14912
커	-14913
골	-14914
색	-14915
설	-14916
족	-14917
째	-14918
잠	-14919
귀	-14920
밌	-14921
즌	-14922
튼	-14923
딸	-14924
찍	-14925
켜	-14926
즈	-14927
칠	-14928
극	-14929
깨	-14930
왕	-14931
겡	-14932
합	-14933
밖	-14934
최	-14935
김	-14936
현	-14937
듣	-14938
순	-14939
출	-14940
걔	-14941
품	-14942
투	-14943
셔	-14944
꼭	-14945
텨	-14946
떵	-14947
굴	-14948
변	-14949
걍	-14950
럴	-14951
떨	-14952
찬	-14953
급	-14954
뒤	-14955
렁	-14956
함	-14957
쉬	-14958
옛	-14959
씸	-14960
법	-14961
넹	-14962
쁘	-14963
웃	-14964
앙	-14965
닥	-14966
특	-14967
럽	-14968
뭘	-14969
엉	-14970
채	-14971
독	-14972
침	-14973
접	-14974
평	-14975
확	-14976
쩌	-14977
플	-14978
낌	-14979
표	-14980
낭	-14981
능	-14982
놈	-14983
놔	-14984
넣	-14985
끄	-14986
빼	-14987
향	-14988
희	-14989
악	-14990
똑	-14991
앉	-14992
택	-14993
*	-14994
줬	-14995
황	-14996
겼	-14997
챙	-14998
록	-14999
맘	-15000
밤	-15001
판	-15002
창	-15003
댜	-15004
묵	-15005
틀	-15006
풀	-15007
옴	-15008
곳	-15009
송	-15010
논	-15011
겉	-15012
짓	-15013
햄	-15014
웠	-15015
련	-15016
짐	-15017
답	-15018
붙	-15019
충	-15020
슬	-15021
땐	-15022
베	-15023
옆	-15024
료	-15025
폰	-15026
패	-15027
페	-15028
싱	-15029
욕	-15030
떡	-15031
림	-15032
며	-15033
환	-15034
헤	-15035
쉽	-15036
랐	-15037
블	-15038
쁜	-15039
캐	-15040
축	-15041
밀	-15042
착	-15043
승	-15044
광	-15045
쎄	-15046
쇼	-15047
뿌	-15048
텐	-15049
섯	-15050
견	-15051
갱	-15052
맹	-15053
멘	-15054
검	-15055
늦	-15056
펜	-15057
꿈	-15058
휴	-15059
퍼	-15060
궁	-15061
놨	-15062
류	-15063
쿠	-15064
깔	-15065
탕	-15066
곤	-15067
핑	-15068
믿	-15069
빵	-15070
큼	-15071
쌤	-15072
봉	-15073
탄	-15074
쓸	-15075
롱	-15076
농	-15077
철	-15078
숙	-15079
녁	-15080
멀	-15081
읽	-15082
빡	-15083
엣	-15084
령	-15085
캤	-15086
섭	-15087
듯	-15088
염	-15089
봔	-15090
씀	-15091
젊	-15092
봄	-15093
둥	-15094
풍	-15095
괴	-15096
션	-15097
벨	-15098
낼	-15099
덴	-15100
죄	-15101
탁	-15102
넌	-15103
헐	-15104
뛰	-15105
걱	-15106
익	-15107
샀	-15108
닐	-15109
쯤	-15110
룩	-15111
꼼	-15112
존	-15113
꽃	-15114
척	-15115
멋	-15116
똥	-15117
벵	-15118
덕	-15119
높	-15120
권	-15121
북	-15122
혔	-15123
클	-15124
뻐	-15125
렀	-15126
핵	-15127
끊	-15128
낳	-15129
픈	-15130
곱	-15131
쟁	-15132
몬	-15133
깜	-15134
맥	-15135
싼	-15136
슴	-15137
빌	-15138
탈	-15139
꼈	-15140
땅	-15141
츠	-15142
졸	-15143
밑	-15144
꽈	-15145
낙	-15146
팀	-15147
덩	-15148
넷	-15149
잰	-15150
즐	-15151
냈	-15152
촌	-15153
징	-15154
칭	-15155
퇴	-15156
갸	-15157
뜻	-15158
쳤	-15159
냑	-15160
첫	-15161
낸	-15162
렵	-15163
범	-15164
낮	-15165
숨	-15166
끌	-15167
첨	-15168
밭	-15169
냄	-15170
쩔	-15171
푸	-15172
뜬	-15173
뿐	-15174
델	-15175
땡	-15176
잊	-15177
쪄	-15178
롤	-15179
떼	-15180
므	-15181
컴	-15182
널	-15183
멩	-15184
킨	-15185
춘	-15186
춰	-15187
벤	-15188
홍	-15189
값	-15190
딩	-15191
액	-15192
념	-15193
짤	-15194
량	-15195
벽	-15196
끓	-15197
찰	-15198
샹	-15199
닭	-15200
싹	-15201
립	-15202
콩	-15203
낫	-15204
쭈	-15205
혈	-15206
삐	-15207
획	-15208
굳	-15209
득	-15210
쌀	-15211
쌍	-15212
쌔	-15213
곧	-15214
센	-15215
폭	-15216
롭	-15217
칼	-15218
흔	-15219
효	-15220
뻔	-15221
털	-15222
쭐	-15223
읎	-15224
앵	-15225
뎅	-15226
걷	-15227
씬	-15228
슷	-15229
띠	-15230
갓	-15231
뽑	-15232
깝	-15233
눌	-15234
훈	-15235
얻	-15236
츰	-15237
층	-15238
뉴	-15239
럭	-15240
슈	-15241
끈	-15242
흥	-15243
켄	-15244
릿	-15245
훨	-15246
튀	-15247
튜	-15248
빈	-15249
꼴	-15250
꿀	-15251
삶	-15252
썼	-15253
줌	-15254
콤	-15255
뚜	-15256
벗	-15257
랭	-15258
짧	-15259
쌓	-15260
링	-15261
쨌	-15262
맡	-15263
쓴	-15264
볶	-15265
젱	-15266
꿔	-15267
총	-15268
둔	-15269
햐	-15270
웬	-15271
킬	-15272
썩	-15273
흘	-15274
맙	-15275
닷	-15276
댁	-15277
쬐	-15278
졍	-15279
릉	-15280
깡	-15281
웹	-15282
켔	-15283
묻	-15284
녹	-15285
례	-15286
렌	-15287
껀	-15288
릭	-15289
톡	-15290
맴	-15291
쩍	-15292
팅	-15293
퓨	-15294
텔	-15295
툰	-15296
렉	-15297
좌	-15298
칙	-15299
뭣	-15300
쭉	-15301
찐	-15302
샌	-15303
릇	-15304
씻	-15305
녔	-15306
엠	-15307
객	-15308
셋	-15309
깊	-15310
콘	-15311
늫	-15312
떻	-15313
둬	-15314
랄	-15315
붕	-15316
잇	-15317
땀	-15318
괘	-15319
즉	-15320
뒷	-15321
빛	-15322
넓	-15323
벼	-15324
컨	-15325
압	-15326
뚱	-15327
뵈	-15328
휘	-15329
납	-15330
엘	-15331
흐	-15332
넨	-15333
쇠	-15334
곰	-15335
랴	-15336
꽤	-15337
팬	-15338
멕	-15339
늙	-15340
쥐	-15341
뜩	-15342
규	-15343
웅	-15344
밲	-15345
쩡	-15346
삭	-15347
잃	-15348
븐	-15349
춤	-15350
헬	-15351
뽀	-15352
썰	-15353
롬	-15354
옥	-15355
딘	-15356
젤	-15357
샤	-15358
앤	-15359
뿔	-15360
꽁	-15361
젼	-15362
뚝	-15363
엽	-15364
턴	-15365
빙	-15366
닫	-15367
율	-15368
콜	-15369
굽	-15370
폐	-15371
춥	-15372
녕	-15373
닝	-15374
짱	-15375
뀌	-15376
샘	-15377
쏘	-15378
쫓	-15379
찔	-15380
딜	-15381
뱅	-15382
뭇	-15383
낀	-15384
밝	-15385
몽	-15386
힌	-15387
읍	-15388
벅	-15389
혜	-15390
껌	-15391
겹	-15392
쟤	-15393
쩐	-15394
홀	-15395
갠	-15396
쫄	-15397
협	-15398
컬	-15399
컸	-15400
-	-15401
욱	-15402
쥬	-15403
옮	-15404
덟	-15405
렴	-15406
홈	-15407
힐	-15408
긋	-15409
웨	-15410
섬	-15411
측	-15412
헹	-15413
콰	-15414
뇨	-15415
켓	-15416
듬	-15417
텀	-15418
뒀	-15419
홉	-15420
겔	-15421
껍	-15422
꾼	-15423
롯	-15424
팍	-15425
끗	-15426
꼽	-15427
짠	-15428
켰	-15429
킹	-15430
윤	-15431
팡	-15432
닦	-15433
햇	-15434
뼈	-15435
눠	-15436
룸	-15437
빤	-15438
봅	-15439
똘	-15440
폴	-15441
겟	-15442
찜	-15443
균	-15444
밍	-15445
낚	-15446
뜯	-15447
륵	-15448
딨	-15449
랍	-15450
엇	-15451
껏	-15452
갚	-15453
뤄	-15454
쌩	-15455
젓	-15456
탱	-15457
뮤	-15458
찝	-15459
낯	-15460
깎	-15461
캔	-15462
젖	-15463
둑	-15464
앴	-15465
덤	-15466
겍	-15467
룹	-15468
됩	-15469
헝	-15470
겪	-15471
솜	-15472
껄	-15473
펴	-15474
꽂	-15475
삘	-15476
섞	-15477
푹	-15478
녜	-15479
옵	-15480
템	-15481
쌈	-15482
왠	-15483
잤	-15484
흰	-15485
맻	-15486
왐	-15487
쥉	-15488
꽉	-15489
덮	-15490
률	-15491
캠	-15492
낄	-15493
댔	-15494
깽	-15495
잎	-15496
뭉	-15497
밟	-15498
붓	-15499
틴	-15500
쐬	-15501
탔	-15502
줍	-15503
숩	-15504
핀	-15505
쫍	-15506
갬	-15507
씹	-15508
죙	-15509
닿	-15510
옹	-15511
뷰	-15512
숫	-15513
숭	-15514
릎	-15515
냅	-15516
뺏	-15517
푼	-15518
띃	-15519
칸	-15520
퀴	-15521
쨋	-15522
탑	-15523
틱	-15524
귤	-15525
랫	-15526
쑥	-15527
엑	-15528
훌	-15529
쟈	-15530
갤	-15531
슥	-15532
좁	-15533
짼	-15534
묶	-15535
삔	-15536
얇	-15537
덥	-15538
멈	-15539
턱	-15540
멜	-15541
렝	-15542
얀	-15543
봥	-15544
릅	-15545
촉	-15546
룬	-15547
돋	-15548
벙	-15549
빚	-15550
줜	-15551
깃	-15552
컵	-15553
웡	-15554
묘	-15555
뇌	-15556
짬	-15557
퉁	-15558
멫	-15559
밴	-15560
쫙	-15561
퍽	-15562
뒈	-15563
헷	-15564
놩	-15565
큐	-15566
톱	-15567
쾌	-15568
뚫	-15569
읊	-15570
틈	-15571
흑	-15572
끕	-15573
댓	-15574
눔	-15575
뜰	-15576
겸	-15577
쏙	-15578
굶	-15579
쁠	-15580
쏠	-15581
핏	-15582
흉	-15583
픽	-15584
뱃	-15585
쎈	-15586
궈	-15587
즙	-15588
깥	-15589
빗	-15590
툭	-15591
팩	-15592
찢	-15593
팠	-15594
뺄	-15595
톤	-15596
짚	-15597
긁	-15598
뽕	-15599
흡	-15600
셀	-15601
꽝	-15602
띄	-15603
딪	-15604
콧	-15605
헙	-15606
썹	-15607
섰	-15608
뀐	-15609
넉	-15610
깍	-15611
엿	-15612
엥	-15613
왼	-15614
됨	-15615
볍	-15616
뽂	-15617
쵸	-15618
혁	-15619
똔	-15620
뺀	-15621
랙	-15622
,	-15623
꼐	-15624
팝	-15625
펑	-15626
땄	-15627
얌	-15628
펭	-15629
랩	-15630
탐	-15631
싰	-15632
팽	-15633
흙	-15634
쑤	-15635
헛	-15636
맑	-15637
헉	-15638
엎	-15639
뎌	-15640
폼	-15641
놘	-15642
찡	-15643
뺐	-15644
갯	-15645
쏟	-15646
꿨	-15647
멸	-15648
쩜	-15649
굉	-15650
꿉	-15651
썬	-15652
앨	-15653
쿨	-15654
헨	-15655
깟	-15656
됀	-15657
잣	-15658
쌌	-15659
앗	-15660
렛	-15661
벚	-15662
줸	-15663
컷	-15664
팥	-15665
탓	-15666
륭	-15667
옌	-15668
꺾	-15669
칫	-15670
뱀	-15671
밸	-15672
뵙	-15673
졈	-15674
힙	-15675
훔	-15676
쿰	-15677
썪	-15678
촐	-15679
펀	-15680
뗑	-15681
돗	-15682
샵	-15683
닙	-15684
땠	-15685
쪘	-15686
꾜	-15687
맵	-15688
핫	-15689
맺	-15690
솥	-15691
썽	-15692
숲	-15693
땃	-15694
뉘	-15695
믹	-15696
갰	-15697
빔	-15698
삽	-15699
룰	-15700
봇	-15701
팟	-15702
뻘	-15703
쉐	-15704
엊	-15705
촬	-15706
뢰	-15707
얄	-15708
꼰	-15709
녠	-15710
샐	-15711
쩨	-15712
찹	-15713
줏	-15714
쉴	-15715
셍	-15716
촘	-15717
굵	-15718
펄	-15719
얜	-15720
흠	-15721
맀	-15722
딲	-15723
략	-15724
뻗	-15725
옇	-15726
얹	-15727
뻤	-15728
옳	-15729
뻥	-15730
씌	-15731
꿍	-15732
숟	-15733
늠	-15734
벡	-15735
굿	-15736
뷔	-15737
쇄	-15738
뻬	-15739
듭	-15740
빅	-15741
첩	-15742
춧	-15743
융	-15744
팁	-15745
뻑	-15746
앓	-15747
썸	-15748
윗	-15749
윽	-15750
짖	-15751
쓱	-15752
떴	-15753
쿵	-15754
랗	-15755
빽	-15756
츳	-15757
덧	-15758
뗘	-15759
젝	-15760
껜	-15761
빴	-15762
띵	-15763
횟	-15764
껑	-15765
닉	-15766
헜	-15767
멧	-15768
뺑	-15769
곹	-15770
똣	-15771
귄	-15772
쉰	-15773
쭤	-15774
텡	-15775
쳔	-15776
풋	-15777
펼	-15778
츤	-15779
뱉	-15780
렷	-15781
멤	-15782
젯	-15783
꾀	-15784
셉	-15785
#	-15786
껭	-15787
펐	-15788
깅	-15789
잼	-15790
렬	-15791
찼	-15792
밧	-15793
셈	-15794
늬	-15795
돕	-15796
됭	-15797
눕	-15798
뽈	-15799
싯	-15800
꿩	-15801
됬	-15802
빳	-15803
쳥	-15804
뻣	-15805
짭	-15806
췄	-15807
칩	-15808
쌂	-15809
밉	-15810
핼	-15811
룻	-15812
륜	-15813
읃	-15814
쨍	-15815
챔	-15816
꾹	-15817
윈	-15818
캉	-15819
콕	-15820
픔	-15821
궤	-15822
맣	-15823
잽	-15824
슭	-15825
펌	-15826
갇	-15827
왁	-15828
줭	-15829
뀔	-15830
럈	-15831
잭	-15832
캡	-15833
깁	-15834
맏	-15835
쁨	-15836
앱	-15837
꿇	-15838
끙	-15839
렘	-15840
혐	-15841
곁	-15842
몫	-15843
숍	-15844
숱	-15845
낑	-15846
왓	-15847
촤	-15848
섹	-15849
엮	-15850
톰	-15851
껸	-15852
댈	-15853
렜	-15854
괄	-15855
랠	-15856
맬	-15857
쎘	-15858
캄	-15859
돔	-15860
럿	-15861
킥	-15862
삿	-15863
씁	-15864
씅	-15865
줨	-15866
깻	-15867
샥	-15868
뚤	-15869
볕	-15870
츄	-15871
툴	-15872
샛	-15873
맽	-15874
벳	-15875
웁	-15876
쫀	-15877
몹	-15878
웂	-15879
잌	-15880
쿼	-15881
뽄	-15882
붉	-15883
쌉	-15884
쯧	-15885
숯	-15886
펙	-15887
걘	-15888
댐	-15889
룡	-15890
뺨	-15891
촞	-15892
툼	-15893
곽	-15894
닳	-15895
깰	-15896
뒁	-15897
싣	-15898
롸	-15899
솟	-15900
튕	-15901
꿰	-15902
쌕	-15903
톨	-15904
씰	-15905
췌	-15906
놋	-15907
솨	-15908
엌	-15909
텃	-15910
뽁	-15911
셩	-15912
잿	-15913
찻	-15914
츈	-15915
탠	-15916
땍	-15917
쏴	-15918
쫑	-15919
둡	-15920
륙	-15921
뮬	-15922
꺽	-15923
넝	-15924
켠	-15925
텅	-15926
눅	-15927
둠	-15928
뜸	-15929
봠	-15930
셜	-15931
깠	-15932
꼿	-15933
낡	-15934
뛸	-15935
맷	-15936
쨈	-15937
렐	-15938
쫘	-15939
/	-15940
귈	-15941
깼	-15942
샴	-15943
숏	-15944
흩	-15945
뱈	-15946
붐	-15947
깄	-15948
넬	-15949
슘	-15950
띡	-15951
샷	-15952
셰	-15953
켱	-15954
횡	-15955
펠	-15956
윙	-15957
늑	-15958
떳	-15959
틸	-15960
땁	-15961
삥	-15962
웰	-15963
컥	-15964
컹	-15965
궂	-15966
뎁	-15967
튿	-15968
뾰	-15969
왈	-15970
쭌	-15971
1	-15972
듀	-15973
밋	-15974
칵	-15975
횔	-15976
휙	-15977
깬	-15978
떄	-15979
룽	-15980
욜	-15981
씽	-15982
앰	-15983
챠	-15984
폈	-15985
훑	-15986
귓	-15987
꼉	-15988
얽	-15989
쨰	-15990
둰	-15991
뿍	-15992
킷	-15993
붑	-15994
촛	-15995
퀄	-15996
훼	-15997
냇	-15998
쿄	-15999
