<pad>	0
<s>	0
</s>	0
<unk>	0
<jj>	0
<jd>	0
<gs>	0
<cc>	0
<kw>	0
<std>	0
▁t	-0
▁a	-1
▁th	-2
▁I	-3
ou	-4
in	-5
it	-6
▁w	-7
▁s	-8
re	-9
▁b	-10
on	-11
at	-12
▁the	-13
▁l	-14
▁d	-15
▁y	-16
he	-17
▁you	-18
▁m	-19
▁to	-20
ing	-21
nd	-22
▁it	-23
▁g	-24
▁c	-25
ve	-26
▁h	-27
is	-28
▁o	-29
le	-30
▁f	-31
an	-32
▁and	-33
ll	-34
ke	-35
▁p	-36
me	-37
er	-38
ow	-39
or	-40
as	-41
ot	-42
▁that	-43
▁be	-44
▁of	-45
ar	-46
▁so	-47
▁n	-48
us	-49
ut	-50
▁e	-51
ay	-52
▁li	-53
id	-54
▁go	-55
▁in	-56
en	-57
▁T	-58
ed	-59
▁ha	-60
▁do	-61
itt	-62
▁he	-63
es	-64
▁like	-65
ittle	-66
▁little	-67
hat	-68
et	-69
▁W	-70
▁on	-71
gh	-72
▁was	-73
out	-74
▁S	-75
▁It	-76
▁is	-77
ld	-78
▁we	-79
ri	-80
▁this	-81
▁don	-82
▁me	-83
▁Y	-84
al	-85
▁k	-86
ink	-87
▁re	-88
▁have	-89
nt	-90
ght	-91
▁but	-92
oo	-93
▁The	-94
▁my	-95
ch	-96
▁think	-97
if	-98
ce	-99
▁st	-100
se	-101
her	-102
om	-103
ry	-104
▁j	-105
ust	-106
▁You	-107
hen	-108
all	-109
th	-110
ant	-111
▁there	-112
▁for	-113
ith	-114
▁So	-115
▁with	-116
▁are	-117
ad	-118
▁an	-119
ly	-120
▁A	-121
ic	-122
▁at	-123
▁ab	-124
st	-125
▁bit	-126
▁kn	-127
▁H	-128
▁wh	-129
▁se	-130
▁just	-131
use	-132
▁know	-133
▁B	-134
▁if	-135
▁not	-136
▁did	-137
▁some	-138
▁u	-139
▁about	-140
ca	-141
od	-142
▁your	-143
ir	-144
▁its	-145
ter	-146
ime	-147
▁when	-148
ra	-149
▁going	-150
▁lot	-151
op	-152
ore	-153
cause	-154
▁sa	-155
▁what	-156
one	-157
im	-158
▁can	-159
thing	-160
ally	-161
▁get	-162
ake	-163
ould	-164
▁time	-165
▁now	-166
ent	-167
ome	-168
ion	-169
▁because	-170
▁want	-171
▁out	-172
▁But	-173
▁good	-174
▁D	-175
ong	-176
▁ri	-177
▁wor	-178
ac	-179
▁sh	-180
▁Im	-181
▁all	-182
ook	-183
▁What	-184
▁eve	-185
▁or	-186
▁as	-187
▁O	-188
▁up	-189
ur	-190
▁al	-191
un	-192
▁That	-193
▁If	-194
ard	-195
▁day	-196
▁eat	-197
▁been	-198
ive	-199
▁r	-200
▁say	-201
▁ne	-202
na	-203
ea	-204
▁dont	-205
▁He	-206
▁any	-207
▁right	-208
▁ch	-209
onna	-210
▁gonna	-211
▁Its	-212
▁too	-213
▁really	-214
▁M	-215
ct	-216
ill	-217
▁they	-218
el	-219
▁see	-220
▁N	-221
▁su	-222
ver	-223
king	-224
▁something	-225
▁one	-226
▁said	-227
▁There	-228
pp	-229
other	-230
▁pe	-231
ople	-232
ain	-233
▁him	-234
▁who	-235
ell	-236
▁look	-237
ge	-238
▁people	-239
▁fr	-240
▁pl	-241
▁ca	-242
▁com	-243
way	-244
ast	-245
ought	-246
ear	-247
ind	-248
ers	-249
▁got	-250
▁Oh	-251
art	-252
▁And	-253
▁mu	-254
▁thing	-255
▁fe	-256
il	-257
▁more	-258
os	-259
our	-260
▁much	-261
end	-262
▁she	-263
ig	-264
fe	-265
am	-266
ul	-267
▁ex	-268
ep	-269
▁C	-270
▁then	-271
▁were	-272
here	-273
ight	-274
uy	-275
ous	-276
▁here	-277
ate	-278
▁doing	-279
▁come	-280
▁take	-281
▁how	-282
▁tal	-283
ie	-284
▁why	-285
rou	-286
▁Wh	-287
ble	-288
▁went	-289
▁ag	-290
and	-291
ro	-292
ack	-293
▁hard	-294
▁co	-295
▁days	-296
▁from	-297
▁them	-298
very	-299
ool	-300
▁even	-301
ther	-302
red	-303
▁G	-304
▁man	-305
ation	-306
▁Is	-307
▁L	-308
▁sp	-309
ort	-310
▁us	-311
ked	-312
▁thought	-313
▁make	-314
▁When	-315
▁her	-316
▁year	-317
ess	-318
ide	-319
▁cl	-320
ang	-321
ist	-322
▁J	-323
oney	-324
▁very	-325
ried	-326
▁had	-327
est	-328
irst	-329
▁mo	-330
ouse	-331
▁other	-332
ater	-333
▁well	-334
ood	-335
day	-336
▁old	-337
▁these	-338
chool	-339
▁didn	-340
▁no	-341
▁again	-342
eah	-343
▁money	-344
▁would	-345
ather	-346
▁should	-347
riend	-348
qu	-349
▁than	-350
▁con	-351
ving	-352
ile	-353
▁E	-354
▁pre	-355
▁lo	-356
▁didnt	-357
▁school	-358
▁tw	-359
▁first	-360
▁house	-361
▁work	-362
▁br	-363
ick	-364
▁stu	-365
▁does	-366
ice	-367
▁only	-368
▁de	-369
▁live	-370
lf	-371
own	-372
▁pers	-373
▁Why	-374
▁How	-375
▁put	-376
▁every	-377
▁back	-378
ace	-379
▁feel	-380
▁af	-381
ree	-382
ck	-383
▁person	-384
mb	-385
▁v	-386
▁buy	-387
▁We	-388
▁Yeah	-389
▁No	-390
▁things	-391
▁his	-392
ng	-393
▁wr	-394
▁long	-395
ment	-396
▁fun	-397
round	-398
▁way	-399
▁kid	-400
▁mean	-401
▁let	-402
▁try	-403
ies	-404
▁over	-405
▁comp	-406
▁anything	-407
▁P	-408
▁int	-409
ure	-410
ting	-411
▁mar	-412
ine	-413
▁cant	-414
▁could	-415
▁friend	-416
▁give	-417
▁by	-418
ity	-419
▁tell	-420
▁Do	-421
▁kind	-422
▁My	-423
▁Th	-424
▁Don	-425
rent	-426
▁bet	-427
ince	-428
▁youre	-429
▁will	-430
ss	-431
▁play	-432
▁two	-433
▁down	-434
▁home	-435
▁around	-436
ap	-437
▁dif	-438
ty	-439
▁Then	-440
ning	-441
ose	-442
▁ke	-443
um	-444
▁won	-445
▁after	-446
ass	-447
▁le	-448
▁big	-449
atch	-450
ild	-451
▁ra	-452
▁K	-453
▁has	-454
▁gr	-455
ount	-456
ol	-457
ob	-458
▁car	-459
ade	-460
▁while	-461
▁mother	-462
rand	-463
get	-464
ase	-465
ame	-466
▁mom	-467
ab	-468
▁need	-469
▁off	-470
led	-471
so	-472
▁pro	-473
▁qu	-474
able	-475
▁told	-476
▁Now	-477
▁came	-478
▁our	-479
fore	-480
ach	-481
ways	-482
▁They	-483
▁exp	-484
▁care	-485
▁dr	-486
▁In	-487
▁bad	-488
ious	-489
▁better	-490
▁She	-491
▁always	-492
▁talking	-493
▁talk	-494
▁bl	-495
▁where	-496
oy	-497
▁Thats	-498
▁happ	-499
ag	-500
▁still	-501
age	-502
▁before	-503
ite	-504
ave	-505
▁years	-506
▁un	-507
▁many	-508
aw	-509
au	-510
▁Yes	-511
▁young	-512
ish	-513
ise	-514
▁di	-515
▁Ive	-516
▁diffe	-517
▁en	-518
▁Well	-519
▁three	-520
▁sm	-521
▁today	-522
▁saying	-523
ens	-524
▁also	-525
▁Let	-526
mber	-527
▁stud	-528
oom	-529
▁theres	-530
▁brother	-531
ually	-532
▁Did	-533
▁te	-534
▁fam	-535
ary	-536
ven	-537
kay	-538
self	-539
hes	-540
ister	-541
▁child	-542
▁keep	-543
▁thats	-544
▁away	-545
▁Ill	-546
▁wear	-547
igh	-548
▁sc	-549
▁kids	-550
dd	-551
▁wrong	-552
▁U	-553
xt	-554
▁el	-555
▁ear	-556
▁pr	-557
▁getting	-558
▁part	-559
ily	-560
ny	-561
▁This	-562
▁used	-563
▁place	-564
▁done	-565
row	-566
▁act	-567
▁since	-568
ma	-569
pt	-570
▁else	-571
gether	-572
▁F	-573
▁watch	-574
▁love	-575
▁together	-576
▁once	-577
hed	-578
▁call	-579
▁married	-580
▁sister	-581
▁trying	-582
ough	-583
ip	-584
▁im	-585
wn	-586
▁heard	-587
▁Be	-588
▁use	-589
▁different	-590
▁life	-591
ost	-592
▁food	-593
ts	-594
aking	-595
▁guy	-596
▁mon	-597
ak	-598
▁father	-599
▁saw	-600
▁later	-601
▁someone	-602
▁ph	-603
time	-604
▁che	-605
ance	-606
▁bre	-607
▁sle	-608
▁job	-609
ress	-610
▁reme	-611
iz	-612
▁Where	-613
▁okay	-614
▁looking	-615
ren	-616
▁ac	-617
▁dis	-618
hing	-619
▁bus	-620
▁pret	-621
▁cal	-622
▁son	-623
ange	-624
▁grand	-625
▁fl	-626
▁alone	-627
aught	-628
▁meet	-629
▁next	-630
▁coming	-631
▁friends	-632
ated	-633
▁month	-634
▁wanted	-635
urn	-636
▁water	-637
▁lea	-638
▁own	-639
ix	-640
▁made	-641
▁same	-642
ci	-643
▁Theres	-644
▁hand	-645
▁rec	-646
▁eating	-647
▁del	-648
▁sor	-649
ft	-650
▁mov	-651
▁last	-652
▁sw	-653
▁sorry	-654
▁doesn	-655
▁cut	-656
▁str	-657
fort	-658
▁thinking	-659
▁bought	-660
▁tr	-661
▁start	-662
▁remember	-663
▁gre	-664
▁col	-665
▁ar	-666
oin	-667
▁rest	-668
les	-669
▁seen	-670
▁cold	-671
▁1	-672
isten	-673
▁supp	-674
ue	-675
▁their	-676
ju	-677
▁sleep	-678
▁into	-679
mp	-680
▁never	-681
▁Because	-682
mor	-683
▁wal	-684
▁new	-685
▁daught	-686
▁dra	-687
▁gir	-688
law	-689
▁end	-690
▁drink	-691
▁bab	-692
▁real	-693
▁dad	-694
ady	-695
▁family	-696
be	-697
▁tra	-698
▁times	-699
te	-700
ff	-701
▁pretty	-702
ult	-703
side	-704
ont	-705
ock	-706
▁few	-707
▁high	-708
▁listen	-709
▁everything	-710
▁am	-711
▁imp	-712
▁ad	-713
▁app	-714
▁count	-715
ason	-716
▁rel	-717
▁ey	-718
vel	-719
▁hur	-720
▁pa	-721
ful	-722
osp	-723
▁each	-724
▁night	-725
nder	-726
▁past	-727
▁Se	-728
▁sure	-729
osed	-730
▁pay	-731
▁bo	-732
ms	-733
ier	-734
▁clot	-735
▁Are	-736
▁win	-737
▁room	-738
▁mid	-739
▁chang	-740
▁daughter	-741
▁without	-742
pe	-743
icious	-744
▁mor	-745
▁per	-746
▁called	-747
▁took	-748
▁game	-749
▁morning	-750
are	-751
▁leave	-752
▁happen	-753
▁late	-754
▁another	-755
▁such	-756
ere	-757
▁working	-758
old	-759
▁pic	-760
▁Even	-761
▁Just	-762
▁eas	-763
act	-764
oss	-765
dle	-766
ory	-767
▁R	-768
▁cont	-769
der	-770
▁asked	-771
▁Hey	-772
▁Kore	-773
▁clothes	-774
▁doesnt	-775
og	-776
▁delicious	-777
ond	-778
▁ask	-779
▁Ch	-780
▁left	-781
lp	-782
ound	-783
▁cle	-784
▁tast	-785
▁mat	-786
▁small	-787
ital	-788
▁under	-789
▁nice	-790
▁nothing	-791
▁middle	-792
ody	-793
▁study	-794
▁yes	-795
▁phone	-796
▁op	-797
ung	-798
mer	-799
▁sur	-800
▁lear	-801
▁those	-802
▁hear	-803
ating	-804
most	-805
▁Je	-806
ne	-807
ner	-808
▁rice	-809
fortable	-810
▁baby	-811
▁gave	-812
▁bu	-813
▁face	-814
▁sk	-815
ek	-816
oon	-817
▁help	-818
▁song	-819
▁side	-820
ket	-821
▁show	-822
▁hair	-823
▁girl	-824
▁almost	-825
und	-826
▁Uh	-827
▁most	-828
▁ro	-829
ospital	-830
onest	-831
dden	-832
▁sick	-833
oup	-834
▁turn	-835
ign	-836
▁supposed	-837
▁front	-838
ird	-839
▁hot	-840
▁anyway	-841
ence	-842
erest	-843
▁change	-844
ait	-845
▁hospital	-846
▁tri	-847
▁interest	-848
▁sec	-849
▁country	-850
alth	-851
where	-852
▁far	-853
▁run	-854
ans	-855
▁living	-856
▁movie	-857
▁sing	-858
sh	-859
▁looks	-860
▁book	-861
▁mind	-862
▁dog	-863
▁tea	-864
▁head	-865
▁world	-866
▁ate	-867
▁best	-868
up	-869
▁personal	-870
▁comes	-871
▁gu	-872
▁fo	-873
▁Mom	-874
▁couldnt	-875
▁pri	-876
ooked	-877
ull	-878
erc	-879
▁sudden	-880
orm	-881
▁Can	-882
ised	-883
▁being	-884
ream	-885
▁winter	-886
▁find	-887
ken	-888
▁stop	-889
▁sn	-890
oint	-891
▁acc	-892
▁expens	-893
▁health	-894
▁break	-895
▁learn	-896
acher	-897
▁Any	-898
▁less	-899
ions	-900
ors	-901
ath	-902
▁sit	-903
▁having	-904
▁compan	-905
▁cour	-906
▁dri	-907
▁exerc	-908
▁eyes	-909
ub	-910
ident	-911
lease	-912
▁changed	-913
ved	-914
▁matter	-915
▁met	-916
▁Since	-917
band	-918
▁teacher	-919
▁dec	-920
▁comple	-921
▁Who	-922
av	-923
▁expensive	-924
▁worried	-925
▁mus	-926
▁sl	-927
ired	-928
ntil	-929
▁older	-930
ank	-931
▁close	-932
▁must	-933
▁enough	-934
▁hour	-935
iss	-936
▁10	-937
▁body	-938
usband	-939
▁wait	-940
▁honest	-941
▁As	-942
▁case	-943
▁children	-944
▁colle	-945
▁hit	-946
▁ever	-947
ense	-948
▁quick	-949
▁husband	-950
▁strong	-951
ire	-952
▁res	-953
▁Anyway	-954
▁open	-955
▁proble	-956
ger	-957
▁Some	-958
▁Jeju	-959
▁able	-960
▁course	-961
gg	-962
ready	-963
▁sell	-964
ew	-965
▁ser	-966
terday	-967
ten	-968
▁already	-969
▁clean	-970
ture	-971
▁week	-972
▁bel	-973
▁At	-974
▁company	-975
▁cook	-976
▁boy	-977
oman	-978
ition	-979
gin	-980
ical	-981
▁parent	-982
▁picture	-983
▁read	-984
elt	-985
uc	-986
▁God	-987
▁says	-988
ert	-989
▁min	-990
▁until	-991
▁four	-992
▁myself	-993
pr	-994
▁sca	-995
▁cra	-996
ope	-997
cl	-998
▁fall	-999
▁ago	-1000
▁easy	-1001
▁yet	-1002
▁felt	-1003
rs	-1004
▁guys	-1005
come	-1006
▁bot	-1007
▁personality	-1008
▁import	-1009
ark	-1010
ular	-1011
land	-1012
▁stuff	-1013
▁great	-1014
▁swe	-1015
▁ele	-1016
▁bro	-1017
times	-1018
▁woman	-1019
▁att	-1020
▁watching	-1021
▁hands	-1022
▁trip	-1023
▁yesterday	-1024
▁Isnt	-1025
▁store	-1026
ife	-1027
ction	-1028
▁funny	-1029
my	-1030
▁stre	-1031
▁pass	-1032
lic	-1033
▁heart	-1034
▁sum	-1035
▁parents	-1036
▁gone	-1037
▁usually	-1038
▁class	-1039
▁actually	-1040
unch	-1041
▁five	-1042
▁taste	-1043
▁stay	-1044
▁important	-1045
iness	-1046
oc	-1047
▁tried	-1048
▁name	-1049
oul	-1050
oke	-1051
mother	-1052
▁pick	-1053
ower	-1054
▁sal	-1055
unt	-1056
ered	-1057
lier	-1058
more	-1059
▁pop	-1060
▁gif	-1061
▁St	-1062
▁meat	-1063
▁war	-1064
rough	-1065
undred	-1066
▁dep	-1067
▁quickly	-1068
ae	-1069
▁second	-1070
▁anymore	-1071
▁stand	-1072
▁walk	-1073
▁rain	-1074
▁worry	-1075
▁comfortable	-1076
▁hundred	-1077
▁isn	-1078
▁bir	-1079
▁earlier	-1080
▁char	-1081
▁haven	-1082
oes	-1083
▁reg	-1084
▁red	-1085
▁making	-1086
▁summer	-1087
ffe	-1088
▁Sh	-1089
▁birth	-1090
▁Youre	-1091
▁short	-1092
aybe	-1093
▁half	-1094
▁through	-1095
▁problem	-1096
▁med	-1097
▁looked	-1098
ountain	-1099
ings	-1100
fic	-1101
▁unc	-1102
▁Af	-1103
▁din	-1104
▁Seoul	-1105
zy	-1106
ding	-1107
▁tre	-1108
▁Have	-1109
▁Your	-1110
ched	-1111
▁die	-1112
morrow	-1113
▁memor	-1114
▁season	-1115
▁tomorrow	-1116
▁spe	-1117
▁"	-1118
▁fight	-1119
▁Dont	-1120
▁hurt	-1121
▁grandmother	-1122
▁spr	-1123
ieve	-1124
▁tired	-1125
aur	-1126
stand	-1127
orn	-1128
▁exercise	-1129
▁age	-1130
▁taking	-1131
ied	-1132
▁sad	-1133
▁ten	-1134
▁scared	-1135
ike	-1136
cial	-1137
▁weight	-1138
aurant	-1139
▁playing	-1140
▁grow	-1141
▁liked	-1142
▁wasnt	-1143
▁lets	-1144
iv	-1145
ok	-1146
ract	-1147
ect	-1148
▁restaurant	-1149
▁soon	-1150
▁Come	-1151
▁shop	-1152
▁dinner	-1153
▁cr	-1154
▁word	-1155
▁After	-1156
▁business	-1157
ash	-1158
▁goes	-1159
als	-1160
▁cool	-1161
▁id	-1162
▁happened	-1163
ize	-1164
▁hell	-1165
▁wearing	-1166
▁everyone	-1167
by	-1168
▁student	-1169
▁surpr	-1170
▁diffic	-1171
▁fin	-1172
▁gl	-1173
ich	-1174
▁ang	-1175
▁yourself	-1176
▁sim	-1177
ud	-1178
ple	-1179
ese	-1180
▁tou	-1181
▁minut	-1182
▁weird	-1183
omen	-1184
▁men	-1185
ible	-1186
▁six	-1187
▁understand	-1188
▁bring	-1189
VI	-1190
▁drama	-1191
ever	-1192
▁move	-1193
▁early	-1194
▁lived	-1195
▁busy	-1196
▁difficult	-1197
▁interested	-1198
▁happy	-1199
artment	-1200
▁diet	-1201
▁outside	-1202
▁CO	-1203
▁ann	-1204
app	-1205
VID	-1206
▁top	-1207
▁COVID	-1208
ience	-1209
ield	-1210
▁couldn	-1211
oor	-1212
▁add	-1213
▁Grand	-1214
▁Look	-1215
ail	-1216
ons	-1217
▁dream	-1218
▁often	-1219
▁somewhere	-1220
▁rid	-1221
▁complete	-1222
▁bas	-1223
we	-1224
▁light	-1225
▁test	-1226
▁raise	-1227
▁gift	-1228
less	-1229
▁plan	-1230
ited	-1231
,0	-1232
aut	-1233
▁cheap	-1234
▁pot	-1235
▁others	-1236
▁gen	-1237
cept	-1238
▁beaut	-1239
▁suddenly	-1240
▁exam	-1241
ee	-1242
▁cry	-1243
▁point	-1244
▁Jap	-1245
▁reason	-1246
▁story	-1247
▁angry	-1248
icken	-1249
▁believe	-1250
ward	-1251
▁mountain	-1252
cer	-1253
▁Yesh	-1254
air	-1255
▁Japan	-1256
▁Korea	-1257
▁started	-1258
▁Island	-1259
▁sweet	-1260
illion	-1261
▁travel	-1262
▁snow	-1263
▁stra	-1264
▁chicken	-1265
ia	-1266
▁spend	-1267
outh	-1268
▁parttime	-1269
▁field	-1270
clock	-1271
▁Go	-1272
uce	-1273
▁youll	-1274
▁price	-1275
set	-1276
its	-1277
▁aren	-1278
▁soup	-1279
▁des	-1280
llow	-1281
uation	-1282
▁wife	-1283
▁isnt	-1284
▁months	-1285
▁hold	-1286
ics	-1287
▁mil	-1288
▁All	-1289
ye	-1290
iet	-1291
▁become	-1292
▁college	-1293
▁worked	-1294
▁lose	-1295
yle	-1296
▁sme	-1297
▁surprised	-1298
joy	-1299
ressed	-1300
ping	-1301
▁fish	-1302
▁anyone	-1303
▁rather	-1304
mend	-1305
▁hum	-1306
▁lunch	-1307
ste	-1308
▁women	-1309
ax	-1310
▁fast	-1311
▁feeling	-1312
ret	-1313
▁free	-1314
▁might	-1315
iew	-1316
▁kept	-1317
▁follow	-1318
ces	-1319
ising	-1320
▁enjoy	-1321
iving	-1322
ific	-1323
uck	-1324
▁wind	-1325
▁wasn	-1326
▁rep	-1327
▁lost	-1328
▁ent	-1329
▁telling	-1330
▁cat	-1331
▁fore	-1332
▁crazy	-1333
father	-1334
▁asking	-1335
▁Dad	-1336
sw	-1337
▁sometimes	-1338
ork	-1339
▁set	-1340
▁likes	-1341
▁completely	-1342
med	-1343
ib	-1344
▁Every	-1345
▁trou	-1346
ommend	-1347
▁trouble	-1348
▁smell	-1349
▁ap	-1350
form	-1351
▁recommend	-1352
ler	-1353
ient	-1354
ric	-1355
▁Korean	-1356
ither	-1357
▁Lets	-1358
▁disapp	-1359
▁grad	-1360
▁Kim	-1361
▁knew	-1362
▁exper	-1363
▁ty	-1364
▁To	-1365
▁pain	-1366
▁movies	-1367
ars	-1368
▁On	-1369
▁music	-1370
zing	-1371
▁million	-1372
▁lau	-1373
▁deal	-1374
▁send	-1375
ord	-1376
▁pres	-1377
erv	-1378
uct	-1379
▁whe	-1380
ween	-1381
▁write	-1382
▁fat	-1383
▁coup	-1384
▁touch	-1385
▁though	-1386
itting	-1387
▁weather	-1388
ized	-1389
inlaw	-1390
chi	-1391
▁sound	-1392
▁grandfather	-1393
▁prep	-1394
▁blood	-1395
▁famous	-1396
▁makes	-1397
▁between	-1398
ates	-1399
▁annoy	-1400
▁emp	-1401
▁road	-1402
cess	-1403
▁style	-1404
▁aut	-1405
▁hours	-1406
▁hope	-1407
▁mas	-1408
▁air	-1409
▁beautif	-1410
▁These	-1411
▁inter	-1412
▁door	-1413
▁miss	-1414
▁land	-1415
▁hob	-1416
▁idea	-1417
▁sold	-1418
▁bag	-1419
ative	-1420
anger	-1421
▁guess	-1422
▁wonder	-1423
▁nu	-1424
▁throw	-1425
▁theyre	-1426
▁hate	-1427
ump	-1428
▁cons	-1429
▁younger	-1430
▁comm	-1431
▁fine	-1432
▁gets	-1433
▁aunt	-1434
▁ve	-1435
▁situation	-1436
ote	-1437
ousand	-1438
ship	-1439
▁pol	-1440
ught	-1441
▁rem	-1442
atur	-1443
▁leg	-1444
ently	-1445
▁warm	-1446
▁either	-1447
▁exc	-1448
▁thousand	-1449
▁Or	-1450
ighb	-1451
ual	-1452
▁cor	-1453
▁fact	-1454
▁cost	-1455
▁talked	-1456
cy	-1457
▁bar	-1458
ations	-1459
▁neighb	-1460
ial	-1461
▁line	-1462
▁running	-1463
▁popular	-1464
uring	-1465
▁-	-1466
▁true	-1467
▁beautiful	-1468
ities	-1469
▁conf	-1470
▁full	-1471
ced	-1472
▁Please	-1473
ins	-1474
oice	-1475
▁sub	-1476
▁upset	-1477
0,0	-1478
▁tend	-1479
▁Al	-1480
ale	-1481
▁prof	-1482
▁medic	-1483
hood	-1484
▁ride	-1485
▁spring	-1486
ering	-1487
avor	-1488
▁mess	-1489
ably	-1490
room	-1491
mas	-1492
▁train	-1493
▁songs	-1494
bb	-1495
▁beh	-1496
▁YouT	-1497
▁grade	-1498
▁games	-1499
▁giving	-1500
aces	-1501
▁minutes	-1502
ffee	-1503
▁TV	-1504
▁meeting	-1505
▁mouth	-1506
ctor	-1507
▁please	-1508
mentary	-1509
▁bur	-1510
▁neighbor	-1511
ying	-1512
arr	-1513
▁ama	-1514
▁caught	-1515
ian	-1516
▁Take	-1517
▁One	-1518
iting	-1519
▁order	-1520
▁coffee	-1521
▁inside	-1522
▁sea	-1523
▁Grandma	-1524
▁def	-1525
▁sun	-1526
▁Isn	-1527
ube	-1528
▁studying	-1529
▁healthy	-1530
▁wont	-1531
▁uh	-1532
ush	-1533
▁answ	-1534
▁ones	-1535
atched	-1536
uri	-1537
ball	-1538
▁straight	-1539
▁walking	-1540
ted	-1541
▁Pe	-1542
▁rece	-1543
ention	-1544
▁Whats	-1545
▁black	-1546
▁Get	-1547
▁lately	-1548
ming	-1549
▁hang	-1550
▁potat	-1551
ram	-1552
acter	-1553
▁both	-1554
spe	-1555
▁using	-1556
br	-1557
▁number	-1558
▁fix	-1559
olog	-1560
▁catch	-1561
▁amazing	-1562
▁color	-1563
▁fire	-1564
ole	-1565
▁ref	-1566
▁couple	-1567
min	-1568
ness	-1569
itary	-1570
cially	-1571
▁build	-1572
▁press	-1573
▁prop	-1574
▁wants	-1575
▁favor	-1576
▁feels	-1577
▁ass	-1578
▁begin	-1579
ys	-1580
▁People	-1581
▁brought	-1582
ling	-1583
▁honestly	-1584
riage	-1585
▁uncom	-1586
▁buying	-1587
▁Maybe	-1588
▁medicine	-1589
▁seems	-1590
ph	-1591
▁sense	-1592
▁sy	-1593
▁fell	-1594
▁emb	-1595
▁vac	-1596
▁dry	-1597
▁played	-1598
ared	-1599
eak	-1600
▁teach	-1601
ones	-1602
▁cert	-1603
▁yeah	-1604
▁bath	-1605
▁which	-1606
▁character	-1607
▁neighborhood	-1608
▁cute	-1609
▁Tell	-1610
▁wake	-1611
ossible	-1612
ments	-1613
▁adv	-1614
▁uncomfortable	-1615
bt	-1616
▁ind	-1617
ided	-1618
▁'	-1619
lish	-1620
▁military	-1621
▁kim	-1622
ines	-1623
▁during	-1624
ves	-1625
▁fit	-1626
rence	-1627
▁havent	-1628
▁YouTube	-1629
▁careful	-1630
inite	-1631
▁elementary	-1632
ped	-1633
▁army	-1634
▁market	-1635
▁dist	-1636
▁whether	-1637
friend	-1638
cle	-1639
rigin	-1640
▁lic	-1641
▁Of	-1642
▁bott	-1643
ona	-1644
ern	-1645
raid	-1646
▁div	-1647
ately	-1648
▁watched	-1649
ants	-1650
▁whole	-1651
je	-1652
cted	-1653
ug	-1654
ries	-1655
▁ins	-1656
▁doll	-1657
▁bow	-1658
▁worth	-1659
▁kimchi	-1660
▁behind	-1661
▁seeing	-1662
man	-1663
▁afraid	-1664
▁hurts	-1665
bs	-1666
▁drinking	-1667
▁Eng	-1668
vest	-1669
aper	-1670
▁human	-1671
specially	-1672
▁listening	-1673
▁Chin	-1674
▁quiet	-1675
▁found	-1676
▁pat	-1677
arrass	-1678
▁ball	-1679
▁date	-1680
▁embarrass	-1681
▁dire	-1682
ationship	-1683
ley	-1684
▁died	-1685
▁drive	-1686
▁pur	-1687
▁relationship	-1688
▁main	-1689
▁fre	-1690
▁dead	-1691
▁shopping	-1692
vers	-1693
▁prod	-1694
▁Thank	-1695
umn	-1696
▁gra	-1697
▁pub	-1698
▁eight	-1699
▁accident	-1700
came	-1701
▁inc	-1702
▁squ	-1703
▁books	-1704
▁team	-1705
▁floor	-1706
iled	-1707
▁cell	-1708
▁feet	-1709
▁slow	-1710
▁hung	-1711
▁tree	-1712
▁save	-1713
▁Not	-1714
▁street	-1715
▁oil	-1716
unk	-1717
▁sent	-1718
icy	-1719
▁art	-1720
▁Should	-1721
▁sol	-1722
eal	-1723
ilar	-1724
▁gener	-1725
▁hobby	-1726
▁shoes	-1727
▁became	-1728
▁beginning	-1729
▁Okay	-1730
▁temp	-1731
▁waiting	-1732
▁cur	-1733
▁office	-1734
▁shouldnt	-1735
ief	-1736
initely	-1737
▁experience	-1738
▁prog	-1739
▁dating	-1740
ults	-1741
▁scary	-1742
▁possible	-1743
▁quest	-1744
▁special	-1745
▁marriage	-1746
▁skin	-1747
ature	-1748
▁meal	-1749
▁stuck	-1750
▁white	-1751
▁words	-1752
▁First	-1753
lfriend	-1754
▁ret	-1755
▁Like	-1756
▁lives	-1757
▁boyfriend	-1758
▁may	-1759
▁similar	-1760
▁nood	-1761
▁broke	-1762
▁among	-1763
▁birthday	-1764
▁feed	-1765
▁annoying	-1766
ivers	-1767
▁ed	-1768
▁learned	-1769
▁recently	-1770
▁ce	-1771
▁girlfriend	-1772
▁type	-1773
▁mask	-1774
."	-1775
▁disc	-1776
▁maybe	-1777
itive	-1778
▁pract	-1779
▁example	-1780
▁places	-1781
▁For	-1782
▁Un	-1783
▁receive	-1784
▁longer	-1785
▁ext	-1786
▁stock	-1787
▁vill	-1788
▁forget	-1789
▁origin	-1790
▁cake	-1791
ility	-1792
▁prob	-1793
▁English	-1794
▁license	-1795
▁low	-1796
par	-1797
▁bread	-1798
▁invest	-1799
▁An	-1800
▁anim	-1801
▁comput	-1802
per	-1803
▁boil	-1804
▁wish	-1805
▁profess	-1806
▁sport	-1807
▁fig	-1808
▁anywhere	-1809
▁difference	-1810
▁pie	-1811
▁wed	-1812
▁sitting	-1813
urious	-1814
▁V	-1815
▁works	-1816
▁girls	-1817
▁department	-1818
▁turned	-1819
▁flow	-1820
▁ord	-1821
▁fa	-1822
▁egg	-1823
▁loc	-1824
▁nerv	-1825
▁nervous	-1826
▁opp	-1827
oot	-1828
▁news	-1829
▁forg	-1830
▁seven	-1831
ational	-1832
▁post	-1833
oh	-1834
▁eye	-1835
▁vis	-1836
ored	-1837
▁babies	-1838
▁wedding	-1839
▁definitely	-1840
▁noodles	-1841
res	-1842
▁Mr	-1843
▁paid	-1844
▁sleeping	-1845
▁wash	-1846
▁chur	-1847
▁takes	-1848
▁stom	-1849
▁check	-1850
▁law	-1851
▁streng	-1852
▁fil	-1853
▁itll	-1854
▁autumn	-1855
▁proper	-1856
▁probably	-1857
▁wouldn	-1858
▁Give	-1859
iron	-1860
▁fut	-1861
stead	-1862
▁self	-1863
▁ter	-1864
▁separ	-1865
▁stomach	-1866
▁Wow	-1867
▁shit	-1868
▁driving	-1869
▁Would	-1870
▁bor	-1871
▁vide	-1872
▁Fr	-1873
irt	-1874
let	-1875
▁pu	-1876
ased	-1877
ically	-1878
avy	-1879
ters	-1880
▁crying	-1881
▁wouldnt	-1882
enty	-1883
▁table	-1884
▁bigger	-1885
▁raised	-1886
▁danger	-1887
▁ready	-1888
irty	-1889
▁hist	-1890
▁strange	-1891
velop	-1892
▁third	-1893
▁happens	-1894
▁box	-1895
▁born	-1896
▁smart	-1897
▁curious	-1898
▁ran	-1899
▁sat	-1900
▁natur	-1901
▁pull	-1902
▁hungry	-1903
▁figure	-1904
▁future	-1905
▁expl	-1906
▁serv	-1907
▁potatoes	-1908
▁lie	-1909
ject	-1910
▁answer	-1911
ker	-1912
ats	-1913
▁laugh	-1914
road	-1915
ster	-1916
▁po	-1917
▁kill	-1918
▁Int	-1919
▁prom	-1920
▁carry	-1921
▁knows	-1922
▁dress	-1923
▁dramas	-1924
mbers	-1925
▁public	-1926
▁vacation	-1927
▁tastes	-1928
head	-1929
▁thre	-1930
cent	-1931
▁mot	-1932
▁eaten	-1933
▁church	-1934
▁paper	-1935
roup	-1936
▁mist	-1937
▁inst	-1938
▁Didnt	-1939
▁evening	-1940
ber	-1941
▁pos	-1942
▁Sometimes	-1943
ru	-1944
iter	-1945
▁draw	-1946
▁swim	-1947
▁Japanese	-1948
▁Put	-1949
▁cars	-1950
▁foreign	-1951
▁kil	-1952
ases	-1953
▁itself	-1954
▁cooking	-1955
▁certific	-1956
gu	-1957
usan	-1958
▁det	-1959
▁contro	-1960
ills	-1961
line	-1962
ior	-1963
▁eld	-1964
▁mix	-1965
▁broken	-1966
▁passed	-1967
fast	-1968
▁Cor	-1969
aster	-1970
▁purp	-1971
▁scen	-1972
▁students	-1973
▁breakfast	-1974
▁cart	-1975
▁product	-1976
oose	-1977
▁sign	-1978
▁group	-1979
▁complex	-1980
▁pictures	-1981
▁gain	-1982
▁clear	-1983
view	-1984
▁whats	-1985
▁bed	-1986
▁weak	-1987
▁twice	-1988
do	-1989
oons	-1990
▁Mother	-1991
▁step	-1992
▁makeup	-1993
▁card	-1994
▁Hes	-1995
▁Park	-1996
▁grown	-1997
ze	-1998
▁heavy	-1999
▁strength	-2000
▁rich	-2001
▁power	-2002
▁lead	-2003
▁favorite	-2004
▁boss	-2005
▁dangerous	-2006
▁mach	-2007
▁view	-2008
▁brothers	-2009
▁env	-2010
▁especially	-2011
ove	-2012
▁Re	-2013
▁bitch	-2014
▁develop	-2015
gan	-2016
ending	-2017
▁val	-2018
▁abroad	-2019
▁pack	-2020
lebr	-2021
ustr	-2022
▁along	-2023
▁Sam	-2024
▁star	-2025
▁calling	-2026
ides	-2027
▁empty	-2028
▁city	-2029
▁share	-2030
▁exact	-2031
ages	-2032
ished	-2033
ional	-2034
▁gradu	-2035
▁Intern	-2036
▁gy	-2037
▁worse	-2038
ator	-2039
▁purpose	-2040
▁surger	-2041
▁mistake	-2042
▁sisters	-2043
▁apartment	-2044
▁dogs	-2045
▁computer	-2046
▁nose	-2047
▁sens	-2048
▁pupp	-2049
▁interesting	-2050
▁beat	-2051
▁elect	-2052
▁least	-2053
▁celebr	-2054
onom	-2055
▁drunk	-2056
▁village	-2057
fl	-2058
▁cafe	-2059
▁Tw	-2060
▁speak	-2061
▁suit	-2062
▁sauce	-2063
oud	-2064
sel	-2065
▁legs	-2066
▁owner	-2067
▁whatever	-2068
che	-2069
▁pepp	-2070
▁dark	-2071
▁veget	-2072
vent	-2073
▁leaving	-2074
▁starting	-2075
▁aw	-2076
▁dollars	-2077
▁surgery	-2078
▁thank	-2079
▁Internet	-2080
fer	-2081
▁bathroom	-2082
pid	-2083
▁honey	-2084
▁arent	-2085
▁keeps	-2086
iqu	-2087
▁resp	-2088
fect	-2089
▁fly	-2090
▁serious	-2091
▁area	-2092
▁decided	-2093
ugg	-2094
ffect	-2095
mon	-2096
▁bri	-2097
▁doctor	-2098
▁embarrassed	-2099
▁rad	-2100
arch	-2101
▁cust	-2102
▁perform	-2103
▁marry	-2104
iversity	-2105
▁daughterlaw	-2106
▁sky	-2107
▁pork	-2108
▁twenty	-2109
▁mine	-2110
▁wondering	-2111
oment	-2112
▁mod	-2113
▁event	-2114
▁leaves	-2115
▁Busan	-2116
▁memories	-2117
▁loved	-2118
ism	-2119
▁stick	-2120
imb	-2121
▁quit	-2122
▁snack	-2123
▁excited	-2124
ues	-2125
▁moment	-2126
▁ru	-2127
pped	-2128
▁putting	-2129
▁ste	-2130
▁glass	-2131
▁trans	-2132
▁Does	-2133
▁attention	-2134
urance	-2135
▁writing	-2136
▁Lee	-2137
▁voice	-2138
▁par	-2139
▁ec	-2140
▁ma	-2141
▁bra	-2142
▁history	-2143
yeong	-2144
▁cond	-2145
cks	-2146
▁sports	-2147
▁thin	-2148
erg	-2149
▁em	-2150
▁aff	-2151
▁gri	-2152
▁wrote	-2153
enter	-2154
▁educ	-2155
ots	-2156
▁chance	-2157
▁hor	-2158
▁delive	-2159
▁With	-2160
▁contact	-2161
▁vegetable	-2162
▁soy	-2163
▁tight	-2164
▁simple	-2165
ined	-2166
▁base	-2167
▁flowers	-2168
ef	-2169
iday	-2170
▁piece	-2171
▁inv	-2172
eke	-2173
roud	-2174
▁lady	-2175
▁acade	-2176
▁party	-2177
▁proud	-2178
▁alive	-2179
▁ob	-2180
▁fru	-2181
▁Everyone	-2182
▁forgot	-2183
ety	-2184
▁waste	-2185
▁regret	-2186
▁youngest	-2187
▁suc	-2188
▁raising	-2189
▁stressed	-2190
▁mountains	-2191
▁bank	-2192
ned	-2193
rod	-2194
body	-2195
▁tax	-2196
▁puppy	-2197
▁Corona	-2198
▁control	-2199
▁amount	-2200
▁clos	-2201
▁harder	-2202
cri	-2203
▁bowl	-2204
▁exactly	-2205
ekend	-2206
▁easier	-2207
▁Also	-2208
▁glad	-2209
▁near	-2210
▁insurance	-2211
▁wall	-2212
▁instead	-2213
▁plant	-2214
▁club	-2215
▁weekend	-2216
▁building	-2217
▁wore	-2218
▁soft	-2219
▁moving	-2220
▁stupid	-2221
▁deep	-2222
▁himself	-2223
▁trust	-2224
used	-2225
▁groom	-2226
▁youve	-2227
▁fresh	-2228
▁stress	-2229
▁present	-2230
▁means	-2231
▁dishes	-2232
▁His	-2233
▁machine	-2234
▁Ame	-2235
▁uncle	-2236
▁question	-2237
▁report	-2238
rist	-2239
▁thick	-2240
▁comfort	-2241
▁seem	-2242
▁cre	-2243
▁Dae	-2244
▁emot	-2245
▁manag	-2246
▁needs	-2247
▁parts	-2248
▁picked	-2249
▁tall	-2250
▁ton	-2251
▁regular	-2252
hy	-2253
▁lying	-2254
ara	-2255
▁appear	-2256
▁paying	-2257
pect	-2258
▁support	-2259
▁hab	-2260
▁gym	-2261
▁video	-2262
em	-2263
▁nur	-2264
▁soc	-2265
len	-2266
ency	-2267
▁cover	-2268
▁While	-2269
▁moved	-2270
▁taken	-2271
▁econom	-2272
▁standing	-2273
▁growing	-2274
▁natural	-2275
▁var	-2276
▁effect	-2277
▁memory	-2278
▁treat	-2279
▁training	-2280
ps	-2281
▁president	-2282
arge	-2283
▁singing	-2284
▁Christ	-2285
▁oclock	-2286
▁stopped	-2287
▁prepare	-2288
▁fighting	-2289
▁teachers	-2290
pa	-2291
▁ice	-2292
▁cult	-2293
▁joke	-2294
▁apply	-2295
▁finish	-2296
▁secret	-2297
▁er	-2298
ories	-2299
▁grew	-2300
▁introd	-2301
aring	-2302
▁rent	-2303
ealous	-2304
▁acting	-2305
▁jealous	-2306
▁choose	-2307
▁divor	-2308
ode	-2309
angu	-2310
▁reading	-2311
▁cup	-2312
▁tour	-2313
▁common	-2314
▁dig	-2315
▁center	-2316
▁frustr	-2317
▁Act	-2318
▁prin	-2319
▁forth	-2320
▁selling	-2321
▁tur	-2322
▁green	-2323
▁har	-2324
▁calm	-2325
▁phys	-2326
▁choice	-2327
tern	-2328
▁luck	-2329
▁adult	-2330
chn	-2331
▁lower	-2332
▁active	-2333
▁spicy	-2334
▁conven	-2335
▁minute	-2336
ches	-2337
ording	-2338
▁pen	-2339
▁certificate	-2340
ees	-2341
▁av	-2342
den	-2343
ution	-2344
▁seat	-2345
▁slept	-2346
▁given	-2347
▁thinks	-2348
▁soccer	-2349
▁tot	-2350
▁holding	-2351
ili	-2352
ape	-2353
▁gar	-2354
▁eggs	-2355
▁disappoint	-2356
▁bell	-2357
▁town	-2358
▁brand	-2359
▁adults	-2360
▁syste	-2361
mosp	-2362
▁inform	-2363
▁jobs	-2364
▁atmosp	-2365
▁motherlaw	-2366
ique	-2367
▁foot	-2368
▁neck	-2369
▁thoughts	-2370
ute	-2371
idge	-2372
alk	-2373
ulous	-2374
▁norm	-2375
▁pig	-2376
▁burn	-2377
▁tic	-2378
▁cases	-2379
▁level	-2380
▁program	-2381
▁atmosphere	-2382
▁vegetables	-2383
▁Inst	-2384
▁drop	-2385
▁webt	-2386
▁quite	-2387
sy	-2388
▁ground	-2389
▁custome	-2390
▁z	-2391
▁single	-2392
port	-2393
ology	-2394
selves	-2395
▁Chinese	-2396
▁tonight	-2397
loy	-2398
▁ign	-2399
▁langu	-2400
io	-2401
▁Once	-2402
▁forward	-2403
▁dise	-2404
▁roll	-2405
▁stea	-2406
ude	-2407
▁blue	-2408
▁boat	-2409
work	-2410
▁service	-2411
▁pressure	-2412
▁los	-2413
▁organ	-2414
00	-2415
▁relig	-2416
▁techn	-2417
▁fif	-2418
▁content	-2419
ict	-2420
▁received	-2421
eth	-2422
iculous	-2423
▁pad	-2424
▁accept	-2425
▁mothers	-2426
▁spl	-2427
arrow	-2428
onestly	-2429
▁hurry	-2430
san	-2431
▁percent	-2432
▁system	-2433
▁Honestly	-2434
▁poor	-2435
ged	-2436
read	-2437
▁enjoyed	-2438
▁gold	-2439
▁pants	-2440
ocked	-2441
▁ordered	-2442
oun	-2443
ien	-2444
▁Br	-2445
pl	-2446
▁cow	-2447
▁yell	-2448
▁handsome	-2449
▁size	-2450
▁hotel	-2451
▁police	-2452
▁charge	-2453
▁properly	-2454
▁From	-2455
▁prot	-2456
▁ahead	-2457
▁practice	-2458
▁pow	-2459
vious	-2460
▁salt	-2461
▁allow	-2462
▁theater	-2463
▁perfect	-2464
▁Rather	-2465
▁contin	-2466
▁cooked	-2467
▁respons	-2468
▁expect	-2469
▁Actually	-2470
itten	-2471
▁relax	-2472
▁bother	-2473
▁raining	-2474
▁walked	-2475
▁foc	-2476
▁fan	-2477
▁greed	-2478
▁offic	-2479
itc	-2480
▁Ye	-2481
▁scre	-2482
▁Mar	-2483
▁express	-2484
▁learning	-2485
▁ev	-2486
▁large	-2487
▁compet	-2488
▁social	-2489
▁100	-2490
▁academy	-2491
gar	-2492
▁shoot	-2493
▁stone	-2494
▁priv	-2495
▁cream	-2496
▁education	-2497
▁disappointed	-2498
▁studied	-2499
mit	-2500
▁singer	-2501
awn	-2502
▁Was	-2503
▁station	-2504
▁changing	-2505
▁information	-2506
▁blow	-2507
▁Young	-2508
leep	-2509
▁est	-2510
▁hes	-2511
fu	-2512
apt	-2513
▁ring	-2514
kets	-2515
▁slight	-2516
▁temper	-2517
ists	-2518
uced	-2519
▁broad	-2520
▁pepper	-2521
▁language	-2522
▁woke	-2523
ashion	-2524
▁yours	-2525
▁hous	-2526
▁const	-2527
▁sensitive	-2528
rap	-2529
cious	-2530
▁board	-2531
▁explain	-2532
airs	-2533
▁members	-2534
▁manage	-2535
▁state	-2536
▁account	-2537
▁pretend	-2538
ogn	-2539
▁camp	-2540
▁Which	-2541
▁flower	-2542
▁opened	-2543
athe	-2544
ision	-2545
▁Here	-2546
ider	-2547
▁Han	-2548
▁Ims	-2549
▁wide	-2550
▁sons	-2551
▁basket	-2552
wang	-2553
▁dam	-2554
▁ide	-2555
▁sen	-2556
▁join	-2557
▁moms	-2558
▁Ha	-2559
cast	-2560
▁conne	-2561
▁narrow	-2562
▁against	-2563
▁plane	-2564
ha	-2565
ron	-2566
▁cried	-2567
ium	-2568
oid	-2569
▁Itas	-2570
▁riding	-2571
ton	-2572
▁normal	-2573
▁daughters	-2574
uk	-2575
▁visit	-2576
▁attract	-2577
▁environ	-2578
how	-2579
▁lone	-2580
▁China	-2581
▁rock	-2582
▁habit	-2583
▁faster	-2584
▁spent	-2585
▁recogn	-2586
▁dou	-2587
▁salty	-2588
amed	-2589
▁mis	-2590
ances	-2591
▁position	-2592
▁originally	-2593
uss	-2594
▁shot	-2595
mbered	-2596
▁compl	-2597
▁rough	-2598
▁design	-2599
▁patient	-2600
tle	-2601
▁mel	-2602
ears	-2603
▁bean	-2604
▁environment	-2605
▁Aren	-2606
▁dawn	-2607
▁disease	-2608
▁impro	-2609
▁collect	-2610
▁i	-2611
▁turns	-2612
▁bottom	-2613
▁Stop	-2614
▁qual	-2615
▁round	-2616
▁remembered	-2617
ux	-2618
▁Didn	-2619
▁climb	-2620
▁match	-2621
zen	-2622
▁activ	-2623
▁teeth	-2624
ilt	-2625
▁Hy	-2626
▁river	-2627
▁changes	-2628
▁swimming	-2629
▁arm	-2630
▁exercising	-2631
▁ridiculous	-2632
?"	-2633
ison	-2634
▁hol	-2635
▁dirty	-2636
▁roast	-2637
▁bare	-2638
itchen	-2639
▁snacks	-2640
ises	-2641
▁baseball	-2642
▁scene	-2643
ai	-2644
▁sir	-2645
▁boys	-2646
book	-2647
▁guest	-2648
▁holiday	-2649
com	-2650
▁oh	-2651
cles	-2652
eared	-2653
▁kitchen	-2654
ery	-2655
▁death	-2656
▁borrow	-2657
▁powder	-2658
▁shouldn	-2659
▁form	-2660
▁bunch	-2661
▁text	-2662
ointing	-2663
▁hid	-2664
▁phot	-2665
▁spread	-2666
bies	-2667
▁fing	-2668
▁milk	-2669
▁park	-2670
ury	-2671
▁abs	-2672
▁Dong	-2673
▁eldest	-2674
▁sever	-2675
▁hello	-2676
▁cheaper	-2677
▁corner	-2678
nam	-2679
cut	-2680
rel	-2681
▁Ex	-2682
▁Our	-2683
▁raw	-2684
▁incre	-2685
▁goal	-2686
▁Those	-2687
▁threw	-2688
ination	-2689
▁lonely	-2690
▁unique	-2691
ully	-2692
▁compared	-2693
bo	-2694
▁Good	-2695
▁ship	-2696
▁soci	-2697
ibility	-2698
▁Su	-2699
agram	-2700
▁beef	-2701
▁afford	-2702
▁Am	-2703
▁trees	-2704
▁record	-2705
cing	-2706
▁traveling	-2707
▁Che	-2708
▁Eat	-2709
▁known	-2710
▁paste	-2711
▁loud	-2712
▁employ	-2713
▁smells	-2714
oll	-2715
▁private	-2716
▁Two	-2717
▁gifts	-2718
▁asleep	-2719
astic	-2720
▁bright	-2721
bborn	-2722
▁fried	-2723
▁stubborn	-2724
gn	-2725
▁smal	-2726
▁costs	-2727
▁advance	-2728
▁interview	-2729
▁da	-2730
▁hig	-2731
▁except	-2732
▁smoke	-2733
▁letter	-2734
▁iP	-2735
▁Eur	-2736
ground	-2737
▁Sund	-2738
▁dest	-2739
▁cross	-2740
▁horse	-2741
▁window	-2742
coh	-2743
men	-2744
cohol	-2745
istic	-2746
▁Hong	-2747
▁spec	-2748
▁Honey	-2749
▁physical	-2750
▁Instagram	-2751
hew	-2752
oth	-2753
▁By	-2754
▁manager	-2755
sing	-2756
▁New	-2757
▁pray	-2758
▁Europe	-2759
▁hanging	-2760
▁several	-2761
isf	-2762
▁Looking	-2763
▁grandmothers	-2764
▁houses	-2765
▁Someone	-2766
▁pus	-2767
▁animals	-2768
▁hu	-2769
ashed	-2770
unity	-2771
▁alcohol	-2772
▁whenever	-2773
▁Bu	-2774
▁bat	-2775
▁ble	-2776
ffic	-2777
▁drug	-2778
▁dance	-2779
▁losing	-2780
▁basic	-2781
▁beach	-2782
rage	-2783
▁nine	-2784
▁gather	-2785
tic	-2786
▁Gang	-2787
▁Sunday	-2788
▁performance	-2789
▁hey	-2790
▁Before	-2791
▁separately	-2792
ging	-2793
▁hall	-2794
ertain	-2795
▁slowly	-2796
ices	-2797
▁appl	-2798
▁return	-2799
ured	-2800
▁arms	-2801
▁problems	-2802
▁yard	-2803
won	-2804
▁scr	-2805
▁avoid	-2806
▁university	-2807
▁disappointing	-2808
▁energ	-2809
▁remind	-2810
▁annoyed	-2811
▁society	-2812
▁la	-2813
ateful	-2814
▁Satur	-2815
▁according	-2816
aka	-2817
▁belly	-2818
ror	-2819
ails	-2820
▁mad	-2821
▁beer	-2822
▁concer	-2823
▁Saturday	-2824
▁original	-2825
▁cop	-2826
▁Make	-2827
▁slightly	-2828
aek	-2829
eds	-2830
▁shape	-2831
▁mood	-2832
▁player	-2833
oints	-2834
▁driver	-2835
▁lux	-2836
▁built	-2837
▁Theyre	-2838
▁salary	-2839
▁dev	-2840
▁fruit	-2841
▁motherinlaw	-2842
▁bottle	-2843
▁easily	-2844
▁stocks	-2845
▁eng	-2846
ified	-2847
▁Were	-2848
▁push	-2849
▁closed	-2850
▁conc	-2851
▁fill	-2852
▁Something	-2853
▁ment	-2854
▁electric	-2855
▁grateful	-2856
▁boiled	-2857
▁falling	-2858
ipe	-2859
▁fuc	-2860
▁professor	-2861
urry	-2862
▁Itin	-2863
▁eats	-2864
▁dying	-2865
▁points	-2866
▁equ	-2867
▁tim	-2868
▁complic	-2869
▁totally	-2870
▁condition	-2871
▁entertain	-2872
iod	-2873
▁pregn	-2874
▁smaller	-2875
▁turning	-2876
▁ur	-2877
idence	-2878
▁cabb	-2879
▁culture	-2880
▁relative	-2881
▁poc	-2882
antage	-2883
▁focus	-2884
▁garlic	-2885
▁online	-2886
▁brotherlaw	-2887
imi	-2888
▁tale	-2889
▁period	-2890
▁finished	-2891
aked	-2892
lled	-2893
ural	-2894
araoke	-2895
▁solve	-2896
orth	-2897
cheon	-2898
▁process	-2899
▁protect	-2900
▁cats	-2901
▁saving	-2902
▁jump	-2903
▁radish	-2904
▁feelings	-2905
mat	-2906
▁dust	-2907
▁ears	-2908
▁laund	-2909
▁decide	-2910
▁karaoke	-2911
▁standard	-2912
amp	-2913
▁complicated	-2914
▁blan	-2915
▁saved	-2916
▁sugar	-2917
▁trend	-2918
▁Christmas	-2919
oe	-2920
za	-2921
▁screen	-2922
▁themselves	-2923
eng	-2924
▁gas	-2925
ached	-2926
▁space	-2927
▁pan	-2928
▁pet	-2929
ieved	-2930
▁heat	-2931
ji	-2932
lings	-2933
▁imag	-2934
▁beans	-2935
▁local	-2936
▁vi	-2937
00,0	-2938
iced	-2939
▁closer	-2940
▁prefer	-2941
▁director	-2942
▁bored	-2943
▁stage	-2944
▁energy	-2945
▁various	-2946
▁prepared	-2947
▁countryside	-2948
▁restaurants	-2949
▁Ah	-2950
▁East	-2951
▁cancer	-2952
▁ug	-2953
▁Whe	-2954
▁motor	-2955
▁washing	-2956
▁written	-2957
▁cir	-2958
▁key	-2959
▁chair	-2960
▁drank	-2961
▁polit	-2962
▁fishing	-2963
ral	-2964
▁iron	-2965
▁success	-2966
▁Ne	-2967
ival	-2968
▁nut	-2969
ded	-2970
els	-2971
▁general	-2972
▁vol	-2973
▁mixed	-2974
▁barley	-2975
▁finally	-2976
▁laundry	-2977
▁national	-2978
▁confident	-2979
house	-2980
▁force	-2981
▁aftern	-2982
▁Man	-2983
▁safe	-2984
▁fought	-2985
▁tanger	-2986
▁appoint	-2987
▁broadcast	-2988
hone	-2989
▁Aunt	-2990
▁kick	-2991
▁ways	-2992
▁direct	-2993
▁jud	-2994
▁grill	-2995
▁somehow	-2996
▁afternoon	-2997
Oh	-2998
▁Me	-2999
olved	-3000
▁hole	-3001
▁grades	-3002
▁ple	-3003
▁straw	-3004
▁countries	-3005
▁wet	-3006
▁concert	-3007
iver	-3008
▁Mon	-3009
▁stir	-3010
▁hobbies	-3011
▁lucky	-3012
▁mater	-3013
▁picking	-3014
lo	-3015
▁Other	-3016
▁satisf	-3017
▁stories	-3018
pes	-3019
rica	-3020
▁liter	-3021
▁skills	-3022
▁amb	-3023
ption	-3024
▁fault	-3025
▁gives	-3026
▁personally	-3027
▁Ma	-3028
▁knees	-3029
▁customers	-3030
ives	-3031
rican	-3032
▁ugly	-3033
uth	-3034
like	-3035
▁actor	-3036
▁stret	-3037
▁boring	-3038
▁neg	-3039
▁daily	-3040
▁greedy	-3041
▁meaning	-3042
▁medical	-3043
▁novel	-3044
eed	-3045
▁Net	-3046
▁chew	-3047
▁Three	-3048
▁partic	-3049
for	-3050
fully	-3051
▁unif	-3052
▁meals	-3053
ipp	-3054
▁fac	-3055
▁memorable	-3056
▁maj	-3057
▁neat	-3058
▁meant	-3059
ache	-3060
▁yog	-3061
▁cash	-3062
▁potato	-3063
▁yellow	-3064
▁subject	-3065
▁rele	-3066
▁delivery	-3067
▁sash	-3068
itional	-3069
▁barely	-3070
▁pocket	-3071
itter	-3072
▁cand	-3073
▁knife	-3074
▁fashion	-3075
▁fur	-3076
▁cove	-3077
▁extent	-3078
▁oldest	-3079
▁becomes	-3080
▁pair	-3081
▁oppos	-3082
▁plate	-3083
▁shake	-3084
▁Yeshes	-3085
▁Mountain	-3086
▁listened	-3087
▁Sp	-3088
▁experien	-3089
▁ant	-3090
▁oper	-3091
▁suff	-3092
▁grass	-3093
▁cabbage	-3094
▁preparing	-3095
int	-3096
▁split	-3097
▁sweat	-3098
▁estate	-3099
▁affe	-3100
su	-3101
▁rom	-3102
light	-3103
▁pill	-3104
▁hated	-3105
▁weren	-3106
▁ticket	-3107
▁reality	-3108
amb	-3109
▁reduce	-3110
▁knowing	-3111
▁touched	-3112
▁laughing	-3113
▁convenience	-3114
▁caf	-3115
▁ended	-3116
▁generation	-3117
▁ing	-3118
▁score	-3119
▁talent	-3120
▁Lea	-3121
▁sashimi	-3122
▁questions	-3123
vern	-3124
▁Imas	-3125
▁gained	-3126
▁higher	-3127
▁taught	-3128
▁obvious	-3129
ls	-3130
▁fle	-3131
▁strugg	-3132
▁graduate	-3133
▁religion	-3134
▁goods	-3135
▁indust	-3136
▁pregnant	-3137
oms	-3138
▁sched	-3139
aged	-3140
asure	-3141
▁opin	-3142
▁stew	-3143
▁liver	-3144
▁showed	-3145
▁motorcy	-3146
aff	-3147
▁ep	-3148
aret	-3149
inary	-3150
▁schedu	-3151
▁impress	-3152
aps	-3153
▁Nam	-3154
▁chest	-3155
▁shows	-3156
redient	-3157
▁musical	-3158
▁staying	-3159
▁useless	-3160
vert	-3161
▁Sun	-3162
▁Think	-3163
▁covered	-3164
▁ingredient	-3165
▁daughterinlaw	-3166
▁coll	-3167
▁agree	-3168
▁cance	-3169
▁chief	-3170
go	-3171
oop	-3172
iors	-3173
▁United	-3174
▁luxury	-3175
▁professional	-3176
cho	-3177
vere	-3178
▁wood	-3179
▁appointment	-3180
fish	-3181
▁cig	-3182
▁cri	-3183
▁fles	-3184
▁blind	-3185
▁truth	-3186
bed	-3187
▁rit	-3188
▁hasn	-3189
▁comic	-3190
▁Whether	-3191
▁depending	-3192
host	-3193
tery	-3194
▁cap	-3195
▁unf	-3196
▁added	-3197
▁genre	-3198
▁Tod	-3199
▁pun	-3200
▁govern	-3201
uous	-3202
▁Pro	-3203
hered	-3204
▁cent	-3205
▁writer	-3206
▁Grandpa	-3207
▁cleaning	-3208
cip	-3209
▁Id	-3210
▁Min	-3211
oking	-3212
▁bull	-3213
▁Hurry	-3214
▁double	-3215
▁stronger	-3216
over	-3217
acking	-3218
▁glasses	-3219
▁mention	-3220
arm	-3221
atic	-3222
▁golf	-3223
▁pian	-3224
▁apolog	-3225
met	-3226
▁Bl	-3227
▁Kaka	-3228
▁cher	-3229
coming	-3230
▁rate	-3231
▁sand	-3232
▁sex	-3233
▁Budd	-3234
▁band	-3235
▁bite	-3236
▁sixty	-3237
▁comfortably	-3238
son	-3239
▁bone	-3240
▁role	-3241
▁seaw	-3242
▁super	-3243
▁involved	-3244
▁piz	-3245
▁Call	-3246
▁beauty	-3247
▁master	-3248
▁spending	-3249
▁mag	-3250
▁rob	-3251
▁rare	-3252
▁image	-3253
▁celebrities	-3254
rop	-3255
▁Ab	-3256
▁flo	-3257
▁hat	-3258
▁earn	-3259
▁pool	-3260
▁Today	-3261
▁certain	-3262
izing	-3263
▁Hall	-3264
▁bird	-3265
▁shame	-3266
▁stirf	-3267
▁following	-3268
▁kic	-3269
▁related	-3270
riger	-3271
▁Gwang	-3272
▁diale	-3273
▁ghost	-3274
▁cartoon	-3275
▁cigaret	-3276
▁plastic	-3277
▁basketball	-3278
asy	-3279
▁Really	-3280
▁convers	-3281
▁dialect	-3282
iot	-3283
▁non	-3284
▁pul	-3285
▁kinds	-3286
▁timid	-3287
▁opport	-3288
▁sevent	-3289
▁passing	-3290
▁refriger	-3291
▁dan	-3292
itions	-3293
▁Arent	-3294
▁players	-3295
olate	-3296
▁list	-3297
▁rese	-3298
▁shut	-3299
▁spot	-3300
▁noise	-3301
▁rainy	-3302
▁sacri	-3303
▁promise	-3304
▁soju	-3305
▁States	-3306
teok	-3307
▁Wait	-3308
▁West	-3309
▁held	-3310
▁perm	-3311
▁Netfl	-3312
▁fifty	-3313
▁necess	-3314
▁embarrassing	-3315
bean	-3316
▁awk	-3317
allen	-3318
▁shes	-3319
▁calls	-3320
sung	-3321
▁Last	-3322
▁bike	-3323
▁swear	-3324
▁blanket	-3325
▁Inje	-3326
▁American	-3327
▁introduce	-3328
acked	-3329
▁Talk	-3330
▁desk	-3331
▁weeks	-3332
▁sprout	-3333
▁supple	-3334
▁results	-3335
iment	-3336
▁decor	-3337
▁flesh	-3338
▁drinks	-3339
▁awkward	-3340
▁teaching	-3341
▁App	-3342
▁hide	-3343
▁math	-3344
▁seemed	-3345
ik	-3346
▁Na	-3347
▁rub	-3348
▁fest	-3349
▁pizza	-3350
▁Netflix	-3351
▁frustrated	-3352
▁ingredients	-3353
cu	-3354
▁rum	-3355
ocking	-3356
▁treated	-3357
ids	-3358
▁cab	-3359
▁ris	-3360
▁apart	-3361
▁Gyeong	-3362
▁search	-3363
▁distance	-3364
▁products	-3365
▁released	-3366
unic	-3367
▁Ithe	-3368
▁film	-3369
▁burden	-3370
▁dressed	-3371
▁complain	-3372
une	-3373
board	-3374
▁cous	-3375
▁fail	-3376
▁farm	-3377
▁intern	-3378
▁shy	-3379
▁scold	-3380
▁fucking	-3381
▁missing	-3382
cul	-3383
▁See	-3384
▁tit	-3385
▁Ke	-3386
▁ly	-3387
▁fits	-3388
▁piano	-3389
▁squee	-3390
▁concept	-3391
ems	-3392
▁obs	-3393
▁tie	-3394
▁unit	-3395
▁nature	-3396
▁temple	-3397
▁characters	-3398
rict	-3399
▁sang	-3400
▁handle	-3401
▁grandma	-3402
▁Especially	-3403
ondo	-3404
▁hearing	-3405
▁soybean	-3406
▁height	-3407
▁divorced	-3408
een	-3409
▁cos	-3410
▁tough	-3411
▁twist	-3412
▁muscles	-3413
oof	-3414
ups	-3415
▁iss	-3416
aptop	-3417
▁Hell	-3418
▁fold	-3419
▁foods	-3420
▁Tr	-3421
lect	-3422
rows	-3423
▁Kakao	-3424
▁princip	-3425
▁quality	-3426
0.	-3427
▁Te	-3428
ents	-3429
rics	-3430
ension	-3431
▁disch	-3432
▁helped	-3433
▁America	-3434
▁divorce	-3435
po	-3436
▁coat	-3437
▁spoon	-3438
▁laptop	-3439
▁shaking	-3440
▁appearance	-3441
▁government	-3442
ause	-3443
cture	-3444
▁flour	-3445
▁skirt	-3446
▁actors	-3447
▁seasons	-3448
bok	-3449
rimp	-3450
▁fra	-3451
▁ramen	-3452
▁animal	-3453
ho	-3454
iff	-3455
ayed	-3456
asing	-3457
rible	-3458
▁fema	-3459
▁talks	-3460
▁School	-3461
▁missed	-3462
▁washed	-3463
lt	-3464
ney	-3465
▁ju	-3466
cean	-3467
▁seme	-3468
▁likely	-3469
▁Ji	-3470
face	-3471
▁lights	-3472
▁separate	-3473
dy	-3474
aded	-3475
arden	-3476
▁onions	-3477
▁breaking	-3478
▁continue	-3479
jin	-3480
▁bene	-3481
▁entr	-3482
▁wave	-3483
iny	-3484
▁stab	-3485
▁fixed	-3486
▁cherry	-3487
wan	-3488
▁wa	-3489
iling	-3490
▁Will	-3491
eaking	-3492
▁accom	-3493
▁major	-3494
▁sounds	-3495
▁webtoon	-3496
▁direction	-3497
▁yoga	-3498
▁ideal	-3499
▁muscle	-3500
▁thirty	-3501
▁cartoons	-3502
▁electron	-3503
▁companies	-3504
▁graduated	-3505
▁refrigerator	-3506
jeon	-3507
▁crit	-3508
▁smile	-3509
▁reserv	-3510
erve	-3511
▁map	-3512
▁comb	-3513
▁gotten	-3514
▁iPhone	-3515
▁shrimp	-3516
▁werent	-3517
▁positive	-3518
▁semester	-3519
▁shoulder	-3520
▁webtoons	-3521
▁competition	-3522
▁Most	-3523
▁burst	-3524
▁notice	-3525
▁precious	-3526
five	-3527
ross	-3528
▁dried	-3529
▁stars	-3530
▁title	-3531
▁female	-3532
▁seaweed	-3533
▁followed	-3534
ceed	-3535
itch	-3536
rams	-3537
▁choc	-3538
▁bones	-3539
▁applied	-3540
▁Gu	-3541
▁hy	-3542
ague	-3543
▁psy	-3544
▁socks	-3545
▁parking	-3546
▁gun	-3547
hetic	-3548
wards	-3549
▁dish	-3550
▁Hello	-3551
▁decade	-3552
▁dreams	-3553
▁flying	-3554
▁Koreans	-3555
▁developed	-3556
kers	-3557
▁due	-3558
wondo	-3559
▁review	-3560
▁Ar	-3561
▁De	-3562
hold	-3563
▁shell	-3564
▁staff	-3565
▁series	-3566
▁depressed	-3567
antly	-3568
▁rains	-3569
▁corona	-3570
▁fields	-3571
▁economy	-3572
▁Air	-3573
asked	-3574
▁epis	-3575
▁requ	-3576
▁elder	-3577
cc	-3578
▁lay	-3579
▁appro	-3580
ization	-3581
▁discount	-3582
dong	-3583
▁lab	-3584
▁mos	-3585
▁Kang	-3586
▁scar	-3587
▁boiling	-3588
▁temperature	-3589
acy	-3590
ane	-3591
▁rat	-3592
▁King	-3593
▁chec	-3594
▁upside	-3595
▁touching	-3596
▁emotional	-3597
▁frustrating	-3598
▁Ge	-3599
▁cru	-3600
▁god	-3601
▁Next	-3602
▁site	-3603
▁ocean	-3604
▁becoming	-3605
ki	-3606
quit	-3607
term	-3608
itted	-3609
▁Song	-3610
▁relaxed	-3611
▁exciting	-3612
▁University	-3613
gest	-3614
aches	-3615
▁pump	-3616
▁cloud	-3617
▁speed	-3618
▁garden	-3619
▁happening	-3620
iers	-3621
▁oct	-3622
▁fort	-3623
▁lazy	-3624
▁note	-3625
▁opposite	-3626
▁Sit	-3627
▁rot	-3628
allow	-3629
▁drag	-3630
▁Listen	-3631
▁needed	-3632
▁singers	-3633
▁entrance	-3634
▁Buy	-3635
▁fro	-3636
▁ski	-3637
▁Answ	-3638
▁Shin	-3639
▁island	-3640
▁senior	-3641
▁severe	-3642
▁planning	-3643
laws	-3644
▁sil	-3645
uction	-3646
▁scream	-3647
▁mosquit	-3648
▁communic	-3649
▁mentioned	-3650
itam	-3651
opus	-3652
▁jac	-3653
▁arri	-3654
▁huge	-3655
▁unus	-3656
▁Il	-3657
▁pal	-3658
▁tofu	-3659
▁lyrics	-3660
lla	-3661
phew	-3662
▁umb	-3663
iliar	-3664
▁sales	-3665
▁terms	-3666
▁nephew	-3667
▁overse	-3668
▁classes	-3669
▁apologize	-3670
▁responsibility	-3671
▁Right	-3672
▁peoples	-3673
▁throwing	-3674
▁activities	-3675
▁cou	-3676
epend	-3677
▁king	-3678
ildren	-3679
▁respect	-3680
▁carefully	-3681
ses	-3682
▁ash	-3683
ining	-3684
▁flat	-3685
▁incl	-3686
ration	-3687
▁artic	-3688
▁camera	-3689
▁PC	-3690
ials	-3691
▁lad	-3692
▁dump	-3693
▁male	-3694
▁moon	-3695
▁Among	-3696
▁South	-3697
▁cutting	-3698
What	-3699
▁cot	-3700
▁bags	-3701
▁corn	-3702
▁spir	-3703
▁finan	-3704
▁idiot	-3705
▁forced	-3706
▁advantage	-3707
▁tangerines	-3708
hip	-3709
ghed	-3710
▁Ind	-3711
▁begg	-3712
▁dated	-3713
▁sonlaw	-3714
▁Itually	-3715
▁Samsung	-3716
▁airport	-3717
▁schedule	-3718
▁chocolate	-3719
▁SN	-3720
▁prov	-3721
▁sees	-3722
metics	-3723
▁tears	-3724
ruction	-3725
imul	-3726
▁pour	-3727
▁Leave	-3728
▁forty	-3729
▁octopus	-3730
▁recognize	-3731
▁shoulders	-3732
rib	-3733
▁bul	-3734
▁wra	-3735
▁mass	-3736
▁prote	-3737
▁grilled	-3738
▁opinion	-3739
gy	-3740
ivil	-3741
▁fuck	-3742
▁fund	-3743
▁Monday	-3744
▁kicked	-3745
▁painful	-3746
▁festival	-3747
▁motorcycle	-3748
▁conversation	-3749
adv	-3750
▁fee	-3751
▁bicy	-3752
▁burd	-3753
▁exch	-3754
▁fool	-3755
▁below	-3756
▁guard	-3757
▁pushed	-3758
▁shocked	-3759
▁painting	-3760
▁technology	-3761
ata	-3762
att	-3763
aker	-3764
▁tasted	-3765
▁camping	-3766
▁Everything	-3767
ades	-3768
▁SNS	-3769
▁gat	-3770
▁tow	-3771
▁kiss	-3772
▁mart	-3773
▁snake	-3774
▁trash	-3775
▁disadv	-3776
▁fruits	-3777
▁elderly	-3778
▁Dr	-3779
▁es	-3780
▁Son	-3781
▁sus	-3782
▁wrap	-3783
▁Later	-3784
▁items	-3785
▁damage	-3786
▁scratch	-3787
▁overseas	-3788
iece	-3789
▁pea	-3790
▁pee	-3791
▁cast	-3792
▁loan	-3793
▁Apple	-3794
▁nurse	-3795
▁pills	-3796
▁ignore	-3797
▁member	-3798
▁contain	-3799
▁satisfied	-3800
jang	-3801
under	-3802
▁carr	-3803
▁chop	-3804
▁ribs	-3805
▁umbre	-3806
▁cleaned	-3807
▁discuss	-3808
▁hundreds	-3809
▁loss	-3810
ission	-3811
▁North	-3812
▁beaten	-3813
▁stimul	-3814
▁nursing	-3815
▁cosmetics	-3816
oung	-3817
▁Ite	-3818
▁10,0	-3819
▁breath	-3820
▁remain	-3821
▁terrible	-3822
whe	-3823
just	-3824
▁sides	-3825
▁bill	-3826
▁eyeb	-3827
▁action	-3828
▁traffic	-3829
▁decision	-3830
▁hip	-3831
▁infl	-3832
▁sour	-3833
▁value	-3834
▁engine	-3835
▁videos	-3836
▁nowhere	-3837
▁gathered	-3838
▁entertainment	-3839
fice	-3840
▁decre	-3841
mes	-3842
nis	-3843
not	-3844
▁apple	-3845
▁types	-3846
▁waist	-3847
▁attend	-3848
▁biggest	-3849
▁current	-3850
▁management	-3851
▁imm	-3852
▁flight	-3853
▁attached	-3854
,.	-3855
zed	-3856
▁sin	-3857
andon	-3858
▁Keep	-3859
▁orange	-3860
▁sacrifice	-3861
▁Jung	-3862
▁fingers	-3863
▁reminds	-3864
▁grandson	-3865
▁everywhere	-3866
ks	-3867
ums	-3868
ened	-3869
▁Com	-3870
▁lif	-3871
▁Yang	-3872
▁idol	-3873
▁surv	-3874
▁bitter	-3875
▁colors	-3876
▁stable	-3877
una	-3878
ians	-3879
▁thief	-3880
▁Whatever	-3881
▁fatherlaw	-3882
ays	-3883
isy	-3884
gent	-3885
mony	-3886
▁Watch	-3887
▁ritual	-3888
▁dieting	-3889
mpt	-3890
▁rabb	-3891
▁romance	-3892
▁responsible	-3893
ex	-3894
iety	-3895
wear	-3896
▁adm	-3897
▁tip	-3898
▁nutr	-3899
▁corre	-3900
▁vitam	-3901
▁stretch	-3902
▁opportunity	-3903
co	-3904
ledge	-3905
▁menu	-3906
▁ambig	-3907
▁earth	-3908
▁across	-3909
▁breast	-3910
▁frozen	-3911
▁guests	-3912
▁leader	-3913
▁subway	-3914
▁divided	-3915
▁forgive	-3916
▁appeared	-3917
▁independ	-3918
▁transfer	-3919
tes	-3920
▁Ph	-3921
iture	-3922
▁career	-3923
▁stores	-3924
▁Wouldnt	-3925
▁aud	-3926
▁bal	-3927
▁era	-3928
arged	-3929
▁Only	-3930
▁crow	-3931
▁trot	-3932
▁cheese	-3933
▁burdens	-3934
▁farming	-3935
▁consider	-3936
▁flu	-3937
▁sib	-3938
▁furn	-3939
▁tail	-3940
▁wild	-3941
▁ability	-3942
▁helpful	-3943
▁schools	-3944
▁homework	-3945
▁programs	-3946
▁naturally	-3947
▁attractive	-3948
▁struggling	-3949
▁Us	-3950
▁mir	-3951
dered	-3952
▁bran	-3953
▁civil	-3954
▁faces	-3955
▁limit	-3956
▁Daejeon	-3957
▁hitting	-3958
▁laughed	-3959
▁showing	-3960
▁soldier	-3961
▁affection	-3962
▁reservation	-3963
hop	-3964
ddenly	-3965
▁mental	-3966
▁promot	-3967
▁shower	-3968
▁specific	-3969
zz	-3970
gue	-3971
hand	-3972
▁Baek	-3973
▁wine	-3974
action	-3975
▁abandon	-3976
▁ashamed	-3977
▁lecture	-3978
▁roughly	-3979
▁ambiguous	-3980
▁convenient	-3981
▁wel	-3982
▁Face	-3983
▁Viet	-3984
▁wand	-3985
▁weve	-3986
▁above	-3987
▁based	-3988
unately	-3989
▁excuse	-3990
▁pulled	-3991
▁ruined	-3992
▁spirit	-3993
▁factory	-3994
▁planted	-3995
▁reduced	-3996
▁holidays	-3997
▁recommended	-3998
ads	-3999
elve	-4000
▁Sir	-4001
▁cere	-4002
▁tied	-4003
▁upper	-4004
▁bringing	-4005
▁burdensome	-4006
▁Wel	-4007
▁jun	-4008
oring	-4009
▁sort	-4010
▁tells	-4011
▁detail	-4012
▁valley	-4013
▁unusual	-4014
▁property	-4015
▁seasoning	-4016
gr	-4017
▁Iss	-4018
▁Try	-4019
▁coo	-4020
arant	-4021
▁libr	-4022
▁trad	-4023
▁uniform	-4024
▁negative	-4025
▁celebrity	-4026
▁furniture	-4027
▁discharged	-4028
▁investment	-4029
▁particular	-4030
mar	-4031
iest	-4032
▁dre	-4033
▁thro	-4034
▁Instead	-4035
▁steamed	-4036
▁carrying	-4037
mers	-4038
▁fry	-4039
▁docu	-4040
▁seeds	-4041
▁drawing	-4042
▁increase	-4043
▁financial	-4044
nel	-4045
tain	-4046
yang	-4047
▁benef	-4048
▁squid	-4049
▁worst	-4050
▁Kimchi	-4051
▁dancing	-4052
▁sending	-4053
▁contract	-4054
▁construction	-4055
lace	-4056
orld	-4057
usion	-4058
▁gent	-4059
▁advert	-4060
▁failed	-4061
▁nearby	-4062
▁library	-4063
▁smoking	-4064
▁tourist	-4065
▁realized	-4066
▁relieved	-4067
▁cris	-4068
▁faith	-4069
▁killed	-4070
▁retire	-4071
▁starts	-4072
▁Usually	-4073
▁opening	-4074
▁quietly	-4075
▁economic	-4076
▁treatment	-4077
▁disappeared	-4078
to	-4079
kin	-4080
irts	-4081
▁lend	-4082
▁rooms	-4083
uggage	-4084
▁Buddh	-4085
▁viole	-4086
▁obsess	-4087
▁ordinary	-4088
back	-4089
▁ill	-4090
▁Youve	-4091
▁cheek	-4092
▁drugs	-4093
▁urgent	-4094
▁wallet	-4095
▁billion	-4096
▁luggage	-4097
the	-4098
▁ene	-4099
ilies	-4100
▁butt	-4101
▁critic	-4102
▁seniors	-4103
▁100,0	-4104
▁psych	-4105
▁stood	-4106
▁trave	-4107
▁poison	-4108
▁square	-4109
▁tennis	-4110
▁climbing	-4111
▁May	-4112
▁anx	-4113
▁mal	-4114
▁taxi	-4115
▁kilos	-4116
▁plans	-4117
▁phones	-4118
▁kidding	-4119
icks	-4120
▁deg	-4121
▁mush	-4122
▁tong	-4123
estern	-4124
▁fired	-4125
▁juice	-4126
▁digest	-4127
▁seventy	-4128
▁pathetic	-4129
▁thousands	-4130
bye	-4131
▁pink	-4132
▁tone	-4133
▁Daegu	-4134
▁bloss	-4135
▁newsp	-4136
▁adjust	-4137
▁Gwangju	-4138
▁umbrella	-4139
itude	-4140
▁Stay	-4141
▁grab	-4142
▁inn	-4143
▁lim	-4144
apers	-4145
▁path	-4146
▁Imont	-4147
▁pieces	-4148
▁welcome	-4149
▁emotions	-4150
▁families	-4151
▁collected	-4152
gged	-4153
▁mob	-4154
▁por	-4155
▁fant	-4156
▁worn	-4157
▁model	-4158
▁solved	-4159
▁bicycle	-4160
▁blocked	-4161
▁peppers	-4162
▁science	-4163
▁mushroom	-4164
▁US	-4165
▁ham	-4166
▁debt	-4167
▁poop	-4168
▁stat	-4169
▁sleepy	-4170
▁entered	-4171
▁message	-4172
▁supplements	-4173
ivid	-4174
reat	-4175
▁mac	-4176
▁vir	-4177
▁Jeon	-4178
▁eyel	-4179
▁alley	-4180
▁fever	-4181
▁guide	-4182
▁depend	-4183
▁throat	-4184
▁Ad	-4185
food	-4186
itis	-4187
reme	-4188
▁enc	-4189
▁applic	-4190
orms	-4191
▁ave	-4192
▁High	-4193
▁friendly	-4194
▁meantime	-4195
cil	-4196
lass	-4197
phones	-4198
▁plays	-4199
▁helping	-4200
▁willing	-4201
▁National	-4202
▁research	-4203
▁connected	-4204
▁Ear	-4205
▁lat	-4206
▁enemy	-4207
▁noisy	-4208
▁serve	-4209
▁burned	-4210
▁cousin	-4211
▁income	-4212
▁waited	-4213
▁Facebook	-4214
▁ban	-4215
ffort	-4216
tered	-4217
▁enter	-4218
▁steal	-4219
▁assist	-4220
▁tendency	-4221
▁knowledge	-4222
eral	-4223
ruct	-4224
▁alb	-4225
▁gentle	-4226
▁hiding	-4227
▁breathe	-4228
▁letters	-4229
▁expected	-4230
▁brotherinlaw	-4231
zer	-4232
▁fake	-4233
▁pity	-4234
▁thri	-4235
▁grind	-4236
▁truck	-4237
▁regard	-4238
▁sprouts	-4239
▁Day	-4240
▁fox	-4241
▁dads	-4242
▁ends	-4243
ergart	-4244
▁blame	-4245
▁finger	-4246
▁improve	-4247
▁relatives	-4248
▁Her	-4249
▁east	-4250
▁mall	-4251
resent	-4252
▁Bring	-4253
▁pride	-4254
▁range	-4255
▁pulling	-4256
aly	-4257
ctors	-4258
antages	-4259
▁endure	-4260
▁fathers	-4261
▁prevent	-4262
▁industry	-4263
▁electronic	-4264
uses	-4265
▁Cho	-4266
▁fed	-4267
▁Webt	-4268
▁risk	-4269
▁west	-4270
ipment	-4271
▁steam	-4272
▁eyebrows	-4273
secut	-4274
▁effort	-4275
▁fourth	-4276
▁further	-4277
▁customer	-4278
▁impressed	-4279
▁principal	-4280
▁introduced	-4281
rog	-4282
▁Pres	-4283
▁aunts	-4284
▁block	-4285
▁falls	-4286
▁stole	-4287
▁useful	-4288
▁scolded	-4289
rest	-4290
▁vacc	-4291
▁seats	-4292
▁imagine	-4293
▁tickets	-4294
ah	-4295
▁dorm	-4296
▁stead	-4297
▁tenth	-4298
▁rabbit	-4299
▁employee	-4300
▁disappear	-4301
arp	-4302
omb	-4303
uty	-4304
cake	-4305
ners	-4306
▁data	-4307
▁Women	-4308
▁recent	-4309
▁package	-4310
▁soldiers	-4311
▁kindergart	-4312
▁experienced	-4313
hor	-4314
leg	-4315
▁bake	-4316
▁pure	-4317
▁Until	-4318
▁bless	-4319
▁cruel	-4320
▁moder	-4321
▁cotton	-4322
▁steadily	-4323
▁equipment	-4324
mod	-4325
aven	-4326
▁Sea	-4327
▁frog	-4328
▁ideas	-4329
▁suits	-4330
▁rained	-4331
▁connect	-4332
▁project	-4333
▁movement	-4334
▁employees	-4335
irm	-4336
▁Big	-4337
bokki	-4338
▁radio	-4339
▁ending	-4340
▁tongue	-4341
key	-4342
ooth	-4343
sters	-4344
▁masks	-4345
▁heaven	-4346
▁inlaws	-4347
▁relief	-4348
▁silver	-4349
▁stayed	-4350
▁pension	-4351
▁exchange	-4352
▁siblings	-4353
year	-4354
▁gap	-4355
▁duck	-4356
▁bucks	-4357
berries	-4358
▁twelve	-4359
▁Nothing	-4360
▁forever	-4361
▁speaking	-4362
▁basically	-4363
▁Imam	-4364
▁upon	-4365
▁wipe	-4366
▁lines	-4367
▁taxes	-4368
ulation	-4369
▁desire	-4370
▁result	-4371
teokbokki	-4372
▁sisterlaw	-4373
▁Yoon	-4374
▁plat	-4375
▁brain	-4376
▁extra	-4377
▁snows	-4378
▁bridge	-4379
▁TO	-4380
▁net	-4381
pping	-4382
▁Hold	-4383
▁bride	-4384
▁average	-4385
▁episode	-4386
▁install	-4387
▁Suddenly	-4388
▁President	-4389
▁necessary	-4390
umb	-4391
▁Say	-4392
▁Friday	-4393
▁unfair	-4394
▁politics	-4395
▁progress	-4396
▁traveled	-4397
▁Yesterday	-4398
▁answering	-4399
▁Ifs	-4400
▁ach	-4401
▁Jang	-4402
▁brown	-4403
▁feast	-4404
▁named	-4405
▁ladies	-4406
▁stairs	-4407
▁protein	-4408
▁accommod	-4409
▁memorize	-4410
alle	-4411
▁vague	-4412
▁reluct	-4413
▁deliver	-4414
▁letting	-4415
▁function	-4416
▁Gr	-4417
illa	-4418
ived	-4419
▁About	-4420
▁photo	-4421
▁rubber	-4422
▁cigarette	-4423
IC	-4424
reci	-4425
gency	-4426
▁symp	-4427
▁admit	-4428
▁issue	-4429
▁keeping	-4430
▁swallow	-4431
▁computers	-4432
▁certificates	-4433
eon	-4434
urity	-4435
▁City	-4436
▁disg	-4437
▁kindergarten	-4438
▁cy	-4439
ager	-4440
chov	-4441
▁ess	-4442
▁dies	-4443
▁repe	-4444
▁aller	-4445
▁dozen	-4446
▁toile	-4447
ception	-4448
▁Jejudo	-4449
▁succeed	-4450
▁accidents	-4451
▁everybody	-4452
▁destination	-4453
using	-4454
▁fear	-4455
▁mill	-4456
▁wrink	-4457
▁prices	-4458
▁limited	-4459
▁mistakes	-4460
ohn	-4461
medi	-4462
▁mic	-4463
▁sew	-4464
▁fair	-4465
▁pine	-4466
▁reve	-4467
▁sale	-4468
▁chose	-4469
▁within	-4470
▁appreci	-4471
▁dropped	-4472
▁relationships	-4473
gic	-4474
mest	-4475
mple	-4476
▁cred	-4477
▁topic	-4478
▁trick	-4479
▁wheel	-4480
allenge	-4481
▁mirror	-4482
▁article	-4483
▁studies	-4484
▁incident	-4485
▁material	-4486
▁wondered	-4487
▁exercises	-4488
uh	-4489
aint	-4490
moon	-4491
oses	-4492
▁nin	-4493
▁More	-4494
▁heal	-4495
▁cause	-4496
▁extreme	-4497
▁conditions	-4498
py	-4499
ado	-4500
nty	-4501
akers	-4502
▁Jong	-4503
▁lied	-4504
▁mult	-4505
inated	-4506
mentia	-4507
▁balls	-4508
▁Sister	-4509
▁heartb	-4510
▁worker	-4511
▁doctors	-4512
▁drivers	-4513
▁padding	-4514
▁misunder	-4515
ja	-4516
nce	-4517
▁Lot	-4518
▁Par	-4519
▁rev	-4520
▁row	-4521
▁buys	-4522
▁emer	-4523
▁writ	-4524
▁instru	-4525
▁photos	-4526
▁decades	-4527
▁forgotten	-4528
gs	-4529
▁Dep	-4530
▁copy	-4531
▁knee	-4532
▁piss	-4533
minist	-4534
▁artific	-4535
▁wrapped	-4536
▁tteokbokki	-4537
ume	-4538
▁hi	-4539
four	-4540
phone	-4541
▁coun	-4542
▁dirt	-4543
▁teen	-4544
▁wire	-4545
▁humans	-4546
▁unfort	-4547
▁Vietnam	-4548
▁represent	-4549
oos	-4550
raph	-4551
erman	-4552
three	-4553
▁locked	-4554
▁allowed	-4555
▁setting	-4556
▁familiar	-4557
▁Gangwondo	-4558
ridge	-4559
▁tele	-4560
▁vict	-4561
▁gross	-4562
▁loves	-4563
ilities	-4564
▁rarely	-4565
▁seafood	-4566
▁confused	-4567
▁porridge	-4568
▁Christian	-4569
▁Op	-4570
▁dye	-4571
▁exe	-4572
▁sne	-4573
▁capt	-4574
▁reach	-4575
▁rules	-4576
▁spray	-4577
▁plenty	-4578
▁correct	-4579
▁planned	-4580
▁dementia	-4581
▁directly	-4582
cra	-4583
▁Cant	-4584
▁announ	-4585
▁assign	-4586
▁junior	-4587
▁punish	-4588
▁remove	-4589
▁Western	-4590
▁carried	-4591
▁streets	-4592
▁forehead	-4593
▁independent	-4594
yed	-4595
fess	-4596
▁TOE	-4597
ollen	-4598
▁acqu	-4599
▁lips	-4600
▁lots	-4601
▁Jeong	-4602
▁cafes	-4603
▁scent	-4604
▁Iveathe	-4605
▁enjoying	-4606
▁football	-4607
▁honeymoon	-4608
▁reluctant	-4609
▁Add	-4610
▁tor	-4611
imbap	-4612
neung	-4613
lected	-4614
▁sharp	-4615
▁anchov	-4616
▁activity	-4617
arry	-4618
name	-4619
yeon	-4620
▁Seog	-4621
▁argu	-4622
▁bear	-4623
▁item	-4624
▁lift	-4625
▁uplo	-4626
iction	-4627
▁prize	-4628
▁tests	-4629
▁calcul	-4630
▁comments	-4631
wo	-4632
cket	-4633
▁inf	-4634
orter	-4635
▁John	-4636
▁disp	-4637
▁roof	-4638
▁peace	-4639
▁volunt	-4640
▁contents	-4641
▁organize	-4642
▁suffering	-4643
ns	-4644
orns	-4645
▁dil	-4646
▁mer	-4647
▁ske	-4648
sides	-4649
unate	-4650
▁cakes	-4651
▁curse	-4652
▁Seeing	-4653
▁swollen	-4654
▁background	-4655
dom	-4656
ils	-4657
▁Cl	-4658
▁dem	-4659
stairs	-4660
▁names	-4661
▁total	-4662
▁prison	-4663
▁Profess	-4664
▁feeding	-4665
▁servant	-4666
▁ceremony	-4667
ucu	-4668
▁Tom	-4669
▁chat	-4670
▁keys	-4671
pected	-4672
▁TOEIC	-4673
▁sheep	-4674
▁forest	-4675
▁modern	-4676
▁values	-4677
▁approach	-4678
▁sweating	-4679
▁allowance	-4680
lle	-4681
eong	-4682
▁occ	-4683
▁inju	-4684
▁pigs	-4685
▁shoe	-4686
▁bloom	-4687
▁ident	-4688
▁perfu	-4689
ference	-4690
▁entire	-4691
▁events	-4692
▁profit	-4693
▁salted	-4694
▁burning	-4695
▁fantasy	-4696
▁evidence	-4697
gi	-4698
▁Pr	-4699
abet	-4700
▁tig	-4701
asant	-4702
▁Soju	-4703
▁gang	-4704
▁race	-4705
▁hasnt	-4706
▁niece	-4707
▁access	-4708
▁buried	-4709
▁eighty	-4710
▁filled	-4711
▁histor	-4712
▁posted	-4713
▁squeeze	-4714
▁graduation	-4715
▁stimulating	-4716
▁oy	-4717
rate	-4718
▁deb	-4719
igent	-4720
▁cucu	-4721
▁spin	-4722
▁domest	-4723
▁immedi	-4724
▁resort	-4725
▁couples	-4726
▁borrowed	-4727
▁canceled	-4728
▁improved	-4729
▁security	-4730
▁stirfried	-4731
▁Eun	-4732
▁Ime	-4733
▁Ita	-4734
▁Show	-4735
▁tear	-4736
▁Itont	-4737
▁Seogw	-4738
aughter	-4739
▁YouTub	-4740
▁advice	-4741
▁address	-4742
▁dumplings	-4743
▁emergency	-4744
▁artificial	-4745
▁playground	-4746
ky	-4747
rial	-4748
rove	-4749
▁basics	-4750
▁effective	-4751
▁ourselves	-4752
ges	-4753
▁Da	-4754
▁Pl	-4755
▁War	-4756
▁lid	-4757
icing	-4758
jeong	-4759
minal	-4760
issors	-4761
▁cheer	-4762
▁fridge	-4763
▁mobile	-4764
▁packed	-4765
▁individ	-4766
▁obsessed	-4767
▁seasoned	-4768
▁shooting	-4769
mi	-4770
ipo	-4771
▁11	-4772
ushi	-4773
ipped	-4774
▁meth	-4775
▁puts	-4776
▁typh	-4777
arters	-4778
▁depos	-4779
▁stream	-4780
▁sunlight	-4781
▁concerned	-4782
▁newspaper	-4783
▁receiving	-4784
▁Gal	-4785
▁poet	-4786
▁deter	-4787
▁fifth	-4788
▁nails	-4789
▁snowy	-4790
▁bottles	-4791
▁effects	-4792
▁investig	-4793
▁confidence	-4794
▁Ten	-4795
▁Yea	-4796
Cause	-4797
eding	-4798
▁Kong	-4799
▁poll	-4800
▁breat	-4801
▁concl	-4802
▁steps	-4803
▁kilome	-4804
▁pattern	-4805
▁Shouldnt	-4806
▁surprise	-4807
ams	-4808
ply	-4809
▁carb	-4810
▁lack	-4811
▁appet	-4812
▁beard	-4813
▁fence	-4814
▁tooth	-4815
▁unless	-4816
▁besides	-4817
▁grandch	-4818
▁hardest	-4819
▁weekends	-4820
▁permission	-4821
▁Ask	-4822
▁Hyun	-4823
▁Turn	-4824
▁picky	-4825
▁tasked	-4826
▁dealing	-4827
▁domestic	-4828
▁conscious	-4829
▁differently	-4830
▁accommodation	-4831
ada	-4832
rat	-4833
▁adop	-4834
▁fans	-4835
▁subs	-4836
▁World	-4837
▁pasta	-4838
▁jacket	-4839
▁snowed	-4840
▁thanks	-4841
▁Webtoon	-4842
▁checked	-4843
▁Seogwipo	-4844
▁mentally	-4845
▁household	-4846
▁practical	-4847
▁appreciate	-4848
nes	-4849
▁huh	-4850
▁nag	-4851
▁slim	-4852
▁Earth	-4853
▁brands	-4854
▁pancake	-4855
▁release	-4856
▁abandoned	-4857
▁seriously	-4858
cape	-4859
ening	-4860
▁blog	-4861
▁vain	-4862
▁Naver	-4863
▁salon	-4864
▁intest	-4865
▁distrib	-4866
▁pumpkin	-4867
▁selfish	-4868
▁stirfry	-4869
▁Pa	-4870
cher	-4871
▁cit	-4872
arily	-4873
cient	-4874
▁gate	-4875
▁waves	-4876
▁refres	-4877
▁Whenever	-4878
▁maintain	-4879
▁powerful	-4880
▁parttimer	-4881
▁application	-4882
▁Le	-4883
ller	-4884
▁Con	-4885
▁sty	-4886
▁Fort	-4887
▁Imly	-4888
▁pharm	-4889
▁slipp	-4890
▁mainly	-4891
▁suffer	-4892
▁concent	-4893
▁depends	-4894
▁volunte	-4895
▁literally	-4896
▁compliment	-4897
now	-4898
zzy	-4899
▁Bob	-4900
▁Itid	-4901
▁firm	-4902
▁butter	-4903
▁circle	-4904
▁stones	-4905
▁cookies	-4906
▁monthly	-4907
▁realistic	-4908
urs	-4909
▁Sm	-4910
iles	-4911
▁Seo	-4912
▁wip	-4913
▁code	-4914
▁uses	-4915
itation	-4916
▁wealth	-4917
▁anxious	-4918
▁details	-4919
▁savings	-4920
▁sometime	-4921
▁animation	-4922
▁electricity	-4923
mm	-4924
ero	-4925
▁asks	-4926
▁blew	-4927
▁chin	-4928
▁susp	-4929
verted	-4930
▁basis	-4931
▁drove	-4932
▁loose	-4933
▁onion	-4934
ionally	-4935
▁instruct	-4936
▁perspect	-4937
▁soninlaw	-4938
▁Professor	-4939
AT	-4940
▁hon	-4941
isure	-4942
seong	-4943
▁remo	-4944
▁sled	-4945
▁Jeoll	-4946
▁coast	-4947
▁thigh	-4948
▁Twenty	-4949
▁apples	-4950
▁groups	-4951
▁variety	-4952
▁workers	-4953
▁administ	-4954
▁floating	-4955
▁official	-4956
▁scissors	-4957
de	-4958
▁Men	-4959
▁ank	-4960
▁rise	-4961
▁tomat	-4962
▁Without	-4963
▁arrived	-4964
▁grandpa	-4965
▁officer	-4966
▁snowing	-4967
▁challenge	-4968
▁underwear	-4969
▁immediately	-4970
▁personalities	-4971
hee	-4972
this	-4973
wise	-4974
▁Cut	-4975
▁Jin	-4976
stood	-4977
iverse	-4978
▁March	-4979
▁paint	-4980
▁steak	-4981
▁sushi	-4982
▁author	-4983
▁diabet	-4984
▁padded	-4985
▁depress	-4986
▁Buddhism	-4987
▁fatherinlaw	-4988
▁unfortunate	-4989
wa	-4990
ari	-4991
▁Bo	-4992
town	-4993
agers	-4994
▁viol	-4995
▁credit	-4996
▁simply	-4997
▁pressed	-4998
▁overcome	-4999
▁screaming	-5000
▁impressive	-5001
▁development	-5002
iry	-5003
▁bun	-5004
▁rip	-5005
ankly	-5006
▁arts	-5007
▁dent	-5008
▁rude	-5009
▁baked	-5010
▁judge	-5011
▁therap	-5012
▁colored	-5013
▁leisure	-5014
▁Answering	-5015
▁happiness	-5016
▁regularly	-5017
▁perspective	-5018
▁CS	-5019
▁reb	-5020
▁spo	-5021
▁chef	-5022
▁wope	-5023
▁album	-5024
▁boxes	-5025
▁affair	-5026
▁Another	-5027
▁conflic	-5028
▁deserve	-5029
▁frankly	-5030
▁passion	-5031
▁previous	-5032
▁religious	-5033
▁kilometers	-5034
va	-5035
ech	-5036
ods	-5037
chol	-5038
oles	-5039
rain	-5040
▁Mrs	-5041
▁tar	-5042
anced	-5043
wheat	-5044
young	-5045
▁accum	-5046
▁labor	-5047
▁sells	-5048
▁German	-5049
▁destro	-5050
▁crowded	-5051
▁pushing	-5052
▁cultural	-5053
▁literature	-5054
chang	-5055
esame	-5056
▁dece	-5057
▁anger	-5058
▁tiger	-5059
▁capital	-5060
▁mosquito	-5061
▁breathing	-5062
▁recognized	-5063
ta	-5064
ading	-5065
kerel	-5066
▁CSAT	-5067
▁duty	-5068
▁evil	-5069
▁guit	-5070
▁pred	-5071
▁sore	-5072
▁vote	-5073
cience	-5074
vision	-5075
▁autom	-5076
▁behav	-5077
▁contr	-5078
▁dizzy	-5079
olution	-5080
▁served	-5081
▁devices	-5082
▁persons	-5083
ift	-5084
ina	-5085
▁pin	-5086
icker	-5087
▁influ	-5088
▁salad	-5089
▁trade	-5090
jection	-5091
▁academ	-5092
▁perfor	-5093
▁blowing	-5094
▁compare	-5095
▁herself	-5096
▁scenery	-5097
▁attracted	-5098
▁mushrooms	-5099
ets	-5100
lim	-5101
▁rol	-5102
store	-5103
▁page	-5104
▁peel	-5105
▁stri	-5106
ential	-5107
ession	-5108
ograph	-5109
▁badly	-5110
▁intell	-5111
▁smooth	-5112
▁threat	-5113
▁twisted	-5114
▁expenses	-5115
▁mackerel	-5116
▁eventually	-5117
▁Es	-5118
cest	-5119
▁mur	-5120
berry	-5121
▁hadn	-5122
istics	-5123
▁lover	-5124
▁usual	-5125
▁Things	-5126
▁cathed	-5127
▁courage	-5128
▁smiling	-5129
▁stressful	-5130
hyun	-5131
▁ath	-5132
aning	-5133
▁Sing	-5134
▁crab	-5135
▁Never	-5136
▁cards	-5137
▁shirt	-5138
▁rotten	-5139
ashioned	-5140
▁killing	-5141
▁diabetes	-5142
jam	-5143
tuce	-5144
▁bud	-5145
enses	-5146
▁assh	-5147
atches	-5148
▁Cheong	-5149
▁Origin	-5150
ulations	-5151
▁checkup	-5152
▁disgust	-5153
▁seconds	-5154
▁attending	-5155
▁pretending	-5156
▁grandchildren	-5157
▁Yu	-5158
mble	-5159
olic	-5160
▁Sec	-5161
▁hug	-5162
ropri	-5163
▁buck	-5164
▁heads	-5165
▁innoc	-5166
▁attack	-5167
▁dollar	-5168
▁rumors	-5169
▁sesame	-5170
▁typhoon	-5171
erson	-5172
▁Ifin	-5173
▁gray	-5174
▁nons	-5175
▁ours	-5176
▁vers	-5177
▁final	-5178
▁spare	-5179
▁bucket	-5180
▁colder	-5181
▁orders	-5182
▁accumul	-5183
▁dragged	-5184
▁relieve	-5185
▁criticized	-5186
▁successful	-5187
▁surprising	-5188
▁television	-5189
▁disadvantage	-5190
▁representative	-5191
axy	-5192
rom	-5193
▁et	-5194
aled	-5195
what	-5196
▁Hae	-5197
▁Won	-5198
▁joy	-5199
heast	-5200
iable	-5201
ushed	-5202
▁Back	-5203
▁tent	-5204
▁Yeong	-5205
▁reven	-5206
▁Father	-5207
▁ancest	-5208
▁carrot	-5209
▁confir	-5210
▁horror	-5211
▁object	-5212
▁policy	-5213
▁polite	-5214
▁measure	-5215
▁request	-5216
▁contacted	-5217
▁practicing	-5218
ox	-5219
bal	-5220
▁Ul	-5221
▁Yoo	-5222
▁mak	-5223
imate	-5224
▁craw	-5225
▁wise	-5226
▁overl	-5227
▁wound	-5228
▁toilet	-5229
▁deposit	-5230
▁addition	-5231
▁appetite	-5232
▁childish	-5233
▁vitamins	-5234
▁organized	-5235
▁transport	-5236
▁Originally	-5237
▁conditioner	-5238
▁cas	-5239
▁Open	-5240
▁chan	-5241
▁hill	-5242
▁port	-5243
▁vine	-5244
ustral	-5245
▁Great	-5246
▁grain	-5247
▁humid	-5248
▁ignor	-5249
▁minds	-5250
▁sympt	-5251
▁habits	-5252
▁lightly	-5253
0,	-5254
ana	-5255
▁il	-5256
rets	-5257
▁Wee	-5258
▁Hang	-5259
▁branch	-5260
▁owners	-5261
▁persim	-5262
▁scenes	-5263
▁starve	-5264
▁Austral	-5265
▁cleaner	-5266
fashioned	-5267
▁confirmed	-5268
▁communicate	-5269
six	-5270
iber	-5271
iler	-5272
▁Tai	-5273
▁pit	-5274
▁lawy	-5275
ongrat	-5276
▁frame	-5277
▁wears	-5278
▁rolling	-5279
▁clothing	-5280
▁election	-5281
▁headache	-5282
▁wherever	-5283
▁historical	-5284
▁impression	-5285
bi	-5286
ga	-5287
ips	-5288
woo	-5289
▁Ju	-5290
adow	-5291
angs	-5292
asan	-5293
ungs	-5294
▁Pick	-5295
▁Sout	-5296
▁hero	-5297
ilates	-5298
▁brush	-5299
▁candy	-5300
▁notes	-5301
▁breaks	-5302
▁deeply	-5303
▁novels	-5304
▁focused	-5305
▁hurting	-5306
▁lettuce	-5307
▁vaccine	-5308
▁answered	-5309
▁disaster	-5310
▁hometown	-5311
▁advertise	-5312
▁intention	-5313
▁cigarettes	-5314
▁meaningful	-5315
eto	-5316
▁ax	-5317
cuse	-5318
▁Bes	-5319
▁Tae	-5320
▁bru	-5321
ander	-5322
ucing	-5323
▁Comp	-5324
▁envy	-5325
▁flew	-5326
▁hunt	-5327
▁palm	-5328
▁rout	-5329
▁sile	-5330
▁Black	-5331
▁Seong	-5332
▁crime	-5333
▁sings	-5334
itution	-5335
secutor	-5336
▁fallen	-5337
▁housew	-5338
▁joined	-5339
▁noticed	-5340
▁appropri	-5341
▁catching	-5342
▁distract	-5343
▁buckwheat	-5344
▁gathering	-5345
▁wandering	-5346
▁expression	-5347
dae	-5348
uts	-5349
arse	-5350
made	-5351
yond	-5352
▁hop	-5353
▁sna	-5354
neath	-5355
night	-5356
odies	-5357
▁eval	-5358
▁nick	-5359
sticks	-5360
▁cares	-5361
▁cliff	-5362
▁creep	-5363
▁naked	-5364
ological	-5365
roverted	-5366
▁Brother	-5367
▁bowling	-5368
▁lighter	-5369
▁partner	-5370
▁thashed	-5371
▁cheating	-5372
▁assistant	-5373
▁traditional	-5374
yo	-5375
▁Cle	-5376
▁owe	-5377
▁rely	-5378
elling	-5379
perate	-5380
▁illeg	-5381
▁motto	-5382
▁shave	-5383
▁hearts	-5384
▁recipe	-5385
▁reward	-5386
▁leading	-5387
▁acquaint	-5388
▁behavior	-5389
▁promised	-5390
▁earphones	-5391
▁underneath	-5392
▁performances	-5393
az	-5394
oves	-5395
rees	-5396
▁Spr	-5397
▁tick	-5398
▁virt	-5399
▁media	-5400
▁sight	-5401
▁storm	-5402
▁Taiwan	-5403
▁struct	-5404
▁created	-5405
▁delayed	-5406
▁shocking	-5407
▁impossible	-5408
▁strawberries	-5409
▁IU	-5410
▁ir	-5411
ilty	-5412
soon	-5413
ended	-5414
gging	-5415
watch	-5416
▁Asia	-5417
▁belt	-5418
▁dare	-5419
▁elev	-5420
▁muse	-5421
▁sear	-5422
ective	-5423
lessly	-5424
▁award	-5425
▁moist	-5426
▁interp	-5427
▁jumped	-5428
▁pissed	-5429
▁taller	-5430
▁fortune	-5431
▁sickness	-5432
▁starving	-5433
▁uniforms	-5434
,"	-5435
ued	-5436
bage	-5437
quet	-5438
wood	-5439
▁Jun	-5440
▁Wed	-5441
athed	-5442
inger	-5443
▁drew	-5444
▁root	-5445
▁seed	-5446
▁Paris	-5447
▁Shall	-5448
▁cloth	-5449
▁court	-5450
▁lands	-5451
▁shout	-5452
idering	-5453
umption	-5454
▁comedy	-5455
▁execut	-5456
▁guilty	-5457
▁guitar	-5458
▁skinny	-5459
▁appears	-5460
▁freezer	-5461
▁winning	-5462
▁cathedral	-5463
▁grandfathers	-5464
dr	-5465
▁Sw	-5466
appy	-5467
▁shr	-5468
▁Five	-5469
▁Wear	-5470
▁flex	-5471
▁toes	-5472
▁Chung	-5473
▁crush	-5474
▁sixth	-5475
ultural	-5476
▁Excuse	-5477
▁button	-5478
▁pencil	-5479
▁virgin	-5480
▁Besides	-5481
▁guarant	-5482
▁leather	-5483
▁perfume	-5484
▁materials	-5485
ius	-5486
osu	-5487
rupt	-5488
teen	-5489
▁Jean	-5490
▁Miss	-5491
▁bend	-5492
▁clin	-5493
▁soap	-5494
▁ware	-5495
▁shock	-5496
▁Thanks	-5497
▁gloves	-5498
▁string	-5499
▁Welcome	-5500
▁collaps	-5501
▁husbands	-5502
▁particip	-5503
▁punished	-5504
▁secretly	-5505
▁sneakers	-5506
▁conscience	-5507
nic	-5508
athy	-5509
ites	-5510
▁Oly	-5511
▁Rec	-5512
▁cla	-5513
▁web	-5514
adium	-5515
lling	-5516
▁hamb	-5517
▁sink	-5518
thouse	-5519
▁Chief	-5520
▁fancy	-5521
▁cancel	-5522
▁resting	-5523
▁separated	-5524
▁conclusion	-5525
▁appropriate	-5526
sang	-5527
then	-5528
▁lip	-5529
itory	-5530
rench	-5531
▁Cath	-5532
nesday	-5533
▁Olymp	-5534
▁honor	-5535
▁schol	-5536
▁freeze	-5537
▁hiking	-5538
▁meters	-5539
▁myster	-5540
▁failure	-5541
▁sincere	-5542
▁nonsense	-5543
▁Wednesday	-5544
▁bookstore	-5545
▁standards	-5546
▁Ap	-5547
▁Mm	-5548
▁Ms	-5549
care	-5550
odes	-5551
▁Mok	-5552
▁saf	-5553
igner	-5554
iques	-5555
▁bent	-5556
ondition	-5557
▁envious	-5558
▁benefits	-5559
▁blossoms	-5560
▁platform	-5561
▁princess	-5562
▁returned	-5563
▁anchovies	-5564
▁lightning	-5565
▁nutritional	-5566
mun	-5567
▁OK	-5568
▁je	-5569
foot	-5570
itor	-5571
lets	-5572
rier	-5573
▁Gen	-5574
inter	-5575
▁Sang	-5576
▁coin	-5577
▁babys	-5578
▁began	-5579
▁harsh	-5580
▁offer	-5581
▁rumor	-5582
▁creepy	-5583
▁crisis	-5584
▁formal	-5585
▁gimbap	-5586
▁hambur	-5587
▁realize	-5588
▁district	-5589
▁somebody	-5590
▁delivered	-5591
▁misunderstand	-5592
hmm	-5593
ran	-5594
▁Sa	-5595
▁Wr	-5596
iding	-5597
itate	-5598
ively	-5599
right	-5600
▁Bong	-5601
▁conv	-5602
▁monk	-5603
▁nail	-5604
▁poss	-5605
▁tape	-5606
▁unex	-5607
▁Yeosu	-5608
▁teams	-5609
▁beyond	-5610
▁commer	-5611
▁survive	-5612
▁determin	-5613
▁somewhat	-5614
▁classical	-5615
▁refreshing	-5616
hin	-5617
iring	-5618
▁leaf	-5619
▁wage	-5620
▁hidden	-5621
▁sooner	-5622
▁damaged	-5623
▁Jeollado	-5624
▁roasting	-5625
▁increased	-5626
bble	-5627
▁Gir	-5628
▁toy	-5629
▁wow	-5630
▁pets	-5631
▁Galaxy	-5632
▁regist	-5633
▁tested	-5634
▁wooden	-5635
▁battery	-5636
▁clearly	-5637
▁funeral	-5638
▁numbers	-5639
▁innocent	-5640
▁childrens	-5641
▁regardless	-5642
▁na	-5643
ards	-5644
uted	-5645
▁etc	-5646
▁thor	-5647
▁White	-5648
▁subst	-5649
etoface	-5650
▁pillow	-5651
▁strang	-5652
▁surround	-5653
▁foreigners	-5654
▁retirement	-5655
▁smartphone	-5656
hib	-5657
osc	-5658
ras	-5659
▁Sl	-5660
▁bi	-5661
lers	-5662
ring	-5663
antic	-5664
▁edge	-5665
▁mark	-5666
▁runs	-5667
umping	-5668
▁birds	-5669
▁bowel	-5670
▁helps	-5671
▁incon	-5672
▁inner	-5673
▁greasy	-5674
▁studio	-5675
▁massage	-5676
▁affected	-5677
▁audience	-5678
▁searched	-5679
▁symptoms	-5680
▁tangerine	-5681
▁distracted	-5682
nal	-5683
▁ut	-5684
gend	-5685
osis	-5686
▁Jim	-5687
seven	-5688
▁cock	-5689
▁pear	-5690
▁poem	-5691
▁vice	-5692
uesday	-5693
▁diary	-5694
▁greet	-5695
▁solid	-5696
▁caused	-5697
▁device	-5698
▁genres	-5699
▁peeled	-5700
▁signed	-5701
▁sparse	-5702
▁speech	-5703
▁degrees	-5704
▁perilla	-5705
▁elevator	-5706
▁necklace	-5707
▁childhood	-5708
▁structure	-5709
▁unexpected	-5710
ti	-5711
ony	-5712
por	-5713
icide	-5714
rient	-5715
uding	-5716
▁Stud	-5717
▁bump	-5718
igence	-5719
▁Temple	-5720
▁brings	-5721
▁sprink	-5722
▁warmer	-5723
quarters	-5724
▁begging	-5725
▁wanting	-5726
▁annivers	-5727
▁decorate	-5728
▁Australia	-5729
▁practiced	-5730
▁intestines	-5731
sa	-5732
aced	-5733
gers	-5734
▁Dis	-5735
▁Six	-5736
▁rap	-5737
▁unp	-5738
etime	-5739
▁Ever	-5740
▁rush	-5741
minton	-5742
▁idols	-5743
▁messy	-5744
▁tower	-5745
▁poetry	-5746
▁shared	-5747
▁victim	-5748
▁counter	-5749
▁reviews	-5750
▁Itinally	-5751
▁patients	-5752
▁tourists	-5753
▁warehouse	-5754
agn	-5755
alf	-5756
▁Joe	-5757
▁log	-5758
amboo	-5759
eight	-5760
esome	-5761
myeon	-5762
▁leng	-5763
▁lock	-5764
▁rope	-5765
▁Mokpo	-5766
▁River	-5767
▁Youll	-5768
▁robot	-5769
▁scale	-5770
ciation	-5771
▁battle	-5772
▁dragon	-5773
▁Tuesday	-5774
▁carrots	-5775
▁digging	-5776
▁bleeding	-5777
▁Southeast	-5778
▁chopsticks	-5779
▁commercial	-5780
sc	-5781
ohy	-5782
uals	-5783
agues	-5784
atang	-5785
atory	-5786
haust	-5787
ilipp	-5788
▁York	-5789
▁iPad	-5790
▁absor	-5791
▁motiv	-5792
▁postp	-5793
▁bodies	-5794
▁clouds	-5795
▁plants	-5796
▁sweets	-5797
atically	-5798
▁Philipp	-5799
▁achieve	-5800
▁exhaust	-5801
▁attitude	-5802
▁reaction	-5803
▁resident	-5804
▁engineering	-5805
kn	-5806
gen	-5807
guk	-5808
ori	-5809
uls	-5810
▁Wil	-5811
▁tut	-5812
▁term	-5813
handed	-5814
▁chewy	-5815
▁cough	-5816
▁grabb	-5817
▁maple	-5818
▁recru	-5819
▁trips	-5820
▁twins	-5821
▁youth	-5822
▁contac	-5823
▁lawyer	-5824
▁region	-5825
▁garbage	-5826
▁packing	-5827
▁diligent	-5828
▁apartments	-5829
▁disgusting	-5830
▁techniques	-5831
het	-5832
ixt	-5833
ocks	-5834
▁Choi	-5835
▁fist	-5836
▁gins	-5837
▁charm	-5838
▁safety	-5839
▁strict	-5840
▁captain	-5841
▁consult	-5842
▁defense	-5843
▁someday	-5844
▁accepted	-5845
▁admitted	-5846
▁avoiding	-5847
▁chickens	-5848
▁location	-5849
▁recording	-5850
▁colleagues	-5851
▁strengthen	-5852
onditionally	-5853
▁headquarters	-5854
▁particularly	-5855
ownt	-5856
▁Dra	-5857
▁fer	-5858
▁pra	-5859
ators	-5860
▁betr	-5861
▁dess	-5862
▁repl	-5863
▁ripe	-5864
▁Bible	-5865
▁adapt	-5866
▁doubt	-5867
▁baking	-5868
▁signal	-5869
fficient	-5870
▁reasons	-5871
▁dreaming	-5872
▁pharmacy	-5873
▁violence	-5874
▁officials	-5875
▁spreading	-5876
▁friendship	-5877
uma	-5878
▁Jo	-5879
▁Ky	-5880
▁um	-5881
ilos	-5882
inal	-5883
jong	-5884
▁Mal	-5885
▁Per	-5886
class	-5887
orrow	-5888
useok	-5889
▁Bang	-5890
▁Both	-5891
▁quar	-5892
▁torn	-5893
▁blows	-5894
▁curly	-5895
▁inher	-5896
▁newly	-5897
▁shown	-5898
▁French	-5899
▁issues	-5900
▁stepped	-5901
▁vinegar	-5902
▁worries	-5903
▁Catholic	-5904
▁conflict	-5905
▁celebrate	-5906
▁container	-5907
▁graduating	-5908
▁hospitalized	-5909
▁transportation	-5910
da	-5911
xy	-5912
jun	-5913
olli	-5914
icted	-5915
range	-5916
▁Itll	-5917
▁Life	-5918
▁Shut	-5919
▁cows	-5920
▁plus	-5921
▁Shees	-5922
▁blunt	-5923
▁earned	-5924
▁expert	-5925
▁museum	-5926
▁repair	-5927
▁sticky	-5928
▁sunset	-5929
▁target	-5930
▁tempor	-5931
▁toward	-5932
▁closely	-5933
▁staring	-5934
▁therapy	-5935
▁trained	-5936
▁violent	-5937
▁allergic	-5938
▁chairman	-5939
▁talented	-5940
▁volunteer	-5941
▁Philippines	-5942
▁experiences	-5943
▁sisterinlaw	-5944
▁unconditionally	-5945
ba	-5946
val	-5947
▁Ag	-5948
rimin	-5949
▁circ	-5950
▁crap	-5951
▁fart	-5952
ffered	-5953
ilosop	-5954
mented	-5955
though	-5956
▁Still	-5957
▁chili	-5958
▁exist	-5959
▁roots	-5960
▁stiff	-5961
▁track	-5962
▁fights	-5963
▁diverse	-5964
▁jackets	-5965
▁serving	-5966
ification	-5967
▁suffered	-5968
▁sharehold	-5969
▁collecting	-5970
▁industrial	-5971
yes	-5972
alled	-5973
olute	-5974
▁Russ	-5975
▁harm	-5976
▁scri	-5977
▁grows	-5978
▁legal	-5979
▁rolls	-5980
▁bamboo	-5981
▁ginger	-5982
▁switch	-5983
▁gaining	-5984
▁mission	-5985
▁Iveathed	-5986
▁upstairs	-5987
▁wrinkles	-5988
▁individual	-5989
▁production	-5990
bl	-5991
00.	-5992
bing	-5993
▁Ima	-5994
▁Jes	-5995
▁thr	-5996
ality	-5997
▁Each	-5998
▁Star	-5999
▁none	-6000
geolli	-6001
▁downt	-6002
▁medium	-6003
▁shadow	-6004
▁England	-6005
▁anytime	-6006
▁asshole	-6007
▁stabbed	-6008
▁Children	-6009
▁believed	-6010
▁philosop	-6011
▁political	-6012
▁suspicious	-6013
▁Grandmother	-6014
▁anniversary	-6015
▁generations	-6016
ify	-6017
▁Bab	-6018
▁Car	-6019
▁Jae	-6020
▁gro	-6021
▁jew	-6022
known	-6023
mploy	-6024
▁Love	-6025
▁liqu	-6026
▁lump	-6027
▁pile	-6028
▁spit	-6029
▁tatt	-6030
▁displ	-6031
▁wheat	-6032
▁booked	-6033
▁picnic	-6034
▁ripped	-6035
▁beating	-6036
▁contest	-6037
▁illegal	-6038
▁oysters	-6039
▁romantic	-6040
▁perception	-6041
ril	-6042
▁AI	-6043
▁ge	-6044
illy	-6045
ires	-6046
▁Mac	-6047
▁Red	-6048
▁Gong	-6049
▁Trot	-6050
▁bars	-6051
▁fond	-6052
▁mold	-6053
▁suck	-6054
inking	-6055
ipping	-6056
▁Money	-6057
▁arrog	-6058
▁consu	-6059
▁theme	-6060
▁actual	-6061
▁rolled	-6062
▁theyll	-6063
▁thorns	-6064
cription	-6065
▁carbohy	-6066
▁eyelids	-6067
▁ginseng	-6068
▁scholar	-6069
▁stadium	-6070
▁ignorant	-6071
▁machines	-6072
▁recorded	-6073
▁discrimin	-6074
▁interpret	-6075
▁Ho	-6076
ibly	-6077
▁cod	-6078
▁gum	-6079
▁sav	-6080
illed	-6081
rents	-6082
▁bold	-6083
▁boun	-6084
▁jour	-6085
▁prem	-6086
keting	-6087
▁Lotte	-6088
▁Ulsan	-6089
▁bound	-6090
▁minim	-6091
▁prett	-6092
▁twent	-6093
▁whose	-6094
▁divide	-6095
▁errand	-6096
▁fucked	-6097
▁includ	-6098
▁length	-6099
▁sleeps	-6100
▁Chuseok	-6101
▁awesome	-6102
▁freezing	-6103
▁inconven	-6104
▁invested	-6105
▁nickname	-6106
▁reported	-6107
▁cucumbers	-6108
▁disadvantages	-6109
ops	-6110
vey	-6111
cked	-6112
erob	-6113
▁Guy	-6114
▁Sin	-6115
▁gel	-6116
estee	-6117
nable	-6118
▁Hwang	-6119
▁ankle	-6120
▁aware	-6121
▁hates	-6122
▁Little	-6123
▁create	-6124
▁filmed	-6125
▁multip	-6126
▁pastor	-6127
▁anybody	-6128
▁balance	-6129
▁bothers	-6130
▁channel	-6131
▁lacking	-6132
▁overall	-6133
▁Tomorrow	-6134
▁applying	-6135
▁generous	-6136
▁reminded	-6137
▁bothering	-6138
▁depression	-6139
▁international	-6140
car	-6141
▁pm	-6142
seok	-6143
ummer	-6144
▁Fore	-6145
▁Sung	-6146
▁Very	-6147
▁dull	-6148
ctions	-6149
▁diets	-6150
▁expand	-6151
▁passes	-6152
▁ballads	-6153
▁confess	-6154
▁sharing	-6155
▁vitamin	-6156
▁checking	-6157
▁pleasure	-6158
▁swearing	-6159
▁thorough	-6160
▁worrying	-6161
▁collapsed	-6162
▁Ok	-6163
atok	-6164
coal	-6165
▁Too	-6166
istry	-6167
ombie	-6168
orses	-6169
▁calf	-6170
▁chem	-6171
▁rose	-6172
▁slee	-6173
▁weap	-6174
ursday	-6175
ushing	-6176
▁boots	-6177
▁shiny	-6178
▁skill	-6179
▁Buddha	-6180
▁caring	-6181
▁classm	-6182
▁method	-6183
▁ninety	-6184
▁skirts	-6185
▁roasted	-6186
▁shorter	-6187
▁Hospital	-6188
▁Thursday	-6189
▁downtown	-6190
▁decreased	-6191
▁dormitory	-6192
▁including	-6193
▁investing	-6194
▁makgeolli	-6195
▁physically	-6196
▁En	-6197
ulty	-6198
▁Old	-6199
▁Tra	-6200
▁Yeon	-6201
▁soil	-6202
▁tens	-6203
lished	-6204
▁Grant	-6205
▁Uncle	-6206
▁cooks	-6207
▁dryer	-6208
▁encou	-6209
▁finds	-6210
▁prior	-6211
▁south	-6212
▁spoke	-6213
▁agency	-6214
▁dashed	-6215
▁grandk	-6216
▁nights	-6217
▁script	-6218
▁skiing	-6219
▁thighs	-6220
▁ancient	-6221
▁chasing	-6222
▁recover	-6223
▁Olympics	-6224
▁advantages	-6225
▁population	-6226
▁dy	-6227
ancy	-6228
iant	-6229
izes	-6230
keep	-6231
oked	-6232
▁Mus	-6233
adays	-6234
▁rule	-6235
▁stro	-6236
esteem	-6237
▁awake	-6238
▁blown	-6239
▁jeans	-6240
▁Jeonju	-6241
▁athlet	-6242
▁belong	-6243
▁scient	-6244
▁concern	-6245
▁encount	-6246
▁harvest	-6247
▁revenge	-6248
▁charcoal	-6249
▁solution	-6250
▁classroom	-6251
▁gradually	-6252
▁strangely	-6253
▁instructor	-6254
▁punishment	-6255
▁Fortunately	-6256
▁introverted	-6257
▁broadcasting	-6258
▁investigation	-6259
▁recommendation	-6260
bu	-6261
amm	-6262
reg	-6263
▁BT	-6264
▁Ta	-6265
hest	-6266
nast	-6267
uary	-6268
▁Ans	-6269
▁Rep	-6270
▁mul	-6271
grand	-6272
▁Find	-6273
▁Over	-6274
▁stic	-6275
▁till	-6276
▁claim	-6277
▁jewel	-6278
▁bitten	-6279
▁closet	-6280
▁mindset	-6281
▁licenses	-6282
▁lifetime	-6283
▁Christianity	-6284
sed	-6285
bang	-6286
haps	-6287
ially	-6288
▁Phew	-6289
▁Time	-6290
▁file	-6291
▁frequ	-6292
▁roads	-6293
leyball	-6294
▁Spring	-6295
▁cutlet	-6296
▁zombie	-6297
▁ceiling	-6298
▁grabbed	-6299
▁healing	-6300
▁watches	-6301
▁Otherwise	-6302
▁selfesteem	-6303
▁volleyball	-6304
iva	-6305
ucle	-6306
▁Col	-6307
▁vom	-6308
ament	-6309
randa	-6310
drates	-6311
▁aerob	-6312
▁areas	-6313
▁wakes	-6314
reaking	-6315
▁aspect	-6316
▁castle	-6317
▁demand	-6318
▁flavor	-6319
▁hiphop	-6320
▁rating	-6321
▁trendy	-6322
▁posture	-6323
▁veranda	-6324
▁Recently	-6325
▁colorful	-6326
▁collection	-6327
▁intelligence	-6328
asc	-6329
anta	-6330
erty	-6331
have	-6332
reed	-6333
▁Run	-6334
water	-6335
▁carp	-6336
▁load	-6337
▁oven	-6338
▁vest	-6339
▁Harry	-6340
▁Italy	-6341
▁Looks	-6342
▁refer	-6343
▁corpor	-6344
▁horses	-6345
▁settle	-6346
ervative	-6347
▁Gangnam	-6348
▁nagging	-6349
▁suicide	-6350
▁immunity	-6351
▁desperate	-6352
▁consumption	-6353
ido	-6354
▁Hi	-6355
lfare	-6356
▁Chun	-6357
▁melt	-6358
▁subt	-6359
▁accur	-6360
▁coach	-6361
▁crabs	-6362
▁genet	-6363
▁herbs	-6364
▁magic	-6365
▁tasty	-6366
▁windy	-6367
▁custom	-6368
▁degree	-6369
▁golden	-6370
▁grandd	-6371
▁cousins	-6372
▁replace	-6373
▁welfare	-6374
▁tomatoes	-6375
▁pretended	-6376
▁instrument	-6377
▁professors	-6378
▁necessarily	-6379
.,	-6380
fly	-6381
ura	-6382
urd	-6383
▁LG	-6384
▁ah	-6385
dies	-6386
otic	-6387
reen	-6388
▁Bar	-6389
ivity	-6390
▁bast	-6391
▁soul	-6392
▁stam	-6393
ensive	-6394
▁Throw	-6395
▁broth	-6396
▁bunge	-6397
▁naive	-6398
riental	-6399
▁Market	-6400
▁Wellat	-6401
▁clinic	-6402
▁hairst	-6403
▁lesson	-6404
▁dreamed	-6405
▁ignored	-6406
▁homeroom	-6407
▁register	-6408
▁treating	-6409
▁weakness	-6410
▁completed	-6411
▁connection	-6412
▁understanding	-6413
ev	-6414
alm	-6415
huh	-6416
lor	-6417
olk	-6418
ula	-6419
umi	-6420
alty	-6421
cken	-6422
lete	-6423
lies	-6424
▁Hye	-6425
▁Som	-6426
aging	-6427
xygen	-6428
▁Tere	-6429
▁tiss	-6430
▁zone	-6431
ooking	-6432
overed	-6433
▁Seung	-6434
▁react	-6435
▁shops	-6436
▁tries	-6437
▁noodle	-6438
▁theory	-6439
▁trauma	-6440
▁bracken	-6441
▁craving	-6442
▁happily	-6443
▁operate	-6444
▁removed	-6445
▁speaker	-6446
▁thasked	-6447
▁yelling	-6448
▁Marriage	-6449
▁branches	-6450
▁calories	-6451
▁Gyeongsang	-6452
▁determined	-6453
▁presentation	-6454
▁carbohydrates	-6455
jo	-6456
hic	-6457
pan	-6458
pir	-6459
each	-6460
▁dea	-6461
▁dug	-6462
▁poo	-6463
▁san	-6464
▁Brit	-6465
▁Imin	-6466
▁Yong	-6467
▁orch	-6468
really	-6469
ternal	-6470
▁Years	-6471
▁alike	-6472
▁bakery	-6473
▁budget	-6474
▁mostly	-6475
▁Germany	-6476
▁illness	-6477
▁respond	-6478
▁retired	-6479
▁Hallasan	-6480
▁criminal	-6481
▁decorated	-6482
▁difficulty	-6483
▁identified	-6484
▁relatively	-6485
▁.	-6486
jae	-6487
run	-6488
aming	-6489
▁cans	-6490
▁ping	-6491
▁skew	-6492
ailand	-6493
▁champ	-6494
▁goose	-6495
▁maker	-6496
▁sauna	-6497
▁trial	-6498
▁walls	-6499
▁Almost	-6500
▁Winter	-6501
▁absurd	-6502
▁bubble	-6503
▁cursed	-6504
▁freely	-6505
▁priest	-6506
▁reflect	-6507
▁Thailand	-6508
▁concerts	-6509
▁reliable	-6510
▁scratched	-6511
▁stretched	-6512
▁prosecutor	-6513
▁revolution	-6514
cel	-6515
ipt	-6516
mons	-6517
▁Ann	-6518
▁Fin	-6519
▁Pot	-6520
▁Ste	-6521
▁nor	-6522
▁tap	-6523
▁uns	-6524
place	-6525
▁Geum	-6526
▁choo	-6527
▁hits	-6528
▁host	-6529
▁inse	-6530
▁Girls	-6531
▁Start	-6532
▁alumn	-6533
▁goals	-6534
▁oppon	-6535
▁shook	-6536
▁vehic	-6537
ography	-6538
▁Except	-6539
▁bullet	-6540
▁killer	-6541
▁prince	-6542
▁injured	-6543
▁pickled	-6544
▁absolute	-6545
▁squeezed	-6546
▁wasteful	-6547
▁complexes	-6548
▁documents	-6549
▁injection	-6550
pang	-6551
sels	-6552
▁Pre	-6553
▁Work	-6554
▁sett	-6555
▁tiny	-6556
▁tuna	-6557
▁Itins	-6558
▁chain	-6559
▁shall	-6560
ability	-6561
▁oxygen	-6562
▁source	-6563
▁blossom	-6564
▁surface	-6565
▁controvers	-6566
▁mosquitoes	-6567
▁complaining	-6568
▁expectations	-6569
ongratulations	-6570
wr	-6571
xic	-6572
alse	-6573
chan	-6574
▁une	-6575
▁wis	-6576
could	-6577
▁orph	-6578
▁scam	-6579
▁soph	-6580
▁zero	-6581
▁India	-6582
▁cheat	-6583
▁clock	-6584
▁delic	-6585
▁fairy	-6586
▁punch	-6587
▁unfam	-6588
raction	-6589
▁boiler	-6590
▁comics	-6591
▁spices	-6592
▁stands	-6593
▁sticks	-6594
▁womens	-6595
lassfish	-6596
▁crushed	-6597
▁intense	-6598
▁puberty	-6599
▁receipt	-6600
▁smelled	-6601
▁species	-6602
▁advanced	-6603
▁keyboard	-6604
▁notebook	-6605
▁pancakes	-6606
▁stopping	-6607
▁uploaded	-6608
▁developing	-6609
▁situations	-6610
▁cutlassfish	-6611
eel	-6612
mel	-6613
two	-6614
eter	-6615
▁Dan	-6616
▁dot	-6617
▁unh	-6618
▁voc	-6619
inate	-6620
▁Home	-6621
▁Live	-6622
▁cane	-6623
▁youd	-6624
alleng	-6625
▁Jesus	-6626
▁noble	-6627
▁sword	-6628
▁chives	-6629
▁downlo	-6630
▁motion	-6631
▁excuses	-6632
▁Thinking	-6633
▁flexible	-6634
▁Everybody	-6635
▁elsewhere	-6636
▁unfamiliar	-6637
ami	-6638
ogi	-6639
opy	-6640
▁Mi	-6641
Well	-6642
jung	-6643
reum	-6644
▁Boy	-6645
▁Bye	-6646
▁Jan	-6647
▁Pri	-6648
▁pou	-6649
▁wid	-6650
shirt	-6651
▁Taek	-6652
tering	-6653
velope	-6654
▁clams	-6655
▁flood	-6656
▁funds	-6657
yearold	-6658
▁Marvel	-6659
▁Others	-6660
▁farmer	-6661
▁impact	-6662
▁savory	-6663
▁comment	-6664
▁explode	-6665
▁located	-6666
▁managed	-6667
▁pouring	-6668
▁suspect	-6669
▁envelope	-6670
▁interior	-6671
▁minister	-6672
▁subjects	-6673
▁twenties	-6674
▁guarantee	-6675
▁hairstyle	-6676
▁marketing	-6677
▁penthouse	-6678
▁heartbreaking	-6679
eam	-6680
▁Co	-6681
▁ds	-6682
▁ho	-6683
▁ja	-6684
reak	-6685
▁BTS	-6686
▁Mid	-6687
▁Sup	-6688
heart	-6689
▁pros	-6690
uclear	-6691
▁House	-6692
▁adopt	-6693
▁freak	-6694
▁pound	-6695
▁shift	-6696
▁chased	-6697
▁explod	-6698
▁murder	-6699
▁reveal	-6700
▁thught	-6701
▁timing	-6702
▁highway	-6703
▁Compared	-6704
▁Gyeongju	-6705
▁ordering	-6706
▁sentence	-6707
▁essential	-6708
▁sophistic	-6709
▁Ga	-6710
▁Ja	-6711
ober	-6712
▁AirP	-6713
▁bond	-6714
▁sake	-6715
▁Whose	-6716
▁coron	-6717
▁rocks	-6718
▁walks	-6719
▁Thirty	-6720
▁artist	-6721
▁discip	-6722
▁mature	-6723
▁needle	-6724
▁thrown	-6725
▁daycare	-6726
▁regrets	-6727
▁version	-6728
▁millions	-6729
▁opinions	-6730
▁parttimers	-6731
▁understood	-6732
▁considering	-6733
▁instruments	-6734
la	-6735
hye	-6736
agon	-6737
cade	-6738
free	-6739
ingu	-6740
rant	-6741
whel	-6742
▁Haw	-6743
▁Hot	-6744
▁Soo	-6745
▁mop	-6746
gment	-6747
isher	-6748
order	-6749
roken	-6750
▁Four	-6751
cheong	-6752
▁agent	-6753
▁brief	-6754
▁colon	-6755
▁exhib	-6756
▁fries	-6757
▁gotta	-6758
▁sunny	-6759
▁towel	-6760
▁wiped	-6761
unities	-6762
▁orphan	-6763
▁shares	-6764
▁Pilates	-6765
▁interfe	-6766
▁YouTuber	-6767
▁covering	-6768
▁episodes	-6769
▁freshman	-6770
▁stealing	-6771
▁teenager	-6772
▁community	-6773
▁influence	-6774
▁realizing	-6775
▁Department	-6776
▁motorcycles	-6777
▁transferred	-6778
▁organization	-6779
▁granddaughter	-6780
oir	-6781
rus	-6782
str	-6783
▁II	-6784
inks	-6785
ware	-6786
▁Shes	-6787
▁bark	-6788
▁buff	-6789
▁glob	-6790
▁hugg	-6791
▁outs	-6792
▁rode	-6793
▁sung	-6794
▁Water	-6795
▁asset	-6796
▁joint	-6797
▁remar	-6798
▁spect	-6799
▁wrist	-6800
▁decent	-6801
▁dispos	-6802
▁frying	-6803
▁hoping	-6804
▁latest	-6805
▁papers	-6806
▁silent	-6807
▁Teacher	-6808
▁actions	-6809
▁benefit	-6810
▁emotion	-6811
▁masterp	-6812
▁payment	-6813
▁remains	-6814
▁Answered	-6815
▁challeng	-6816
▁overwhel	-6817
▁backwards	-6818
▁psychology	-6819
▁installment	-6820
iti	-6821
ols	-6822
overs	-6823
table	-6824
▁acid	-6825
▁hook	-6826
▁lake	-6827
▁loos	-6828
▁magn	-6829
▁meas	-6830
▁nost	-6831
▁trim	-6832
acious	-6833
ieving	-6834
▁erase	-6835
▁north	-6836
▁paras	-6837
▁wings	-6838
agement	-6839
▁France	-6840
▁closing	-6841
▁exposed	-6842
▁finding	-6843
▁jewelry	-6844
▁writers	-6845
▁slippery	-6846
▁neighbors	-6847
▁broadcasts	-6848
▁combination	-6849
▁sophisticated	-6850
▁characteristics	-6851
boy	-6852
ige	-6853
▁Gun	-6854
▁Oct	-6855
▁Swe	-6856
▁beg	-6857
▁cro	-6858
▁led	-6859
▁ult	-6860
aries	-6861
ierce	-6862
irrel	-6863
▁defe	-6864
▁fert	-6865
▁junk	-6866
▁mini	-6867
▁Cheon	-6868
▁argue	-6869
▁bland	-6870
▁roses	-6871
▁ghosts	-6872
▁rising	-6873
▁thirst	-6874
▁thread	-6875
▁dessert	-6876
▁unhappy	-6877
▁visited	-6878
▁entering	-6879
▁prettier	-6880
▁selected	-6881
ifications	-6882
has	-6883
wed	-6884
onse	-6885
▁Cup	-6886
▁Dam	-6887
▁Gar	-6888
▁opt	-6889
rings	-6890
▁Capt	-6891
▁Chan	-6892
▁Mart	-6893
▁Walk	-6894
▁bury	-6895
▁drum	-6896
▁fate	-6897
▁pest	-6898
iously	-6899
▁dynam	-6900
▁liber	-6901
▁shade	-6902
▁steel	-6903
sidered	-6904
▁Doesnt	-6905
▁Person	-6906
▁hardly	-6907
▁hourly	-6908
▁strike	-6909
▁Captain	-6910
▁earrings	-6911
▁ignoring	-6912
▁seasonal	-6913
▁explained	-6914
▁housework	-6915
▁paperwork	-6916
▁regretted	-6917
▁facilities	-6918
▁meticulous	-6919
▁considerate	-6920
▁heartbroken	-6921
▁difficulties	-6922
ST	-6923
con	-6924
jud	-6925
▁Hw	-6926
▁wo	-6927
semb	-6928
▁nap	-6929
ching	-6930
ender	-6931
▁Haha	-6932
▁fasc	-6933
▁lean	-6934
▁skip	-6935
▁Guang	-6936
▁anest	-6937
▁bangs	-6938
▁drown	-6939
▁knock	-6940
▁ranch	-6941
aration	-6942
▁Adults	-6943
▁Socept	-6944
▁Wouldn	-6945
▁distin	-6946
▁drawer	-6947
▁genius	-6948
▁legend	-6949
▁shorts	-6950
▁central	-6951
▁jumping	-6952
▁praying	-6953
▁quarter	-6954
▁blessing	-6955
▁oriental	-6956
▁spacious	-6957
▁badminton	-6958
▁additional	-6959
▁scholarship	-6960
▁opportunities	-6961
0-	-6962
pot	-6963
▁El	-6964
▁Ham	-6965
▁Sur	-6966
▁wll	-6967
ailed	-6968
ulate	-6969
▁Itot	-6970
▁asso	-6971
▁pant	-6972
▁Clean	-6973
▁Spain	-6974
▁angel	-6975
▁chart	-6976
▁loses	-6977
▁recip	-6978
▁slope	-6979
▁During	-6980
▁accent	-6981
▁beggar	-6982
▁biting	-6983
▁circum	-6984
▁crispy	-6985
▁dramat	-6986
▁invite	-6987
▁melted	-6988
▁prejud	-6989
▁rented	-6990
▁saliva	-6991
▁slower	-6992
▁spoons	-6993
▁vision	-6994
▁Itantly	-6995
▁Itinted	-6996
▁absence	-6997
▁invited	-6998
▁opposed	-6999
▁sympath	-7000
▁texture	-7001
▁articles	-7002
▁everyday	-7003
▁revealed	-7004
▁watermel	-7005
▁committed	-7006
▁continues	-7007
▁exhausted	-7008
▁perfectly	-7009
▁temporary	-7010
▁beautifully	-7011
cts	-7012
born	-7013
izer	-7014
temp	-7015
word	-7016
▁Hit	-7017
▁San	-7018
▁blo	-7019
▁cha	-7020
▁wot	-7021
ggest	-7022
verse	-7023
▁Year	-7024
▁soda	-7025
▁bills	-7026
▁fraud	-7027
▁mouse	-7028
▁ratio	-7029
▁spark	-7030
▁swing	-7031
▁affect	-7032
▁arrive	-7033
▁deeper	-7034
▁joking	-7035
▁kidney	-7036
▁neatly	-7037
▁tissue	-7038
▁turtle	-7039
▁empathy	-7040
▁endured	-7041
▁lottery	-7042
▁diseases	-7043
▁repeated	-7044
▁strongly	-7045
▁wireless	-7046
▁wonderful	-7047
▁reasonable	-7048
▁constitution	-7049
Yes	-7050
ora	-7051
uet	-7052
upp	-7053
usi	-7054
▁Ser	-7055
▁tag	-7056
itute	-7057
stick	-7058
▁gosh	-7059
▁ruin	-7060
▁Heung	-7061
▁avail	-7062
▁citiz	-7063
▁dough	-7064
▁drone	-7065
▁toast	-7066
▁weigh	-7067
▁Disney	-7068
▁annual	-7069
▁immers	-7070
▁propos	-7071
▁apology	-7072
▁deliber	-7073
▁dentist	-7074
▁pointed	-7075
▁suggest	-7076
▁accurate	-7077
▁focusing	-7078
▁Taekwondo	-7079
▁teenagers	-7080
▁comforting	-7081
▁supplement	-7082
▁entertainers	-7083
eo	-7084
ka	-7085
ald	-7086
ban	-7087
zes	-7088
▁MC	-7089
▁Tok	-7090
▁han	-7091
▁lar	-7092
aters	-7093
erves	-7094
▁dung	-7095
▁laid	-7096
▁Chang	-7097
▁Write	-7098
▁drops	-7099
▁moves	-7100
▁piled	-7101
▁stamp	-7102
▁sting	-7103
▁agreed	-7104
▁candle	-7105
▁circul	-7106
▁harmon	-7107
▁pyeong	-7108
▁salmon	-7109
▁shells	-7110
▁Iveried	-7111
▁blessed	-7112
▁breasts	-7113
▁climbed	-7114
▁crossed	-7115
▁filling	-7116
▁filming	-7117
▁nuclear	-7118
▁section	-7119
▁tightly	-7120
▁contrary	-7121
▁document	-7122
▁meetings	-7123
▁musicals	-7124
▁reducing	-7125
▁supplies	-7126
▁hospitals	-7127
▁housewife	-7128
▁operation	-7129
▁promotion	-7130
▁secretary	-7131
▁popularity	-7132
▁concentrate	-7133
▁deliciously	-7134
▁underground	-7135
ov	-7136
oph	-7137
hyth	-7138
iful	-7139
live	-7140
ores	-7141
ubby	-7142
▁Sal	-7143
▁Sim	-7144
▁loy	-7145
▁sed	-7146
▁ves	-7147
▁wit	-7148
urred	-7149
▁Iman	-7150
▁hood	-7151
▁rank	-7152
▁shab	-7153
▁soak	-7154
▁Seven	-7155
▁backs	-7156
▁cared	-7157
▁doors	-7158
▁lease	-7159
▁sandw	-7160
▁Tereby	-7161
▁Wellen	-7162
▁attach	-7163
▁grocer	-7164
▁herbal	-7165
▁nobody	-7166
▁poured	-7167
▁remote	-7168
▁server	-7169
▁October	-7170
▁bloated	-7171
▁highest	-7172
jangmyeon	-7173
▁addicted	-7174
▁judgment	-7175
▁lectures	-7176
▁normally	-7177
▁squirrel	-7178
▁struggle	-7179
▁available	-7180
▁specialty	-7181
dra	-7182
rup	-7183
olds	-7184
▁Lim	-7185
▁Tot	-7186
▁phe	-7187
oseon	-7188
▁Nike	-7189
▁Ween	-7190
▁fare	-7191
▁lies	-7192
▁Asian	-7193
▁Hawai	-7194
▁false	-7195
▁menop	-7196
▁opens	-7197
▁adding	-7198
▁beings	-7199
▁cloudy	-7200
▁folded	-7201
▁grapes	-7202
▁joints	-7203
▁nation	-7204
▁overdo	-7205
▁refund	-7206
▁uncles	-7207
▁unlike	-7208
▁bastard	-7209
▁capable	-7210
▁display	-7211
▁follows	-7212
▁housing	-7213
▁parties	-7214
▁settled	-7215
▁promoted	-7216
▁thriller	-7217
▁Depending	-7218
▁YouTubers	-7219
▁destroyed	-7220
▁considered	-7221
▁contacting	-7222
▁stretching	-7223
▁examination	-7224
▁Ed	-7225
irus	-7226
oices	-7227
▁Mong	-7228
▁bugs	-7229
▁lact	-7230
▁saus	-7231
▁tack	-7232
▁tube	-7233
urning	-7234
▁bowls	-7235
▁equal	-7236
▁fishy	-7237
▁humor	-7238
▁outer	-7239
▁rings	-7240
▁stain	-7241
▁sweep	-7242
▁altern	-7243
▁alumni	-7244
▁counse	-7245
▁global	-7246
▁nurses	-7247
▁palace	-7248
▁rental	-7249
▁safely	-7250
▁hamster	-7251
▁peaches	-7252
▁refrain	-7253
▁springs	-7254
▁weekday	-7255
▁burdened	-7256
▁response	-7257
▁sacrific	-7258
▁ancestors	-7259
▁buildings	-7260
▁accounting	-7261
▁registered	-7262
▁electronics	-7263
▁fortunately	-7264
bow	-7265
yeo	-7266
▁ID	-7267
chun	-7268
door	-7269
▁Ant	-7270
▁Aug	-7271
▁Res	-7272
going	-7273
▁anal	-7274
▁laws	-7275
▁phen	-7276
cerity	-7277
erable	-7278
itious	-7279
member	-7280
▁Shece	-7281
▁bache	-7282
▁cries	-7283
▁graph	-7284
▁rural	-7285
▁spill	-7286
▁wider	-7287
▁supply	-7288
▁widely	-7289
▁affairs	-7290
▁balloon	-7291
▁announce	-7292
▁expressed	-7293
▁landscape	-7294
▁memorized	-7295
▁sincerity	-7296
▁supported	-7297
▁experiment	-7298
▁advertising	-7299
▁girlfriends	-7300
▁administration	-7301
You	-7302
fac	-7303
▁Av	-7304
down	-7305
kins	-7306
race	-7307
▁Bad	-7308
▁bib	-7309
anged	-7310
ppong	-7311
▁Save	-7312
▁Week	-7313
▁acne	-7314
▁reck	-7315
▁reun	-7316
atient	-7317
▁aside	-7318
▁backp	-7319
▁careg	-7320
▁clubs	-7321
▁flies	-7322
▁melts	-7323
▁peach	-7324
▁route	-7325
▁tools	-7326
▁Middle	-7327
▁escape	-7328
▁rights	-7329
▁autonom	-7330
▁causing	-7331
▁climate	-7332
▁crooked	-7333
▁unknown	-7334
▁windows	-7335
▁deceived	-7336
▁province	-7337
▁quitting	-7338
▁stranger	-7339
▁suitable	-7340
▁luxurious	-7341
▁nutrition	-7342
▁forgetting	-7343
▁affectionate	-7344
▁conservative	-7345
▁acquaintances	-7346
urt	-7347
osen	-7348
▁Emp	-7349
▁Ess	-7350
▁der	-7351
▁lit	-7352
▁mud	-7353
alone	-7354
ublic	-7355
▁Tong	-7356
▁arch	-7357
▁cush	-7358
▁mans	-7359
▁pole	-7360
▁scat	-7361
▁sham	-7362
▁surf	-7363
assion	-7364
▁Drink	-7365
▁Hongs	-7366
▁Tokyo	-7367
▁Auntie	-7368
▁prayed	-7369
▁stolen	-7370
▁stuffy	-7371
ffective	-7372
▁grocery	-7373
▁mystery	-7374
▁paddies	-7375
▁solving	-7376
▁spinach	-7377
▁Remember	-7378
▁arrogant	-7379
▁choosing	-7380
▁dragging	-7381
▁malatang	-7382
▁nowadays	-7383
▁priority	-7384
▁thankful	-7385
▁treasure	-7386
▁bathhouse	-7387
▁religions	-7388
▁counseling	-7389
▁persimmons	-7390
▁supporting	-7391
▁recommendations	-7392
ama	-7393
cue	-7394
soo	-7395
shit	-7396
ures	-7397
▁den	-7398
▁dip	-7399
▁fog	-7400
cking	-7401
elled	-7402
quake	-7403
sized	-7404
▁Weve	-7405
▁fuss	-7406
▁horm	-7407
▁jail	-7408
▁knit	-7409
▁pron	-7410
▁synt	-7411
▁tips	-7412
isions	-7413
oppang	-7414
▁Stand	-7415
▁Wasnt	-7416
▁plums	-7417
▁stops	-7418
▁virus	-7419
ongress	-7420
▁Canada	-7421
▁chosen	-7422
▁drones	-7423
▁prayer	-7424
▁proced	-7425
▁refuse	-7426
▁soaked	-7427
▁strate	-7428
▁listens	-7429
▁orchard	-7430
▁pollack	-7431
▁profits	-7432
▁quarant	-7433
▁counting	-7434
▁sprinkle	-7435
▁administr	-7436
▁confusing	-7437
▁interfere	-7438
▁menopause	-7439
▁boyfriends	-7440
▁complaints	-7441
▁philosophy	-7442
▁preparation	-7443
box	-7444
hab	-7445
▁Dy	-7446
▁Si	-7447
Mart	-7448
aped	-7449
bong	-7450
ndom	-7451
oted	-7452
roid	-7453
▁Ele	-7454
▁bon	-7455
▁van	-7456
apped	-7457
cript	-7458
▁Wash	-7459
▁mens	-7460
▁mild	-7461
▁valu	-7462
avirus	-7463
rients	-7464
▁brake	-7465
▁broom	-7466
▁elses	-7467
▁galle	-7468
▁risen	-7469
athetic	-7470
mployed	-7471
usement	-7472
▁chubby	-7473
▁floors	-7474
▁random	-7475
▁sewing	-7476
▁status	-7477
inations	-7478
▁Guangju	-7479
▁centime	-7480
▁comprom	-7481
▁genetic	-7482
▁instant	-7483
▁monster	-7484
▁thirsty	-7485
▁external	-7486
▁internal	-7487
▁screamed	-7488
▁stocking	-7489
▁nutrients	-7490
▁overnight	-7491
▁automatically	-7492
af	-7493
ept	-7494
uum	-7495
▁Sc	-7496
▁Wi	-7497
opsy	-7498
wook	-7499
▁Chi	-7500
▁jam	-7501
omans	-7502
▁Hill	-7503
▁Ital	-7504
▁oily	-7505
▁plot	-7506
▁upgr	-7507
sembly	-7508
▁Insta	-7509
▁alarm	-7510
▁cramp	-7511
▁drawn	-7512
▁eater	-7513
▁estab	-7514
▁freed	-7515
▁grams	-7516
▁penny	-7517
▁rides	-7518
forward	-7519
looking	-7520
theless	-7521
▁August	-7522
▁Potter	-7523
▁mixing	-7524
▁purple	-7525
▁virtue	-7526
▁AirPods	-7527
▁Somehow	-7528
▁figured	-7529
▁records	-7530
▁shining	-7531
▁bullshit	-7532
▁combined	-7533
▁distingu	-7534
▁included	-7535
▁spoonful	-7536
facetoface	-7537
ricultural	-7538
▁amusement	-7539
▁detective	-7540
▁remarried	-7541
▁strangers	-7542
▁importance	-7543
▁coronavirus	-7544
▁surprisingly	-7545
▁environmental	-7546
▁straightforward	-7547
col	-7548
ris	-7549
▁Fl	-7550
lend	-7551
▁Bas	-7552
▁Hee	-7553
▁Pay	-7554
▁Sat	-7555
▁pup	-7556
acity	-7557
aghet	-7558
heard	-7559
▁jjam	-7560
▁lung	-7561
▁mail	-7562
▁slop	-7563
▁unre	-7564
arming	-7565
▁Eight	-7566
▁Santa	-7567
▁antic	-7568
▁cable	-7569
▁loans	-7570
▁quant	-7571
▁scoop	-7572
▁slice	-7573
▁League	-7574
▁candid	-7575
▁former	-7576
▁manner	-7577
▁mechan	-7578
▁microw	-7579
▁planet	-7580
▁resign	-7581
▁transl	-7582
▁Perhaps	-7583
▁cheated	-7584
▁council	-7585
▁freedom	-7586
▁regions	-7587
▁trusted	-7588
▁blocking	-7589
▁managing	-7590
▁finishing	-7591
▁strengths	-7592
▁hamburgers	-7593
▁possibility	-7594
▁distribution	-7595
▁communication	-7596
fty	-7597
▁Fo	-7598
cian	-7599
mary	-7600
ongh	-7601
pper	-7602
ungh	-7603
▁Hum	-7604
▁sem	-7605
power	-7606
▁Alva	-7607
▁Prel	-7608
▁adap	-7609
▁bald	-7610
▁boom	-7611
▁lane	-7612
▁neut	-7613
▁worm	-7614
▁crowd	-7615
▁cycle	-7616
▁rhyth	-7617
▁solic	-7618
▁stack	-7619
▁vocal	-7620
▁Africa	-7621
▁cannot	-7622
▁forces	-7623
▁spoken	-7624
▁candles	-7625
▁detailed	-7626
▁forecast	-7627
▁supermar	-7628
▁efficient	-7629
▁healthier	-7630
▁solicited	-7631
▁technique	-7632
▁absolutely	-7633
▁constantly	-7634
▁disappears	-7635
▁evaluation	-7636
▁exhibition	-7637
▁moderately	-7638
▁deliberately	-7639
▁nonfacetoface	-7640
yu	-7641
don	-7642
ino	-7643
uel	-7644
▁Em	-7645
▁Os	-7646
cies	-7647
suit	-7648
ties	-7649
▁Har	-7650
▁arb	-7651
▁sof	-7652
adong	-7653
agger	-7654
proof	-7655
▁Chil	-7656
▁July	-7657
▁cups	-7658
▁cuts	-7659
▁enth	-7660
▁lamb	-7661
▁nuts	-7662
▁slip	-7663
estyle	-7664
lasses	-7665
▁Their	-7666
▁coste	-7667
▁couch	-7668
▁mayor	-7669
▁print	-7670
aghetti	-7671
ologist	-7672
▁Russia	-7673
▁Second	-7674
▁compar	-7675
▁raises	-7676
▁static	-7677
▁vacuum	-7678
▁violin	-7679
▁abalone	-7680
▁anxiety	-7681
▁manners	-7682
▁touches	-7683
▁warming	-7684
▁attended	-7685
▁division	-7686
▁grilling	-7687
▁opponent	-7688
▁swelling	-7689
▁valuable	-7690
▁Gangneung	-7691
▁qualified	-7692
▁villagers	-7693
▁competitive	-7694
▁Gyeongsangdo	-7695
▁costeffective	-7696
Why	-7697
hwa	-7698
off	-7699
oma	-7700
uns	-7701
▁MB	-7702
▁Mc	-7703
case	-7704
gien	-7705
▁Nae	-7706
▁bug	-7707
▁upd	-7708
ashes	-7709
▁Army	-7710
▁Ifly	-7711
▁Many	-7712
▁Moon	-7713
▁cure	-7714
▁gamb	-7715
▁infe	-7716
icides	-7717
▁Force	-7718
▁analy	-7719
▁shamp	-7720
▁thont	-7721
istence	-7722
▁Joseon	-7723
▁Marine	-7724
▁amazed	-7725
▁fertil	-7726
▁lotion	-7727
▁robbed	-7728
▁spouse	-7729
▁enthusi	-7730
▁leaders	-7731
▁nephews	-7732
▁univers	-7733
▁witness	-7734
▁Watching	-7735
▁basement	-7736
▁bothered	-7737
▁cheering	-7738
▁exploded	-7739
▁firewood	-7740
▁memorial	-7741
▁multiple	-7742
▁passport	-7743
▁Saturdays	-7744
▁complaint	-7745
▁microwave	-7746
▁assignment	-7747
▁classmates	-7748
▁earthquake	-7749
▁foundation	-7750
▁performing	-7751
bae	-7752
erk	-7753
oro	-7754
rit	-7755
gang	-7756
ints	-7757
oned	-7758
uces	-7759
umed	-7760
▁Acc	-7761
▁Pol	-7762
▁bou	-7763
brush	-7764
field	-7765
geant	-7766
nasty	-7767
raged	-7768
▁Seok	-7769
▁fees	-7770
▁goss	-7771
▁sexy	-7772
▁tank	-7773
cution	-7774
orking	-7775
▁April	-7776
▁Aside	-7777
▁beast	-7778
▁diagn	-7779
▁entry	-7780
▁evalu	-7781
related	-7782
▁Hawaii	-7783
▁arrest	-7784
▁bloody	-7785
▁childs	-7786
▁emphas	-7787
▁explan	-7788
▁harass	-7789
▁improv	-7790
▁sexual	-7791
▁speaks	-7792
▁British	-7793
▁Wearing	-7794
▁cheaply	-7795
▁errands	-7796
▁feature	-7797
▁shallow	-7798
▁sleeves	-7799
▁teaches	-7800
▁contains	-7801
▁moderate	-7802
▁shipping	-7803
▁terminal	-7804
▁agreement	-7805
▁birthdays	-7806
▁continued	-7807
▁miserable	-7808
▁compassion	-7809
▁engagement	-7810
▁medication	-7811
▁bungeoppang	-7812
▁Congratulations	-7813
mo	-7814
aser	-7815
bone	-7816
cend	-7817
oors	-7818
▁Gri	-7819
▁Squ	-7820
abled	-7821
amily	-7822
story	-7823
▁Mary	-7824
▁flag	-7825
▁rhin	-7826
▁tang	-7827
▁toys	-7828
▁Steve	-7829
▁cells	-7830
▁chick	-7831
▁skate	-7832
▁sorts	-7833
▁units	-7834
▁Either	-7835
▁Follow	-7836
▁cheeks	-7837
▁compos	-7838
▁desert	-7839
▁robots	-7840
▁styles	-7841
▁wander	-7842
onscious	-7843
▁Sundays	-7844
▁arguing	-7845
▁consist	-7846
▁flowing	-7847
▁harmony	-7848
▁heating	-7849
▁offline	-7850
▁overlap	-7851
▁seventh	-7852
▁towards	-7853
▁wasting	-7854
▁Buddhist	-7855
▁academic	-7856
▁imagined	-7857
▁pumpkins	-7858
▁visiting	-7859
▁discharge	-7860
▁grandkids	-7861
▁jjamppong	-7862
▁persimmon	-7863
▁succeeded	-7864
▁Personally	-7865
▁positively	-7866
▁consciousness	-7867
▁qualifications	-7868
gon	-7869
mos	-7870
wol	-7871
▁Cy	-7872
▁Mu	-7873
elly	-7874
fall	-7875
ista	-7876
oyal	-7877
▁Pal	-7878
▁tas	-7879
ooled	-7880
umble	-7881
▁Dece	-7882
▁Hand	-7883
▁Real	-7884
▁chap	-7885
▁meds	-7886
alking	-7887
ficial	-7888
▁Dream	-7889
▁acted	-7890
▁femin	-7891
▁marks	-7892
▁midst	-7893
▁tacky	-7894
▁thumb	-7895
tenance	-7896
▁ballad	-7897
▁belief	-7898
▁citrus	-7899
▁gently	-7900
▁lovely	-7901
▁oneone	-7902
▁resour	-7903
▁halfway	-7904
▁neutral	-7905
▁politic	-7906
▁webfoot	-7907
▁bachelor	-7908
▁capacity	-7909
▁cucumber	-7910
▁gangster	-7911
▁pleasant	-7912
▁sparsely	-7913
▁sticking	-7914
▁exercised	-7915
▁impatient	-7916
▁malicious	-7917
▁autonomous	-7918
▁downstairs	-7919
▁increasing	-7920
▁smartphones	-7921
aws	-7922
hem	-7923
chae	-7924
tail	-7925
ucks	-7926
▁agg	-7927
▁dar	-7928
arian	-7929
atisf	-7930
crabs	-7931
hyang	-7932
imens	-7933
woong	-7934
▁Cons	-7935
▁Gold	-7936
▁Joon	-7937
▁Long	-7938
▁dyed	-7939
▁mand	-7940
▁rash	-7941
ferent	-7942
▁angle	-7943
▁cabin	-7944
▁grave	-7945
▁lungs	-7946
▁buffet	-7947
▁coward	-7948
▁evenly	-7949
▁marath	-7950
▁stroke	-7951
▁unable	-7952
▁upload	-7953
▁compens	-7954
▁dynamic	-7955
▁hunting	-7956
▁minimum	-7957
▁network	-7958
▁spoiled	-7959
▁withdra	-7960
▁worship	-7961
▁December	-7962
▁gambling	-7963
▁moderation	-7964
▁maintenance	-7965
▁participate	-7966
▁administrative	-7967
10	-7968
ey	-7969
sam	-7970
▁Ro	-7971
▁Sn	-7972
angh	-7973
cium	-7974
crab	-7975
gies	-7976
heon	-7977
▁Doo	-7978
▁Goo	-7979
▁Sky	-7980
▁bee	-7981
▁sho	-7982
▁tun	-7983
apore	-7984
eteen	-7985
hesia	-7986
odong	-7987
ograp	-7988
point	-7989
ucker	-7990
▁Food	-7991
▁Help	-7992
▁scra	-7993
▁sund	-7994
ashing	-7995
ishing	-7996
ixteen	-7997
▁Could	-7998
▁Osaka	-7999
▁Tower	-8000
▁lofty	-8001
▁minor	-8002
▁scare	-8003
▁stove	-8004
▁Eating	-8005
▁casual	-8006
▁client	-8007
▁descri	-8008
▁oyster	-8009
▁statue	-8010
▁Parents	-8011
▁aerobic	-8012
▁autopsy	-8013
▁premium	-8014
▁shampoo	-8015
▁thicker	-8016
▁actively	-8017
▁circumst	-8018
▁drawback	-8019
▁facility	-8020
▁messages	-8021
▁phenomen	-8022
▁rhinitis	-8023
▁Singapore	-8024
▁recession	-8025
▁entertainer	-8026
▁professionally	-8027
agi	-8028
aks	-8029
han	-8030
iner	-8031
lest	-8032
mark	-8033
obac	-8034
reet	-8035
▁Egg	-8036
▁gam	-8037
▁kal	-8038
▁muk	-8039
▁Cats	-8040
▁Itan	-8041
▁Land	-8042
▁Pupp	-8043
▁Send	-8044
▁deer	-8045
▁lent	-8046
▁pays	-8047
▁rust	-8048
▁zoom	-8049
iances	-8050
▁EMart	-8051
▁banks	-8052
▁films	-8053
▁float	-8054
▁melon	-8055
▁miles	-8056
▁tends	-8057
▁filter	-8058
▁fixing	-8059
▁gossip	-8060
▁inject	-8061
▁locals	-8062
▁microp	-8063
▁native	-8064
▁rhythm	-8065
▁sample	-8066
▁steady	-8067
▁weapon	-8068
▁answers	-8069
▁bullied	-8070
▁command	-8071
▁inherit	-8072
▁faceface	-8073
▁resemble	-8074
▁colleague	-8075
▁foreigner	-8076
▁pregnancy	-8077
▁returning	-8078
▁appliances	-8079
▁discussion	-8080
▁executives	-8081
▁specifications	-8082
sp	-8083
can	-8084
iro	-8085
life	-8086
▁Dri	-8087
▁Nor	-8088
▁Tes	-8089
anted	-8090
arest	-8091
press	-8092
▁Boil	-8093
▁Coup	-8094
▁Snow	-8095
▁brag	-8096
▁exce	-8097
▁heel	-8098
▁rail	-8099
igning	-8100
ombies	-8101
▁Itnot	-8102
▁brace	-8103
▁burnt	-8104
▁chase	-8105
▁giant	-8106
▁holes	-8107
▁manip	-8108
▁elders	-8109
▁growth	-8110
▁levels	-8111
▁tiring	-8112
▁Prelate	-8113
▁Strange	-8114
▁gallery	-8115
▁kicking	-8116
▁lowered	-8117
▁proceed	-8118
▁sprayed	-8119
▁disabled	-8120
▁immature	-8121
▁relaxing	-8122
▁services	-8123
▁weekdays	-8124
▁commander	-8125
▁functions	-8126
▁passionate	-8127
▁pesticides	-8128
▁straighten	-8129
▁misunderstood	-8130
ows	-8131
rise	-8132
umps	-8133
umsy	-8134
unar	-8135
▁Ari	-8136
▁Bal	-8137
▁Pet	-8138
▁Reg	-8139
▁boo	-8140
▁gop	-8141
enyeo	-8142
hyung	-8143
ieves	-8144
▁Rain	-8145
▁dant	-8146
▁diss	-8147
▁dude	-8148
▁enem	-8149
▁hire	-8150
▁peak	-8151
▁phew	-8152
▁tool	-8153
▁whom	-8154
iation	-8155
matics	-8156
omfort	-8157
oscopy	-8158
▁Halla	-8159
▁Oreum	-8160
▁exams	-8161
▁fully	-8162
▁hesit	-8163
▁obese	-8164
▁pairs	-8165
▁plain	-8166
▁swept	-8167
▁trail	-8168
▁Icheon	-8169
▁burger	-8170
▁commit	-8171
▁danced	-8172
▁gooseb	-8173
▁handwr	-8174
▁intend	-8175
▁loving	-8176
▁lowest	-8177
▁parked	-8178
▁Station	-8179
▁classic	-8180
▁diapers	-8181
▁require	-8182
▁victory	-8183
▁achieved	-8184
▁betrayed	-8185
▁educated	-8186
▁moisture	-8187
▁stepping	-8188
▁lunchtime	-8189
▁prejudice	-8190
▁allowances	-8191
▁decreasing	-8192
▁discomfort	-8193
▁documentary	-8194
▁masterpiece	-8195
▁problematic	-8196
▁acquaintance	-8197
▁satisfaction	-8198
▁circumstances	-8199
Let	-8200
aki	-8201
buk	-8202
fit	-8203
nch	-8204
rab	-8205
ugs	-8206
▁OE	-8207
anch	-8208
▁Woo	-8209
▁fri	-8210
▁sue	-8211
▁unw	-8212
overy	-8213
worth	-8214
▁Dire	-8215
▁Part	-8216
▁Paul	-8217
orters	-8218
rences	-8219
uition	-8220
▁flows	-8221
▁magaz	-8222
▁medal	-8223
▁meets	-8224
▁tempt	-8225
▁trunk	-8226
▁urine	-8227
▁weake	-8228
ucation	-8229
▁assets	-8230
▁dermat	-8231
▁hygien	-8232
▁lovers	-8233
▁resent	-8234
▁shaved	-8235
▁snakes	-8236
▁tattoo	-8237
▁womans	-8238
▁January	-8239
▁archite	-8240
▁distant	-8241
▁easiest	-8242
▁indoors	-8243
▁lessons	-8244
▁nearest	-8245
▁outdoor	-8246
▁panties	-8247
▁pitiful	-8248
▁ringing	-8249
▁tension	-8250
▁thunder	-8251
▁vessels	-8252
▁viewers	-8253
▁Anything	-8254
▁Everland	-8255
▁assigned	-8256
▁beginner	-8257
▁hardship	-8258
▁lipstick	-8259
▁nineteen	-8260
▁According	-8261
▁directors	-8262
▁specified	-8263
▁statement	-8264
▁animations	-8265
▁threatened	-8266
▁supermarket	-8267
▁shareholders	-8268
▁advertisement	-8269
gw	-8270
cal	-8271
erm	-8272
gle	-8273
hae	-8274
iel	-8275
rol	-8276
▁AB	-8277
hens	-8278
itan	-8279
neys	-8280
▁Cha	-8281
▁Joo	-8282
▁Sol	-8283
▁jar	-8284
ouses	-8285
timer	-8286
uting	-8287
▁Cast	-8288
▁Chur	-8289
▁Play	-8290
▁flav	-8291
▁jung	-8292
▁lamp	-8293
▁pean	-8294
▁symb	-8295
▁coord	-8296
▁curry	-8297
▁dolls	-8298
▁heels	-8299
▁prick	-8300
▁boxing	-8301
▁calend	-8302
▁chilly	-8303
▁cookie	-8304
▁excess	-8305
▁heated	-8306
▁liquor	-8307
▁mouths	-8308
▁ventil	-8309
ammation	-8310
▁courses	-8311
▁cursing	-8312
▁enemies	-8313
▁engaged	-8314
▁fourold	-8315
▁journal	-8316
▁matters	-8317
▁ratings	-8318
▁thieves	-8319
▁thinner	-8320
▁visible	-8321
▁warrant	-8322
▁zombies	-8323
▁although	-8324
▁argument	-8325
▁charming	-8326
▁designer	-8327
▁disorder	-8328
▁gopchang	-8329
▁caregiver	-8330
▁gentleman	-8331
▁anesthesia	-8332
▁decorating	-8333
▁goosebumps	-8334
▁sensibility	-8335
▁psychological	-8336
▁advertisements	-8337
0?	-8338
dge	-8339
▁Gi	-8340
anda	-8341
evit	-8342
list	-8343
shop	-8344
yard	-8345
▁Jay	-8346
▁und	-8347
guksu	-8348
illus	-8349
itzer	-8350
world	-8351
▁OEST	-8352
▁barn	-8353
▁bomb	-8354
▁dign	-8355
▁inte	-8356
▁lion	-8357
▁sets	-8358
rained	-8359
school	-8360
▁Corps	-8361
▁blogs	-8362
▁menus	-8363
▁nerve	-8364
▁pages	-8365
▁panic	-8366
▁purch	-8367
▁signs	-8368
▁sneak	-8369
▁villa	-8370
▁Anyone	-8371
▁Health	-8372
▁calmly	-8373
▁crimes	-8374
▁drying	-8375
▁invent	-8376
▁league	-8377
▁loudly	-8378
▁relate	-8379
▁repeat	-8380
▁tomato	-8381
▁volume	-8382
▁Imazing	-8383
▁Incheon	-8384
▁Kingdom	-8385
▁chewing	-8386
▁fifteen	-8387
▁organic	-8388
▁champion	-8389
▁crossing	-8390
▁handmade	-8391
▁pheasant	-8392
▁replaced	-8393
▁sandwich	-8394
▁currently	-8395
▁scattered	-8396
▁attraction	-8397
▁microphone	-8398
▁phenomenon	-8399
▁strawberry	-8400
▁explanation	-8401
▁regrettable	-8402
▁sympathetic	-8403
asp	-8404
enz	-8405
aple	-8406
deng	-8407
gido	-8408
ifty	-8409
llar	-8410
resp	-8411
yong	-8412
▁Bib	-8413
▁Bur	-8414
▁Med	-8415
▁Mil	-8416
▁tan	-8417
▁wif	-8418
atech	-8419
check	-8420
chest	-8421
eller	-8422
ences	-8423
llent	-8424
▁Lear	-8425
▁Merc	-8426
▁Nice	-8427
▁Pull	-8428
▁core	-8429
▁dumb	-8430
▁esca	-8431
▁excl	-8432
▁heav	-8433
▁maid	-8434
▁mate	-8435
▁shel	-8436
▁wins	-8437
apping	-8438
mbling	-8439
ormous	-8440
screen	-8441
▁Daddy	-8442
▁Hotel	-8443
▁Ifont	-8444
▁Pusan	-8445
▁Small	-8446
▁indif	-8447
▁jelly	-8448
▁scarf	-8449
▁steep	-8450
lection	-8451
▁Forget	-8452
▁Secret	-8453
▁distur	-8454
▁inches	-8455
▁inevit	-8456
▁lively	-8457
▁manual	-8458
▁select	-8459
▁tricky	-8460
▁anyways	-8461
▁assumed	-8462
▁cafeter	-8463
▁goodbye	-8464
▁strings	-8465
▁trainer	-8466
obacillus	-8467
▁European	-8468
▁billions	-8469
▁companys	-8470
▁critical	-8471
▁enormous	-8472
▁calculate	-8473
▁hamburger	-8474
▁performed	-8475
▁procedure	-8476
▁residents	-8477
▁spaghetti	-8478
▁technical	-8479
▁Elementary	-8480
▁beneficial	-8481
▁fertilizer	-8482
▁newspapers	-8483
▁attractions	-8484
▁accidentally	-8485
▁consideration	-8486
IF	-8487
his	-8488
uff	-8489
ule	-8490
anas	-8491
ella	-8492
nels	-8493
▁Ast	-8494
▁Huh	-8495
▁Yuk	-8496
▁eel	-8497
onald	-8498
ondon	-8499
owers	-8500
▁batt	-8501
▁fork	-8502
▁kite	-8503
▁rear	-8504
encies	-8505
ulated	-8506
▁Again	-8507
▁Close	-8508
▁Kyung	-8509
▁Month	-8510
▁Tesla	-8511
▁selfd	-8512
utation	-8513
▁Havent	-8514
▁Ilhave	-8515
▁Jatech	-8516
▁Street	-8517
▁Summer	-8518
▁absent	-8519
▁cleans	-8520
▁fooled	-8521
▁grains	-8522
▁grooms	-8523
▁liking	-8524
▁provin	-8525
▁reject	-8526
▁smoked	-8527
▁submit	-8528
▁wheels	-8529
▁Dynasty	-8530
▁However	-8531
▁Twitter	-8532
▁cameras	-8533
▁efforts	-8534
▁insects	-8535
▁juniors	-8536
▁monitor	-8537
▁painted	-8538
▁popping	-8539
▁sixteen	-8540
▁creative	-8541
▁immersed	-8542
▁proposal	-8543
▁rational	-8544
▁Tongyeong	-8545
▁addiction	-8546
▁excellent	-8547
▁principle	-8548
▁signature	-8549
▁conference	-8550
▁meaningless	-8551
▁Nevertheless	-8552
▁lactobacillus	-8553
▁characteristic	-8554
ago	-8555
chy	-8556
seo	-8557
uke	-8558
.00.	-8559
acks	-8560
aste	-8561
gans	-8562
mitt	-8563
nine	-8564
▁Mad	-8565
▁hom	-8566
abric	-8567
arrhe	-8568
ookie	-8569
undai	-8570
▁Iron	-8571
▁Slow	-8572
▁bait	-8573
▁desp	-8574
▁dipl	-8575
▁folk	-8576
▁gear	-8577
▁guns	-8578
▁puri	-8579
▁purs	-8580
▁triv	-8581
dollar	-8582
▁Sleep	-8583
▁Trust	-8584
▁aging	-8585
▁blink	-8586
▁lotus	-8587
▁mathe	-8588
▁metal	-8589
▁stays	-8590
▁Center	-8591
▁Haeund	-8592
▁Living	-8593
▁factor	-8594
▁glance	-8595
▁healed	-8596
▁indoor	-8597
▁nearly	-8598
▁shabby	-8599
▁steamy	-8600
▁Foreign	-8601
▁Hyundai	-8602
▁Jongwon	-8603
▁Switzer	-8604
▁calcium	-8605
▁conduct	-8606
▁curtain	-8607
▁destroy	-8608
▁experts	-8609
▁fasting	-8610
▁inhouse	-8611
▁protest	-8612
▁puppies	-8613
▁reached	-8614
▁refused	-8615
▁summers	-8616
▁warning	-8617
▁Starting	-8618
▁accounts	-8619
▁calendar	-8620
▁concerns	-8621
▁convince	-8622
▁feminine	-8623
▁marathon	-8624
▁officers	-8625
▁pressing	-8626
▁steaming	-8627
▁allergies	-8628
▁cafeteria	-8629
▁extremely	-8630
▁reception	-8631
▁invitation	-8632
▁opposition	-8633
▁thoroughly	-8634
▁Switzerland	-8635
▁association	-8636
▁inflammation	-8637
▁daughterslaws	-8638
new	-8639
uji	-8640
ames	-8641
goon	-8642
hoon	-8643
ysis	-8644
zens	-8645
▁Use	-8646
stone	-8647
▁Dogs	-8648
▁Guys	-8649
▁Pale	-8650
▁acce	-8651
▁anti	-8652
▁cave	-8653
▁coff	-8654
▁dint	-8655
▁ward	-8656
iences	-8657
keeper	-8658
rehens	-8659
utions	-8660
▁Sweet	-8661
▁abuse	-8662
▁boats	-8663
▁boils	-8664
▁dates	-8665
▁ducks	-8666
▁grape	-8667
▁jokes	-8668
couldnt	-8669
▁Always	-8670
▁Family	-8671
▁London	-8672
▁addict	-8673
▁blurry	-8674
▁causes	-8675
▁cement	-8676
▁coupon	-8677
▁facing	-8678
▁fierce	-8679
▁jungle	-8680
▁ridden	-8681
▁scores	-8682
▁shaman	-8683
▁toothp	-8684
▁aggress	-8685
▁century	-8686
▁cramped	-8687
▁dislike	-8688
▁liberal	-8689
▁penalty	-8690
▁predict	-8691
▁recruit	-8692
▁reunion	-8693
▁stacked	-8694
▁vehicle	-8695
▁winters	-8696
▁constant	-8697
▁dramatic	-8698
▁faithful	-8699
▁greeting	-8700
▁reporter	-8701
▁textbook	-8702
▁academies	-8703
▁expecting	-8704
▁languages	-8705
▁leftovers	-8706
▁overwatch	-8707
▁published	-8708
▁remembers	-8709
▁searching	-8710
▁sunscreen	-8711
▁talkative	-8712
▁Gyeonggido	-8713
▁surrounded	-8714
▁sympathize	-8715
▁economically	-8716
▁introduction	-8717
,?	-8718
bab	-8719
ddy	-8720
pet	-8721
rys	-8722
▁CD	-8723
▁Ra	-8724
adon	-8725
corn	-8726
igan	-8727
rome	-8728
▁Des	-8729
▁Gor	-8730
▁Sen	-8731
▁Soe	-8732
▁ver	-8733
enced	-8734
eness	-8735
eseok	-8736
▁Kind	-8737
▁Soon	-8738
▁acts	-8739
▁chim	-8740
▁decl	-8741
▁gobl	-8742
▁pier	-8743
▁tray	-8744
arrhea	-8745
enight	-8746
metery	-8747
mitted	-8748
ortion	-8749
▁Katok	-8750
▁Under	-8751
▁crack	-8752
▁macar	-8753
▁royal	-8754
▁veter	-8755
section	-8756
▁Myeong	-8757
▁Unlike	-8758
▁appeal	-8759
▁betray	-8760
▁collar	-8761
▁dealer	-8762
▁diving	-8763
▁dyeing	-8764
▁highly	-8765
▁hugged	-8766
▁insist	-8767
▁nerves	-8768
▁sundae	-8769
▁united	-8770
▁visual	-8771
▁waking	-8772
▁imitate	-8773
▁skewers	-8774
▁subscri	-8775
▁Heungmin	-8776
▁Imeaning	-8777
▁happiest	-8778
▁survival	-8779
▁Listening	-8780
▁ancestral	-8781
▁fermented	-8782
▁paintings	-8783
▁requested	-8784
▁successor	-8785
▁compromise	-8786
▁fascinated	-8787
▁successors	-8788
▁Chungcheong	-8789
▁departments	-8790
▁distinguish	-8791
▁shareholder	-8792
▁temperament	-8793
alt	-8794
▁Mo	-8795
ando	-8796
leys	-8797
weds	-8798
▁Bul	-8799
▁Det	-8800
▁Inf	-8801
▁Poh	-8802
▁ber	-8803
▁gal	-8804
▁ome	-8805
▁typ	-8806
fight	-8807
rated	-8808
shine	-8809
▁Itad	-8810
▁OKay	-8811
▁Port	-8812
▁Read	-8813
▁Such	-8814
▁caps	-8815
▁coke	-8816
▁crew	-8817
▁flut	-8818
▁fuel	-8819
▁kilo	-8820
▁pens	-8821
▁seal	-8822
▁stem	-8823
▁webs	-8824
minute	-8825
parent	-8826
▁Excel	-8827
▁belie	-8828
▁campa	-8829
▁crawl	-8830
▁horiz	-8831
▁syrup	-8832
hearted	-8833
inating	-8834
▁Johnna	-8835
▁clumsy	-8836
▁collap	-8837
▁cooker	-8838
▁dozens	-8839
▁festiv	-8840
▁organs	-8841
▁plates	-8842
▁praise	-8843
▁seller	-8844
▁senses	-8845
▁warmth	-8846
▁Finally	-8847
▁anchovy	-8848
▁contrib	-8849
▁factors	-8850
▁martial	-8851
▁spectac	-8852
▁Director	-8853
▁crawling	-8854
▁elements	-8855
▁hormones	-8856
▁humanity	-8857
▁kalguksu	-8858
▁password	-8859
▁presents	-8860
▁produced	-8861
▁restrict	-8862
▁servants	-8863
▁theaters	-8864
▁Education	-8865
▁automatic	-8866
▁encourage	-8867
▁increases	-8868
▁leisurely	-8869
▁remaining	-8870
▁percentage	-8871
▁secondhand	-8872
▁Catholicism	-8873
▁accumulated	-8874
▁alternative	-8875
▁controlling	-8876
▁emotionally	-8877
IFA	-8878
gae	-8879
you	-8880
▁Di	-8881
That	-8882
ewon	-8883
hern	-8884
▁Bel	-8885
▁sou	-8886
▁zoo	-8887
reeze	-8888
▁Baby	-8889
▁Imll	-8890
▁Navy	-8891
▁Prov	-8892
▁Vill	-8893
▁pops	-8894
▁puls	-8895
▁rats	-8896
▁sigh	-8897
▁stut	-8898
▁wary	-8899
namese	-8900
▁fewer	-8901
▁purif	-8902
▁rites	-8903
▁shots	-8904
▁snail	-8905
▁teens	-8906
▁wrest	-8907
▁Astern	-8908
▁Church	-8909
▁Pohang	-8910
▁Regard	-8911
▁bruise	-8912
▁convin	-8913
▁cooler	-8914
▁delete	-8915
▁eleven	-8916
▁inspir	-8917
▁menstr	-8918
▁monkey	-8919
▁outlet	-8920
▁shaken	-8921
▁shakes	-8922
▁survey	-8923
▁consent	-8924
▁harmful	-8925
▁kidneys	-8926
▁promote	-8927
▁routine	-8928
▁testing	-8929
▁toilets	-8930
▁uttered	-8931
▁accompan	-8932
▁bankrupt	-8933
▁cabbages	-8934
▁greatest	-8935
▁maternal	-8936
▁patience	-8937
▁spraying	-8938
▁tutoring	-8939
▁borrowing	-8940
▁butterfly	-8941
▁intermitt	-8942
▁latenight	-8943
▁pollution	-8944
▁purposely	-8945
▁upsetting	-8946
▁Vietnamese	-8947
▁accessories	-8948
▁distinction	-8949
▁unconscious	-8950
zo	-8951
oli	-8952
que	-8953
▁Ev	-8954
▁Ob	-8955
▁PT	-8956
▁Um	-8957
0,0.	-8958
yeol	-8959
▁Del	-8960
▁Off	-8961
▁cic	-8962
▁vot	-8963
ishes	-8964
llers	-8965
thern	-8966
▁Half	-8967
▁Kids	-8968
▁Wake	-8969
▁cord	-8970
▁funn	-8971
▁jerk	-8972
▁orth	-8973
▁silk	-8974
liness	-8975
oodles	-8976
▁Annie	-8977
▁Elect	-8978
▁Iveas	-8979
▁Whthe	-8980
▁downs	-8981
▁drain	-8982
▁incom	-8983
▁overe	-8984
▁patri	-8985
▁rises	-8986
▁scand	-8987
▁views	-8988
▁whale	-8989
▁Sejong	-8990
▁awards	-8991
▁bacter	-8992
▁darker	-8993
▁handed	-8994
▁images	-8995
▁ladder	-8996
▁sector	-8997
▁tables	-8998
▁weaker	-8999
▁braised	-9000
▁dignity	-9001
▁haircut	-9002
▁posting	-9003
▁ranking	-9004
▁remarry	-9005
▁renting	-9006
▁slipped	-9007
▁sunrise	-9008
▁tattoos	-9009
▁audition	-9010
▁boarding	-9011
▁brighter	-9012
▁cheerful	-9013
▁deadline	-9014
▁diarrhea	-9015
▁fountain	-9016
▁slippers	-9017
▁strategy	-9018
▁executive	-9019
▁lifestyle	-9020
▁newlyweds	-9021
▁photograp	-9022
▁shortterm	-9023
▁comprehens	-9024
▁expressing	-9025
▁facetoface	-9026
▁mysterious	-9027
▁protection	-9028
▁toothbrush	-9029
▁controversy	-9030
▁overwhelming	-9031
▁conversations	-9032
ocr	-9033
rif	-9034
top	-9035
▁La	-9036
▁Ni	-9037
▁jj	-9038
acon	-9039
ales	-9040
half	-9041
inte	-9042
mail	-9043
oops	-9044
▁Ahn	-9045
▁Geo	-9046
▁Spe	-9047
▁ded	-9048
▁gay	-9049
▁roo	-9050
▁sup	-9051
▁vul	-9052
chair	-9053
iency	-9054
▁Bank	-9055
▁Idol	-9056
▁Same	-9057
▁aler	-9058
▁dong	-9059
▁ease	-9060
▁elim	-9061
▁owns	-9062
▁trap	-9063
enters	-9064
▁Going	-9065
▁Surpr	-9066
▁buses	-9067
▁demon	-9068
▁error	-9069
▁fatig	-9070
▁fists	-9071
▁grace	-9072
▁poems	-9073
▁proof	-9074
▁reply	-9075
▁shine	-9076
▁spons	-9077
▁wallp	-9078
▁wifes	-9079
eration	-9080
▁Castle	-9081
▁Easter	-9082
▁coffin	-9083
▁export	-9084
▁marked	-9085
▁texted	-9086
▁Anyways	-9087
▁Coupang	-9088
▁bouquet	-9089
▁compete	-9090
▁counted	-9091
▁farmers	-9092
▁handing	-9093
▁neither	-9094
▁recipes	-9095
▁sausage	-9096
▁spreads	-9097
▁workout	-9098
▁decrease	-9099
▁infected	-9100
▁knitting	-9101
▁recovery	-9102
▁writings	-9103
▁authority	-9104
▁tasteless	-9105
▁controlled	-9106
▁approaching	-9107
▁celebration	-9108
▁imagination	-9109
▁experiencing	-9110
kok	-9111
rim	-9112
▁cu	-9113
abor	-9114
jebi	-9115
only	-9116
oret	-9117
step	-9118
utin	-9119
▁Ass	-9120
▁Gim	-9121
▁Mot	-9122
▁Sar	-9123
▁gut	-9124
▁phr	-9125
▁pil	-9126
▁sam	-9127
▁thy	-9128
▁toe	-9129
▁ups	-9130
alent	-9131
gwort	-9132
▁Eggs	-9133
▁FIFA	-9134
▁doub	-9135
▁hats	-9136
▁mole	-9137
▁weed	-9138
asters	-9139
▁Paley	-9140
▁alert	-9141
▁bites	-9142
▁blank	-9143
▁burns	-9144
▁click	-9145
▁dsure	-9146
▁facts	-9147
▁itchy	-9148
▁kneel	-9149
▁layer	-9150
▁metab	-9151
▁recon	-9152
▁shelf	-9153
▁soles	-9154
▁toxic	-9155
▁Change	-9156
▁Friend	-9157
▁allows	-9158
▁auntie	-9159
▁banana	-9160
▁barrel	-9161
▁hanbok	-9162
▁liquid	-9163
▁loaded	-9164
▁placed	-9165
▁remark	-9166
▁shirts	-9167
▁teased	-9168
▁anticip	-9169
▁contrad	-9170
▁longest	-9171
▁mugwort	-9172
▁newborn	-9173
▁passive	-9174
▁popcorn	-9175
▁privacy	-9176
▁produce	-9177
▁profile	-9178
▁session	-9179
▁sparrow	-9180
▁tuition	-9181
▁website	-9182
▁Although	-9183
▁bibimbap	-9184
▁blooming	-9185
▁citizens	-9186
▁hesitate	-9187
▁knitwear	-9188
▁literary	-9189
▁quarters	-9190
▁Americano	-9191
▁chemistry	-9192
▁packaging	-9193
▁recovered	-9194
▁resources	-9195
▁rewarding	-9196
▁synthetic	-9197
▁Youngwoong	-9198
▁continuous	-9199
▁inevitable	-9200
▁quarantine	-9201
▁scientific	-9202
▁centimeters	-9203
▁established	-9204
▁inspiration	-9205
▁destinations	-9206
▁independence	-9207
▁prescription	-9208
hu	-9209
eok	-9210
fts	-9211
lin	-9212
ogy	-9213
ault	-9214
deok	-9215
hill	-9216
udge	-9217
▁Alp	-9218
▁Cal	-9219
▁Din	-9220
▁Yeo	-9221
▁lob	-9222
▁rac	-9223
amond	-9224
ieces	-9225
rency	-9226
▁Fest	-9227
▁Ohay	-9228
▁Sara	-9229
▁aged	-9230
▁rang	-9231
▁sins	-9232
itched	-9233
▁Beach	-9234
▁debts	-9235
▁dense	-9236
▁lined	-9237
▁perip	-9238
▁rehab	-9239
▁union	-9240
▁unple	-9241
▁whist	-9242
▁Babies	-9243
▁adoles	-9244
▁breeze	-9245
▁donate	-9246
▁humble	-9247
▁injury	-9248
▁instin	-9249
▁intent	-9250
▁messed	-9251
▁openly	-9252
▁resist	-9253
▁sensit	-9254
▁triang	-9255
▁Dongwon	-9256
▁Jaeseok	-9257
▁artists	-9258
▁consume	-9259
▁diction	-9260
▁editing	-9261
▁haenyeo	-9262
▁journey	-9263
▁primary	-9264
▁rituals	-9265
▁typical	-9266
boyfriend	-9267
efinitely	-9268
▁Itreally	-9269
▁Province	-9270
▁arrested	-9271
▁believes	-9272
▁bracelet	-9273
▁designed	-9274
▁download	-9275
▁guardian	-9276
▁hangover	-9277
▁homeless	-9278
▁mistaken	-9279
▁quantity	-9280
▁remained	-9281
▁steering	-9282
▁subtract	-9283
▁Ifinitely	-9284
▁Strangely	-9285
▁interests	-9286
▁motivated	-9287
▁operating	-9288
▁orphanage	-9289
▁sincerely	-9290
▁accumulate	-9291
▁membership	-9292
▁protecting	-9293
▁unpleasant	-9294
▁compliments	-9295
▁differences	-9296
▁recognition	-9297
▁recommending	-9298
ec	-9299
Don	-9300
adu	-9301
oti	-9302
pop	-9303
rem	-9304
gant	-9305
prod	-9306
sole	-9307
uing	-9308
▁Bog	-9309
▁Dor	-9310
▁Has	-9311
▁Jis	-9312
▁McD	-9313
▁Rel	-9314
▁Sae	-9315
▁avo	-9316
▁cul	-9317
bucks	-9318
lines	-9319
plant	-9320
respe	-9321
uming	-9322
▁Cent	-9323
▁Mins	-9324
▁Moms	-9325
▁Serv	-9326
▁jazz	-9327
▁pond	-9328
▁rein	-9329
▁tire	-9330
▁amber	-9331
▁debut	-9332
▁ditch	-9333
▁domin	-9334
▁hairy	-9335
▁loser	-9336
▁minus	-9337
▁packs	-9338
▁prime	-9339
▁rapid	-9340
igently	-9341
▁Gunsan	-9342
▁defect	-9343
▁driven	-9344
▁filial	-9345
▁grader	-9346
▁hammer	-9347
▁humili	-9348
▁layers	-9349
▁sheets	-9350
friendly	-9351
▁Italian	-9352
▁airline	-9353
▁cushion	-9354
▁dresses	-9355
▁drought	-9356
▁earning	-9357
▁prickly	-9358
▁reports	-9359
▁reverse	-9360
▁shrimps	-9361
▁Minister	-9362
▁Republic	-9363
▁Seongsan	-9364
▁Suncheon	-9365
▁bacteria	-9366
▁eighteen	-9367
▁paycheck	-9368
▁workshop	-9369
▁Basically	-9370
▁festivals	-9371
▁followers	-9372
▁highlight	-9373
▁inherited	-9374
▁movements	-9375
▁obviously	-9376
▁scheduled	-9377
▁strongest	-9378
▁discipline	-9379
▁sacrifices	-9380
▁substitute	-9381
▁watermelon	-9382
▁challenging	-9383
▁connections	-9384
▁universities	-9385
.?	-9386
vi	-9387
dam	-9388
dol	-9389
▁Ki	-9390
agen	-9391
ctic	-9392
edes	-9393
icon	-9394
idem	-9395
tang	-9396
ueen	-9397
umes	-9398
walk	-9399
▁Bet	-9400
▁Bus	-9401
▁Nar	-9402
▁Tor	-9403
▁amp	-9404
▁arr	-9405
▁gag	-9406
▁gor	-9407
▁jap	-9408
▁odd	-9409
break	-9410
erved	-9411
osity	-9412
pting	-9413
usive	-9414
▁Bean	-9415
▁Peak	-9416
▁Plus	-9417
▁ants	-9418
▁bong	-9419
▁damp	-9420
▁dear	-9421
▁dism	-9422
▁gast	-9423
▁liar	-9424
▁mang	-9425
▁mute	-9426
▁pong	-9427
▁recy	-9428
▁sack	-9429
▁sits	-9430
▁stor	-9431
▁tart	-9432
▁unst	-9433
limits	-9434
shirts	-9435
ulsive	-9436
▁alien	-9437
▁ashes	-9438
▁barbe	-9439
▁bench	-9440
▁bully	-9441
▁coins	-9442
▁culpr	-9443
▁noses	-9444
▁pajam	-9445
▁reads	-9446
▁suing	-9447
▁swore	-9448
▁Indian	-9449
▁begged	-9450
▁defend	-9451
▁detect	-9452
▁explos	-9453
▁fisher	-9454
▁incred	-9455
▁motive	-9456
▁scored	-9457
▁secure	-9458
▁shovel	-9459
▁sloppy	-9460
▁tunnel	-9461
▁Airport	-9462
▁General	-9463
▁Running	-9464
▁adopted	-9465
▁avoided	-9466
▁carrier	-9467
▁combine	-9468
▁congrat	-9469
▁eyebrow	-9470
▁hallway	-9471
▁majored	-9472
▁ruining	-9473
▁silence	-9474
▁snowman	-9475
▁thyroid	-9476
▁villain	-9477
▁Festival	-9478
▁athletes	-9479
▁campaign	-9480
▁daylight	-9481
▁peripher	-9482
▁powdered	-9483
▁Detective	-9484
▁Overwatch	-9485
▁protected	-9486
▁stability	-9487
▁attendance	-9488
▁depressing	-9489
▁humanities	-9490
▁organizing	-9491
▁profession	-9492
▁recklessly	-9493
▁reputation	-9494
▁assignments	-9495
▁encountered	-9496
▁mathematics	-9497
▁probability	-9498
▁Chungcheongdo	-9499
▁comprehensive	-9500
BS	-9501
ham	-9502
lex	-9503
lly	-9504
zhe	-9505
▁Ce	-9506
▁GO	-9507
▁Gy	-9508
▁NC	-9509
ette	-9510
idel	-9511
imer	-9512
mans	-9513
olly	-9514
sook	-9515
star	-9516
▁Hal	-9517
▁Ins	-9518
▁Lou	-9519
▁Sok	-9520
▁Tur	-9521
▁hyp	-9522
▁ped	-9523
▁roe	-9524
aving	-9525
chief	-9526
olism	-9527
owing	-9528
venir	-9529
▁Gree	-9530
▁Meet	-9531
▁Seon	-9532
▁cage	-9533
▁flip	-9534
▁goat	-9535
▁grat	-9536
▁ired	-9537
▁mixt	-9538
▁mort	-9539
▁soot	-9540
▁tile	-9541
ellect	-9542
rovert	-9543
ulting	-9544
▁Alzhe	-9545
▁Confu	-9546
▁Isont	-9547
▁Study	-9548
▁kidna	-9549
▁peers	-9550
▁pitch	-9551
▁polar	-9552
▁prost	-9553
▁vomit	-9554
▁ankles	-9555
▁ballet	-9556
▁cities	-9557
▁immune	-9558
▁marble	-9559
▁option	-9560
▁struck	-9561
▁tablet	-9562
▁talker	-9563
▁volcan	-9564
interest	-9565
▁Village	-9566
▁briquet	-9567
▁exagger	-9568
▁hotteok	-9569
▁hygiene	-9570
▁legally	-9571
▁mukbang	-9572
▁scarier	-9573
▁shelter	-9574
istically	-9575
▁Congress	-9576
▁Haeundae	-9577
▁Itotally	-9578
▁Wherever	-9579
▁cemetery	-9580
▁infinite	-9581
▁midnight	-9582
▁planting	-9583
▁sergeant	-9584
▁stacking	-9585
▁Alzheimer	-9586
▁announcer	-9587
▁competing	-9588
▁encounter	-9589
▁reference	-9590
▁Cheongyang	-9591
▁dictionary	-9592
▁intentions	-9593
▁accordingly	-9594
▁indifferent	-9595
▁transparent	-9596
▁agricultural	-9597
▁announcement	-9598
▁grandparents	-9599
"?	-9600
ael	-9601
suk	-9602
uba	-9603
▁Hu	-9604
gogi	-9605
llia	-9606
wife	-9607
▁Gos	-9608
▁Hol	-9609
▁Mel	-9610
▁Mis	-9611
▁Nur	-9612
▁Sis	-9613
▁aid	-9614
▁mut	-9615
▁nav	-9616
▁unt	-9617
anish	-9618
▁Blue	-9619
▁Jind	-9620
▁June	-9621
▁Move	-9622
▁bund	-9623
▁dolp	-9624
▁edit	-9625
▁jade	-9626
▁ster	-9627
ealand	-9628
intend	-9629
▁Being	-9630
▁Ivead	-9631
▁Trump	-9632
▁billi	-9633
▁chips	-9634
▁chole	-9635
▁devil	-9636
▁latte	-9637
▁merch	-9638
▁rooft	-9639
▁sheet	-9640
▁sites	-9641
▁slave	-9642
▁snuck	-9643
▁wages	-9644
iration	-9645
▁Hallim	-9646
▁Ifants	-9647
▁bursts	-9648
▁gasped	-9649
▁gender	-9650
▁goblin	-9651
▁kissed	-9652
▁larger	-9653
▁popped	-9654
▁pursue	-9655
▁towels	-9656
▁unwind	-9657
▁wasted	-9658
▁Getting	-9659
▁foolish	-9660
▁happier	-9661
▁laptops	-9662
▁mixture	-9663
▁sucking	-9664
astically	-9665
▁Cultural	-9666
▁dressing	-9667
▁earphone	-9668
▁horrible	-9669
▁mulberry	-9670
▁occurred	-9671
▁parasite	-9672
▁souvenir	-9673
▁ticklish	-9674
▁troubles	-9675
▁Shincheon	-9676
▁decisions	-9677
▁favorites	-9678
▁interrupt	-9679
▁periphery	-9680
▁reasoning	-9681
▁squeezing	-9682
▁employment	-9683
▁nutritious	-9684
▁Grandfather	-9685
▁perforation	-9686
▁architecture	-9687
▁inconvenient	-9688
▁registration	-9689
ene	-9690
hum	-9691
vil	-9692
▁Ko	-9693
▁Mt	-9694
comm	-9695
sued	-9696
ulum	-9697
veng	-9698
zard	-9699
▁Out	-9700
▁Tim	-9701
▁jaw	-9702
▁lin	-9703
▁sar	-9704
▁tid	-9705
doors	-9706
ifier	-9707
ights	-9708
▁Kpop	-9709
▁Mich	-9710
▁Roll	-9711
▁bing	-9712
▁flea	-9713
▁impl	-9714
▁punk	-9715
▁shed	-9716
▁task	-9717
▁toen	-9718
▁wool	-9719
▁Check	-9720
▁Colle	-9721
▁Happy	-9722
▁Imuse	-9723
▁Roman	-9724
▁Store	-9725
▁bikes	-9726
▁bleed	-9727
▁brave	-9728
▁chops	-9729
▁delay	-9730
▁hadnt	-9731
▁jumps	-9732
▁leads	-9733
▁metap	-9734
▁opera	-9735
▁skull	-9736
▁wives	-9737
ruption	-9738
uetooth	-9739
▁Google	-9740
▁compat	-9741
▁crunch	-9742
▁excite	-9743
▁facial	-9744
▁revers	-9745
▁snails	-9746
▁subtle	-9747
▁update	-9748
▁vulner	-9749
▁winner	-9750
▁Imashed	-9751
▁Iveused	-9752
▁athlete	-9753
▁closest	-9754
▁culprit	-9755
▁diamond	-9756
▁educate	-9757
▁melting	-9758
▁noseble	-9759
▁pickles	-9760
▁praised	-9761
▁provide	-9762
▁rumored	-9763
▁skating	-9764
▁wealthy	-9765
▁weapons	-9766
▁Ministry	-9767
▁Webtoons	-9768
▁churches	-9769
▁commonly	-9770
▁delicate	-9771
▁donation	-9772
▁pointing	-9773
▁Starbucks	-9774
▁beginners	-9775
▁comparing	-9776
▁hardships	-9777
▁kickboard	-9778
▁aggressive	-9779
▁apologized	-9780
▁businesses	-9781
▁disposable	-9782
▁explaining	-9783
▁frequently	-9784
▁metabolism	-9785
▁spectacular	-9786
di	-9787
bor	-9788
ios	-9789
vin	-9790
war	-9791
yun	-9792
▁ot	-9793
gage	-9794
ouch	-9795
requ	-9796
rils	-9797
▁Aut	-9798
▁Bae	-9799
▁Div	-9800
▁Pep	-9801
▁aim	-9802
▁cub	-9803
▁dew	-9804
asion	-9805
enger	-9806
ipper	-9807
▁Hank	-9808
▁Lord	-9809
▁bang	-9810
▁barb	-9811
▁clam	-9812
▁enzy	-9813
▁gram	-9814
▁mile	-9815
▁plum	-9816
▁samp	-9817
▁ties	-9818
aching	-9819
anthem	-9820
ayoung	-9821
flower	-9822
formed	-9823
hyeong	-9824
making	-9825
minals	-9826
sterol	-9827
vation	-9828
▁Itant	-9829
▁Maple	-9830
▁Namju	-9831
▁chrys	-9832
▁crown	-9833
▁frogs	-9834
▁homes	-9835
▁katok	-9836
▁kings	-9837
▁patch	-9838
▁reass	-9839
▁tutor	-9840
▁users	-9841
utinous	-9842
▁Bridge	-9843
▁Unless	-9844
▁absorb	-9845
▁accomp	-9846
▁arcade	-9847
▁closes	-9848
▁column	-9849
▁insult	-9850
▁mister	-9851
▁splash	-9852
▁stinks	-9853
▁sujebi	-9854
▁tricks	-9855
▁yogurt	-9856
▁Eastern	-9857
▁accents	-9858
▁actress	-9859
▁auction	-9860
▁bruises	-9861
▁carries	-9862
▁elected	-9863
▁endless	-9864
▁forcing	-9865
▁hateful	-9866
▁japchae	-9867
▁knocked	-9868
▁needles	-9869
▁pockets	-9870
▁rooftop	-9871
▁sadness	-9872
▁skilled	-9873
▁Infinite	-9874
▁Itinated	-9875
▁Students	-9876
▁blankets	-9877
▁camellia	-9878
▁drowning	-9879
▁lighting	-9880
▁longterm	-9881
▁magazine	-9882
▁managers	-9883
▁marrying	-9884
▁measured	-9885
▁outsider	-9886
▁patterns	-9887
▁peaceful	-9888
▁required	-9889
▁visitors	-9890
ologically	-9891
▁candidate	-9892
▁comforted	-9893
▁excessive	-9894
▁incidents	-9895
grandmother	-9896
▁Prosecutor	-9897
▁blackboard	-9898
▁presidents	-9899
▁regretting	-9900
▁Considering	-9901
▁circulation	-9902
▁individuals	-9903
▁presidential	-9904
▁restrictions	-9905
ij	-9906
elf	-9907
oyo	-9908
Yeah	-9909
llas	-9910
lord	-9911
mate	-9912
stal	-9913
▁Ben	-9914
▁Guc	-9915
▁Wol	-9916
▁eth	-9917
▁lou	-9918
▁spy	-9919
aited	-9920
▁Alba	-9921
▁Fire	-9922
▁Gate	-9923
▁Gumi	-9924
▁Road	-9925
▁Stir	-9926
▁bass	-9927
▁beds	-9928
▁crop	-9929
▁leak	-9930
▁maam	-9931
▁mint	-9932
▁noon	-9933
▁puzz	-9934
▁trop	-9935
aneous	-9936
cooked	-9937
ifying	-9938
ulture	-9939
▁Iveid	-9940
▁Jindo	-9941
▁blade	-9942
▁coats	-9943
▁crave	-9944
▁inspe	-9945
▁loach	-9946
▁prose	-9947
▁spine	-9948
▁vivid	-9949
▁Dinner	-9950
▁Dragon	-9951
▁Master	-9952
▁advent	-9953
▁battal	-9954
▁drives	-9955
▁extend	-9956
▁fabric	-9957
▁loosen	-9958
▁melons	-9959
▁negoti	-9960
▁pickle	-9961
▁squeak	-9962
▁todays	-9963
▁treats	-9964
▁voices	-9965
tempered	-9966
▁College	-9967
▁Damyang	-9968
▁Jungang	-9969
▁bulgogi	-9970
▁crunchy	-9971
▁fatigue	-9972
▁handful	-9973
▁matches	-9974
▁rabbits	-9975
▁sayings	-9976
▁secrets	-9977
▁surfing	-9978
▁vicious	-9979
▁collapse	-9980
▁consumer	-9981
▁engineer	-9982
▁existing	-9983
▁eyesight	-9984
▁identity	-9985
▁outdoors	-9986
▁perfumes	-9987
▁requires	-9988
▁abilities	-9989
▁reflected	-9990
▁repeating	-9991
▁wallpaper	-9992
grandfather	-9993
▁accomplish	-9994
▁continuing	-9995
▁maintained	-9996
▁throughout	-9997
▁stomachache	-9998
▁strengthened	-9999
▁concentration	-10000
li	-10001
wi	-10002
agu	-10003
bap	-10004
bul	-10005
gor	-10006
ray	-10007
▁Fe	-10008
chul	-10009
itty	-10010
neum	-10011
nuts	-10012
yung	-10013
▁Bat	-10014
▁Dod	-10015
▁Dom	-10016
▁Jer	-10017
▁Lie	-10018
▁Mam	-10019
▁Mix	-10020
▁Ryu	-10021
assed	-10022
level	-10023
maker	-10024
ronic	-10025
▁Ivea	-10026
▁Rice	-10027
▁Seol	-10028
▁Youh	-10029
▁ages	-10030
▁cate	-10031
▁obst	-10032
▁pipe	-10033
▁sout	-10034
anghai	-10035
ensity	-10036
▁Doesn	-10037
▁Ifnot	-10038
▁Music	-10039
▁Odeng	-10040
▁Sarah	-10041
▁Super	-10042
▁frown	-10043
▁hears	-10044
▁hired	-10045
▁loyal	-10046
▁silly	-10047
▁spots	-10048
▁worms	-10049
quality	-10050
▁Office	-10051
▁Pepero	-10052
▁Sunbae	-10053
▁carbon	-10054
▁coding	-10055
▁diaper	-10056
▁erased	-10057
▁integr	-10058
▁louder	-10059
▁miscar	-10060
▁pillar	-10061
▁skelet	-10062
▁sliced	-10063
▁Dontest	-10064
▁Samchun	-10065
▁Spanish	-10066
▁Walking	-10067
▁barista	-10068
▁catches	-10069
▁chaotic	-10070
▁customs	-10071
▁elastic	-10072
▁graders	-10073
▁mustard	-10074
▁nostril	-10075
▁pastors	-10076
▁printer	-10077
▁sounded	-10078
ibilities	-10079
▁Assembly	-10080
▁Shanghai	-10081
▁adjusted	-10082
▁athletic	-10083
▁balanced	-10084
▁barbecue	-10085
▁bicycles	-10086
▁bursting	-10087
▁casually	-10088
▁currency	-10089
▁nostrils	-10090
▁pretends	-10091
▁profound	-10092
▁promises	-10093
▁vehicles	-10094
▁villages	-10095
▁criminals	-10096
▁decreases	-10097
▁discounts	-10098
▁medicines	-10099
▁postponed	-10100
▁promoting	-10101
▁afterwards	-10102
▁excitement	-10103
▁officially	-10104
▁vulnerable	-10105
▁Shincheonji	-10106
▁hottempered	-10107
▁intelligent	-10108
▁regulations	-10109
▁competitions	-10110
▁controversial	-10111
Fi	-10112
hog	-10113
lfe	-10114
see	-10115
cons	-10116
mill	-10117
till	-10118
▁Bom	-10119
▁Mer	-10120
▁Val	-10121
▁Wet	-10122
▁Yog	-10123
▁hel	-10124
▁tub	-10125
aired	-10126
force	-10127
ordan	-10128
ucked	-10129
▁Ball	-10130
▁Sand	-10131
▁beet	-10132
▁init	-10133
▁link	-10134
▁narr	-10135
▁peed	-10136
▁pref	-10137
▁pudd	-10138
▁sket	-10139
▁user	-10140
ooping	-10141
▁Cross	-10142
▁Human	-10143
▁Inter	-10144
▁Olive	-10145
▁Teach	-10146
▁beats	-10147
▁bumpy	-10148
▁crane	-10149
▁lasts	-10150
▁mango	-10151
▁pneum	-10152
▁selfe	-10153
▁sends	-10154
▁swell	-10155
▁unint	-10156
imistic	-10157
rasound	-10158
respons	-10159
working	-10160
▁Answer	-10161
▁bounce	-10162
▁cruise	-10163
▁debate	-10164
▁firmly	-10165
▁guards	-10166
▁heater	-10167
▁hotter	-10168
▁pricey	-10169
▁regime	-10170
▁robber	-10171
▁splits	-10172
▁theyve	-10173
▁threed	-10174
▁wisdom	-10175
▁wrists	-10176
▁Nintend	-10177
▁bananas	-10178
▁bruised	-10179
▁centers	-10180
▁islands	-10181
▁lawsuit	-10182
▁peeling	-10183
▁pottery	-10184
▁reserve	-10185
▁storage	-10186
▁western	-10187
▁Cheongju	-10188
▁Itinting	-10189
▁contacts	-10190
▁goodness	-10191
▁hesitant	-10192
▁offended	-10193
▁purchase	-10194
▁shouldve	-10195
▁signific	-10196
▁spinning	-10197
▁vomiting	-10198
▁wrinkled	-10199
▁accepting	-10200
▁announced	-10201
▁corrected	-10202
▁criticism	-10203
▁endoscopy	-10204
▁existence	-10205
▁fundament	-10206
▁geography	-10207
▁glutinous	-10208
▁neglected	-10209
▁obsession	-10210
▁waterfall	-10211
▁absorption	-10212
▁incredibly	-10213
▁sunglasses	-10214
▁unemployed	-10215
▁businessman	-10216
▁understands	-10217
▁intermittent	-10218
▁oldfashioned	-10219
▁specifically	-10220
RW	-10221
add	-10222
fia	-10223
hth	-10224
hun	-10225
isc	-10226
oty	-10227
tak	-10228
udd	-10229
ulf	-10230
▁Od	-10231
Talk	-10232
This	-10233
cost	-10234
hour	-10235
joon	-10236
long	-10237
ront	-10238
▁Alb	-10239
▁Dar	-10240
▁Dog	-10241
▁Eve	-10242
▁KRW	-10243
▁Mor	-10244
▁Udo	-10245
▁axe	-10246
▁jja	-10247
▁sip	-10248
▁unk	-10249
igned	-10250
onsan	-10251
▁Rock	-10252
▁curi	-10253
▁gour	-10254
▁horn	-10255
▁seas	-10256
▁tide	-10257
▁visa	-10258
▁wart	-10259
▁wust	-10260
▁Break	-10261
▁Dongh	-10262
▁Hyung	-10263
▁Lunar	-10264
▁Puppy	-10265
▁Satan	-10266
▁antib	-10267
▁choir	-10268
▁comed	-10269
▁faint	-10270
▁frost	-10271
▁holds	-10272
▁kicks	-10273
▁kilog	-10274
▁parag	-10275
▁prove	-10276
▁stall	-10277
▁stare	-10278
▁wraps	-10279
uddenly	-10280
▁Jordan	-10281
▁Mongol	-10282
▁Theyid	-10283
▁Youhes	-10284
▁chewed	-10285
▁coolly	-10286
▁copies	-10287
▁hanger	-10288
▁hoodie	-10289
▁laughs	-10290
▁melody	-10291
▁nicely	-10292
▁phrase	-10293
▁smiled	-10294
▁subsid	-10295
▁subtit	-10296
mbersome	-10297
▁Bangkok	-10298
▁Mothers	-10299
▁adapted	-10300
▁barking	-10301
▁charged	-10302
▁costume	-10303
▁orchest	-10304
▁publish	-10305
▁stamina	-10306
▁startup	-10307
fficiency	-10308
velopment	-10309
▁McDonald	-10310
▁bookmark	-10311
▁eyeliner	-10312
▁grandkid	-10313
▁jealousy	-10314
▁postpone	-10315
▁purposes	-10316
▁rejected	-10317
▁stations	-10318
▁superior	-10319
▁unstable	-10320
▁upgraded	-10321
▁withdraw	-10322
▁Confucian	-10323
▁battalion	-10324
▁economics	-10325
▁factories	-10326
▁framework	-10327
▁gratitude	-10328
▁installed	-10329
▁poisonous	-10330
▁reporting	-10331
▁shellfish	-10332
▁workplace	-10333
▁calculated	-10334
▁cumbersome	-10335
▁diligently	-10336
▁repeatedly	-10337
▁ultrasound	-10338
▁weaknesses	-10339
▁resignation	-10340
▁inconvenience	-10341
▁disappointment	-10342
1.	-10343
aro	-10344
bag	-10345
ola	-10346
▁SU	-10347
acqu	-10348
aksi	-10349
aren	-10350
idas	-10351
imed	-10352
odel	-10353
▁Age	-10354
▁Chu	-10355
▁Emb	-10356
▁Gap	-10357
▁Pan	-10358
▁wig	-10359
dress	-10360
tempt	-10361
▁Wase	-10362
▁adul	-10363
▁cops	-10364
▁dock	-10365
▁gods	-10366
▁luke	-10367
▁nest	-10368
▁parr	-10369
▁skis	-10370
▁terr	-10371
▁vend	-10372
amping	-10373
nyeong	-10374
semble	-10375
shaped	-10376
▁Learn	-10377
▁Mexic	-10378
▁categ	-10379
▁chefs	-10380
▁clown	-10381
▁crash	-10382
▁drums	-10383
▁hedge	-10384
▁initi	-10385
▁intim	-10386
▁malls	-10387
▁merit	-10388
▁meter	-10389
▁penis	-10390
▁persu	-10391
▁posts	-10392
▁queen	-10393
▁semin	-10394
▁spong	-10395
▁Police	-10396
▁Travel	-10397
▁folder	-10398
▁format	-10399
▁gamble	-10400
▁gravel	-10401
▁headed	-10402
▁hunger	-10403
▁ironic	-10404
▁manure	-10405
▁outthe	-10406
▁pronun	-10407
▁reconc	-10408
▁sleeve	-10409
▁softer	-10410
▁spends	-10411
▁symbol	-10412
▁terror	-10413
▁wiping	-10414
▁wounds	-10415
▁Hilling	-10416
▁Michael	-10417
▁Theyide	-10418
▁arrange	-10419
▁berries	-10420
▁blaming	-10421
▁burgers	-10422
▁concess	-10423
▁earnest	-10424
▁fastest	-10425
▁greatly	-10426
▁heights	-10427
▁manages	-10428
▁markets	-10429
▁squeaky	-10430
▁whipped	-10431
▁Speaking	-10432
▁disgrace	-10433
▁graphics	-10434
▁humidity	-10435
▁landlord	-10436
▁operated	-10437
▁partners	-10438
▁smallest	-10439
▁threeold	-10440
▁universe	-10441
▁variable	-10442
▁classmate	-10443
▁eyelashes	-10444
▁personnel	-10445
▁relieving	-10446
▁therapist	-10447
▁vacations	-10448
▁statistics	-10449
▁educational	-10450
▁handwriting	-10451
▁mediumsized	-10452
bin	-10453
lig	-10454
poc	-10455
▁Yo	-10456
▁ts	-10457
bris	-10458
char	-10459
cont	-10460
doms	-10461
ener	-10462
esty	-10463
hyuk	-10464
keys	-10465
nace	-10466
▁Bea	-10467
▁Bok	-10468
▁Dok	-10469
▁Kia	-10470
▁Ome	-10471
▁Rob	-10472
▁Wou	-10473
▁pel	-10474
▁pla	-10475
▁tae	-10476
▁tru	-10477
esity	-10478
frequ	-10479
nered	-10480
ooped	-10481
xting	-10482
▁Bitc	-10483
▁Boys	-10484
▁Dude	-10485
▁Hard	-10486
▁Ifhe	-10487
▁Imal	-10488
▁Itnt	-10489
▁Rome	-10490
▁bron	-10491
▁cass	-10492
▁dele	-10493
▁navy	-10494
▁pupa	-10495
▁quiz	-10496
▁solo	-10497
▁thnt	-10498
▁unne	-10499
▁vent	-10500
atives	-10501
atural	-10502
prints	-10503
▁Abuji	-10504
▁Bogum	-10505
▁Class	-10506
▁Drive	-10507
▁Enjoy	-10508
▁Speak	-10509
▁Welly	-10510
▁ambul	-10511
▁flash	-10512
▁infer	-10513
▁prest	-10514
▁skept	-10515
▁slide	-10516
▁spell	-10517
▁thorn	-10518
isingly	-10519
▁Buying	-10520
▁Forest	-10521
▁cockro	-10522
▁covers	-10523
▁debris	-10524
▁dental	-10525
▁discou	-10526
▁farmed	-10527
▁lifted	-10528
▁locust	-10529
▁oppose	-10530
▁rushed	-10531
▁serial	-10532
▁superv	-10533
▁wishes	-10534
secutors	-10535
▁Friends	-10536
▁barrier	-10537
▁chimney	-10538
▁coupons	-10539
▁furnace	-10540
▁loyalty	-10541
▁pickpoc	-10542
▁playful	-10543
▁sibling	-10544
frequency	-10545
▁Nintendo	-10546
▁adoption	-10547
▁backpack	-10548
▁buttocks	-10549
▁fifthday	-10550
▁imported	-10551
▁includes	-10552
▁laughter	-10553
▁outbreak	-10554
▁seawater	-10555
▁shortcut	-10556
▁software	-10557
▁KakaoTalk	-10558
▁admission	-10559
▁certainly	-10560
▁curiosity	-10561
▁mentality	-10562
▁reporters	-10563
▁schedules	-10564
▁sentiment	-10565
▁sparkling	-10566
▁unusually	-10567
▁assistants	-10568
▁delivering	-10569
▁distribute	-10570
▁harmonious	-10571
▁jastically	-10572
▁stationery	-10573
▁Soceptually	-10574
▁cholesterol	-10575
▁distributed	-10576
▁expressions	-10577
▁jajangmyeon	-10578
of	-10579
any	-10580
bes	-10581
cao	-10582
ffy	-10583
ggy	-10584
gun	-10585
omy	-10586
onk	-10587
oto	-10588
rep	-10589
vis	-10590
▁SM	-10591
▁Sy	-10592
▁Yi	-10593
cker	-10594
ctly	-10595
geun	-10596
give	-10597
▁Cra	-10598
▁Gag	-10599
▁Pen	-10600
▁Psy	-10601
▁hyd	-10602
▁ram	-10603
▁rod	-10604
▁sax	-10605
▁zip	-10606
artum	-10607
cling	-10608
joong	-10609
rogen	-10610
▁Eune	-10611
▁Hoon	-10612
▁Maam	-10613
▁armp	-10614
▁chip	-10615
▁clay	-10616
▁flaw	-10617
▁gums	-10618
▁mink	-10619
▁pout	-10620
▁scul	-10621
▁tomb	-10622
▁udon	-10623
▁wing	-10624
airman	-10625
ilized	-10626
insula	-10627
legged	-10628
▁Acade	-10629
▁Essen	-10630
▁Jonna	-10631
▁algor	-10632
▁bands	-10633
▁boast	-10634
▁cents	-10635
▁colds	-10636
▁crows	-10637
▁feeds	-10638
▁flyer	-10639
▁prosp	-10640
▁repay	-10641
▁squat	-10642
▁vital	-10643
fection	-10644
limited	-10645
▁campus	-10646
▁charms	-10647
▁issued	-10648
▁shines	-10649
▁skewer	-10650
▁squeam	-10651
▁starch	-10652
▁sucked	-10653
▁tender	-10654
▁thinly	-10655
▁troops	-10656
▁writes	-10657
anthemum	-10658
kerchief	-10659
▁Bitcoin	-10660
▁Cyworld	-10661
▁Service	-10662
▁Through	-10663
▁aspects	-10664
▁awaited	-10665
▁console	-10666
▁essence	-10667
▁farther	-10668
▁knowhow	-10669
▁peanuts	-10670
▁pronoun	-10671
▁remodel	-10672
▁sweater	-10673
▁trivial	-10674
▁whistle	-10675
▁Chairman	-10676
▁attacked	-10677
▁freaking	-10678
▁hedgehog	-10679
▁outgoing	-10680
▁scolding	-10681
▁survived	-10682
▁sympathy	-10683
▁unnecess	-10684
▁consumers	-10685
▁extrovert	-10686
▁hairdress	-10687
▁imagining	-10688
▁thickness	-10689
▁thrilling	-10690
▁tradition	-10691
▁umbrellas	-10692
▁comparison	-10693
▁compatible	-10694
▁discovered	-10695
▁motivation	-10696
▁toothpaste	-10697
▁institution	-10698
▁watermelons	-10699
▁Surprisingly	-10700
▁enthusiastic	-10701
▁pronunciation	-10702
mu	-10703
abi	-10704
aky	-10705
edo	-10706
gye	-10707
lip	-10708
wha	-10709
▁Bi	-10710
▁Ca	-10711
▁Up	-10712
acle	-10713
amen	-10714
erer	-10715
isan	-10716
iser	-10717
norm	-10718
tere	-10719
utch	-10720
▁Cat	-10721
▁Dou	-10722
▁Heo	-10723
▁Sor	-10724
▁ego	-10725
▁max	-10726
▁spa	-10727
agree	-10728
balls	-10729
being	-10730
hesis	-10731
iance	-10732
oodle	-10733
ports	-10734
ritis	-10735
verty	-10736
▁Book	-10737
▁Hait	-10738
▁Ifas	-10739
▁Jack	-10740
▁Know	-10741
▁Rest	-10742
▁Shee	-10743
▁Thai	-10744
▁bees	-10745
▁judo	-10746
▁mode	-10747
▁myth	-10748
▁pots	-10749
▁thaw	-10750
▁thus	-10751
▁vase	-10752
▁vert	-10753
ilding	-10754
iotics	-10755
liding	-10756
ocheon	-10757
ogging	-10758
ondong	-10759
rently	-10760
▁Imant	-10761
▁airpl	-10762
▁depth	-10763
▁disin	-10764
▁hyper	-10765
▁imple	-10766
▁lifes	-10767
▁monks	-10768
▁occup	-10769
▁plank	-10770
▁roles	-10771
▁stake	-10772
▁warri	-10773
anchise	-10774
regular	-10775
▁Euneun	-10776
▁Legend	-10777
▁Minsik	-10778
▁blamed	-10779
▁border	-10780
▁cattle	-10781
▁centip	-10782
▁fright	-10783
▁humane	-10784
▁merger	-10785
▁racing	-10786
▁softly	-10787
▁stages	-10788
▁warmly	-10789
igration	-10790
▁Academy	-10791
▁African	-10792
▁Forgive	-10793
▁applies	-10794
▁chapter	-10795
▁charger	-10796
▁choices	-10797
▁counsel	-10798
▁cracked	-10799
▁daytime	-10800
▁descend	-10801
▁designs	-10802
▁elegant	-10803
▁equally	-10804
▁methods	-10805
▁motherf	-10806
▁neglect	-10807
▁poverty	-10808
▁shuttle	-10809
▁spilled	-10810
▁Mercedes	-10811
▁aerobics	-10812
▁algorith	-10813
▁assholes	-10814
▁bullying	-10815
▁careless	-10816
▁cheapest	-10817
▁coughing	-10818
▁expanded	-10819
▁feedback	-10820
▁instinct	-10821
▁narrower	-10822
▁supports	-10823
▁thatched	-10824
▁toenails	-10825
▁adventure	-10826
▁ambulance	-10827
▁confessed	-10828
▁cooperate	-10829
▁discussed	-10830
▁mosquitos	-10831
▁preferred	-10832
▁reservoir	-10833
▁squeamish	-10834
▁unlimited	-10835
▁expiration	-10836
▁initiative	-10837
▁leadership	-10838
▁mechanical	-10839
▁provincial	-10840
▁politicians	-10841
▁handkerchief	-10842
▁menstruation	-10843
▁subscription	-10844
EO	-10845
no	-10846
ala	-10847
asa	-10848
bit	-10849
gyo	-10850
put	-10851
rid	-10852
uto	-10853
van	-10854
▁AS	-10855
▁Ba	-10856
▁Ty	-10857
Benz	-10858
acts	-10859
bell	-10860
crow	-10861
fire	-10862
lock	-10863
rane	-10864
tech	-10865
ugal	-10866
▁Bor	-10867
▁Els	-10868
▁Hon	-10869
▁Iti	-10870
▁Jud	-10871
▁alt	-10872
▁fou	-10873
▁sac	-10874
▁vib	-10875
gwang	-10876
iders	-10877
lands	-10878
opath	-10879
ropol	-10880
storm	-10881
style	-10882
suing	-10883
▁Dorm	-10884
▁Holy	-10885
▁Ives	-10886
▁Mark	-10887
▁Phil	-10888
▁Poor	-10889
▁Test	-10890
▁afar	-10891
▁beam	-10892
▁beep	-10893
▁bulk	-10894
▁clim	-10895
▁crem	-10896
▁cric	-10897
▁flin	-10898
▁holy	-10899
▁hool	-10900
▁lens	-10901
▁pads	-10902
▁pige	-10903
▁sail	-10904
▁wate	-10905
▁wolf	-10906
ainted	-10907
pyeong	-10908
ucking	-10909
weight	-10910
▁Party	-10911
▁arrow	-10912
▁chess	-10913
▁coinc	-10914
▁eager	-10915
▁fryer	-10916
▁logic	-10917
▁mafia	-10918
▁multi	-10919
▁olive	-10920
▁ought	-10921
▁picks	-10922
▁pinch	-10923
▁screw	-10924
▁ships	-10925
▁simpl	-10926
▁surve	-10927
▁trots	-10928
▁trump	-10929
married	-10930
ranking	-10931
▁Imused	-10932
▁Season	-10933
▁Unable	-10934
▁Unfort	-10935
▁abnorm	-10936
▁acorns	-10937
▁alleys	-10938
▁butler	-10939
▁formed	-10940
▁hotels	-10941
▁infant	-10942
▁judged	-10943
▁lasted	-10944
▁lenses	-10945
▁rebell	-10946
▁rested	-10947
▁spider	-10948
▁sponge	-10949
▁worlds	-10950
▁Islands	-10951
▁Russian	-10952
▁belongs	-10953
▁bottled	-10954
▁cheered	-10955
▁granted	-10956
▁hugging	-10957
▁obesity	-10958
▁options	-10959
▁pajamas	-10960
▁pencils	-10961
▁repairs	-10962
▁samples	-10963
▁seminar	-10964
▁sparing	-10965
▁superst	-10966
▁texting	-10967
▁vaguely	-10968
▁dropping	-10969
▁socalled	-10970
▁socially	-10971
▁weakened	-10972
▁wrapping	-10973
▁believing	-10974
▁diagnosed	-10975
▁refreshed	-10976
▁sprinkled	-10977
▁violation	-10978
▁worldview	-10979
▁wrestling	-10980
▁Asternally	-10981
▁approached	-10982
▁housewives	-10983
▁informally	-10984
▁interviews	-10985
▁mulberries	-10986
▁tendencies	-10987
▁vegetarian	-10988
▁wheelchair	-10989
▁financially	-10990
▁discrimination	-10991
tw	-10992
The	-10993
atu	-10994
bon	-10995
ica	-10996
nec	-10997
nut	-10998
▁VI	-10999
aves	-11000
cers	-11001
erts	-11002
gain	-11003
gran	-11004
omed	-11005
oped	-11006
plus	-11007
sure	-11008
utes	-11009
warm	-11010
well	-11011
▁Art	-11012
▁Bot	-11013
▁Dem	-11014
▁Dry	-11015
▁Gib	-11016
▁Job	-11017
▁MBT	-11018
▁Mir	-11019
▁Sik	-11020
▁Tik	-11021
▁Wer	-11022
▁idi	-11023
edded	-11024
forms	-11025
itors	-11026
licop	-11027
osaur	-11028
otalk	-11029
▁Alex	-11030
▁Bill	-11031
▁Deok	-11032
▁Gory	-11033
▁Gwan	-11034
▁carn	-11035
▁cler	-11036
▁deaf	-11037
▁frag	-11038
▁gene	-11039
▁loaf	-11040
▁mats	-11041
▁mock	-11042
▁numb	-11043
▁pome	-11044
oscope	-11045
season	-11046
stream	-11047
teller	-11048
▁Itold	-11049
▁Jungh	-11050
▁Motor	-11051
▁Night	-11052
▁abdom	-11053
▁essay	-11054
▁laser	-11055
▁manus	-11056
▁micro	-11057
▁navig	-11058
▁parks	-11059
▁thonk	-11060
▁thust	-11061
▁truly	-11062
itating	-11063
vengers	-11064
▁Bibimb	-11065
▁Gather	-11066
▁Namsan	-11067
▁Watcha	-11068
▁albums	-11069
▁assess	-11070
▁blocks	-11071
▁brakes	-11072
▁checks	-11073
▁claims	-11074
▁crafts	-11075
▁cultiv	-11076
▁donkey	-11077
▁exotic	-11078
▁hearth	-11079
▁prelim	-11080
▁roller	-11081
▁shoots	-11082
▁shrink	-11083
▁stingy	-11084
▁triple	-11085
▁uphill	-11086
ervation	-11087
idelines	-11088
▁Central	-11089
▁Itaewon	-11090
▁bedroom	-11091
▁chronic	-11092
▁contemp	-11093
▁courier	-11094
▁crystal	-11095
▁deceive	-11096
▁feather	-11097
▁fiction	-11098
▁initial	-11099
▁prescri	-11100
▁shorten	-11101
▁sticker	-11102
mployment	-11103
▁Kingdoms	-11104
▁arranged	-11105
▁channels	-11106
▁costumes	-11107
▁dialects	-11108
▁disagree	-11109
▁embedded	-11110
▁hardened	-11111
▁injuries	-11112
▁leftover	-11113
▁lukewarm	-11114
▁matching	-11115
▁nobleman	-11116
▁pensions	-11117
▁Badminton	-11118
▁Bluetooth	-11119
▁copyright	-11120
▁orchestra	-11121
▁otherwise	-11122
▁rejection	-11123
▁secondary	-11124
▁similarly	-11125
▁splitting	-11126
▁carelessly	-11127
▁electrical	-11128
▁manuscript	-11129
▁preference	-11130
▁compartment	-11131
▁inheritance	-11132
▁overwhelmed	-11133
▁MercedesBenz	-11134
▁continuously	-11135
▁motherfucker	-11136
▁realistically	-11137
▁accomplishment	-11138
FP	-11139
hi	-11140
ko	-11141
uf	-11142
ya	-11143
How	-11144
das	-11145
ede	-11146
fry	-11147
gab	-11148
gas	-11149
iso	-11150
she	-11151
▁Gl	-11152
▁Po	-11153
akes	-11154
ante	-11155
arms	-11156
fold	-11157
ichi	-11158
mond	-11159
oold	-11160
opic	-11161
pies	-11162
plex	-11163
thma	-11164
▁Ald	-11165
▁Set	-11166
▁Ter	-11167
▁biz	-11168
▁gad	-11169
▁ket	-11170
▁nod	-11171
▁pap	-11172
▁tee	-11173
▁thh	-11174
▁unn	-11175
▁wax	-11176
▁yen	-11177
abong	-11178
agiar	-11179
aling	-11180
based	-11181
etang	-11182
inema	-11183
organ	-11184
▁Fish	-11185
▁Ishe	-11186
▁Prem	-11187
▁Prot	-11188
▁Sell	-11189
▁Yogi	-11190
▁chil	-11191
▁dive	-11192
▁fulf	-11193
▁magg	-11194
▁neur	-11195
▁pand	-11196
▁plug	-11197
▁poke	-11198
▁swam	-11199
▁thek	-11200
acheon	-11201
ggings	-11202
igious	-11203
ndrome	-11204
oretum	-11205
▁Gucci	-11206
▁Hanok	-11207
▁Ivere	-11208
▁acorn	-11209
▁claws	-11210
▁crops	-11211
▁dries	-11212
▁lemon	-11213
▁maxim	-11214
▁nause	-11215
▁tours	-11216
atively	-11217
ocratic	-11218
▁Turkey	-11219
▁Wheres	-11220
▁aftere	-11221
▁biased	-11222
▁brainw	-11223
▁canned	-11224
▁carpet	-11225
▁combat	-11226
▁dayday	-11227
▁helper	-11228
▁indire	-11229
▁judges	-11230
▁resear	-11231
▁rookie	-11232
▁runner	-11233
▁sculpt	-11234
▁stamps	-11235
▁thrill	-11236
▁traine	-11237
▁twoold	-11238
▁walker	-11239
▁watery	-11240
▁weekly	-11241
atisfied	-11242
standing	-11243
▁Chicken	-11244
▁citizen	-11245
▁confirm	-11246
▁courtes	-11247
▁diploma	-11248
▁expense	-11249
▁forgets	-11250
▁gymnast	-11251
▁organiz	-11252
▁plagiar	-11253
▁radical	-11254
▁rainbow	-11255
▁talents	-11256
▁tremble	-11257
▁wallets	-11258
▁Avengers	-11259
▁Changwon	-11260
▁Teachers	-11261
▁brushing	-11262
▁charging	-11263
▁colonial	-11264
▁creating	-11265
▁evaluate	-11266
▁fulltime	-11267
▁horizont	-11268
▁offering	-11269
▁pomegran	-11270
▁proposed	-11271
▁skeleton	-11272
▁sledding	-11273
▁suppress	-11274
▁Challenge	-11275
▁addictive	-11276
▁billiards	-11277
▁exchanged	-11278
▁generally	-11279
▁marinated	-11280
▁positions	-11281
▁pressured	-11282
▁pulsating	-11283
▁shrinking	-11284
▁stockings	-11285
▁superiors	-11286
▁swallowed	-11287
▁sweetness	-11288
▁Regardless	-11289
▁consistent	-11290
▁customized	-11291
▁downloaded	-11292
▁loneliness	-11293
▁resentment	-11294
▁maintaining	-11295
▁prosecutors	-11296
▁compensation	-11297
▁complimented	-11298
▁jjajangmyeon	-11299
▁surroundings	-11300
mn	-11301
vy	-11302
agm	-11303
bol	-11304
bur	-11305
goo	-11306
iki	-11307
ini	-11308
ugu	-11309
▁ga	-11310
ador	-11311
arer	-11312
chon	-11313
dled	-11314
lery	-11315
nish	-11316
onia	-11317
outs	-11318
seon	-11319
uded	-11320
wand	-11321
▁Gif	-11322
▁Hyo	-11323
▁chi	-11324
cknow	-11325
erget	-11326
fered	-11327
osing	-11328
oster	-11329
osure	-11330
ufact	-11331
▁Guam	-11332
▁Imon	-11333
▁Mars	-11334
▁Olle	-11335
▁cann	-11336
▁chae	-11337
▁fres	-11338
▁gyms	-11339
▁insp	-11340
▁mant	-11341
▁masc	-11342
▁memb	-11343
▁merc	-11344
▁peas	-11345
▁rebu	-11346
▁scan	-11347
▁snee	-11348
▁tere	-11349
alyzed	-11350
irteen	-11351
▁Imend	-11352
▁Iveal	-11353
▁curve	-11354
▁dealt	-11355
▁estim	-11356
▁exped	-11357
▁freel	-11358
▁froze	-11359
▁graff	-11360
▁gynec	-11361
▁manly	-11362
▁perit	-11363
▁runny	-11364
▁saves	-11365
▁scuba	-11366
▁sperm	-11367
▁tense	-11368
▁toler	-11369
alistic	-11370
▁Andong	-11371
▁Coffee	-11372
▁Kimbab	-11373
▁append	-11374
▁asthma	-11375
▁burial	-11376
▁chicks	-11377
▁clever	-11378
▁curric	-11379
▁dances	-11380
▁deterg	-11381
▁insens	-11382
▁models	-11383
▁poster	-11384
▁reader	-11385
▁selfie	-11386
▁sweaty	-11387
▁Cheonan	-11388
▁Dongmun	-11389
▁Hamdeok	-11390
▁Noodles	-11391
▁Special	-11392
▁blender	-11393
▁briefly	-11394
▁constip	-11395
▁destiny	-11396
▁energet	-11397
▁exchang	-11398
▁fitness	-11399
▁freezes	-11400
▁greater	-11401
▁justice	-11402
▁leaning	-11403
▁offered	-11404
▁pharmac	-11405
▁screwed	-11406
▁swimmer	-11407
▁tangled	-11408
▁victims	-11409
ellectual	-11410
▁Mongolia	-11411
▁Somebody	-11412
▁analysis	-11413
▁delicacy	-11414
▁internet	-11415
▁magnific	-11416
▁manufact	-11417
▁pounding	-11418
▁pursuing	-11419
▁railroad	-11420
▁settings	-11421
▁troubled	-11422
▁welcomed	-11423
imensional	-11424
▁Kakaotalk	-11425
▁abdominal	-11426
▁digestive	-11427
▁drawbacks	-11428
▁execution	-11429
▁outerwear	-11430
▁specially	-11431
▁submitted	-11432
▁consulting	-11433
▁contradict	-11434
▁households	-11435
▁postpartum	-11436
▁proportion	-11437
▁scratching	-11438
▁stirfrying	-11439
▁supportive	-11440
▁aftereffect	-11441
▁bulletproof	-11442
▁exboyfriend	-11443
▁extroverted	-11444
▁fundamental	-11445
▁preliminary	-11446
▁prosecution	-11447
▁threatening	-11448
▁unnecessary	-11449
▁photographer	-11450
▁selfemployed	-11451
rh	-11452
cia	-11453
mbs	-11454
▁KT	-11455
▁ye	-11456
arre	-11457
core	-11458
dang	-11459
ibri	-11460
insa	-11461
jeju	-11462
pple	-11463
umin	-11464
▁Alv	-11465
▁CEO	-11466
▁Dal	-11467
▁Ith	-11468
▁Jul	-11469
▁VIP	-11470
▁ike	-11471
▁pod	-11472
aksan	-11473
craft	-11474
fifty	-11475
icons	-11476
ighed	-11477
metic	-11478
oline	-11479
orted	-11480
ungdo	-11481
ushes	-11482
▁Buzz	-11483
▁Cour	-11484
▁Luck	-11485
▁Pret	-11486
▁Step	-11487
▁Wall	-11488
▁buds	-11489
▁buzz	-11490
▁cone	-11491
▁damn	-11492
▁gall	-11493
▁gyps	-11494
▁hont	-11495
▁iced	-11496
▁murd	-11497
▁oter	-11498
▁sofa	-11499
▁subd	-11500
houses	-11501
icated	-11502
riving	-11503
teries	-11504
▁Blood	-11505
▁Green	-11506
▁Ifeel	-11507
▁Liter	-11508
▁Mount	-11509
▁State	-11510
▁brill	-11511
▁drill	-11512
▁flute	-11513
▁meats	-11514
▁ophth	-11515
▁ruled	-11516
▁splat	-11517
▁stere	-11518
▁wagon	-11519
gyetang	-11520
vention	-11521
viously	-11522
▁Adidas	-11523
▁Indust	-11524
▁Mister	-11525
▁Nobody	-11526
▁Pyeong	-11527
▁ambass	-11528
▁chairs	-11529
▁cheong	-11530
▁contam	-11531
▁dimens	-11532
▁instit	-11533
▁locker	-11534
▁psycho	-11535
▁rounds	-11536
▁sketch	-11537
▁straws	-11538
▁warned	-11539
volution	-11540
▁Dongseo	-11541
▁Farming	-11542
▁Hongdae	-11543
▁Marines	-11544
▁cheater	-11545
▁fiveold	-11546
▁heavier	-11547
▁mangoes	-11548
▁mineral	-11549
▁passage	-11550
▁pilates	-11551
▁rapping	-11552
▁rehabil	-11553
▁torture	-11554
▁dinosaur	-11555
▁dutyfree	-11556
▁equipped	-11557
▁graffiti	-11558
▁guessing	-11559
▁heavenly	-11560
▁leggings	-11561
▁moisturi	-11562
▁smelling	-11563
▁smoothly	-11564
▁someones	-11565
▁syndrome	-11566
▁alcoholic	-11567
▁appearing	-11568
▁convinced	-11569
▁energized	-11570
▁kilograms	-11571
▁paralyzed	-11572
▁resembles	-11573
▁scratches	-11574
▁seventeen	-11575
▁skeptical	-11576
▁spiritual	-11577
▁stretches	-11578
▁subtitles	-11579
▁Definitely	-11580
▁accountant	-11581
▁anticipate	-11582
▁corruption	-11583
▁eliminated	-11584
▁guaranteed	-11585
▁overcoming	-11586
▁temptation	-11587
▁distraction	-11588
▁magnificent	-11589
▁disappearing	-11590
▁interviewing	-11591
▁Unfortunately	-11592
▁unfortunately	-11593
▁interpretation	-11594
ni	-11595
bre	-11596
cre	-11597
ila	-11598
▁Ac	-11599
▁Iz	-11600
▁LA	-11601
aeng	-11602
alli	-11603
asty	-11604
away	-11605
baek	-11606
eare	-11607
olve	-11608
ongs	-11609
osun	-11610
otch	-11611
ples	-11612
pong	-11613
text	-11614
turn	-11615
▁Bay	-11616
▁Dub	-11617
▁Fed	-11618
▁Gob	-11619
▁Hor	-11620
▁Itl	-11621
▁Mun	-11622
▁Sah	-11623
▁Yun	-11624
▁ace	-11625
▁fax	-11626
▁lap	-11627
▁mes	-11628
▁raz	-11629
▁tad	-11630
▁til	-11631
acent	-11632
adise	-11633
ained	-11634
books	-11635
chers	-11636
ellow	-11637
gabox	-11638
humid	-11639
lying	-11640
morrh	-11641
orous	-11642
teria	-11643
ungji	-11644
works	-11645
▁Asso	-11646
▁Fill	-11647
▁Hana	-11648
▁Swim	-11649
▁Wave	-11650
▁asph	-11651
▁auto	-11652
▁caut	-11653
▁disk	-11654
▁gown	-11655
▁hips	-11656
▁prec	-11657
▁ribb	-11658
▁tops	-11659
ceived	-11660
erving	-11661
headed	-11662
istent	-11663
ithole	-11664
▁Doing	-11665
▁Forty	-11666
▁Issnt	-11667
▁Kevin	-11668
▁Petey	-11669
▁arbit	-11670
▁bonus	-11671
▁conve	-11672
▁deals	-11673
▁defic	-11674
▁dorms	-11675
▁indie	-11676
▁kills	-11677
▁quote	-11678
▁renew	-11679
▁taxis	-11680
▁thalk	-11681
colored	-11682
keeping	-11683
▁Goryeo	-11684
▁Sokcho	-11685
▁acknow	-11686
▁advise	-11687
▁blooms	-11688
▁copied	-11689
▁desper	-11690
▁empath	-11691
▁makers	-11692
▁outfit	-11693
▁parach	-11694
▁promin	-11695
▁rescue	-11696
▁sealed	-11697
▁shaped	-11698
▁sicker	-11699
▁stored	-11700
▁trains	-11701
▁Wellatt	-11702
▁assault	-11703
▁attempt	-11704
▁booming	-11705
▁breakup	-11706
▁context	-11707
▁dehumid	-11708
▁demands	-11709
▁folding	-11710
▁helicop	-11711
▁hemorrh	-11712
▁loading	-11713
▁printed	-11714
▁rapidly	-11715
▁scandal	-11716
▁shouted	-11717
▁stylish	-11718
▁trailer	-11719
ropolitan	-11720
▁Geumgang	-11721
▁Imasking	-11722
▁Northern	-11723
▁abnormal	-11724
▁bragging	-11725
▁cautious	-11726
▁composed	-11727
▁countrys	-11728
▁courtesy	-11729
▁emptying	-11730
▁forgiven	-11731
▁friction	-11732
▁grinding	-11733
▁inferior	-11734
▁metaphor	-11735
▁ophthalm	-11736
▁overtime	-11737
▁pastries	-11738
▁repaired	-11739
▁shithole	-11740
▁shouting	-11741
▁southern	-11742
▁swallows	-11743
▁Insurance	-11744
▁champions	-11745
▁corporate	-11746
▁firefight	-11747
▁irregular	-11748
▁medicinal	-11749
▁scarecrow	-11750
▁scientist	-11751
▁unmarried	-11752
▁ambassador	-11753
▁confession	-11754
▁coordinate	-11755
▁curriculum	-11756
▁economical	-11757
▁influenced	-11758
▁memorizing	-11759
▁missionary	-11760
▁fascinating	-11761
▁introducing	-11762
▁surrounding	-11763
▁Grandmothers	-11764
▁consistently	-11765
▁unexpectedly	-11766
▁chrysanthemum	-11767
▁qualification	-11768
du	-11769
alp	-11770
ani	-11771
axi	-11772
eul	-11773
iev	-11774
kil	-11775
win	-11776
▁Ka	-11777
▁VR	-11778
▁Vi	-11779
▁gn	-11780
bral	-11781
chip	-11782
hent	-11783
onym	-11784
osan	-11785
sequ	-11786
tles	-11787
wide	-11788
▁IUs	-11789
▁Kon	-11790
▁Mos	-11791
▁Pop	-11792
▁Sil	-11793
▁Top	-11794
▁ast	-11795
▁bom	-11796
▁ger	-11797
▁haw	-11798
▁ive	-11799
▁obt	-11800
▁pse	-11801
▁ths	-11802
▁tox	-11803
acing	-11804
cting	-11805
flies	-11806
grade	-11807
inded	-11808
inkle	-11809
speed	-11810
▁Ming	-11811
▁Norm	-11812
▁acup	-11813
▁apps	-11814
▁bulb	-11815
▁exit	-11816
▁foam	-11817
▁gest	-11818
▁puff	-11819
▁spam	-11820
▁whis	-11821
▁yogi	-11822
cedent	-11823
isible	-11824
orship	-11825
taking	-11826
▁Exerc	-11827
▁Grill	-11828
▁Haven	-11829
▁Holly	-11830
▁Imnot	-11831
▁Minho	-11832
▁Naemi	-11833
▁Story	-11834
▁Theyw	-11835
▁Third	-11836
▁bacon	-11837
▁beige	-11838
▁binge	-11839
▁buddy	-11840
▁butts	-11841
▁elbow	-11842
▁eleph	-11843
▁feroc	-11844
▁lacqu	-11845
▁lifel	-11846
▁retri	-11847
▁safer	-11848
▁shaky	-11849
▁tease	-11850
areness	-11851
ativity	-11852
▁Autumn	-11853
▁Chanel	-11854
▁Indeed	-11855
▁Inside	-11856
▁Iveent	-11857
▁Jihyun	-11858
▁Namwon	-11859
▁Wether	-11860
▁admire	-11861
▁analog	-11862
▁argued	-11863
▁cooper	-11864
▁dining	-11865
▁eighth	-11866
▁fusion	-11867
▁gadged	-11868
▁pierce	-11869
▁plague	-11870
▁scares	-11871
▁smelly	-11872
▁topics	-11873
▁trader	-11874
▁wardro	-11875
▁Aradong	-11876
▁Ifantly	-11877
▁aligned	-11878
▁amongst	-11879
▁bathing	-11880
▁bubbles	-11881
▁deleted	-11882
▁demonst	-11883
▁digital	-11884
▁dismiss	-11885
▁grammar	-11886
▁headset	-11887
▁include	-11888
▁masters	-11889
▁messing	-11890
▁retreat	-11891
▁starved	-11892
▁tearing	-11893
▁technic	-11894
▁temples	-11895
▁Dongwook	-11896
▁Lotteria	-11897
▁Nowadays	-11898
▁airplane	-11899
▁cerebral	-11900
▁collects	-11901
▁desserts	-11902
▁distinct	-11903
▁dizzying	-11904
▁emphasis	-11905
▁feathers	-11906
▁frequent	-11907
▁grasshop	-11908
▁incompet	-11909
▁playlist	-11910
▁prisoner	-11911
▁provided	-11912
▁reckless	-11913
▁recruits	-11914
▁splashed	-11915
▁stomachs	-11916
▁arrogance	-11917
▁brilliant	-11918
▁correctly	-11919
▁distances	-11920
▁energetic	-11921
▁frequency	-11922
▁harassing	-11923
▁improving	-11924
▁investors	-11925
▁kidnapped	-11926
▁nosebleed	-11927
▁pneumonia	-11928
▁struggled	-11929
▁Revolution	-11930
▁attachment	-11931
▁classified	-11932
▁hesitation	-11933
▁intestinal	-11934
▁middleaged	-11935
▁preventing	-11936
▁coincidence	-11937
▁concessions	-11938
▁corporation	-11939
▁interviewed	-11940
▁limitations	-11941
▁paragliding	-11942
▁applications	-11943
▁contaminated	-11944
▁intersection	-11945
▁metropolitan	-11946
▁psychologically	-11947
wh	-11948
cha	-11949
ecd	-11950
idi	-11951
pal	-11952
rig	-11953
sal	-11954
uge	-11955
was	-11956
▁PD	-11957
▁ki	-11958
▁ll	-11959
Book	-11960
ario	-11961
aved	-11962
eage	-11963
ethe	-11964
eyed	-11965
gong	-11966
icts	-11967
inse	-11968
mine	-11969
obia	-11970
oull	-11971
rary	-11972
stud	-11973
tage	-11974
ummy	-11975
wons	-11976
▁Aew	-11977
▁Ang	-11978
▁Ban	-11979
▁Bid	-11980
▁Bro	-11981
▁Ice	-11982
▁Jen	-11983
▁Maj	-11984
▁Mod	-11985
▁Pic	-11986
▁Ram	-11987
▁Taj	-11988
▁Tak	-11989
▁Tre	-11990
▁apt	-11991
▁esc	-11992
▁nar	-11993
▁rib	-11994
▁ven	-11995
chiat	-11996
earch	-11997
ensed	-11998
idend	-11999
onone	-12000
oomed	-12001
▁Chen	-12002
▁Coin	-12003
▁Coke	-12004
▁Cold	-12005
▁Maca	-12006
▁Mand	-12007
▁Palm	-12008
▁Room	-12009
▁Soce	-12010
▁Stra	-12011
▁Wont	-12012
▁cori	-12013
▁glue	-12014
▁lawn	-12015
▁lute	-12016
▁malt	-12017
▁meme	-12018
▁negl	-12019
▁pace	-12020
▁pars	-12021
▁rape	-12022
▁twin	-12023
▁wink	-12024
arring	-12025
ateral	-12026
itches	-12027
retion	-12028
riages	-12029
risome	-12030
ronics	-12031
▁Botox	-12032
▁Elsie	-12033
▁Jinju	-12034
▁Nahun	-12035
▁Silla	-12036
▁anecd	-12037
▁bathe	-12038
▁brick	-12039
▁burly	-12040
▁cacao	-12041
▁carts	-12042
▁chees	-12043
▁dusty	-12044
▁gains	-12045
▁gamer	-12046
▁hypot	-12047
▁irrit	-12048
▁judic	-12049
▁lyric	-12050
▁occur	-12051
▁oreum	-12052
▁pilot	-12053
▁plast	-12054
▁purse	-12055
▁recre	-12056
▁roman	-12057
▁scars	-12058
▁sober	-12059
▁token	-12060
▁urban	-12061
▁weeds	-12062
▁width	-12063
▁woken	-12064
▁woods	-12065
chester	-12066
erantly	-12067
▁Stream	-12068
▁Valley	-12069
▁associ	-12070
▁bonded	-12071
▁bungee	-12072
▁cicada	-12073
▁copper	-12074
▁deputy	-12075
▁enters	-12076
▁hectic	-12077
▁insert	-12078
▁legacy	-12079
▁majors	-12080
▁nickna	-12081
▁occurs	-12082
▁pelvis	-12083
▁perman	-12084
▁powers	-12085
▁sitcom	-12086
▁terrif	-12087
▁unkind	-12088
▁waiter	-12089
▁Britain	-12090
▁Earlier	-12091
▁MacBook	-12092
▁accused	-12093
▁asphalt	-12094
▁authent	-12095
▁blurred	-12096
▁capture	-12097
▁circles	-12098
▁coastal	-12099
▁dolphin	-12100
▁escaped	-12101
▁fifties	-12102
▁flavors	-12103
▁largest	-12104
▁moments	-12105
▁pillows	-12106
▁shopped	-12107
▁systems	-12108
▁trapped	-12109
▁weaving	-12110
▁weirdly	-12111
▁whoever	-12112
▁Dormouse	-12113
▁Sunshine	-12114
▁Tuesdays	-12115
▁backward	-12116
▁canister	-12117
▁congress	-12118
▁creature	-12119
▁cushions	-12120
▁defeated	-12121
▁dislikes	-12122
▁dividend	-12123
▁funniest	-12124
▁glamping	-12125
▁grandmas	-12126
▁hamsters	-12127
▁macarons	-12128
▁oneonone	-12129
▁peritone	-12130
▁physique	-12131
▁receives	-12132
▁shitting	-12133
▁stabbing	-12134
▁tracking	-12135
▁wandered	-12136
▁wardrobe	-12137
▁coriander	-12138
▁diagnosis	-12139
▁expresses	-12140
▁respected	-12141
▁worrisome	-12142
▁briquettes	-12143
▁challenges	-12144
▁encouraged	-12145
▁humiliated	-12146
▁injections	-12147
▁perfection	-12148
▁profitable	-12149
▁recommends	-12150
▁responding	-12151
▁samgyetang	-12152
▁Association	-12153
▁celebrating	-12154
▁highquality	-12155
▁incompetent	-12156
▁selfdriving	-12157
▁constipation	-12158
▁dissatisfied	-12159
▁certification	-12160
▁compassionate	-12161
zi	-12162
abu	-12163
gir	-12164
imm	-12165
itz	-12166
opt	-12167
pro	-12168
sea	-12169
sum	-12170
zon	-12171
▁Er	-12172
▁SS	-12173
▁ul	-12174
▁wl	-12175
card	-12176
chil	-12177
emic	-12178
eror	-12179
fare	-12180
geum	-12181
imal	-12182
jube	-12183
part	-12184
shed	-12185
ulpo	-12186
▁Ana	-12187
▁Ber	-12188
▁Bra	-12189
▁Hay	-12190
▁Ito	-12191
▁Sad	-12192
▁Tap	-12193
▁Wat	-12194
▁ads	-12195
▁dud	-12196
▁hen	-12197
▁kne	-12198
▁wum	-12199
angel	-12200
cence	-12201
exist	-12202
hones	-12203
icago	-12204
icard	-12205
ilize	-12206
kirts	-12207
odeok	-12208
oreum	-12209
uster	-12210
▁Cont	-12211
▁Diet	-12212
▁Pack	-12213
▁Pink	-12214
▁Seom	-12215
▁Tour	-12216
▁flir	-12217
▁hike	-12218
▁isol	-12219
▁laps	-12220
▁liga	-12221
▁maps	-12222
▁rede	-12223
▁sequ	-12224
▁ssam	-12225
▁uter	-12226
izzard	-12227
nament	-12228
omatic	-12229
ometer	-12230
▁Coast	-12231
▁Cover	-12232
▁Daiso	-12233
▁Dokdo	-12234
▁Group	-12235
▁Light	-12236
▁Power	-12237
▁Press	-12238
▁Raise	-12239
▁cello	-12240
▁chaos	-12241
▁cools	-12242
▁cured	-12243
▁desks	-12244
▁files	-12245
▁forms	-12246
▁fract	-12247
▁freck	-12248
▁gaksi	-12249
▁innov	-12250
▁label	-12251
▁melod	-12252
▁pager	-12253
▁pinea	-12254
▁pseud	-12255
▁razor	-12256
▁scoot	-12257
▁scrub	-12258
▁semic	-12259
▁sewer	-12260
▁tires	-12261
▁widow	-12262
▁yield	-12263
atching	-12264
husband	-12265
sucking	-12266
▁Ariang	-12267
▁Baekje	-12268
▁Byungh	-12269
▁Golden	-12270
▁Nonsan	-12271
▁Prince	-12272
▁Social	-12273
▁Spread	-12274
▁Twelve	-12275
▁almond	-12276
▁bricks	-12277
▁bundle	-12278
▁carols	-12279
▁crotch	-12280
▁defeat	-12281
▁devast	-12282
▁dispar	-12283
▁divers	-12284
▁exceed	-12285
▁helmet	-12286
▁learns	-12287
▁limits	-12288
▁overfl	-12289
▁propag	-12290
▁reform	-12291
▁richer	-12292
▁sauces	-12293
▁seduce	-12294
▁sinner	-12295
▁squash	-12296
▁tended	-12297
▁wummed	-12298
▁Chicago	-12299
▁Jiyoung	-12300
▁Nayoung	-12301
▁Working	-12302
▁Yangsan	-12303
▁attacks	-12304
▁commute	-12305
▁doubted	-12306
▁dragons	-12307
▁familys	-12308
▁fireman	-12309
▁funding	-12310
▁handled	-12311
▁nightma	-12312
▁parsley	-12313
▁planner	-12314
▁prefers	-12315
▁quarrel	-12316
▁robbery	-12317
▁scammed	-12318
▁winding	-12319
ationally	-12320
▁aptitude	-12321
▁backache	-12322
▁backbone	-12323
▁backyard	-12324
▁balloons	-12325
▁believer	-12326
▁chatting	-12327
▁chemical	-12328
▁collagen	-12329
▁coloring	-12330
▁confront	-12331
▁cowardly	-12332
▁cultures	-12333
▁enduring	-12334
▁estimate	-12335
▁gasoline	-12336
▁goldfish	-12337
▁kindness	-12338
▁membrane	-12339
▁pericard	-12340
▁protagon	-12341
▁psychiat	-12342
▁removing	-12343
▁sausages	-12344
▁scariest	-12345
▁speeding	-12346
▁stereoty	-12347
▁strained	-12348
▁Motherlaw	-12349
▁Obviously	-12350
▁Secretary	-12351
▁Traveling	-12352
▁adjusting	-12353
▁arboretum	-12354
▁canceling	-12355
▁described	-12356
▁disgusted	-12357
▁evaluated	-12358
▁explosion	-12359
▁inventory	-12360
▁invisible	-12361
▁powerless	-12362
▁predicted	-12363
▁presented	-12364
▁prominent	-12365
▁shameless	-12366
▁thrillers	-12367
▁bookstores	-12368
▁candidates	-12369
▁comparable	-12370
▁containers	-12371
▁functional	-12372
▁gynecology	-12373
▁improvised	-12374
▁meditation	-12375
▁seasonings	-12376
▁stuttering	-12377
▁Electronics	-12378
▁backpacking	-12379
▁desperately	-12380
▁discouraged	-12381
▁outstanding	-12382
▁prestigious	-12383
▁Agricultural	-12384
▁breathtaking	-12385
▁conditioning	-12386
▁communicating	-12387
▁contradictory	-12388
▁dermatologist	-12389
▁congratulations	-12390
PS	-12391
cr	-12392
ali	-12393
bel	-12394
dog	-12395
eun	-12396
oka	-12397
ott	-12398
pie	-12399
ria	-12400
tha	-12401
ugi	-12402
uit	-12403
uld	-12404
▁SF	-12405
▁si	-12406
iary	-12407
itsu	-12408
lent	-12409
maid	-12410
rans	-12411
rene	-12412
rust	-12413
sery	-12414
stop	-12415
tion	-12416
ucer	-12417
▁Heh	-12418
▁Jir	-12419
▁Rad	-12420
▁Tig	-12421
▁dim	-12422
▁kit	-12423
▁oak	-12424
▁tum	-12425
arter	-12426
dings	-12427
ensus	-12428
ilers	-12429
lined	-12430
plugs	-12431
rider	-12432
▁Comm	-12433
▁Imen	-12434
▁Kwon	-12435
▁Nami	-12436
▁Prin	-12437
▁Team	-12438
▁bapt	-12439
▁eart	-12440
▁flee	-12441
▁gues	-12442
▁hers	-12443
▁jack	-12444
▁lame	-12445
▁matt	-12446
▁seek	-12447
▁yach	-12448
andong	-12449
entive	-12450
idated	-12451
ilight	-12452
janggu	-12453
myeong	-12454
▁Clear	-12455
▁Conan	-12456
▁Games	-12457
▁Isint	-12458
▁Itans	-12459
▁Peter	-12460
▁Sever	-12461
▁Squee	-12462
▁amate	-12463
▁attic	-12464
▁basin	-12465
▁cones	-12466
▁draft	-12467
▁fluid	-12468
▁glory	-12469
▁grabs	-12470
▁guilt	-12471
▁hight	-12472
▁lobby	-12473
▁panel	-12474
▁porch	-12475
▁pulls	-12476
▁rates	-12477
▁scalp	-12478
▁stray	-12479
istered	-12480
lipidem	-12481
retched	-12482
ustered	-12483
▁Cheese	-12484
▁Gumiho	-12485
▁Making	-12486
▁Totten	-12487
▁applau	-12488
▁backup	-12489
▁barked	-12490
▁beetle	-12491
▁brazen	-12492
▁broadc	-12493
▁dancer	-12494
▁depart	-12495
▁fantas	-12496
▁finals	-12497
▁floats	-12498
▁restri	-12499
▁selfsu	-12500
▁serves	-12501
▁shield	-12502
▁sixold	-12503
▁smudge	-12504
▁squats	-12505
▁strand	-12506
ceptions	-12507
▁Empress	-12508
▁bizarre	-12509
▁buttons	-12510
▁chopped	-12511
▁decides	-12512
▁doubled	-12513
▁figures	-12514
▁insured	-12515
▁joining	-12516
▁lacquer	-12517
▁mussels	-12518
▁pierced	-12519
▁rushing	-12520
▁satisfy	-12521
▁stuffed	-12522
▁thanked	-12523
▁watered	-12524
criptions	-12525
formation	-12526
ilization	-12527
▁barefoot	-12528
▁extended	-12529
▁features	-12530
▁formally	-12531
▁fortress	-12532
▁handling	-12533
▁homemade	-12534
▁narrowed	-12535
▁packaged	-12536
▁reminder	-12537
▁sexually	-12538
▁theummer	-12539
▁thirteen	-12540
▁McDonalds	-12541
▁authentic	-12542
▁childcare	-12543
▁conductor	-12544
▁counselor	-12545
▁criticize	-12546
▁easygoing	-12547
▁ferocious	-12548
▁fireplace	-12549
▁mandatory	-12550
▁opponents	-12551
▁outskirts	-12552
▁platforms	-12553
▁promising	-12554
▁recipient	-12555
▁sanctions	-12556
▁severance	-12557
▁sidelines	-12558
▁withdrawn	-12559
dimensional	-12560
▁Manchester	-12561
▁adolescent	-12562
▁designated	-12563
▁expedition	-12564
▁politician	-12565
▁principles	-12566
▁psychopath	-12567
▁respectful	-12568
▁scientists	-12569
▁separation	-12570
▁sweatshirt	-12571
▁waterproof	-12572
▁congressman	-12573
▁exaggerated	-12574
▁fashionable	-12575
▁insensitive	-12576
▁temporarily	-12577
▁concentrated	-12578
▁institutions	-12579
▁instructions	-12580
▁masterpieces	-12581
▁stubbornness	-12582
▁professionals	-12583
EN	-12584
PI	-12585
yi	-12586
ava	-12587
awa	-12588
hal	-12589
pat	-12590
pox	-12591
rey	-12592
rum	-12593
shi	-12594
▁Ik	-12595
▁az	-12596
▁pi	-12597
anes	-12598
beom	-12599
bers	-12600
kang	-12601
owon	-12602
resh	-12603
rigg	-12604
rors	-12605
song	-12606
unes	-12607
▁Ama	-12608
▁Bag	-12609
▁Dig	-12610
▁Esn	-12611
▁Had	-12612
▁Nin	-12613
▁SUV	-12614
▁bin	-12615
▁dal	-12616
▁hem	-12617
▁ink	-12618
▁lag	-12619
▁sod	-12620
▁sug	-12621
▁vag	-12622
chimi	-12623
eable	-12624
evity	-12625
fting	-12626
ghoon	-12627
ilage	-12628
month	-12629
steop	-12630
swear	-12631
ugged	-12632
▁Cape	-12633
▁Care	-12634
▁Cost	-12635
▁Draw	-12636
▁Girl	-12637
▁Jing	-12638
▁Naju	-12639
▁Nine	-12640
▁Pork	-12641
▁Sach	-12642
▁Tofu	-12643
▁Ulle	-12644
▁Wang	-12645
▁adds	-12646
▁guts	-12647
▁hawk	-12648
▁herb	-12649
▁mids	-12650
▁moss	-12651
▁pend	-12652
▁sway	-12653
▁tore	-12654
▁urch	-12655
awning	-12656
income	-12657
ophone	-12658
plants	-12659
raging	-12660
ricans	-12661
umbled	-12662
▁Aewol	-12663
▁Based	-12664
▁Grind	-12665
▁Imals	-12666
▁Macau	-12667
▁Prime	-12668
▁Touch	-12669
▁abund	-12670
▁atopy	-12671
▁badge	-12672
▁buyer	-12673
▁chemo	-12674
▁esoph	-12675
▁hairs	-12676
▁hills	-12677
▁input	-12678
▁paddy	-12679
▁penet	-12680
▁props	-12681
▁quagm	-12682
▁rerun	-12683
▁shark	-12684
▁spice	-12685
▁stool	-12686
▁surre	-12687
▁tread	-12688
▁witch	-12689
gukjang	-12690
onnaise	-12691
urities	-12692
▁Burger	-12693
▁Chosun	-12694
▁Hanwha	-12695
▁Nature	-12696
▁Scient	-12697
▁Seojun	-12698
▁Sports	-12699
▁anonym	-12700
▁begins	-12701
▁blouse	-12702
▁brides	-12703
▁criter	-12704
▁curses	-12705
▁essays	-12706
▁geneal	-12707
▁gypsum	-12708
▁jujube	-12709
▁knight	-12710
▁linked	-12711
▁notion	-12712
▁operas	-12713
▁parrot	-12714
▁phobia	-12715
▁rivers	-12716
▁throws	-12717
▁trends	-12718
▁turkey	-12719
▁typing	-12720
▁varies	-12721
▁yelled	-12722
communic	-12723
ordinary	-12724
▁Express	-12725
▁Jocheon	-12726
▁Musinsa	-12727
▁Neither	-12728
▁Sacheon	-12729
▁banking	-12730
▁banquet	-12731
▁blindly	-12732
▁bloomed	-12733
▁charges	-12734
▁cleared	-12735
▁copying	-12736
▁decline	-12737
▁devoted	-12738
▁element	-12739
▁jogging	-12740
▁landsca	-12741
▁locusts	-12742
▁mascara	-12743
▁matched	-12744
▁midterm	-12745
▁nursery	-12746
▁perhaps	-12747
▁platoon	-12748
▁scooped	-12749
▁signing	-12750
▁stained	-12751
▁trading	-12752
▁trumpet	-12753
▁volcano	-12754
lipidemia	-12755
▁Business	-12756
▁Iveheard	-12757
▁artistic	-12758
▁assembly	-12759
▁blinking	-12760
▁classics	-12761
▁consumed	-12762
▁dumpling	-12763
▁freckles	-12764
▁lifelong	-12765
▁lifespan	-12766
▁nauseous	-12767
▁presence	-12768
▁recorder	-12769
▁roommate	-12770
▁scenario	-12771
▁sneaking	-12772
▁stickers	-12773
▁stinging	-12774
▁stroller	-12775
▁threaten	-12776
▁virtuous	-12777
▁vitality	-12778
▁Hollywood	-12779
▁appointed	-12780
▁awareness	-12781
▁breakdown	-12782
▁cartilage	-12783
▁centipede	-12784
▁collapses	-12785
▁disasters	-12786
▁flustered	-12787
▁parachute	-12788
▁passenger	-12789
▁releasing	-12790
▁unnatural	-12791
▁correction	-12792
▁firstclass	-12793
▁gymnastics	-12794
▁helicopter	-12795
▁systematic	-12796
▁transplant	-12797
▁composition	-12798
▁improvising	-12799
▁miscarriage	-12800
▁objectively	-12801
▁twentythree	-12802
▁accumulating	-12803
▁advantageous	-12804
▁aftereffects	-12805
▁housekeeping	-12806
▁motherinlaws	-12807
▁inconveniences	-12808
GV	-12809
It	-12810
OT	-12811
hw	-12812
ku	-12813
Who	-12814
bid	-12815
cor	-12816
hyo	-12817
ksa	-12818
nae	-12819
nia	-12820
osa	-12821
yup	-12822
▁Cr	-12823
▁kh	-12824
Yang	-12825
coin	-12826
empt	-12827
gown	-12828
hend	-12829
lift	-12830
undi	-12831
zzle	-12832
▁CGV	-12833
▁End	-12834
▁Gog	-12835
▁Jew	-12836
▁Mag	-12837
▁Nan	-12838
▁Non	-12839
▁Yor	-12840
▁gur	-12841
acles	-12842
eping	-12843
icies	-12844
inkil	-12845
isive	-12846
lette	-12847
worms	-12848
▁Bali	-12849
▁Burn	-12850
▁Cels	-12851
▁Jess	-12852
▁Less	-12853
▁Lock	-12854
▁Matt	-12855
▁Sher	-12856
▁Spid	-12857
▁abst	-12858
▁brut	-12859
▁comr	-12860
▁deny	-12861
▁hint	-12862
▁ling	-12863
▁muff	-12864
▁rags	-12865
▁rept	-12866
▁scor	-12867
▁ther	-12868
▁vint	-12869
▁yoyo	-12870
actory	-12871
called	-12872
daemun	-12873
erella	-12874
etteok	-12875
makers	-12876
sucker	-12877
usions	-12878
▁Avoid	-12879
▁Biden	-12880
▁Brown	-12881
▁Fifty	-12882
▁Fight	-12883
▁Geoje	-12884
▁Haiti	-12885
▁Kimch	-12886
▁Treat	-12887
▁Yeoju	-12888
▁booth	-12889
▁cyber	-12890
▁defec	-12891
▁glove	-12892
▁sizes	-12893
▁stagn	-12894
▁uncon	-12895
▁waits	-12896
▁winds	-12897
▁wrigg	-12898
arently	-12899
raining	-12900
▁Antern	-12901
▁Battle	-12902
▁Public	-12903
▁Yellow	-12904
▁abused	-12905
▁assume	-12906
▁cheers	-12907
▁chores	-12908
▁drople	-12909
▁edited	-12910
▁eyelid	-12911
▁fleshy	-12912
▁heroes	-12913
▁knives	-12914
▁marine	-12915
▁miscal	-12916
▁pearls	-12917
▁poodle	-12918
▁portra	-12919
▁shrine	-12920
▁sodium	-12921
▁states	-12922
▁strain	-12923
▁surrog	-12924
▁termin	-12925
marriage	-12926
▁Celsius	-12927
▁Jungmin	-12928
▁Univers	-12929
▁analyze	-12930
▁chaebol	-12931
▁cleanly	-12932
▁committ	-12933
▁compact	-12934
▁curling	-12935
▁earthen	-12936
▁estuary	-12937
▁extract	-12938
▁finance	-12939
▁flooded	-12940
▁heavily	-12941
▁heeling	-12942
▁incense	-12943
▁kingdom	-12944
▁painkil	-12945
▁pooping	-12946
▁pretent	-12947
▁relying	-12948
▁sarcast	-12949
▁slowing	-12950
▁thheard	-12951
▁tourism	-12952
▁upright	-12953
organized	-12954
▁Administ	-12955
▁Normally	-12956
▁Theywere	-12957
▁deciding	-12958
▁declared	-12959
▁examples	-12960
▁fourteen	-12961
▁inclined	-12962
▁inspired	-12963
▁interven	-12964
▁loosened	-12965
▁mattress	-12966
▁measures	-12967
▁merchant	-12968
▁mornings	-12969
▁overcame	-12970
▁petition	-12971
▁policies	-12972
▁quagmire	-12973
▁radishes	-12974
▁sanitary	-12975
▁thrilled	-12976
▁tilefish	-12977
▁tropical	-12978
▁typhoons	-12979
▁Gwangalli	-12980
▁Tottenham	-12981
▁Ulleungdo	-12982
▁ambitious	-12983
▁arguments	-12984
▁bleaching	-12985
▁blessings	-12986
▁conflicts	-12987
▁disinfect	-12988
▁enjoyable	-12989
▁exclusive	-12990
▁extension	-12991
▁franchise	-12992
▁ignorance	-12993
▁illegally	-12994
▁irrespons	-12995
▁longevity	-12996
▁objective	-12997
▁originals	-12998
▁reactions	-12999
▁trembling	-13000
▁Scientists	-13001
▁calculator	-13002
▁cheesecake	-13003
▁complained	-13004
▁complexity	-13005
▁disturbing	-13006
▁prevention	-13007
▁propaganda	-13008
▁sportswear	-13009
▁thoughtful	-13010
▁vaccinated	-13011
▁yellowtail	-13012
▁authorities	-13013
▁confidently	-13014
▁impressions	-13015
▁improvement	-13016
▁interpreted	-13017
▁investments	-13018
▁protagonist	-13019
▁recruitment	-13020
▁specialized	-13021
▁transaction	-13022
▁unintention	-13023
▁installments	-13024
▁intellectual	-13025
▁refrigerators	-13026
▁hyperlipidemia	-13027
OS	-13028
azi	-13029
ena	-13030
era	-13031
hoe	-13032
ima	-13033
oca	-13034
omi	-13035
tae	-13036
▁Ec	-13037
▁du	-13038
▁ow	-13039
▁ss	-13040
anna	-13041
cell	-13042
hors	-13043
hwan	-13044
inyl	-13045
pill	-13046
prin	-13047
rete	-13048
shin	-13049
test	-13050
umba	-13051
wing	-13052
▁Aby	-13053
▁Cur	-13054
▁Hea	-13055
▁Imm	-13056
▁Lin	-13057
▁Loc	-13058
▁Mas	-13059
▁Ore	-13060
▁Yut	-13061
▁abd	-13062
▁bob	-13063
▁cin	-13064
▁fes	-13065
▁gig	-13066
▁gin	-13067
▁itd	-13068
▁mem	-13069
▁pir	-13070
▁tin	-13071
▁vig	-13072
aceut	-13073
acker	-13074
actly	-13075
guksa	-13076
heung	-13077
igans	-13078
inker	-13079
laces	-13080
mouth	-13081
ooper	-13082
osmos	-13083
sided	-13084
▁Alph	-13085
▁Calm	-13086
▁Free	-13087
▁Hani	-13088
▁Imry	-13089
▁Isas	-13090
▁Itis	-13091
▁Jiny	-13092
▁Mama	-13093
▁Moss	-13094
▁Rich	-13095
▁appe	-13096
▁boot	-13097
▁brim	-13098
▁bush	-13099
▁glow	-13100
▁guid	-13101
▁lant	-13102
▁melo	-13103
▁oned	-13104
▁pale	-13105
▁poly	-13106
▁sank	-13107
▁shif	-13108
▁snap	-13109
▁weld	-13110
▁whos	-13111
▁yang	-13112
alysis	-13113
asants	-13114
ercent	-13115
health	-13116
itated	-13117
onduct	-13118
orosis	-13119
ouldnt	-13120
person	-13121
ushabu	-13122
▁Court	-13123
▁Dutch	-13124
▁Goran	-13125
▁Hyori	-13126
▁Louis	-13127
▁Melon	-13128
▁Ramen	-13129
▁Short	-13130
▁Sorry	-13131
▁Techn	-13132
▁acute	-13133
▁aired	-13134
▁armed	-13135
▁bribe	-13136
▁calms	-13137
▁cargo	-13138
▁cauld	-13139
▁chore	-13140
▁croff	-13141
▁crude	-13142
▁decay	-13143
▁escal	-13144
▁gorge	-13145
▁gourd	-13146
▁grasp	-13147
▁incor	-13148
▁index	-13149
▁leaks	-13150
▁overs	-13151
▁pearl	-13152
▁rival	-13153
▁spits	-13154
▁squad	-13155
▁tails	-13156
▁trill	-13157
▁wipes	-13158
▁yacht	-13159
atorium	-13160
issions	-13161
ologies	-13162
uration	-13163
veloped	-13164
▁Asians	-13165
▁Gimhae	-13166
▁Koreas	-13167
▁Shinse	-13168
▁bouncy	-13169
▁cheesy	-13170
▁enjoys	-13171
▁fellow	-13172
▁hearty	-13173
▁intake	-13174
▁jassed	-13175
▁liters	-13176
▁magnet	-13177
▁maples	-13178
▁peanut	-13179
▁puddle	-13180
▁soothe	-13181
▁traged	-13182
▁waving	-13183
▁Several	-13184
▁Stirfry	-13185
▁allergy	-13186
▁bargain	-13187
▁clearer	-13188
▁compuls	-13189
▁corners	-13190
▁corrupt	-13191
▁deodeok	-13192
▁desktop	-13193
▁dietary	-13194
▁donated	-13195
▁fighter	-13196
▁heroine	-13197
▁highend	-13198
▁implant	-13199
▁kissing	-13200
▁melodra	-13201
▁miracle	-13202
▁moaning	-13203
▁paralle	-13204
▁patriot	-13205
▁readers	-13206
▁rubbing	-13207
▁sharply	-13208
▁smarter	-13209
▁sweeter	-13210
▁tempted	-13211
▁weighed	-13212
▁wrinkle	-13213
aceutical	-13214
riculture	-13215
▁Daecheon	-13216
▁Daejeong	-13217
▁Daughter	-13218
▁Exercise	-13219
▁Itinibly	-13220
▁appendix	-13221
▁assemble	-13222
▁boundary	-13223
▁brightly	-13224
▁concepts	-13225
▁describe	-13226
▁deterior	-13227
▁guidance	-13228
▁hydrogen	-13229
▁knocking	-13230
▁packages	-13231
▁polluted	-13232
▁prepares	-13233
▁purifier	-13234
▁rockfish	-13235
▁threeday	-13236
▁triplets	-13237
▁weddings	-13238
cellaneous	-13239
▁carryover	-13240
▁defensive	-13241
▁establish	-13242
▁legendary	-13243
▁measuring	-13244
▁nightgown	-13245
▁peninsula	-13246
▁prettiest	-13247
▁recycling	-13248
▁sentenced	-13249
▁souvenirs	-13250
▁surgeries	-13251
steoporosis	-13252
▁Disneyland	-13253
▁Foreigners	-13254
▁Imoniously	-13255
▁approaches	-13256
▁biological	-13257
▁compensate	-13258
▁connecting	-13259
▁courageous	-13260
▁decoration	-13261
▁gatherings	-13262
▁guesthouse	-13263
▁mayonnaise	-13264
▁antibiotics	-13265
▁descendants	-13266
▁disposition	-13267
▁instructors	-13268
▁persistence	-13269
▁pomegranate	-13270
▁quarantined	-13271
▁recognizing	-13272
▁remembering	-13273
▁civilization	-13274
▁housewarming	-13275
▁requirements	-13276
▁unemployment	-13277
▁characterized	-13278
▁cheonggukjang	-13279
▁organizations	-13280
▁systematically	-13281
.'	-13282
RS	-13283
Cra	-13284
had	-13285
hak	-13286
har	-13287
net	-13288
obi	-13289
oko	-13290
osh	-13291
uku	-13292
▁IN	-13293
▁Sk	-13294
▁py	-13295
0,0,	-13296
geon	-13297
gypt	-13298
icle	-13299
oche	-13300
opia	-13301
oust	-13302
pers	-13303
pool	-13304
▁Bon	-13305
▁Dun	-13306
▁FPS	-13307
▁Fif	-13308
▁Hob	-13309
▁Ken	-13310
▁Kid	-13311
▁Nak	-13312
▁Opp	-13313
▁Pat	-13314
▁Pra	-13315
▁Sug	-13316
▁aqu	-13317
▁cam	-13318
▁eco	-13319
▁kon	-13320
▁lun	-13321
▁nun	-13322
ables	-13323
ccoli	-13324
guard	-13325
icked	-13326
ingly	-13327
inkgo	-13328
memor	-13329
obang	-13330
oween	-13331
poken	-13332
rious	-13333
rozen	-13334
▁Cind	-13335
▁Down	-13336
▁Geon	-13337
▁Hans	-13338
▁Iran	-13339
▁Itnd	-13340
▁Kart	-13341
▁Nang	-13342
▁Pers	-13343
▁Phot	-13344
▁Piss	-13345
▁cozy	-13346
▁dwar	-13347
▁glor	-13348
▁homi	-13349
▁hose	-13350
▁hybr	-13351
▁impr	-13352
▁insu	-13353
▁jang	-13354
▁pess	-13355
▁pods	-13356
▁pose	-13357
▁publ	-13358
▁semi	-13359
▁tact	-13360
▁trib	-13361
▁waff	-13362
▁womb	-13363
▁yolk	-13364
itcher	-13365
uitive	-13366
▁Death	-13367
▁Egypt	-13368
▁Greek	-13369
▁Jiwon	-13370
▁Kyoto	-13371
▁Letve	-13372
▁Mamam	-13373
▁Mathe	-13374
▁Nongh	-13375
▁Omega	-13376
▁Sunho	-13377
▁awful	-13378
▁birch	-13379
▁cater	-13380
▁crisp	-13381
▁defin	-13382
▁diver	-13383
▁earns	-13384
▁faced	-13385
▁folds	-13386
▁horns	-13387
▁leash	-13388
▁lunar	-13389
▁motel	-13390
▁occas	-13391
▁pione	-13392
▁ranks	-13393
▁stair	-13394
▁thres	-13395
▁unatt	-13396
▁votes	-13397
▁woven	-13398
actions	-13399
flowers	-13400
▁Daniel	-13401
▁Samdas	-13402
▁Spider	-13403
▁assass	-13404
▁banned	-13405
▁behave	-13406
▁calmer	-13407
▁convey	-13408
▁cosmos	-13409
▁fleece	-13410
▁foster	-13411
▁futsal	-13412
▁gyming	-13413
▁hating	-13414
▁leaked	-13415
▁lutein	-13416
▁neater	-13417
▁obstet	-13418
▁polish	-13419
▁shrunk	-13420
▁sickle	-13421
▁smokes	-13422
▁tilted	-13423
▁trials	-13424
▁wholes	-13425
entially	-13426
▁Android	-13427
▁Hundred	-13428
▁Imasked	-13429
▁Jirisan	-13430
▁Justice	-13431
▁Medical	-13432
▁Olympic	-13433
▁Samyang	-13434
▁Soohyun	-13435
▁accepts	-13436
▁affects	-13437
▁armpits	-13438
▁auditor	-13439
▁bookshe	-13440
▁chances	-13441
▁coughed	-13442
▁enterpr	-13443
▁evangel	-13444
▁examine	-13445
▁failing	-13446
▁handles	-13447
▁heading	-13448
▁iPhones	-13449
▁lantern	-13450
▁lawyers	-13451
▁macaron	-13452
▁muffler	-13453
▁outward	-13454
▁physics	-13455
▁prayers	-13456
▁privile	-13457
▁restore	-13458
▁stamped	-13459
▁steamer	-13460
▁sweated	-13461
▁tasting	-13462
▁trainee	-13463
▁triplet	-13464
▁unified	-13465
▁upgrade	-13466
▁vintage	-13467
▁Bulguksa	-13468
▁Byunghun	-13469
▁Ifinally	-13470
▁Imantled	-13471
▁Nonghyup	-13472
▁Princess	-13473
▁Sergeant	-13474
▁Seungwoo	-13475
▁adapting	-13476
▁adultery	-13477
▁bleached	-13478
▁captured	-13479
▁cauldron	-13480
▁chapters	-13481
▁contrast	-13482
▁cosmetic	-13483
▁desolate	-13484
▁listener	-13485
▁lowering	-13486
▁molasses	-13487
▁murderer	-13488
▁orthoped	-13489
▁parallel	-13490
▁referred	-13491
▁reflects	-13492
▁rewarded	-13493
▁sidewalk	-13494
▁startups	-13495
▁statethe	-13496
▁strictly	-13497
▁vertical	-13498
▁Halloween	-13499
▁Universal	-13500
▁algorithm	-13501
▁ballpoint	-13502
▁chestnuts	-13503
▁congratul	-13504
▁countless	-13505
▁detergent	-13506
▁displayed	-13507
▁distorted	-13508
▁estimated	-13509
▁expertise	-13510
▁exploding	-13511
▁fantastic	-13512
▁gangsters	-13513
▁genealogy	-13514
▁headaches	-13515
▁imaginary	-13516
▁melodrama	-13517
▁miscalcul	-13518
▁necklaces	-13519
▁parenting	-13520
▁permanent	-13521
▁pronounce	-13522
▁referring	-13523
▁reinforce	-13524
▁sentences	-13525
▁substance	-13526
▁suggested	-13527
▁suspended	-13528
▁translate	-13529
development	-13530
▁Apparently	-13531
▁Christians	-13532
▁Federation	-13533
▁dimensions	-13534
▁discussing	-13535
▁efficiency	-13536
▁elasticity	-13537
▁inspection	-13538
▁integrated	-13539
▁manipulate	-13540
▁negatively	-13541
▁publishing	-13542
▁stubbornly	-13543
▁Itinerantly	-13544
▁adolescence	-13545
▁arrangement	-13546
▁butterflies	-13547
▁flexibility	-13548
▁handwritten	-13549
▁housekeeper	-13550
▁intimidated	-13551
▁replacement	-13552
▁troublesome	-13553
▁unrealistic	-13554
▁corporations	-13555
▁dehumidifier	-13556
▁fingerprints	-13557
▁demonstration	-13558
▁extraordinary	-13559
▁miscellaneous	-13560
▁accommodations	-13561
▁discriminating	-13562
If	-13563
Tok	-13564
bat	-13565
bly	-13566
isa	-13567
jus	-13568
mal	-13569
mul	-13570
nex	-13571
oki	-13572
olt	-13573
osy	-13574
pri	-13575
tan	-13576
▁1.	-13577
▁Et	-13578
▁MT	-13579
▁Ts	-13580
▁Ve	-13581
▁Wo	-13582
ablo	-13583
acay	-13584
adas	-13585
amdo	-13586
atab	-13587
burn	-13588
cuit	-13589
gues	-13590
gung	-13591
hole	-13592
inds	-13593
oner	-13594
oved	-13595
pole	-13596
upid	-13597
xual	-13598
ysix	-13599
yson	-13600
▁Bin	-13601
▁Eom	-13602
▁Kay	-13603
▁Oil	-13604
▁Rom	-13605
▁Sep	-13606
▁Way	-13607
▁jet	-13608
▁pam	-13609
▁shi	-13610
▁sly	-13611
Where	-13612
ambod	-13613
ayear	-13614
erals	-13615
iches	-13616
icles	-13617
inity	-13618
mates	-13619
omnia	-13620
ormed	-13621
otion	-13622
ppers	-13623
ryong	-13624
sheep	-13625
stice	-13626
uling	-13627
▁Base	-13628
▁Buck	-13629
▁Char	-13630
▁Dark	-13631
▁Gods	-13632
▁Mang	-13633
▁Mess	-13634
▁Mont	-13635
▁Push	-13636
▁Salt	-13637
▁Shim	-13638
▁Soci	-13639
▁Suji	-13640
▁Wood	-13641
▁Yoga	-13642
▁Yumi	-13643
▁alph	-13644
▁cong	-13645
▁dict	-13646
▁digs	-13647
▁hind	-13648
▁kale	-13649
▁lreg	-13650
▁obed	-13651
▁oint	-13652
▁tech	-13653
▁tier	-13654
▁vary	-13655
acting	-13656
oseong	-13657
useong	-13658
▁Cheng	-13659
▁Cheol	-13660
▁Dubai	-13661
▁Hwatu	-13662
▁Iksan	-13663
▁Ilill	-13664
▁Imean	-13665
▁Imote	-13666
▁Itate	-13667
▁Mommy	-13668
▁Plant	-13669
▁Sixty	-13670
▁Slice	-13671
▁Suwon	-13672
▁awked	-13673
▁barks	-13674
▁boost	-13675
▁farts	-13676
▁march	-13677
▁marsh	-13678
▁moldy	-13679
▁oiled	-13680
▁omega	-13681
▁pears	-13682
▁pengu	-13683
▁prank	-13684
▁tasks	-13685
▁theft	-13686
▁unpre	-13687
▁valid	-13688
▁vinyl	-13689
aturing	-13690
quarant	-13691
▁Ahyung	-13692
▁Amazon	-13693
▁Cambod	-13694
▁Celebr	-13695
▁Cookie	-13696
▁Costco	-13697
▁Giftic	-13698
▁Hodong	-13699
▁Naruto	-13700
▁Seungh	-13701
▁Stupid	-13702
▁acupun	-13703
▁clicks	-13704
▁cooled	-13705
▁enzyme	-13706
▁eraser	-13707
▁flyers	-13708
▁ginkgo	-13709
▁hatred	-13710
▁idiots	-13711
▁landsl	-13712
▁latter	-13713
▁laying	-13714
▁pasted	-13715
▁pollen	-13716
▁rainco	-13717
▁refuge	-13718
▁reprod	-13719
▁ribbon	-13720
▁salads	-13721
▁scarce	-13722
▁slacks	-13723
▁solder	-13724
▁steaks	-13725
▁stitch	-13726
▁theirs	-13727
▁timely	-13728
▁traded	-13729
▁versus	-13730
▁Between	-13731
▁Chungju	-13732
▁Imanage	-13733
▁Joohyuk	-13734
▁abdomen	-13735
▁abscess	-13736
▁beliefs	-13737
▁bitcoin	-13738
▁bragged	-13739
▁burdock	-13740
▁busking	-13741
▁cabinet	-13742
▁chilipe	-13743
▁despair	-13744
▁enzymes	-13745
▁eternal	-13746
▁formula	-13747
▁fulfill	-13748
▁grinded	-13749
▁maggots	-13750
▁pitcher	-13751
▁roaming	-13752
▁rotting	-13753
▁spirits	-13754
▁tempers	-13755
▁travels	-13756
▁virtual	-13757
▁warrior	-13758
▁Bibimbab	-13759
▁Drinking	-13760
▁Superman	-13761
▁Swimming	-13762
▁abstract	-13763
▁approval	-13764
▁cardigan	-13765
▁clinical	-13766
▁criteria	-13767
▁explodes	-13768
▁flirting	-13769
▁gifticon	-13770
▁gorgeous	-13771
▁improves	-13772
▁makchang	-13773
▁modified	-13774
▁musician	-13775
▁northern	-13776
▁nurungji	-13777
▁overlaps	-13778
▁pandemic	-13779
▁persuade	-13780
▁plastics	-13781
▁scandals	-13782
▁solstice	-13783
▁speakers	-13784
▁sprained	-13785
▁sunshine	-13786
▁Chuncheon	-13787
▁Shinsegae	-13788
▁batteries	-13789
▁believers	-13790
▁carpenter	-13791
▁caterpill	-13792
▁committee	-13793
▁consensus	-13794
▁designing	-13795
▁featuring	-13796
▁forecasts	-13797
▁horseback	-13798
▁intensive	-13799
▁lingering	-13800
▁offensive	-13801
▁philosoph	-13802
▁poisoning	-13803
▁potential	-13804
▁provinces	-13805
▁reconcile	-13806
▁sparingly	-13807
▁subscribe	-13808
▁territory	-13809
▁textbooks	-13810
▁thuddenly	-13811
▁centimeter	-13812
▁chickenpox	-13813
▁completion	-13814
▁convincing	-13815
▁detectives	-13816
▁devastated	-13817
▁grandchild	-13818
▁horizontal	-13819
▁lighthouse	-13820
▁productive	-13821
▁reassuring	-13822
▁satisfying	-13823
▁substances	-13824
▁destruction	-13825
▁encouraging	-13826
▁industrious	-13827
▁investigate	-13828
▁mountainous	-13829
▁neighboring	-13830
▁pretentious	-13831
▁semiconduct	-13832
▁sensitivity	-13833
▁insufficient	-13834
▁transactions	-13835
▁International	-13836
▁irresponsible	-13837
▁Administration	-13838
▁commercialized	-13839
▁rehabilitation	-13840
Ay	-13841
St	-13842
Man	-13843
bey	-13844
bie	-13845
eri	-13846
fru	-13847
hon	-13848
ias	-13849
ita	-13850
lam	-13851
nie	-13852
ota	-13853
pul	-13854
rew	-13855
try	-13856
wor	-13857
▁Ak	-13858
▁Ot	-13859
▁ic	-13860
Come	-13861
abuk	-13862
alsa	-13863
arly	-13864
bite	-13865
cled	-13866
herd	-13867
irth	-13868
main	-13869
nity	-13870
ocra	-13871
onde	-13872
onto	-13873
ooks	-13874
pric	-13875
rals	-13876
roll	-13877
rost	-13878
uris	-13879
vity	-13880
west	-13881
▁Buk	-13882
▁Gai	-13883
▁Gas	-13884
▁Gil	-13885
▁Joy	-13886
▁Lat	-13887
▁Sty	-13888
▁Van	-13889
▁Yam	-13890
▁Yan	-13891
▁civ	-13892
▁jin	-13893
▁ker	-13894
▁las	-13895
▁lod	-13896
▁nan	-13897
▁nom	-13898
▁ont	-13899
▁ove	-13900
▁sut	-13901
▁wat	-13902
agull	-13903
alked	-13904
arium	-13905
ckets	-13906
ously	-13907
raphy	-13908
rator	-13909
steps	-13910
▁Card	-13911
▁Cass	-13912
▁Geor	-13913
▁Gild	-13914
▁Hyuk	-13915
▁Mink	-13916
▁Okin	-13917
▁Sure	-13918
▁bind	-13919
▁clap	-13920
▁dean	-13921
▁dehy	-13922
▁dsnt	-13923
▁eate	-13924
▁heir	-13925
▁kwon	-13926
▁mamm	-13927
▁odds	-13928
▁oppa	-13929
▁orig	-13930
▁plow	-13931
▁prev	-13932
▁prim	-13933
▁stal	-13934
▁thee	-13935
▁tons	-13936
▁weir	-13937
efense	-13938
jatang	-13939
minded	-13940
munist	-13941
piracy	-13942
seeing	-13943
▁Aladd	-13944
▁Crazy	-13945
▁Garma	-13946
▁Hadra	-13947
▁Hyeon	-13948
▁Irene	-13949
▁Isant	-13950
▁Itrem	-13951
▁Nurse	-13952
▁breed	-13953
▁dodge	-13954
▁email	-13955
▁fatty	-13956
▁genes	-13957
▁germs	-13958
▁limbs	-13959
▁repet	-13960
▁rescu	-13961
▁retro	-13962
▁ruins	-13963
▁tales	-13964
▁theat	-13965
▁tumor	-13966
▁vegan	-13967
▁vests	-13968
measure	-13969
▁Areent	-13970
▁Cooper	-13971
▁Doctor	-13972
▁Garlic	-13973
▁Greece	-13974
▁Having	-13975
▁Jisung	-13976
▁Photos	-13977
▁Sevent	-13978
▁Sonata	-13979
▁TikTok	-13980
▁Wonder	-13981
▁barber	-13982
▁brutal	-13983
▁charts	-13984
▁commun	-13985
▁fluffy	-13986
▁garage	-13987
▁insect	-13988
▁lastly	-13989
▁magpie	-13990
▁purely	-13991
▁racism	-13992
▁rapper	-13993
▁rocket	-13994
▁scents	-13995
▁wisely	-13996
itations	-13997
▁Doosoon	-13998
▁Flowers	-13999
▁Knowing	-14000
▁Legends	-14001
▁Morning	-14002
▁Puppies	-14003
▁Society	-14004
▁Squeeze	-14005
▁Stadium	-14006
▁admired	-14007
▁auntlaw	-14008
▁baggage	-14009
▁beggars	-14010
▁cooling	-14011
▁crashed	-14012
▁crawled	-14013
▁dispose	-14014
▁drawers	-14015
▁drowned	-14016
▁flipped	-14017
▁fresher	-14018
▁freshly	-14019
▁funnier	-14020
▁gesture	-14021
▁hopeful	-14022
▁judging	-14023
▁leaking	-14024
▁lunches	-14025
▁marital	-14026
▁measles	-14027
▁minimal	-14028
▁observe	-14029
▁origami	-14030
▁outlets	-14031
▁pillars	-14032
▁pleased	-14033
▁puzzled	-14034
▁remarks	-14035
▁scooter	-14036
▁seagull	-14037
▁sleeper	-14038
▁slimmer	-14039
▁turtles	-14040
▁weighty	-14041
ventional	-14042
▁Dongseok	-14043
▁Homeplus	-14044
▁Imashing	-14045
▁Jinyoung	-14046
▁Secondly	-14047
▁Sherlock	-14048
▁Whthever	-14049
▁agencies	-14050
▁approved	-14051
▁blushing	-14052
▁briefing	-14053
▁cocktail	-14054
▁composer	-14055
▁corporal	-14056
▁deceased	-14057
▁deserves	-14058
▁dividing	-14059
▁downside	-14060
▁eggplant	-14061
▁explains	-14062
▁filtered	-14063
▁insisted	-14064
▁insomnia	-14065
▁manpower	-14066
▁opposing	-14067
▁piercing	-14068
▁prevents	-14069
▁producer	-14070
▁revenues	-14071
▁scholars	-14072
▁shortage	-14073
▁splatter	-14074
▁sweeping	-14075
▁tickling	-14076
▁triangle	-14077
▁twisting	-14078
▁vaccines	-14079
▁Americans	-14080
▁Gwangyang	-14081
▁Kartrider	-14082
▁Seriously	-14083
▁activated	-14084
▁blindfold	-14085
▁bookshelf	-14086
▁dedicated	-14087
▁dependent	-14088
▁fireworks	-14089
▁ligaments	-14090
▁musicians	-14091
▁patriarch	-14092
▁pheasants	-14093
▁publisher	-14094
▁rebellion	-14095
▁recruited	-14096
▁retriever	-14097
▁selection	-14098
▁shortened	-14099
▁terrorism	-14100
▁treadmill	-14101
atisfaction	-14102
▁Restaurant	-14103
▁auditorium	-14104
▁collateral	-14105
▁committing	-14106
▁creativity	-14107
▁definition	-14108
▁freshwater	-14109
▁greenhouse	-14110
▁magnifying	-14111
▁pickpocket	-14112
▁processing	-14113
▁remodeling	-14114
▁resistance	-14115
▁shabushabu	-14116
▁stepmother	-14117
▁stimulated	-14118
▁transition	-14119
▁acupuncture	-14120
▁chilipepper	-14121
▁crematorium	-14122
▁frightening	-14123
▁hairdresser	-14124
▁overflowing	-14125
▁perceptions	-14126
▁pessimistic	-14127
▁selfquarant	-14128
▁sightseeing	-14129
▁confirmation	-14130
▁dramatically	-14131
▁parentsinlaw	-14132
▁superstition	-14133
▁technologies	-14134
▁transferring	-14135
▁confrontation	-14136
▁discriminated	-14137
▁exceptionally	-14138
▁countermeasure	-14139
▁neutralization	-14140
▁selfdevelopment	-14141
▁unintentionally	-14142
ui	-14143
00,	-14144
bar	-14145
jip	-14146
lay	-14147
log	-14148
low	-14149
yon	-14150
▁BJ	-14151
▁ES	-14152
▁Kk	-14153
▁Li	-14154
▁PR	-14155
▁Ya	-14156
agle	-14157
amps	-14158
chim	-14159
conf	-14160
otes	-14161
oven	-14162
pite	-14163
play	-14164
shot	-14165
uled	-14166
▁Dav	-14167
▁Due	-14168
▁Eay	-14169
▁Ifa	-14170
▁Isa	-14171
▁Jum	-14172
▁Kat	-14173
▁Las	-14174
▁Max	-14175
▁Rem	-14176
▁Sac	-14177
▁Sub	-14178
▁Ton	-14179
▁Toy	-14180
▁Yak	-14181
▁bay	-14182
▁fet	-14183
▁lee	-14184
▁pip	-14185
atoes	-14186
chery	-14187
cipal	-14188
ester	-14189
ilant	-14190
inery	-14191
itake	-14192
legil	-14193
party	-14194
pherd	-14195
raint	-14196
▁Anna	-14197
▁Beat	-14198
▁Dang	-14199
▁Dist	-14200
▁Emmy	-14201
▁Fall	-14202
▁Gain	-14203
▁Game	-14204
▁Gung	-14205
▁Lake	-14206
▁MBTI	-14207
▁Main	-14208
▁Mike	-14209
▁Muse	-14210
▁Must	-14211
▁Shop	-14212
▁Tang	-14213
▁Town	-14214
▁Tree	-14215
▁Wind	-14216
▁boll	-14217
▁brid	-14218
▁coal	-14219
▁empt	-14220
▁godd	-14221
▁grip	-14222
▁tram	-14223
▁wade	-14224
▁whip	-14225
anamdo	-14226
asting	-14227
fering	-14228
olding	-14229
priced	-14230
stella	-14231
▁Catch	-14232
▁Chong	-14233
▁Civil	-14234
▁Genes	-14235
▁Guard	-14236
▁Guess	-14237
▁Hanra	-14238
▁Jaein	-14239
▁Joong	-14240
▁Relax	-14241
▁Schol	-14242
▁Sehwa	-14243
▁Shake	-14244
▁Sugar	-14245
▁Using	-14246
▁bends	-14247
▁brass	-14248
▁chill	-14249
▁cider	-14250
▁clich	-14251
▁clips	-14252
▁datab	-14253
▁epile	-14254
▁expon	-14255
▁farms	-14256
▁fiber	-14257
▁gates	-14258
▁heals	-14259
▁hhave	-14260
▁hoard	-14261
▁hread	-14262
▁infar	-14263
▁moody	-14264
▁ninth	-14265
▁omegi	-14266
▁overd	-14267
▁perme	-14268
▁remin	-14269
▁rider	-14270
▁rinse	-14271
▁risks	-14272
▁risky	-14273
▁sandy	-14274
▁sedan	-14275
▁selfs	-14276
▁sewed	-14277
▁sinks	-14278
▁solar	-14279
▁subur	-14280
▁sucks	-14281
▁texts	-14282
▁unity	-14283
▁verge	-14284
▁voted	-14285
control	-14286
igraphy	-14287
itamins	-14288
percent	-14289
through	-14290
▁Goblin	-14291
▁Inject	-14292
▁Mexico	-14293
▁Search	-14294
▁beards	-14295
▁boards	-14296
▁bowing	-14297
▁braces	-14298
▁broker	-14299
▁bumper	-14300
▁dipped	-14301
▁homose	-14302
▁kindly	-14303
▁launch	-14304
▁livers	-14305
▁losses	-14306
▁margin	-14307
▁precon	-14308
▁repent	-14309
▁rowing	-14310
▁sacred	-14311
▁spores	-14312
▁submer	-14313
▁surely	-14314
▁swings	-14315
▁tereby	-14316
▁tracks	-14317
▁turvey	-14318
▁twists	-14319
▁vessel	-14320
cedented	-14321
centered	-14322
▁StarCra	-14323
▁Tapdong	-14324
▁boilers	-14325
▁bounced	-14326
▁calming	-14327
▁casting	-14328
▁cicadas	-14329
▁commend	-14330
▁cottage	-14331
▁despite	-14332
▁dipping	-14333
▁drained	-14334
▁exports	-14335
▁floated	-14336
▁graphic	-14337
▁hangers	-14338
▁horizon	-14339
▁layered	-14340
▁lending	-14341
▁licking	-14342
▁lowcost	-14343
▁maximum	-14344
▁mopping	-14345
▁museums	-14346
▁objects	-14347
▁offices	-14348
▁painter	-14349
▁patties	-14350
▁pouting	-14351
▁returns	-14352
▁revenue	-14353
▁snoring	-14354
▁tribute	-14355
▁vending	-14356
respected	-14357
▁Cleaning	-14358
▁Gyeonggi	-14359
▁abortion	-14360
▁absorbed	-14361
▁airlines	-14362
▁ambition	-14363
▁anesthet	-14364
▁blanched	-14365
▁consecut	-14366
▁controls	-14367
▁distrust	-14368
▁governor	-14369
▁grapefru	-14370
▁helpless	-14371
▁illusion	-14372
▁informed	-14373
▁invasion	-14374
▁inviting	-14375
▁isolated	-14376
▁mainland	-14377
▁monkfish	-14378
▁mortgage	-14379
▁pinching	-14380
▁possibly	-14381
▁rankings	-14382
▁shiitake	-14383
▁shipyard	-14384
▁uncommon	-14385
▁unreason	-14386
▁Hallabong	-14387
▁Imenvious	-14388
▁Literally	-14389
▁Regarding	-14390
▁affecting	-14391
▁attacking	-14392
▁attendant	-14393
▁bookmarks	-14394
▁comedians	-14395
▁conscient	-14396
▁continent	-14397
▁departure	-14398
▁directing	-14399
▁diversity	-14400
▁escalator	-14401
▁fortunate	-14402
▁impulsive	-14403
▁longitude	-14404
▁merchants	-14405
▁nightmare	-14406
▁primitive	-14407
▁radiation	-14408
▁replacing	-14409
▁sarcastic	-14410
▁splashing	-14411
▁staircase	-14412
▁strangest	-14413
▁surrender	-14414
▁threshing	-14415
▁travelers	-14416
▁Cinderella	-14417
▁Industrial	-14418
▁categories	-14419
▁commission	-14420
▁conspiracy	-14421
▁democratic	-14422
▁discretion	-14423
▁exchanging	-14424
▁fluttering	-14425
▁homecooked	-14426
▁infarction	-14427
▁journalist	-14428
▁peritoneal	-14429
▁persistent	-14430
▁reflecting	-14431
▁reflection	-14432
▁sandwiches	-14433
▁settlement	-14434
▁Jeollanamdo	-14435
▁accompanied	-14436
▁accumulates	-14437
▁agriculture	-14438
▁alternately	-14439
▁cockroaches	-14440
▁cooperation	-14441
▁promotional	-14442
▁speculation	-14443
▁discriminate	-14444
▁moisturizing	-14445
▁participated	-14446
▁reservations	-14447
▁volunteering	-14448
▁manufacturing	-14449
▁significantly	-14450
▁unprecedented	-14451
bn	-14452
,0.	-14453
arf	-14454
ato	-14455
gam	-14456
gul	-14457
igi	-14458
igu	-14459
mur	-14460
oco	-14461
sil	-14462
sin	-14463
▁BM	-14464
▁DM	-14465
▁Gw	-14466
▁IS	-14467
▁PP	-14468
emia	-14469
eram	-14470
gram	-14471
ilem	-14472
irds	-14473
loin	-14474
olis	-14475
omas	-14476
pron	-14477
worm	-14478
▁Amb	-14479
▁Cit	-14480
▁Cry	-14481
▁Eva	-14482
▁Fun	-14483
▁Gam	-14484
▁Gay	-14485
▁Ike	-14486
▁Jia	-14487
▁Jiu	-14488
▁Noh	-14489
▁Rum	-14490
▁Soc	-14491
▁Soy	-14492
▁Sud	-14493
▁Tea	-14494
▁Tie	-14495
▁Vol	-14496
▁Wor	-14497
▁dut	-14498
▁hut	-14499
▁vic	-14500
adder	-14501
aysia	-14502
ifics	-14503
obile	-14504
okbal	-14505
orary	-14506
print	-14507
riers	-14508
ryear	-14509
study	-14510
suits	-14511
uette	-14512
unken	-14513
uryeo	-14514
▁Beom	-14515
▁Chae	-14516
▁Club	-14517
▁Days	-14518
▁Gian	-14519
▁Ifnd	-14520
▁Kill	-14521
▁Kims	-14522
▁Kook	-14523
▁Laos	-14524
▁Pass	-14525
▁Poke	-14526
▁Side	-14527
▁Sons	-14528
▁Sora	-14529
▁WiFi	-14530
▁abol	-14531
▁axis	-14532
▁bows	-14533
▁cola	-14534
▁dand	-14535
▁dual	-14536
▁iked	-14537
▁kiln	-14538
▁loft	-14539
▁meta	-14540
▁pans	-14541
▁pawn	-14542
▁rack	-14543
▁reed	-14544
▁sten	-14545
▁sued	-14546
▁tune	-14547
▁unac	-14548
arians	-14549
avored	-14550
erties	-14551
idemic	-14552
imeter	-14553
ledged	-14554
ocracy	-14555
orders	-14556
redict	-14557
rowing	-14558
uminum	-14559
winter	-14560
▁Drama	-14561
▁Memor	-14562
▁Stone	-14563
▁Trans	-14564
▁Trott	-14565
▁Yujin	-14566
▁allin	-14567
▁antip	-14568
▁audio	-14569
▁bears	-14570
▁begun	-14571
▁camps	-14572
▁carbs	-14573
▁catar	-14574
▁clerk	-14575
▁conqu	-14576
▁cring	-14577
▁curfe	-14578
▁detox	-14579
▁engra	-14580
▁filth	-14581
▁fined	-14582
▁hopes	-14583
▁insta	-14584
▁joker	-14585
▁kites	-14586
▁ladys	-14587
▁moral	-14588
▁pains	-14589
▁palms	-14590
▁pulse	-14591
▁saint	-14592
▁salts	-14593
▁scaff	-14594
▁sores	-14595
▁stems	-14596
▁strap	-14597
▁tents	-14598
▁ticks	-14599
▁tiles	-14600
▁trace	-14601
▁ultra	-14602
▁wharf	-14603
▁yeast	-14604
aborate	-14605
ainting	-14606
feeding	-14607
istance	-14608
itorial	-14609
ructure	-14610
usually	-14611
velopes	-14612
▁Avante	-14613
▁Barley	-14614
▁Frozen	-14615
▁Hanbok	-14616
▁Imlike	-14617
▁Imount	-14618
▁Invest	-14619
▁Itanly	-14620
▁Modern	-14621
▁Museum	-14622
▁Myther	-14623
▁Namhae	-14624
▁Pretty	-14625
▁Saturi	-14626
▁Slowly	-14627
▁Stocks	-14628
▁Wontly	-14629
▁anemia	-14630
▁blanch	-14631
▁boomer	-14632
▁bowler	-14633
▁bronze	-14634
▁burrit	-14635
▁choked	-14636
▁climbs	-14637
▁convex	-14638
▁define	-14639
▁dreamy	-14640
▁guided	-14641
▁harbor	-14642
▁jashed	-14643
▁lacked	-14644
▁lining	-14645
▁marrow	-14646
▁orthod	-14647
▁pancre	-14648
▁perpet	-14649
▁petals	-14650
▁pounds	-14651
▁prophe	-14652
▁regain	-14653
▁satell	-14654
▁shifts	-14655
▁stings	-14656
▁subord	-14657
▁tenold	-14658
▁tokens	-14659
▁touchy	-14660
▁toxins	-14661
▁trivia	-14662
▁trucks	-14663
▁upward	-14664
ensively	-14665
▁Aladdin	-14666
▁Boracay	-14667
▁Hyunjin	-14668
▁Iveived	-14669
▁Manager	-14670
▁Mondays	-14671
▁Okinawa	-14672
▁Pokemon	-14673
▁Premium	-14674
▁Protest	-14675
▁amateur	-14676
▁beloved	-14677
▁choking	-14678
▁goddess	-14679
▁ignores	-14680
▁interns	-14681
▁lifting	-14682
[...]
